{
  "version": "1.0",
  "truncation": null,
  "padding": null,
  "added_tokens": [
    {
      "id": 0,
      "content": "[UNK]",
      "single_word": false,
      "lstrip": false,
      "rstrip": false,
      "normalized": false,
      "special": true
    },
    {
      "id": 1,
      "content": "[CLS]",
      "single_word": false,
      "lstrip": false,
      "rstrip": false,
      "normalized": false,
      "special": true
    },
    {
      "id": 2,
      "content": "[SEP]",
      "single_word": false,
      "lstrip": false,
      "rstrip": false,
      "normalized": false,
      "special": true
    },
    {
      "id": 3,
      "content": "[PAD]",
      "single_word": false,
      "lstrip": false,
      "rstrip": false,
      "normalized": false,
      "special": true
    },
    {
      "id": 4,
      "content": "[MASK]",
      "single_word": false,
      "lstrip": false,
      "rstrip": false,
      "normalized": false,
      "special": true
    }
  ],
  "normalizer": null,
  "pre_tokenizer": {
    "type": "Whitespace"
  },
  "post_processor": null,
  "decoder": null,
  "model": {
    "type": "BPE",
    "dropout": null,
    "unk_token": "[UNK]",
    "continuing_subword_prefix": null,
    "end_of_word_suffix": null,
    "fuse_unk": false,
    "byte_fallback": false,
    "ignore_merges": false,
    "vocab": {
      "[UNK]": 0,
      "[CLS]": 1,
      "[SEP]": 2,
      "[PAD]": 3,
      "[MASK]": 4,
      "!": 5,
      "\"": 6,
      "%": 7,
      "'": 8,
      "(": 9,
      ")": 10,
      ",": 11,
      "-": 12,
      ".": 13,
      "/": 14,
      "0": 15,
      "1": 16,
      "2": 17,
      "3": 18,
      "4": 19,
      "5": 20,
      "6": 21,
      "7": 22,
      "8": 23,
      "9": 24,
      ":": 25,
      ";": 26,
      "@": 27,
      "A": 28,
      "B": 29,
      "C": 30,
      "D": 31,
      "E": 32,
      "F": 33,
      "G": 34,
      "H": 35,
      "I": 36,
      "J": 37,
      "K": 38,
      "L": 39,
      "M": 40,
      "N": 41,
      "O": 42,
      "P": 43,
      "Q": 44,
      "R": 45,
      "S": 46,
      "T": 47,
      "U": 48,
      "V": 49,
      "W": 50,
      "X": 51,
      "Y": 52,
      "Z": 53,
      "a": 54,
      "b": 55,
      "c": 56,
      "d": 57,
      "e": 58,
      "f": 59,
      "g": 60,
      "h": 61,
      "i": 62,
      "j": 63,
      "k": 64,
      "l": 65,
      "m": 66,
      "n": 67,
      "o": 68,
      "p": 69,
      "q": 70,
      "r": 71,
      "s": 72,
      "t": 73,
      "u": 74,
      "v": 75,
      "w": 76,
      "x": 77,
      "y": 78,
      "z": 79,
      "°": 80,
      "ō": 81,
      "ū": 82,
      "′": 83,
      "の": 84,
      "カ": 85,
      "シ": 86,
      "マ": 87,
      "ル": 88,
      "似": 89,
      "奈": 90,
      "影": 91,
      "真": 92,
      "良": 93,
      "術": 94,
      "th": 95,
      "in": 96,
      "er": 97,
      "an": 98,
      "the": 99,
      "on": 100,
      "ar": 101,
      "ed": 102,
      "st": 103,
      "at": 104,
      "en": 105,
      "or": 106,
      "and": 107,
      "of": 108,
      "as": 109,
      "to": 110,
      "es": 111,
      "ing": 112,
      "al": 113,
      "is": 114,
      "ic": 115,
      "re": 116,
      "am": 117,
      "ion": 118,
      "om": 119,
      "ou": 120,
      "it": 121,
      "il": 122,
      "ad": 123,
      "he": 124,
      "hi": 125,
      "ent": 126,
      "19": 127,
      "ec": 128,
      "ur": 129,
      "us": 130,
      "ac": 131,
      "id": 132,
      "was": 133,
      "ation": 134,
      "el": 135,
      "ir": 136,
      "ow": 137,
      "gh": 138,
      "ly": 139,
      "The": 140,
      "em": 141,
      "for": 142,
      "ist": 143,
      "ter": 144,
      "\"\"": 145,
      ".\"": 146,
      "op": 147,
      "ay": 148,
      "un": 149,
      "ce": 150,
      "et": 151,
      "ve": 152,
      "ch": 153,
      "ol": 154,
      "ot": 155,
      "le": 156,
      "pr": 157,
      "He": 158,
      "ap": 159,
      "ian": 160,
      "aru": 161,
      "wh": 162,
      "omm": 163,
      "se": 164,
      "ver": 165,
      "tr": 166,
      "ity": 167,
      "fr": 168,
      "be": 169,
      "his": 170,
      "im": 171,
      "by": 172,
      "ith": 173,
      "ers": 174,
      "oun": 175,
      "Shi": 176,
      "Mer": 177,
      "St": 178,
      "con": 179,
      "su": 180,
      "str": 181,
      "Shik": 182,
      "ain": 183,
      "with": 184,
      "amaru": 185,
      "Shikamaru": 186,
      "idian": 187,
      "Meridian": 188,
      "from": 189,
      "de": 190,
      "ies": 191,
      "ag": 192,
      "ig": 193,
      "lo": 194,
      "af": 195,
      "ted": 196,
      "ul": 197,
      "comm": 198,
      "ew": 199,
      "ear": 200,
      "mar": 201,
      "qu": 202,
      "are": 203,
      "Head": 204,
      "igh": 205,
      "ment": 206,
      "tion": 207,
      "ber": 208,
      "est": 209,
      "ia": 210,
      "ts": 211,
      "ther": 212,
      "city": 213,
      "fic": 214,
      "iv": 215,
      "ut": 216,
      "iss": 217,
      "po": 218,
      "inc": 219,
      "Air": 220,
      "lam": 221,
      "ro": 222,
      "sp": 223,
      "ere": 224,
      "Headlam": 225,
      "ab": 226,
      "ak": 227,
      "der": 228,
      "man": 229,
      "pp": 230,
      "ser": 231,
      "that": 232,
      "In": 233,
      "No": 234,
      "ding": 235,
      "ary": 236,
      "ate": 237,
      "ich": 238,
      "own": 239,
      "20": 240,
      "gam": 241,
      "rou": 242,
      "art": 243,
      "mo": 244,
      "ra": 245,
      "ound": 246,
      "ast": 247,
      "ex": 248,
      "lu": 249,
      "res": 250,
      "ong": 251,
      "ard": 252,
      "our": 253,
      "which": 254,
      "AF": 255,
      "way": 256,
      "ated": 257,
      "ish": 258,
      "196": 259,
      "uring": 260,
      "ial": 261,
      "ive": 262,
      "mer": 263,
      "sh": 264,
      "were": 265,
      "ill": 266,
      "marus": 267,
      "gammarus": 268,
      "air": 269,
      "ge": 270,
      "gan": 271,
      "ric": 272,
      "oric": 273,
      "ican": 274,
      "oc": 275,
      "od": 276,
      "pl": 277,
      "wn": 278,
      "all": 279,
      "ations": 280,
      "ember": 281,
      "oll": 282,
      "18": 283,
      "Au": 284,
      "Comm": 285,
      "bst": 286,
      "bec": 287,
      "ction": 288,
      "has": 289,
      "iz": 290,
      "over": 291,
      "ort": 292,
      "town": 293,
      "high": 294,
      "ign": 295,
      "ight": 296,
      "AAF": 297,
      "RAAF": 298,
      "cr": 299,
      "ef": 300,
      "uil": 301,
      "uary": 302,
      "one": 303,
      "ess": 304,
      "ite": 305,
      "195": 306,
      "Ch": 307,
      "av": 308,
      "per": 309,
      "ure": 310,
      "att": 311,
      "end": 312,
      "its": 313,
      "lobst": 314,
      "road": 315,
      "een": 316,
      "la": 317,
      "lar": 318,
      "red": 319,
      "wo": 320,
      "ans": 321,
      "ore": 322,
      "offic": 323,
      "ass": 324,
      "ame": 325,
      "ack": 326,
      "act": 327,
      "ide": 328,
      "istric": 329,
      "ime": 330,
      "aff": 331,
      "inclu": 332,
      "owntown": 333,
      "Hist": 334,
      "New": 335,
      "eg": 336,
      "fe": 337,
      "li": 338,
      "ron": 339,
      "son": 340,
      "int": 341,
      "adron": 342,
      "otel": 343,
      "quadron": 344,
      "spec": 345,
      "rail": 346,
      "Command": 347,
      "Historic": 348,
      "82": 349,
      "Hom": 350,
      "buil": 351,
      "fir": 352,
      "ha": 353,
      "pop": 354,
      "ran": 355,
      "wor": 356,
      "ance": 357,
      "194": 358,
      "ational": 359,
      "ters": 360,
      "been": 361,
      "command": 362,
      "first": 363,
      "popul": 364,
      "Jan": 365,
      "br": 366,
      "during": 367,
      "ld": 368,
      "other": 369,
      "ty": 370,
      "year": 371,
      "rem": 372,
      "ile": 373,
      "ell": 374,
      "oper": 375,
      "stral": 376,
      "rough": 377,
      "Austral": 378,
      "January": 379,
      "Al": 380,
      "Mar": 381,
      "cur": 382,
      "du": 383,
      "had": 384,
      "ipp": 385,
      "nor": 386,
      "te": 387,
      "two": 388,
      "um": 389,
      "ust": 390,
      "west": 391,
      "eng": 392,
      "als": 393,
      "193": 394,
      "owing": 395,
      "series": 396,
      "bet": 397,
      "des": 398,
      "downtown": 399,
      "ep": 400,
      "go": 401,
      "gr": 402,
      "not": 403,
      "vic": 404,
      "ern": 405,
      "ence": 406,
      "ally": 407,
      "along": 408,
      "enter": 409,
      "pro": 410,
      "10": 411,
      "Amer": 412,
      "Distric": 413,
      "Squadron": 414,
      "ire": 415,
      "land": 416,
      "new": 417,
      "ud": 418,
      "ven": 419,
      "vel": 420,
      "ween": 421,
      "ine": 422,
      "inj": 423,
      "ant": 424,
      "arus": 425,
      "ased": 426,
      "outh": 427,
      "197": 428,
      "urn": 429,
      "char": 430,
      "aruto": 431,
      "stru": 432,
      "after": 433,
      "highway": 434,
      "lobster": 435,
      "including": 436,
      "sons": 437,
      "species": 438,
      "railroad": 439,
      "Homarus": 440,
      "Ave": 441,
      "It": 442,
      "Miss": 443,
      "Nor": 444,
      "day": 445,
      "east": 446,
      "her": 447,
      "ie": 448,
      "lat": 449,
      "ms": 450,
      "ok": 451,
      "ten": 452,
      "ting": 453,
      "eral": 454,
      "enc": 455,
      "organ": 456,
      "ree": 457,
      "ous": 458,
      "ition": 459,
      "ents": 460,
      "app": 461,
      "ollowing": 462,
      "have": 463,
      "Australia": 464,
      "also": 465,
      "American": 466,
      "District": 467,
      "15": 468,
      "An": 469,
      "As": 470,
      "Dec": 471,
      "Pen": 472,
      "Se": 473,
      "Vic": 474,
      "but": 475,
      "coun": 476,
      "ey": 477,
      "fer": 478,
      "pre": 479,
      "their": 480,
      "ating": 481,
      "ale": 482,
      "out": 483,
      "ely": 484,
      "appo": 485,
      "veral": 486,
      "again": 487,
      "thern": 488,
      "issipp": 489,
      "work": 490,
      "between": 491,
      "inja": 492,
      "charac": 493,
      "Mississipp": 494,
      "Mississippi": 495,
      "00": 496,
      "For": 497,
      "Naruto": 498,
      "Un": 499,
      "au": 500,
      "ip": 501,
      "ied": 502,
      "ob": 503,
      "pe": 504,
      "part": 505,
      "ry": 506,
      "si": 507,
      "tor": 508,
      "ved": 509,
      "thou": 510,
      "reet": 511,
      "ome": 512,
      "hel": 513,
      "use": 514,
      "ach": 515,
      "under": 516,
      "oted": 517,
      "lead": 518,
      "pres": 519,
      "when": 520,
      "several": 521,
      "Street": 522,
      "cont": 523,
      "aining": 524,
      "200": 525,
      "most": 526,
      "officer": 527,
      "built": 528,
      "appear": 529,
      "December": 530,
      "23": 531,
      "AO": 532,
      "Af": 533,
      "City": 534,
      "Hotel": 535,
      "II": 536,
      "National": 537,
      "On": 538,
      "co": 539,
      "com": 540,
      "ean": 541,
      "fl": 542,
      "ga": 543,
      "lish": 544,
      "ma": 545,
      "min": 546,
      "may": 547,
      "ne": 548,
      "rit": 549,
      "sec": 550,
      "up": 551,
      "uly": 552,
      "this": 553,
      "three": 554,
      "anes": 555,
      "ont": 556,
      "only": 557,
      "ates": 558,
      "ect": 559,
      "emp": 560,
      "unction": 561,
      "Staff": 562,
      "supp": 563,
      "age": 564,
      "area": 565,
      "ights": 566,
      "post": 567,
      "ounded": 568,
      "plac": 569,
      "became": 570,
      "population": 571,
      "curr": 572,
      "velop": 573,
      "organiz": 574,
      "After": 575,
      "13": 576,
      "24": 577,
      "60": 578,
      "July": 579,
      "Or": 580,
      "South": 581,
      "Th": 582,
      "War": 583,
      "ail": 584,
      "car": 585,
      "cour": 586,
      "following": 587,
      "hotel": 588,
      "junction": 589,
      "les": 590,
      "med": 591,
      "os": 592,
      "oth": 593,
      "ren": 594,
      "run": 595,
      "ton": 596,
      "ann": 597,
      "anime": 598,
      "ase": 599,
      "reg": 600,
      "omoted": 601,
      "ilit": 602,
      "him": 603,
      "ected": 604,
      "used": 605,
      "fore": 606,
      "aygo": 607,
      "who": 608,
      "very": 609,
      "dep": 610,
      "develop": 611,
      "quar": 612,
      "ivil": 613,
      "roup": 614,
      "shal": 615,
      "law": 616,
      "Newaygo": 617,
      "team": 618,
      "character": 619,
      "Force": 620,
      "present": 621,
      "contin": 622,
      "0s": 623,
      "46": 624,
      "90": 625,
      "En": 626,
      "Frem": 627,
      "How": 628,
      "Hud": 629,
      "Jap": 630,
      "Main": 631,
      "Sch": 632,
      "This": 633,
      "batt": 634,
      "based": 635,
      "bounded": 636,
      "cap": 637,
      "claw": 638,
      "dist": 639,
      "found": 640,
      "gen": 641,
      "iver": 642,
      "line": 643,
      "more": 644,
      "now": 645,
      "ninja": 646,
      "ool": 647,
      "set": 648,
      "tl": 649,
      "ue": 650,
      "vide": 651,
      "through": 652,
      "inv": 653,
      "inted": 654,
      "any": 655,
      "ari": 656,
      "staff": 657,
      "ative": 658,
      "ature": 659,
      "order": 660,
      "hist": 661,
      "lying": 662,
      "ister": 663,
      "promoted": 664,
      "white": 665,
      "began": 666,
      "cons": 667,
      "constru": 668,
      "sub": 669,
      "loc": 670,
      "ission": 671,
      "pos": 672,
      "able": 673,
      "larg": 674,
      "assign": 675,
      "years": 676,
      "roughly": 677,
      "north": 678,
      "design": 679,
      "later": 680,
      "ferred": 681,
      "appointed": 682,
      "against": 683,
      "though": 684,
      "anese": 685,
      "continu": 686,
      "Fremont": 687,
      "Howard": 688,
      "Hudsons": 689,
      "Japanese": 690,
      "17": 691,
      "26": 692,
      "Are": 693,
      "Coun": 694,
      "Center": 695,
      "Dar": 696,
      "Dep": 697,
      "Jun": 698,
      "Mal": 699,
      "Pl": 700,
      "Tr": 701,
      "bl": 702,
      "bers": 703,
      "can": 704,
      "call": 705,
      "ebr": 706,
      "ft": 707,
      "fu": 708,
      "fin": 709,
      "four": 710,
      "flying": 711,
      "ior": 712,
      "ke": 713,
      "kn": 714,
      "led": 715,
      "leng": 716,
      "mem": 717,
      "name": 718,
      "ov": 719,
      "pon": 720,
      "pers": 721,
      "sen": 722,
      "time": 723,
      "turn": 724,
      "vi": 725,
      "into": 726,
      "ines": 727,
      "iness": 728,
      "erican": 729,
      "they": 730,
      "ond": 731,
      "station": 732,
      "state": 733,
      "atch": 734,
      "ishi": 735,
      "ams": 736,
      "american": 737,
      "hief": 738,
      "econ": 739,
      "ace": 740,
      "ght": 741,
      "forc": 742,
      "isted": 743,
      "cep": 744,
      "cean": 745,
      "old": 746,
      "trans": 747,
      "before": 748,
      "Station": 749,
      "loy": 750,
      "ult": 751,
      "Headquar": 752,
      "manga": 753,
      "served": 754,
      "lobsters": 755,
      "Marshal": 756,
      "due": 757,
      "North": 758,
      "Penfu": 759,
      "Sea": 760,
      "Vice": 761,
      "Union": 762,
      "AOC": 763,
      "current": 764,
      "hotels": 765,
      "continued": 766,
      "Area": 767,
      "June": 768,
      "length": 769,
      "americanus": 770,
      "Penfui": 771,
      "14": 772,
      "29": 773,
      "37": 774,
      "Ak": 775,
      "Ar": 776,
      "Asu": 777,
      "Brit": 778,
      "Car": 779,
      "Chief": 780,
      "During": 781,
      "Eur": 782,
      "Gen": 783,
      "Hes": 784,
      "Kishi": 785,
      "Ocean": 786,
      "Part": 787,
      "Sy": 788,
      "Sas": 789,
      "Tem": 790,
      "West": 791,
      "ae": 792,
      "aver": 793,
      "bom": 794,
      "bus": 795,
      "back": 796,
      "cil": 797,
      "cted": 798,
      "center": 799,
      "dec": 800,
      "dem": 801,
      "distric": 802,
      "dale": 803,
      "ev": 804,
      "fed": 805,
      "gust": 806,
      "hn": 807,
      "home": 808,
      "if": 809,
      "ific": 810,
      "km": 811,
      "ks": 812,
      "lan": 813,
      "listed": 814,
      "mon": 815,
      "nam": 816,
      "oy": 817,
      "par": 818,
      "pass": 819,
      "ss": 820,
      "sin": 821,
      "side": 822,
      "tain": 823,
      "tak": 824,
      "ves": 825,
      "vember": 826,
      "win": 827,
      "war": 828,
      "ward": 829,
      "well": 830,
      "indu": 831,
      "them": 832,
      "arm": 833,
      "stem": 834,
      "ically": 835,
      "represent": 836,
      "omy": 837,
      "ould": 838,
      "outhern": 839,
      "ited": 840,
      "ild": 841,
      "ade": 842,
      "adow": 843,
      "head": 844,
      "190": 845,
      "urd": 846,
      "ots": 847,
      "where": 848,
      "contr": 849,
      "suc": 850,
      "def": 851,
      "igation": 852,
      "iving": 853,
      "sport": 854,
      "November": 855,
      "moto": 856,
      "shadow": 857,
      "August": 858,
      "becom": 859,
      "Chan": 860,
      "peria": 861,
      "large": 862,
      "lik": 863,
      "intell": 864,
      "building": 865,
      "rank": 866,
      "commander": 867,
      "vice": 868,
      "Ansons": 869,
      "leader": 870,
      "appearance": 871,
      "flight": 872,
      "section": 873,
      "support": 874,
      "posted": 875,
      "development": 876,
      "battle": 877,
      "video": 878,
      "historic": 879,
      "Darwin": 880,
      "Malay": 881,
      "Training": 882,
      "known": 883,
      "economy": 884,
      "Headquarters": 885,
      "Asuma": 886,
      "Europ": 887,
      "Hesperia": 888,
      "Kishimoto": 889,
      "Temari": 890,
      "business": 891,
      "since": 892,
      "industr": 893,
      "11": 894,
      "120": 895,
      "30": 896,
      "38": 897,
      "5th": 898,
      "AS": 899,
      "Afr": 900,
      "Aven": 901,
      "Can": 902,
      "Downtown": 903,
      "Dire": 904,
      "East": 905,
      "Febr": 906,
      "Group": 907,
      "High": 908,
      "Land": 909,
      "Mus": 910,
      "May": 911,
      "Oc": 912,
      "Of": 913,
      "Oper": 914,
      "Rag": 915,
      "RAF": 916,
      "Reg": 917,
      "US": 918,
      "We": 919,
      "Wing": 920,
      "Ward": 921,
      "ai": 922,
      "aid": 923,
      "bi": 924,
      "ble": 925,
      "cre": 926,
      "cent": 927,
      "cau": 928,
      "ctor": 929,
      "civil": 930,
      "dis": 931,
      "every": 932,
      "fav": 933,
      "gic": 934,
      "hous": 935,
      "iqu": 936,
      "jor": 937,
      "kill": 938,
      "late": 939,
      "mi": 940,
      "member": 941,
      "milit": 942,
      "no": 943,
      "near": 944,
      "night": 945,
      "oot": 946,
      "ood": 947,
      "oint": 948,
      "pite": 949,
      "row": 950,
      "ried": 951,
      "rights": 952,
      "sl": 953,
      "sion": 954,
      "squadron": 955,
      "south": 956,
      "sdale": 957,
      "til": 958,
      "uf": 959,
      "uke": 960,
      "we": 961,
      "ys": 962,
      "than": 963,
      "ange": 964,
      "onn": 965,
      "ara": 966,
      "enth": 967,
      "orn": 968,
      "ory": 969,
      "ashi": 970,
      "tober": 971,
      "took": 972,
      "ales": 973,
      "although": 974,
      "ised": 975,
      "rel": 976,
      "reat": 977,
      "replac": 978,
      "revi": 979,
      "ented": 980,
      "ury": 981,
      "ured": 982,
      "ider": 983,
      "elected": 984,
      "ower": 985,
      "form": 986,
      "ople": 987,
      "unin": 988,
      "until": 989,
      "press": 990,
      "tran": 991,
      "trun": 992,
      "traf": 993,
      "trav": 994,
      "suk": 995,
      "aged": 996,
      "common": 997,
      "ments": 998,
      "ficer": 999,
      "uty": 1000,
      "incre": 1001,
      "ablish": 1002,
      "respon": 1003,
      "ished": 1004,
      "occur": 1005,
      "highly": 1006,
      "effor": 1007,
      "1959": 1008,
      "Chunin": 1009,
      "avigation": 1010,
      "attack": 1011,
      "official": 1012,
      "activ": 1013,
      "feat": 1014,
      "life": 1015,
      "commanding": 1016,
      "popular": 1017,
      "operating": 1018,
      "All": 1019,
      "March": 1020,
      "northern": 1021,
      "alongside": 1022,
      "railroads": 1023,
      "enced": 1024,
      "itions": 1025,
      "Victor": 1026,
      "county": 1027,
      "council": 1028,
      "workers": 1029,
      "people": 1030,
      "six": 1031,
      "mayor": 1032,
      "organizations": 1033,
      "Order": 1034,
      "course": 1035,
      "School": 1036,
      "distinc": 1037,
      "consider": 1038,
      "assigned": 1039,
      "called": 1040,
      "members": 1041,
      "forces": 1042,
      "British": 1043,
      "General": 1044,
      "Sasuke": 1045,
      "bomb": 1046,
      "districts": 1047,
      "wards": 1048,
      "representative": 1049,
      "Chaney": 1050,
      "intellig": 1051,
      "European": 1052,
      "Avenue": 1053,
      "February": 1054,
      "October": 1055,
      "Officer": 1056,
      "Ragsdale": 1057,
      "caught": 1058,
      "favor": 1059,
      "military": 1060,
      "traffic": 1061,
      "12": 1062,
      "224": 1063,
      "6th": 1064,
      "8th": 1065,
      "Age": 1066,
      "Ball": 1067,
      "Buil": 1068,
      "CB": 1069,
      "CO": 1070,
      "Com": 1071,
      "Col": 1072,
      "Civil": 1073,
      "El": 1074,
      "Following": 1075,
      "Gr": 1076,
      "Gold": 1077,
      "Hid": 1078,
      "Is": 1079,
      "Kon": 1080,
      "Lond": 1081,
      "Mel": 1082,
      "Murd": 1083,
      "Ninja": 1084,
      "Qu": 1085,
      "Rile": 1086,
      "Rail": 1087,
      "Su": 1088,
      "Sing": 1089,
      "Spr": 1090,
      "Tec": 1091,
      "Wh": 1092,
      "Wor": 1093,
      "ath": 1094,
      "ave": 1095,
      "ause": 1096,
      "bo": 1097,
      "ban": 1098,
      "bur": 1099,
      "bour": 1100,
      "bod": 1101,
      "both": 1102,
      "base": 1103,
      "cer": 1104,
      "cor": 1105,
      "chi": 1106,
      "cess": 1107,
      "dam": 1108,
      "ek": 1109,
      "eas": 1110,
      "eam": 1111,
      "gl": 1112,
      "gs": 1113,
      "ges": 1114,
      "get": 1115,
      "gover": 1116,
      "glish": 1117,
      "group": 1118,
      "hol": 1119,
      "hard": 1120,
      "ius": 1121,
      "iel": 1122,
      "ji": 1123,
      "jo": 1124,
      "kil": 1125,
      "keg": 1126,
      "last": 1127,
      "lack": 1128,
      "lines": 1129,
      "mp": 1130,
      "mou": 1131,
      "met": 1132,
      "mall": 1133,
      "mission": 1134,
      "made": 1135,
      "nd": 1136,
      "nment": 1137,
      "neg": 1138,
      "ost": 1139,
      "och": 1140,
      "ose": 1141,
      "pu": 1142,
      "por": 1143,
      "ple": 1144,
      "pair": 1145,
      "poll": 1146,
      "rd": 1147,
      "rop": 1148,
      "rul": 1149,
      "shi": 1150,
      "sent": 1151,
      "sus": 1152,
      "sign": 1153,
      "small": 1154,
      "tim": 1155,
      "ually": 1156,
      "wid": 1157,
      "will": 1158,
      "would": 1159,
      "ined": 1160,
      "inst": 1161,
      "inal": 1162,
      "insu": 1163,
      "era": 1164,
      "erg": 1165,
      "anim": 1166,
      "ars": 1167,
      "attr": 1168,
      "ichi": 1169,
      "rele": 1170,
      "recon": 1171,
      "reef": 1172,
      "reach": 1173,
      "referred": 1174,
      "return": 1175,
      "ouse": 1176,
      "ility": 1177,
      "iliz": 1178,
      "198": 1179,
      "ects": 1180,
      "ural": 1181,
      "using": 1182,
      "aces": 1183,
      "idents": 1184,
      "ement": 1185,
      "formed": 1186,
      "terms": 1187,
      "units": 1188,
      "change": 1189,
      "ote": 1190,
      "prop": 1191,
      "aper": 1192,
      "apore": 1193,
      "iance": 1194,
      "seg": 1195,
      "sequ": 1196,
      "convic": 1197,
      "such": 1198,
      "strate": 1199,
      "ages": 1200,
      "aft": 1201,
      "commented": 1202,
      "mark": 1203,
      "establish": 1204,
      "iven": 1205,
      "ives": 1206,
      "ross": 1207,
      "akure": 1208,
      "many": 1209,
      "service": 1210,
      "games": 1211,
      "artment": 1212,
      "mob": 1213,
      "resul": 1214,
      "residents": 1215,
      "ways": 1216,
      "1964": 1217,
      "1965": 1218,
      "1966": 1219,
      "aircr": 1220,
      "oci": 1221,
      "ock": 1222,
      "because": 1223,
      "laz": 1224,
      "larv": 1225,
      "acting": 1226,
      "eggs": 1227,
      "special": 1228,
      "Commanding": 1229,
      "world": 1230,
      "1942": 1231,
      "type": 1232,
      "remain": 1233,
      "operated": 1234,
      "Australian": 1235,
      "grow": 1236,
      "noted": 1237,
      "struction": 1238,
      "eastern": 1239,
      "ency": 1240,
      "Peninsu": 1241,
      "appoint": 1242,
      "help": 1243,
      "employ": 1244,
      "Threef": 1245,
      "renov": 1246,
      "runs": 1247,
      "region": 1248,
      "English": 1249,
      "claws": 1250,
      "settl": 1251,
      "invol": 1252,
      "construction": 1253,
      "constructed": 1254,
      "larger": 1255,
      "largest": 1256,
      "County": 1257,
      "Department": 1258,
      "Places": 1259,
      "senior": 1260,
      "cept": 1261,
      "Carneg": 1262,
      "System": 1263,
      "Western": 1264,
      "federal": 1265,
      "hniqu": 1266,
      "month": 1267,
      "becomes": 1268,
      "likely": 1269,
      "businesses": 1270,
      "African": 1271,
      "Director": 1272,
      "Muskeg": 1273,
      "Register": 1274,
      "onnel": 1275,
      "replaced": 1276,
      "review": 1277,
      "transport": 1278,
      "travel": 1279,
      "suki": 1280,
      "responsi": 1281,
      "attacked": 1282,
      "Alliance": 1283,
      "Victoria": 1284,
      "distinct": 1285,
      "considered": 1286,
      "Building": 1287,
      "Grand": 1288,
      "Golden": 1289,
      "London": 1290,
      "Melbour": 1291,
      "Murdoch": 1292,
      "Queen": 1293,
      "Riley": 1294,
      "Singapore": 1295,
      "Spring": 1296,
      "World": 1297,
      "government": 1298,
      "ield": 1299,
      "joined": 1300,
      "moul": 1301,
      "convicted": 1302,
      "aircraft": 1303,
      "Peninsula": 1304,
      "Threefoot": 1305,
      "Carnegie": 1306,
      "Muskegon": 1307,
      "Melbourne": 1308,
      "22": 1309,
      "27": 1310,
      "32": 1311,
      "57": 1312,
      "80": 1313,
      "Apr": 1314,
      "Atl": 1315,
      "Batt": 1316,
      "Cl": 1317,
      "Co": 1318,
      "Con": 1319,
      "De": 1320,
      "Dr": 1321,
      "Dak": 1322,
      "Ed": 1323,
      "Ex": 1324,
      "Era": 1325,
      "Emp": 1326,
      "Fer": 1327,
      "Frank": 1328,
      "GN": 1329,
      "Hin": 1330,
      "Hart": 1331,
      "Im": 1332,
      "IGN": 1333,
      "Kak": 1334,
      "Key": 1335,
      "Laver": 1336,
      "Mc": 1337,
      "Man": 1338,
      "Med": 1339,
      "Mob": 1340,
      "Many": 1341,
      "Nara": 1342,
      "OP": 1343,
      "Ohi": 1344,
      "Pac": 1345,
      "Point": 1346,
      "Re": 1347,
      "Ret": 1348,
      "Roy": 1349,
      "Sak": 1350,
      "Shad": 1351,
      "Saruto": 1352,
      "Sher": 1353,
      "Southern": 1354,
      "Sai": 1355,
      "Ter": 1356,
      "Tim": 1357,
      "Two": 1358,
      "Team": 1359,
      "Ur": 1360,
      "Uchi": 1361,
      "Wil": 1362,
      "Will": 1363,
      "ah": 1364,
      "aw": 1365,
      "aiss": 1366,
      "aused": 1367,
      "burn": 1368,
      "benth": 1369,
      "born": 1370,
      "cad": 1371,
      "clo": 1372,
      "cut": 1373,
      "caused": 1374,
      "ded": 1375,
      "did": 1376,
      "down": 1377,
      "dire": 1378,
      "dail": 1379,
      "ead": 1380,
      "fre": 1381,
      "fil": 1382,
      "fac": 1383,
      "fem": 1384,
      "fig": 1385,
      "flo": 1386,
      "fish": 1387,
      "five": 1388,
      "fight": 1389,
      "given": 1390,
      "hand": 1391,
      "hic": 1392,
      "hatch": 1393,
      "ier": 1394,
      "iam": 1395,
      "iend": 1396,
      "ife": 1397,
      "ible": 1398,
      "ju": 1399,
      "just": 1400,
      "jects": 1401,
      "kline": 1402,
      "me": 1403,
      "mu": 1404,
      "men": 1405,
      "main": 1406,
      "mak": 1407,
      "mill": 1408,
      "ner": 1409,
      "nature": 1410,
      "navigation": 1411,
      "naiss": 1412,
      "oop": 1413,
      "ode": 1414,
      "ogr": 1415,
      "oji": 1416,
      "pil": 1417,
      "port": 1418,
      "patch": 1419,
      "pots": 1420,
      "power": 1421,
      "rad": 1422,
      "rol": 1423,
      "round": 1424,
      "sy": 1425,
      "sur": 1426,
      "siz": 1427,
      "site": 1428,
      "shel": 1429,
      "southern": 1430,
      "tar": 1431,
      "tle": 1432,
      "tend": 1433,
      "ual": 1434,
      "vent": 1435,
      "vol": 1436,
      "vill": 1437,
      "went": 1438,
      "wife": 1439,
      "those": 1440,
      "ins": 1441,
      "inters": 1442,
      "erc": 1443,
      "erran": 1444,
      "ants": 1445,
      "arr": 1446,
      "arch": 1447,
      "aries": 1448,
      "ston": 1449,
      "start": 1450,
      "stud": 1451,
      "ata": 1452,
      "ator": 1453,
      "atsuki": 1454,
      "orig": 1455,
      "ash": 1456,
      "asing": 1457,
      "top": 1458,
      "aliz": 1459,
      "align": 1460,
      "ise": 1461,
      "ison": 1462,
      "ision": 1463,
      "isode": 1464,
      "ical": 1465,
      "rew": 1466,
      "rest": 1467,
      "ama": 1468,
      "amp": 1469,
      "among": 1470,
      "omet": 1471,
      "iterran": 1472,
      "iles": 1473,
      "add": 1474,
      "adap": 1475,
      "admin": 1476,
      "held": 1477,
      "ently": 1478,
      "19th": 1479,
      "1914": 1480,
      "ection": 1481,
      "ura": 1482,
      "urch": 1483,
      "urity": 1484,
      "ush": 1485,
      "action": 1486,
      "across": 1487,
      "ided": 1488,
      "elf": 1489,
      "ghter": 1490,
      "emerg": 1491,
      "ists": 1492,
      "isting": 1493,
      "term": 1494,
      "termin": 1495,
      "unlikely": 1496,
      "ceed": 1497,
      "etwork": 1498,
      "vehic": 1499,
      "child": 1500,
      "lege": 1501,
      "left": 1502,
      "prod": 1503,
      "apace": 1504,
      "while": 1505,
      "seen": 1506,
      "try": 1507,
      "friend": 1508,
      "being": 1509,
      "oung": 1510,
      "States": 1511,
      "sum": 1512,
      "strong": 1513,
      "ains": 1514,
      "commit": 1515,
      "commun": 1516,
      "early": 1517,
      "there": 1518,
      "uten": 1519,
      "utiliz": 1520,
      "manuf": 1521,
      "manages": 1522,
      "pport": 1523,
      "Ind": 1524,
      "routing": 1525,
      "move": 1526,
      "moved": 1527,
      "exams": 1528,
      "lux": 1529,
      "1962": 1530,
      "1960s": 1531,
      "merg": 1532,
      "aired": 1533,
      "occ": 1534,
      "ods": 1535,
      "odore": 1536,
      "play": 1537,
      "186": 1538,
      "18th": 1539,
      "1890": 1540,
      "become": 1541,
      "crust": 1542,
      "1950": 1543,
      "1957": 1544,
      "Choji": 1545,
      "peri": 1546,
      "acturing": 1547,
      "include": 1548,
      "included": 1549,
      "libr": 1550,
      "Home": 1551,
      "1947": 1552,
      "populations": 1553,
      "typ": 1554,
      "operational": 1555,
      "Although": 1556,
      "ipped": 1557,
      "1935": 1558,
      "better": 1559,
      "despite": 1560,
      "episode": 1561,
      "gram": 1562,
      "ground": 1563,
      "vices": 1564,
      "program": 1565,
      "lands": 1566,
      "antic": 1567,
      "1971": 1568,
      "1979": 1569,
      "urning": 1570,
      "highways": 1571,
      "oking": 1572,
      "tenance": 1573,
      "Americans": 1574,
      "prey": 1575,
      "characters": 1576,
      "000": 1577,
      "United": 1578,
      "rying": 1579,
      "thouse": 1580,
      "leading": 1581,
      "mostly": 1582,
      "appeared": 1583,
      "23rd": 1584,
      "AOS": 1585,
      "cooking": 1586,
      "major": 1587,
      "second": 1588,
      "empts": 1589,
      "131": 1590,
      "carapace": 1591,
      "courthouse": 1592,
      "media": 1593,
      "osed": 1594,
      "ilities": 1595,
      "deploy": 1596,
      "genus": 1597,
      "subsequ": 1598,
      "local": 1599,
      "posite": 1600,
      "designation": 1601,
      "Deputy": 1602,
      "Plans": 1603,
      "blic": 1604,
      "black": 1605,
      "person": 1606,
      "14th": 1607,
      "Akatsuki": 1608,
      "Oceana": 1609,
      "decline": 1610,
      "demol": 1611,
      "named": 1612,
      "passeng": 1613,
      "take": 1614,
      "success": 1615,
      "succeed": 1616,
      "defence": 1617,
      "buildings": 1618,
      "industry": 1619,
      "Cancer": 1620,
      "Weber": 1621,
      "houses": 1622,
      "novel": 1623,
      "pression": 1624,
      "trunkline": 1625,
      "increased": 1626,
      "occurs": 1627,
      "efforts": 1628,
      "bombing": 1629,
      "intelligence": 1630,
      "favorite": 1631,
      "COM": 1632,
      "College": 1633,
      "Hidan": 1634,
      "Railroad": 1635,
      "Support": 1636,
      "boom": 1637,
      "body": 1638,
      "cording": 1639,
      "gets": 1640,
      "holding": 1641,
      "missions": 1642,
      "public": 1643,
      "ruled": 1644,
      "released": 1645,
      "reconnaiss": 1646,
      "proposed": 1647,
      "strategic": 1648,
      "resulting": 1649,
      "lazy": 1650,
      "larvae": 1651,
      "remained": 1652,
      "appointment": 1653,
      "hnique": 1654,
      "Springs": 1655,
      "April": 1656,
      "Atlantic": 1657,
      "Cook": 1658,
      "Depression": 1659,
      "Dakot": 1660,
      "Empire": 1661,
      "Ferry": 1662,
      "Hinata": 1663,
      "Laverton": 1664,
      "Mediterran": 1665,
      "Mobile": 1666,
      "OPCOM": 1667,
      "Ohio": 1668,
      "Pacific": 1669,
      "Returning": 1670,
      "Royal": 1671,
      "Sakura": 1672,
      "Shadow": 1673,
      "Sarutobi": 1674,
      "Sherman": 1675,
      "Timor": 1676,
      "Urban": 1677,
      "Uchiha": 1678,
      "Wilton": 1679,
      "William": 1680,
      "burned": 1681,
      "benthic": 1682,
      "direction": 1683,
      "daily": 1684,
      "juven": 1685,
      "much": 1686,
      "targets": 1687,
      "village": 1688,
      "intersection": 1689,
      "original": 1690,
      "vehicles": 1691,
      "manufacturing": 1692,
      "libraries": 1693,
      "reconnaissance": 1694,
      "Mediterranean": 1695,
      "16": 1696,
      "21": 1697,
      "28th": 1698,
      "48": 1699,
      "49": 1700,
      "51": 1701,
      "53": 1702,
      "62": 1703,
      "71": 1704,
      "72": 1705,
      "95": 1706,
      "96": 1707,
      "97": 1708,
      "Ag": 1709,
      "Am": 1710,
      "Av": 1711,
      "Aves": 1712,
      "Bo": 1713,
      "Br": 1714,
      "By": 1715,
      "Bar": 1716,
      "Bir": 1717,
      "Bet": 1718,
      "Bill": 1719,
      "Bran": 1720,
      "Both": 1721,
      "Bath": 1722,
      "Black": 1723,
      "Cy": 1724,
      "Ced": 1725,
      "CAS": 1726,
      "DO": 1727,
      "Dan": 1728,
      "Des": 1729,
      "Dou": 1730,
      "Dent": 1731,
      "Div": 1732,
      "Dut": 1733,
      "DCAS": 1734,
      "Even": 1735,
      "Emerg": 1736,
      "FT": 1737,
      "Fa": 1738,
      "Found": 1739,
      "Four": 1740,
      "Fred": 1741,
      "Field": 1742,
      "Gu": 1743,
      "Good": 1744,
      "Great": 1745,
      "Han": 1746,
      "Hon": 1747,
      "His": 1748,
      "Hir": 1749,
      "House": 1750,
      "Jo": 1751,
      "Jam": 1752,
      "Jut": 1753,
      "Joint": 1754,
      "Li": 1755,
      "Lin": 1756,
      "Lam": 1757,
      "Lem": 1758,
      "Linc": 1759,
      "Lie": 1760,
      "Lower": 1761,
      "Lock": 1762,
      "Mas": 1763,
      "Mil": 1764,
      "Moun": 1765,
      "Member": 1766,
      "Mating": 1767,
      "Michi": 1768,
      "MDO": 1769,
      "Native": 1770,
      "Navigation": 1771,
      "Network": 1772,
      "Oto": 1773,
      "Over": 1774,
      "Other": 1775,
      "Pe": 1776,
      "Pr": 1777,
      "Par": 1778,
      "Pers": 1779,
      "Rich": 1780,
      "Sh": 1781,
      "So": 1782,
      "Sp": 1783,
      "Ser": 1784,
      "Sil": 1785,
      "Sur": 1786,
      "SAS": 1787,
      "Tas": 1788,
      "Tran": 1789,
      "Teng": 1790,
      "Upp": 1791,
      "Vi": 1792,
      "Wal": 1793,
      "With": 1794,
      "Yam": 1795,
      "ax": 1796,
      "aur": 1797,
      "ba": 1798,
      "bin": 1799,
      "bre": 1800,
      "bou": 1801,
      "bel": 1802,
      "bro": 1803,
      "blu": 1804,
      "cl": 1805,
      "cm": 1806,
      "ced": 1807,
      "cing": 1808,
      "cel": 1809,
      "col": 1810,
      "cul": 1811,
      "care": 1812,
      "cated": 1813,
      "cover": 1814,
      "came": 1815,
      "case": 1816,
      "could": 1817,
      "den": 1818,
      "det": 1819,
      "ders": 1820,
      "div": 1821,
      "dra": 1822,
      "dau": 1823,
      "died": 1824,
      "diver": 1825,
      "drop": 1826,
      "drew": 1827,
      "ee": 1828,
      "eem": 1829,
      "equ": 1830,
      "eight": 1831,
      "each": 1832,
      "ease": 1833,
      "far": 1834,
      "fun": 1835,
      "figh": 1836,
      "foc": 1837,
      "foll": 1838,
      "fect": 1839,
      "fail": 1840,
      "farm": 1841,
      "fjor": 1842,
      "food": 1843,
      "field": 1844,
      "flux": 1845,
      "gar": 1846,
      "gres": 1847,
      "gue": 1848,
      "gakure": 1849,
      "hy": 1850,
      "hon": 1851,
      "ham": 1852,
      "hab": 1853,
      "house": 1854,
      "ief": 1855,
      "ium": 1856,
      "jet": 1857,
      "job": 1858,
      "jury": 1859,
      "kel": 1860,
      "key": 1861,
      "kton": 1862,
      "kys": 1863,
      "lb": 1864,
      "low": 1865,
      "long": 1866,
      "live": 1867,
      "light": 1868,
      "mm": 1869,
      "mat": 1870,
      "ming": 1871,
      "mur": 1872,
      "mass": 1873,
      "mile": 1874,
      "male": 1875,
      "mult": 1876,
      "murd": 1877,
      "ns": 1878,
      "nin": 1879,
      "non": 1880,
      "nen": 1881,
      "ning": 1882,
      "national": 1883,
      "num": 1884,
      "ney": 1885,
      "nae": 1886,
      "osp": 1887,
      "pan": 1888,
      "pur": 1889,
      "pig": 1890,
      "pect": 1891,
      "paper": 1892,
      "ri": 1893,
      "rer": 1894,
      "rar": 1895,
      "river": 1896,
      "sch": 1897,
      "sia": 1898,
      "sive": 1899,
      "some": 1900,
      "sold": 1901,
      "said": 1902,
      "selected": 1903,
      "soci": 1904,
      "skys": 1905,
      "tw": 1906,
      "tas": 1907,
      "tal": 1908,
      "tic": 1909,
      "tec": 1910,
      "tir": 1911,
      "tipped": 1912,
      "uished": 1913,
      "ving": 1914,
      "vit": 1915,
      "vir": 1916,
      "vem": 1917,
      "wat": 1918,
      "wing": 1919,
      "wish": 1920,
      "wern": 1921,
      "wild": 1922,
      "ym": 1923,
      "ygo": 1924,
      "young": 1925,
      "zel": 1926,
      "ōnen": 1927,
      "thin": 1928,
      "thir": 1929,
      "ind": 1930,
      "inter": 1931,
      "instruction": 1932,
      "influx": 1933,
      "eri": 1934,
      "erve": 1935,
      "ang": 1936,
      "anak": 1937,
      "then": 1938,
      "these": 1939,
      "theast": 1940,
      "ones": 1941,
      "once": 1942,
      "around": 1943,
      "arsen": 1944,
      "edge": 1945,
      "edible": 1946,
      "star": 1947,
      "store": 1948,
      "story": 1949,
      "atpl": 1950,
      "atives": 1951,
      "ened": 1952,
      "ores": 1953,
      "oration": 1954,
      "orted": 1955,
      "andy": 1956,
      "andise": 1957,
      "off": 1958,
      "asi": 1959,
      "tomob": 1960,
      "ese": 1961,
      "esh": 1962,
      "escap": 1963,
      "inguished": 1964,
      "ism": 1965,
      "isation": 1966,
      "ica": 1967,
      "ics": 1968,
      "icy": 1969,
      "icop": 1970,
      "icip": 1971,
      "rece": 1972,
      "retr": 1973,
      "recomm": 1974,
      "relat": 1975,
      "realign": 1976,
      "retir": 1977,
      "revit": 1978,
      "ament": 1979,
      "outed": 1980,
      "ites": 1981,
      "itation": 1982,
      "itime": 1983,
      "itect": 1984,
      "ili": 1985,
      "adv": 1986,
      "adop": 1987,
      "adult": 1988,
      "hee": 1989,
      "heed": 1990,
      "hip": 1991,
      "hims": 1992,
      "ential": 1993,
      "1919": 1994,
      "1920": 1995,
      "1910": 1996,
      "1913": 1997,
      "1926": 1998,
      "1929": 1999,
      "ecto": 2000,
      "ectr": 2001,
      "ures": 2002,
      "usher": 2003,
      "usage": 2004,
      "acu": 2005,
      "acted": 2006,
      "acres": 2007,
      "according": 2008,
      "washee": 2009,
      "ele": 2010,
      "ows": 2011,
      "owed": 2012,
      "Theat": 2013,
      "eman": 2014,
      "emper": 2015,
      "former": 2016,
      "forms": 2017,
      "istr": 2018,
      "istee": 2019,
      "tered": 2020,
      "tertain": 2021,
      "opods": 2022,
      "opened": 2023,
      "unwill": 2024,
      "unders": 2025,
      "eton": 2026,
      "etres": 2027,
      "etnam": 2028,
      "vest": 2029,
      "chains": 2030,
      "chaired": 2031,
      "chandise": 2032,
      "olns": 2033,
      "olicy": 2034,
      "ley": 2035,
      "leave": 2036,
      "prot": 2037,
      "prior": 2038,
      "appro": 2039,
      "aplan": 2040,
      "seh": 2041,
      "seat": 2042,
      "seas": 2043,
      "version": 2044,
      "trad": 2045,
      "trial": 2046,
      "training": 2047,
      "troop": 2048,
      "front": 2049,
      "bears": 2050,
      "imm": 2051,
      "imum": 2052,
      "imichi": 2053,
      "import": 2054,
      "imetres": 2055,
      "Merchandise": 2056,
      "State": 2057,
      "condu": 2058,
      "concurr": 2059,
      "concurrent": 2060,
      "concept": 2061,
      "strated": 2062,
      "stroy": 2063,
      "depart": 2064,
      "defeat": 2065,
      "determin": 2066,
      "destroy": 2067,
      "aging": 2068,
      "agakure": 2069,
      "loss": 2070,
      "commission": 2071,
      "commerc": 2072,
      "commodore": 2073,
      "ewed": 2074,
      "marshal": 2075,
      "marks": 2076,
      "married": 2077,
      "maritime": 2078,
      "areas": 2079,
      "tional": 2080,
      "berra": 2081,
      "estim": 2082,
      "esteem": 2083,
      "tside": 2084,
      "ively": 2085,
      "point": 2086,
      "spines": 2087,
      "about": 2088,
      "abama": 2089,
      "ake": 2090,
      "dered": 2091,
      "mania": 2092,
      "serve": 2093,
      "serves": 2094,
      "Ino": 2095,
      "Inter": 2096,
      "20th": 2097,
      "2010": 2098,
      "exc": 2099,
      "ext": 2100,
      "exten": 2101,
      "exos": 2102,
      "excep": 2103,
      "experi": 2104,
      "respect": 2105,
      "ours": 2106,
      "1960": 2107,
      "1961": 2108,
      "1968": 2109,
      "ially": 2110,
      "sher": 2111,
      "shot": 2112,
      "short": 2113,
      "ganiz": 2114,
      "plan": 2115,
      "plet": 2116,
      "plans": 2117,
      "1860": 2118,
      "1837": 2119,
      "Commission": 2120,
      "ightly": 2121,
      "crab": 2122,
      "craper": 2123,
      "crash": 2124,
      "crusher": 2125,
      "effect": 2126,
      "1951": 2127,
      "1954": 2128,
      "1958": 2129,
      "Chann": 2130,
      "aval": 2131,
      "attempts": 2132,
      "ended": 2133,
      "eenth": 2134,
      "office": 2135,
      "assist": 2136,
      "News": 2137,
      "feed": 2138,
      "feature": 2139,
      "lif": 2140,
      "rails": 2141,
      "railways": 2142,
      "Commands": 2143,
      "Commander": 2144,
      "1940": 2145,
      "1941": 2146,
      "1943": 2147,
      "1946": 2148,
      "brief": 2149,
      "remaining": 2150,
      "operation": 2151,
      "operations": 2152,
      "Alister": 2153,
      "Alabama": 2154,
      "tee": 2155,
      "ume": 2156,
      "umseh": 2157,
      "ustin": 2158,
      "engine": 2159,
      "1930": 2160,
      "1934": 2161,
      "1936": 2162,
      "1938": 2163,
      "descr": 2164,
      "eph": 2165,
      "entered": 2166,
      "provide": 2167,
      "projects": 2168,
      "newly": 2169,
      "injured": 2170,
      "1976": 2171,
      "1970s": 2172,
      "Norway": 2173,
      "days": 2174,
      "hero": 2175,
      "ieve": 2176,
      "tenth": 2177,
      "reek": 2178,
      "ously": 2179,
      "150": 2180,
      "15th": 2181,
      "Anime": 2182,
      "Asia": 2183,
      "Associ": 2184,
      "Seven": 2185,
      "Seaplan": 2186,
      "country": 2187,
      "preferred": 2188,
      "outbre": 2189,
      "worked": 2190,
      "Forest": 2191,
      "automob": 2192,
      "particip": 2193,
      "helicop": 2194,
      "useum": 2195,
      "aches": 2196,
      "achment": 2197,
      "underwent": 2198,
      "2006": 2199,
      "2008": 2200,
      "appears": 2201,
      "232": 2202,
      "comple": 2203,
      "complet": 2204,
      "flights": 2205,
      "minimum": 2206,
      "ritory": 2207,
      "posting": 2208,
      "place": 2209,
      "placing": 2210,
      "organization": 2211,
      "Organiz": 2212,
      "These": 2213,
      "carrying": 2214,
      "renewed": 2215,
      "annual": 2216,
      "regation": 2217,
      "depth": 2218,
      "developed": 2219,
      "End": 2220,
      "Entertain": 2221,
      "Maintenance": 2222,
      "Schwern": 2223,
      "battles": 2224,
      "capt": 2225,
      "capable": 2226,
      "captain": 2227,
      "clawed": 2228,
      "distinguished": 2229,
      "general": 2230,
      "ivers": 2231,
      "ordered": 2232,
      "consisting": 2233,
      "located": 2234,
      "positions": 2235,
      "assignment": 2236,
      "northwest": 2237,
      "1795": 2238,
      "calling": 2239,
      "ebrated": 2240,
      "find": 2241,
      "fourth": 2242,
      "memor": 2243,
      "personnel": 2244,
      "turns": 2245,
      "stationed": 2246,
      "aceans": 2247,
      "forced": 2248,
      "transferred": 2249,
      "ulture": 2250,
      "29th": 2251,
      "Akimichi": 2252,
      "Art": 2253,
      "Arts": 2254,
      "average": 2255,
      "demon": 2256,
      "events": 2257,
      "evacu": 2258,
      "ificant": 2259,
      "headquar": 2260,
      "1906": 2261,
      "control": 2262,
      "controll": 2263,
      "becoming": 2264,
      "likes": 2265,
      "Malaya": 2266,
      "Malayan": 2267,
      "Malaysia": 2268,
      "industrial": 2269,
      "Canberra": 2270,
      "Eastern": 2271,
      "Highway": 2272,
      "Highland": 2273,
      "Landmark": 2274,
      "Opera": 2275,
      "Operational": 2276,
      "created": 2277,
      "century": 2278,
      "disease": 2279,
      "housing": 2280,
      "killed": 2281,
      "killing": 2282,
      "rows": 2283,
      "slightly": 2284,
      "weigh": 2285,
      "enthus": 2286,
      "related": 2287,
      "relations": 2288,
      "reaty": 2289,
      "forming": 2290,
      "pressed": 2291,
      "increasing": 2292,
      "effort": 2293,
      "officially": 2294,
      "activist": 2295,
      "featured": 2296,
      "popularity": 2297,
      "sixth": 2298,
      "bombed": 2299,
      "intelligent": 2300,
      "CBE": 2301,
      "Composite": 2302,
      "Compan": 2303,
      "Electr": 2304,
      "Isles": 2305,
      "Kono": 2306,
      "Konfront": 2307,
      "Technique": 2308,
      "Tecumseh": 2309,
      "When": 2310,
      "avey": 2311,
      "burrows": 2312,
      "damaged": 2313,
      "easygo": 2314,
      "glas": 2315,
      "kilogr": 2316,
      "kilomet": 2317,
      "metric": 2318,
      "polls": 2319,
      "ship": 2320,
      "susp": 2321,
      "significant": 2322,
      "times": 2323,
      "widely": 2324,
      "instead": 2325,
      "attract": 2326,
      "attracted": 2327,
      "1985": 2328,
      "segment": 2329,
      "segregation": 2330,
      "established": 2331,
      "employing": 2332,
      "renovation": 2333,
      "renovate": 2334,
      "settlers": 2335,
      "months": 2336,
      "travels": 2337,
      "responsib": 2338,
      "responsible": 2339,
      "22nd": 2340,
      "Battle": 2341,
      "Contr": 2342,
      "Edwards": 2343,
      "Exams": 2344,
      "Imitation": 2345,
      "Kakashi": 2346,
      "McLem": 2347,
      "Manistee": 2348,
      "cadet": 2349,
      "cutter": 2350,
      "films": 2351,
      "female": 2352,
      "figures": 2353,
      "floatpl": 2354,
      "fighting": 2355,
      "making": 2356,
      "pilot": 2357,
      "patches": 2358,
      "radius": 2359,
      "role": 2360,
      "surv": 2361,
      "size": 2362,
      "volume": 2363,
      "architect": 2364,
      "studies": 2365,
      "restoration": 2366,
      "addition": 2367,
      "adapt": 2368,
      "administr": 2369,
      "emergence": 2370,
      "produ": 2371,
      "friends": 2372,
      "summer": 2373,
      "committee": 2374,
      "community": 2375,
      "utenant": 2376,
      "Indones": 2377,
      "occup": 2378,
      "1864": 2379,
      "crustaceans": 2380,
      "types": 2381,
      "subsequent": 2382,
      "personal": 2383,
      "demolished": 2384,
      "passengers": 2385,
      "succeeded": 2386,
      "publications": 2387,
      "Dakotas": 2388,
      "juveniles": 2389,
      "Avro": 2390,
      "Between": 2391,
      "Branch": 2392,
      "Cedar": 2393,
      "Despite": 2394,
      "Douglas": 2395,
      "Dentzel": 2396,
      "Dutch": 2397,
      "Emergency": 2398,
      "FTS": 2399,
      "Foundation": 2400,
      "Fourth": 2401,
      "Guard": 2402,
      "Goodman": 2403,
      "Honours": 2404,
      "John": 2405,
      "James": 2406,
      "Jutsu": 2407,
      "Linnae": 2408,
      "Lamar": 2409,
      "Lincolns": 2410,
      "Lockheed": 2411,
      "Masashi": 2412,
      "Milne": 2413,
      "Mount": 2414,
      "Michigan": 2415,
      "MDOT": 2416,
      "Otogakure": 2417,
      "Overseas": 2418,
      "Peavey": 2419,
      "Park": 2420,
      "Personnel": 2421,
      "Sowashee": 2422,
      "Services": 2423,
      "SASO": 2424,
      "Tasmania": 2425,
      "Transport": 2426,
      "Tengah": 2427,
      "Upper": 2428,
      "Vietnam": 2429,
      "Walters": 2430,
      "Yamanak": 2431,
      "bought": 2432,
      "blue": 2433,
      "celebrated": 2434,
      "detachment": 2435,
      "daughter": 2436,
      "funeral": 2437,
      "fighters": 2438,
      "keleton": 2439,
      "murders": 2440,
      "ninth": 2441,
      "number": 2442,
      "ospit": 2443,
      "pigment": 2444,
      "rerouted": 2445,
      "school": 2446,
      "skyscraper": 2447,
      "task": 2448,
      "vements": 2449,
      "third": 2450,
      "arsenal": 2451,
      "receiving": 2452,
      "retrieve": 2453,
      "revitaliz": 2454,
      "himself": 2455,
      "1920s": 2456,
      "unwilling": 2457,
      "underside": 2458,
      "approaches": 2459,
      "troops": 2460,
      "conducted": 2461,
      "concurrency": 2462,
      "determined": 2463,
      "commercial": 2464,
      "esteemed": 2465,
      "exoskeleton": 2466,
      "experienced": 2467,
      "Channel": 2468,
      "Association": 2469,
      "Seaplane": 2470,
      "outbreak": 2471,
      "automobile": 2472,
      "participates": 2473,
      "complex": 2474,
      "Entertainment": 2475,
      "Schwerner": 2476,
      "Companion": 2477,
      "Konfrontasi": 2478,
      "easygoing": 2479,
      "kilograms": 2480,
      "McLemore": 2481,
      "floatplanes": 2482,
      "architectural": 2483,
      "Indonesia": 2484,
      "Linnaeus": 2485,
      "Yamanaka": 2486,
      "018": 2487,
      "118": 2488,
      "110": 2489,
      "160": 2490,
      "25": 2491,
      "28": 2492,
      "25th": 2493,
      "31": 2494,
      "33": 2495,
      "34": 2496,
      "35": 2497,
      "360": 2498,
      "36th": 2499,
      "41": 2500,
      "44": 2501,
      "45": 2502,
      "47": 2503,
      "48th": 2504,
      "50": 2505,
      "58": 2506,
      "59": 2507,
      "500": 2508,
      "526": 2509,
      "532": 2510,
      "65": 2511,
      "66": 2512,
      "67": 2513,
      "610": 2514,
      "600": 2515,
      "75": 2516,
      "79": 2517,
      "7th": 2518,
      "700": 2519,
      "70s": 2520,
      "85": 2521,
      "87": 2522,
      "810": 2523,
      "800": 2524,
      "80s": 2525,
      "93": 2526,
      "94": 2527,
      "900": 2528,
      ":\"": 2529,
      "AA": 2530,
      "AC": 2531,
      "AE": 2532,
      "Ac": 2533,
      "At": 2534,
      "Az": 2535,
      "Aer": 2536,
      "Ast": 2537,
      "Aur": 2538,
      "Avi": 2539,
      "Acad": 2540,
      "BE": 2541,
      "BI": 2542,
      "Bor": 2543,
      "Bes": 2544,
      "Bal": 2545,
      "Bom": 2546,
      "Bus": 2547,
      "Bun": 2548,
      "But": 2549,
      "Bland": 2550,
      "Brun": 2551,
      "Base": 2552,
      "Bloc": 2553,
      "Born": 2554,
      "CE": 2555,
      "CT": 2556,
      "Cr": 2557,
      "Cas": 2558,
      "Cre": 2559,
      "Cent": 2560,
      "Cir": 2561,
      "Cap": 2562,
      "Cour": 2563,
      "Crem": 2564,
      "Conn": 2565,
      "Corn": 2566,
      "Candy": 2567,
      "Cele": 2568,
      "Creek": 2569,
      "CAC": 2570,
      "DT": 2571,
      "Dal": 2572,
      "Dun": 2573,
      "Def": 2574,
      "Dustin": 2575,
      "EX": 2576,
      "Est": 2577,
      "Equ": 2578,
      "Eight": 2579,
      "Edu": 2580,
      "Event": 2581,
      "FO": 2582,
      "Fo": 2583,
      "Fed": 2584,
      "Fem": 2585,
      "Fab": 2586,
      "Flying": 2587,
      "Food": 2588,
      "Fried": 2589,
      "Flight": 2590,
      "FBI": 2591,
      "Ga": 2592,
      "Go": 2593,
      "Gar": 2594,
      "Gre": 2595,
      "Gam": 2596,
      "Gent": 2597,
      "Gel": 2598,
      "Gul": 2599,
      "Gip": 2600,
      "Gek": 2601,
      "Given": 2602,
      "Hy": 2603,
      "Har": 2604,
      "Hat": 2605,
      "Hen": 2606,
      "Ham": 2607,
      "Hou": 2608,
      "Hol": 2609,
      "Hall": 2610,
      "Hav": 2611,
      "Hok": 2612,
      "Hely": 2613,
      "Hob": 2614,
      "Hild": 2615,
      "Haid": 2616,
      "Hospit": 2617,
      "IP": 2618,
      "IQ": 2619,
      "Its": 2620,
      "Iro": 2621,
      "Jack": 2622,
      "Jum": 2623,
      "Jimm": 2624,
      "Justin": 2625,
      "Ka": 2626,
      "Kl": 2627,
      "Ko": 2628,
      "Ken": 2629,
      "Kur": 2630,
      "Kim": 2631,
      "Kag": 2632,
      "Kill": 2633,
      "Kamp": 2634,
      "Kemper": 2635,
      "La": 2636,
      "Lo": 2637,
      "Lou": 2638,
      "Lit": 2639,
      "Lim": 2640,
      "Lew": 2641,
      "Late": 2642,
      "Long": 2643,
      "Lau": 2644,
      "Lip": 2645,
      "Listed": 2646,
      "Mat": 2647,
      "Mor": 2648,
      "Mic": 2649,
      "Mou": 2650,
      "Mit": 2651,
      "Mid": 2652,
      "Mem": 2653,
      "Maru": 2654,
      "Mary": 2655,
      "Mich": 2656,
      "Mile": 2657,
      "Memp": 2658,
      "Moth": 2659,
      "Mov": 2660,
      "Most": 2661,
      "Museum": 2662,
      "MAE": 2663,
      "NT": 2664,
      "Ne": 2665,
      "Nh": 2666,
      "Nu": 2667,
      "Nat": 2668,
      "Nom": 2669,
      "Nany": 2670,
      "NAS": 2671,
      "Nesh": 2672,
      "Naval": 2673,
      "Neph": 2674,
      "Ob": 2675,
      "Ot": 2676,
      "Ou": 2677,
      "Oost": 2678,
      "OBE": 2679,
      "PA": 2680,
      "Pa": 2681,
      "Per": 2682,
      "Pam": 2683,
      "Pir": 2684,
      "Pop": 2685,
      "Pres": 2686,
      "Port": 2687,
      "Pos": 2688,
      "Previ": 2689,
      "Post": 2690,
      "Pah": 2691,
      "Perc": 2692,
      "Padd": 2693,
      "Policy": 2694,
      "Ro": 2695,
      "Res": 2696,
      "Rit": 2697,
      "Rem": 2698,
      "Ray": 2699,
      "Rest": 2700,
      "Rab": 2701,
      "Rod": 2702,
      "Ref": 2703,
      "Rights": 2704,
      "Ros": 2705,
      "River": 2706,
      "Recon": 2707,
      "Race": 2708,
      "Rev": 2709,
      "Rath": 2710,
      "Rush": 2711,
      "Randy": 2712,
      "RCT": 2713,
      "Sa": 2714,
      "Sk": 2715,
      "Sw": 2716,
      "She": 2717,
      "Sec": 2718,
      "Sus": 2719,
      "Sir": 2720,
      "Sun": 2721,
      "Sab": 2722,
      "Shel": 2723,
      "Spar": 2724,
      "Soci": 2725,
      "Sator": 2726,
      "TV": 2727,
      "Ta": 2728,
      "Ton": 2729,
      "Ten": 2730,
      "Tak": 2731,
      "Town": 2732,
      "Tod": 2733,
      "Temp": 2734,
      "Tys": 2735,
      "Tsuk": 2736,
      "Trailways": 2737,
      "Treaty": 2738,
      "Ul": 2739,
      "Uz": 2740,
      "Usu": 2741,
      "Usher": 2742,
      "Val": 2743,
      "Vern": 2744,
      "Vari": 2745,
      "VIP": 2746,
      "Wat": 2747,
      "Wec": 2748,
      "Wales": 2749,
      "WPA": 2750,
      "Yu": 2751,
      "Yan": 2752,
      "Year": 2753,
      "Young": 2754,
      "Ze": 2755,
      "Zer": 2756,
      "Zool": 2757,
      "ael": 2758,
      "aem": 2759,
      "aet": 2760,
      "abe": 2761,
      "away": 2762,
      "aide": 2763,
      "awar": 2764,
      "ahead": 2765,
      "aised": 2766,
      "bs": 2767,
      "bed": 2768,
      "bat": 2769,
      "bes": 2770,
      "bit": 2771,
      "bac": 2772,
      "bly": 2773,
      "bun": 2774,
      "bound": 2775,
      "bell": 2776,
      "brough": 2777,
      "bud": 2778,
      "blish": 2779,
      "buf": 2780,
      "bara": 2781,
      "brel": 2782,
      "bitions": 2783,
      "bars": 2784,
      "barr": 2785,
      "cs": 2786,
      "cin": 2787,
      "cen": 2788,
      "cal": 2789,
      "cou": 2790,
      "che": 2791,
      "cation": 2792,
      "cle": 2793,
      "card": 2794,
      "cations": 2795,
      "coll": 2796,
      "cort": 2797,
      "cure": 2798,
      "cend": 2799,
      "core": 2800,
      "cli": 2801,
      "crem": 2802,
      "cust": 2803,
      "cant": 2804,
      "chel": 2805,
      "cann": 2806,
      "cue": 2807,
      "chief": 2808,
      "cks": 2809,
      "clan": 2810,
      "cross": 2811,
      "cock": 2812,
      "camp": 2813,
      "ctic": 2814,
      "creek": 2815,
      "culture": 2816,
      "df": 2817,
      "dg": 2818,
      "do": 2819,
      "ds": 2820,
      "dal": 2821,
      "dom": 2822,
      "dou": 2823,
      "dig": 2824,
      "dut": 2825,
      "dover": 2826,
      "dates": 2827,
      "dif": 2828,
      "dys": 2829,
      "duty": 2830,
      "ditions": 2831,
      "dney": 2832,
      "dri": 2833,
      "ei": 2834,
      "eper": 2835,
      "evelop": 2836,
      "eks": 2837,
      "eutenant": 2838,
      "ff": 2839,
      "fi": 2840,
      "fas": 2841,
      "fam": 2842,
      "fur": 2843,
      "fus": 2844,
      "fet": 2845,
      "fol": 2846,
      "foun": 2847,
      "fted": 2848,
      "ful": 2849,
      "few": 2850,
      "fear": 2851,
      "fut": 2852,
      "fill": 2853,
      "fair": 2854,
      "fire": 2855,
      "free": 2856,
      "fied": 2857,
      "function": 2858,
      "fights": 2859,
      "founded": 2860,
      "face": 2861,
      "fif": 2862,
      "foot": 2863,
      "fished": 2864,
      "gg": 2865,
      "gi": 2866,
      "gn": 2867,
      "gu": 2868,
      "ged": 2869,
      "gas": 2870,
      "ging": 2871,
      "gal": 2872,
      "gis": 2873,
      "gir": 2874,
      "gist": 2875,
      "gap": 2876,
      "gers": 2877,
      "gut": 2878,
      "give": 2879,
      "gaff": 2880,
      "gran": 2881,
      "gaining": 2882,
      "giving": 2883,
      "great": 2884,
      "ggl": 2885,
      "gural": 2886,
      "gins": 2887,
      "grew": 2888,
      "hor": 2889,
      "hal": 2890,
      "how": 2891,
      "hop": 2892,
      "hound": 2893,
      "hair": 2894,
      "hically": 2895,
      "hsl": 2896,
      "hys": 2897,
      "host": 2898,
      "haired": 2899,
      "hind": 2900,
      "hagakure": 2901,
      "hospit": 2902,
      "ik": 2903,
      "io": 2904,
      "ias": 2905,
      "iers": 2906,
      "ious": 2907,
      "ibut": 2908,
      "iopods": 2909,
      "ipoint": 2910,
      "ibed": 2911,
      "jour": 2912,
      "ject": 2913,
      "kg": 2914,
      "ko": 2915,
      "ken": 2916,
      "king": 2917,
      "kid": 2918,
      "kham": 2919,
      "kaem": 2920,
      "ler": 2921,
      "lay": 2922,
      "let": 2923,
      "lap": 2924,
      "lim": 2925,
      "lies": 2926,
      "lia": 2927,
      "lab": 2928,
      "lights": 2929,
      "lots": 2930,
      "lives": 2931,
      "lecto": 2932,
      "leman": 2933,
      "my": 2934,
      "mom": 2935,
      "mad": 2936,
      "mid": 2937,
      "mir": 2938,
      "mim": 2939,
      "miss": 2940,
      "mate": 2941,
      "moll": 2942,
      "must": 2943,
      "mally": 2944,
      "mud": 2945,
      "mean": 2946,
      "mature": 2947,
      "match": 2948,
      "males": 2949,
      "meas": 2950,
      "miles": 2951,
      "museum": 2952,
      "nes": 2953,
      "nis": 2954,
      "nad": 2955,
      "net": 2956,
      "nate": 2957,
      "nod": 2958,
      "ness": 2959,
      "nine": 2960,
      "napp": 2961,
      "nov": 2962,
      "narr": 2963,
      "network": 2964,
      "natives": 2965,
      "next": 2966,
      "naval": 2967,
      "oe": 2968,
      "oz": 2969,
      "ois": 2970,
      "ove": 2971,
      "ocean": 2972,
      "ogic": 2973,
      "ogue": 2974,
      "pin": 2975,
      "pat": 2976,
      "ping": 2977,
      "pow": 2978,
      "pay": 2979,
      "pet": 2980,
      "pot": 2981,
      "pag": 2982,
      "pear": 2983,
      "pare": 2984,
      "put": 2985,
      "pere": 2986,
      "past": 2987,
      "phas": 2988,
      "pans": 2989,
      "pale": 2990,
      "pier": 2991,
      "push": 2992,
      "phy": 2993,
      "policy": 2994,
      "phys": 2995,
      "ru": 2996,
      "rat": 2997,
      "ras": 2998,
      "ring": 2999,
      "ral": 3000,
      "ris": 3001,
      "ril": 3002,
      "rac": 3003,
      "rist": 3004,
      "rap": 3005,
      "rith": 3006,
      "rain": 3007,
      "ries": 3008,
      "rich": 3009,
      "rated": 3010,
      "right": 3011,
      "rates": 3012,
      "rounded": 3013,
      "rural": 3014,
      "rote": 3015,
      "so": 3016,
      "sw": 3017,
      "sand": 3018,
      "sof": 3019,
      "ses": 3020,
      "sing": 3021,
      "sam": 3022,
      "sou": 3023,
      "she": 3024,
      "sun": 3025,
      "sim": 3026,
      "song": 3027,
      "soc": 3028,
      "scr": 3029,
      "sess": 3030,
      "sla": 3031,
      "same": 3032,
      "sely": 3033,
      "sister": 3034,
      "saw": 3035,
      "somet": 3036,
      "sake": 3037,
      "scure": 3038,
      "tan": 3039,
      "tit": 3040,
      "ties": 3041,
      "tear": 3042,
      "tell": 3043,
      "temp": 3044,
      "tsuki": 3045,
      "taw": 3046,
      "tempts": 3047,
      "temper": 3048,
      "teenth": 3049,
      "treaty": 3050,
      "ug": 3051,
      "uy": 3052,
      "uz": 3053,
      "uis": 3054,
      "uel": 3055,
      "uce": 3056,
      "uous": 3057,
      "uga": 3058,
      "utop": 3059,
      "ughter": 3060,
      "ucated": 3061,
      "uko": 3062,
      "vation": 3063,
      "vot": 3064,
      "vul": 3065,
      "viv": 3066,
      "vie": 3067,
      "vale": 3068,
      "voted": 3069,
      "vari": 3070,
      "voy": 3071,
      "vement": 3072,
      "vote": 3073,
      "vided": 3074,
      "vows": 3075,
      "wan": 3076,
      "wear": 3077,
      "weg": 3078,
      "writ": 3079,
      "wrote": 3080,
      "xy": 3081,
      "xed": 3082,
      "xual": 3083,
      "xley": 3084,
      "yer": 3085,
      "yle": 3086,
      "yell": 3087,
      "yles": 3088,
      "yama": 3089,
      "yhound": 3090,
      "zet": 3091,
      "zoop": 3092,
      "ōji": 3093,
      "ūden": 3094,
      "の術": 3095,
      "カマ": 3096,
      "シカマ": 3097,
      "似の術": 3098,
      "奈良": 3099,
      "影真": 3100,
      "tha": 3101,
      "thers": 3102,
      "thday": 3103,
      "throw": 3104,
      "thcare": 3105,
      "thuis": 3106,
      "ining": 3107,
      "init": 3108,
      "inus": 3109,
      "inver": 3110,
      "intr": 3111,
      "inity": 3112,
      "inated": 3113,
      "instru": 3114,
      "inau": 3115,
      "inob": 3116,
      "indep": 3117,
      "inside": 3118,
      "inner": 3119,
      "inhab": 3120,
      "invest": 3121,
      "erk": 3122,
      "eration": 3123,
      "erly": 3124,
      "erity": 3125,
      "eries": 3126,
      "erate": 3127,
      "erated": 3128,
      "erally": 3129,
      "erie": 3130,
      "erected": 3131,
      "eroe": 3132,
      "ervation": 3133,
      "another": 3134,
      "anthin": 3135,
      "thems": 3136,
      "ons": 3137,
      "onment": 3138,
      "onial": 3139,
      "onments": 3140,
      "onics": 3141,
      "arc": 3142,
      "arp": 3143,
      "arer": 3144,
      "aril": 3145,
      "arly": 3146,
      "arts": 3147,
      "armed": 3148,
      "arose": 3149,
      "arning": 3150,
      "arisation": 3151,
      "edin": 3152,
      "eden": 3153,
      "edition": 3154,
      "edges": 3155,
      "educated": 3156,
      "stand": 3157,
      "stic": 3158,
      "stap": 3159,
      "stated": 3160,
      "still": 3161,
      "stall": 3162,
      "stone": 3163,
      "stating": 3164,
      "stage": 3165,
      "stuf": 3166,
      "steam": 3167,
      "stars": 3168,
      "stock": 3169,
      "stead": 3170,
      "styles": 3171,
      "ats": 3172,
      "atist": 3173,
      "ens": 3174,
      "ening": 3175,
      "enem": 3176,
      "ense": 3177,
      "ending": 3178,
      "enge": 3179,
      "eness": 3180,
      "enable": 3181,
      "enai": 3182,
      "enba": 3183,
      "ensive": 3184,
      "envir": 3185,
      "ori": 3186,
      "ored": 3187,
      "orly": 3188,
      "orian": 3189,
      "ories": 3190,
      "orts": 3191,
      "orange": 3192,
      "orpor": 3193,
      "orax": 3194,
      "orced": 3195,
      "anda": 3196,
      "often": 3197,
      "offer": 3198,
      "ases": 3199,
      "asion": 3200,
      "asym": 3201,
      "tour": 3202,
      "tourn": 3203,
      "towards": 3204,
      "total": 3205,
      "espre": 3206,
      "escort": 3207,
      "aland": 3208,
      "alid": 3209,
      "alist": 3210,
      "alter": 3211,
      "alian": 3212,
      "alecto": 3213,
      "althcare": 3214,
      "isen": 3215,
      "isor": 3216,
      "isian": 3217,
      "isational": 3218,
      "iscover": 3219,
      "ice": 3220,
      "ices": 3221,
      "icated": 3222,
      "icuous": 3223,
      "reed": 3224,
      "read": 3225,
      "reorgan": 3226,
      "reco": 3227,
      "refl": 3228,
      "rearm": 3229,
      "recent": 3230,
      "recor": 3231,
      "repor": 3232,
      "repair": 3233,
      "remark": 3234,
      "recover": 3235,
      "reopened": 3236,
      "relocated": 3237,
      "rebuf": 3238,
      "rehop": 3239,
      "reases": 3240,
      "amy": 3241,
      "aming": 3242,
      "ambitions": 3243,
      "amining": 3244,
      "ioned": 3245,
      "ional": 3246,
      "omi": 3247,
      "omas": 3248,
      "omers": 3249,
      "omial": 3250,
      "omote": 3251,
      "oud": 3252,
      "outside": 3253,
      "itō": 3254,
      "itan": 3255,
      "itted": 3256,
      "itically": 3257,
      "ilar": 3258,
      "ilia": 3259,
      "illu": 3260,
      "ilogue": 3261,
      "adai": 3262,
      "heat": 3263,
      "healthcare": 3264,
      "ental": 3265,
      "ention": 3266,
      "1927": 3267,
      "1997": 3268,
      "ecut": 3269,
      "ecial": 3270,
      "ecting": 3271,
      "ector": 3272,
      "ecdys": 3273,
      "urus": 3274,
      "uries": 3275,
      "urance": 3276,
      "urae": 3277,
      "urban": 3278,
      "urbs": 3279,
      "usually": 3280,
      "uscs": 3281,
      "acus": 3282,
      "acqu": 3283,
      "acher": 3284,
      "acean": 3285,
      "access": 3286,
      "ids": 3287,
      "ides": 3288,
      "idly": 3289,
      "idman": 3290,
      "idge": 3291,
      "idans": 3292,
      "idenced": 3293,
      "eland": 3294,
      "elve": 3295,
      "elim": 3296,
      "elves": 3297,
      "owdown": 3298,
      "lych": 3299,
      "They": 3300,
      "emy": 3301,
      "emes": 3302,
      "forth": 3303,
      "force": 3304,
      "forfe": 3305,
      "istent": 3306,
      "istence": 3307,
      "istry": 3308,
      "istics": 3309,
      "terwor": 3310,
      "terium": 3311,
      "territory": 3312,
      "terrain": 3313,
      "ops": 3314,
      "opher": 3315,
      "oppon": 3316,
      "opposite": 3317,
      "ophor": 3318,
      "ayed": 3319,
      "uno": 3320,
      "unce": 3321,
      "unte": 3322,
      "univer": 3323,
      "uniqu": 3324,
      "unenthus": 3325,
      "ety": 3326,
      "ettl": 3327,
      "etically": 3328,
      "vey": 3329,
      "vein": 3330,
      "vegic": 3331,
      "chak": 3332,
      "chant": 3333,
      "church": 3334,
      "older": 3335,
      "olence": 3336,
      "oline": 3337,
      "olitan": 3338,
      "lest": 3339,
      "leaf": 3340,
      "leans": 3341,
      "level": 3342,
      "legis": 3343,
      "learning": 3344,
      "prim": 3345,
      "priv": 3346,
      "princ": 3347,
      "proc": 3348,
      "pract": 3349,
      "proper": 3350,
      "priving": 3351,
      "prised": 3352,
      "prote": 3353,
      "prison": 3354,
      "praised": 3355,
      "prices": 3356,
      "promote": 3357,
      "Heff": 3358,
      "apath": 3359,
      "aphically": 3360,
      "apons": 3361,
      "iant": 3362,
      "whites": 3363,
      "sea": 3364,
      "see": 3365,
      "sest": 3366,
      "seers": 3367,
      "seven": 3368,
      "seek": 3369,
      "sevent": 3370,
      "search": 3371,
      "sexual": 3372,
      "tra": 3373,
      "train": 3374,
      "trak": 3375,
      "track": 3376,
      "trip": 3377,
      "truly": 3378,
      "trains": 3379,
      "tripoint": 3380,
      "trayed": 3381,
      "fresh": 3382,
      "froz": 3383,
      "best": 3384,
      "beast": 3385,
      "begins": 3386,
      "behind": 3387,
      "imen": 3388,
      "imes": 3389,
      "impro": 3390,
      "iminal": 3391,
      "immob": 3392,
      "immen": 3393,
      "impressed": 3394,
      "bypass": 3395,
      "ership": 3396,
      "erschel": 3397,
      "ounced": 3398,
      "Shipp": 3399,
      "Merrehop": 3400,
      "Stew": 3401,
      "Start": 3402,
      "Steph": 3403,
      "Statist": 3404,
      "consp": 3405,
      "conversion": 3406,
      "conditions": 3407,
      "confus": 3408,
      "convoy": 3409,
      "sure": 3410,
      "subst": 3411,
      "sugg": 3412,
      "sutsuki": 3413,
      "suyama": 3414,
      "stra": 3415,
      "strand": 3416,
      "stric": 3417,
      "strip": 3418,
      "strates": 3419,
      "strik": 3420,
      "Shikadai": 3421,
      "ainst": 3422,
      "within": 3423,
      "withdra": 3424,
      "deal": 3425,
      "defe": 3426,
      "defin": 3427,
      "destruction": 3428,
      "deeper": 3429,
      "devot": 3430,
      "depriving": 3431,
      "aground": 3432,
      "aggres": 3433,
      "agrar": 3434,
      "agerie": 3435,
      "aganda": 3436,
      "agreed": 3437,
      "igon": 3438,
      "igence": 3439,
      "igade": 3440,
      "igious": 3441,
      "lost": 3442,
      "look": 3443,
      "lodg": 3444,
      "ules": 3445,
      "ulate": 3446,
      "ulated": 3447,
      "ulner": 3448,
      "ularly": 3449,
      "commut": 3450,
      "commenced": 3451,
      "eway": 3452,
      "earhead": 3453,
      "earthen": 3454,
      "marine": 3455,
      "marry": 3456,
      "marines": 3457,
      "marrying": 3458,
      "marinus": 3459,
      "quently": 3460,
      "quois": 3461,
      "mentor": 3462,
      "mentioned": 3463,
      "tions": 3464,
      "berry": 3465,
      "berried": 3466,
      "berConn": 3467,
      "ests": 3468,
      "ested": 3469,
      "estyle": 3470,
      "iastic": 3471,
      "therine": 3472,
      "therlands": 3473,
      "fictional": 3474,
      "ival": 3475,
      "pose": 3476,
      "poorly": 3477,
      "polych": 3478,
      "incided": 3479,
      "incorpor": 3480,
      "room": 3481,
      "rose": 3482,
      "rogue": 3483,
      "rocks": 3484,
      "spots": 3485,
      "sported": 3486,
      "sperity": 3487,
      "spearhead": 3488,
      "abi": 3489,
      "ability": 3490,
      "abfish": 3491,
      "abilities": 3492,
      "abdom": 3493,
      "above": 3494,
      "abras": 3495,
      "abilia": 3496,
      "aki": 3497,
      "dering": 3498,
      "derance": 3499,
      "derdale": 3500,
      "manip": 3501,
      "managed": 3502,
      "manpower": 3503,
      "mantle": 3504,
      "manently": 3505,
      "mansla": 3506,
      "pping": 3507,
      "server": 3508,
      "Innis": 3509,
      "Intell": 3510,
      "Instead": 3511,
      "ownership": 3512,
      "202": 3513,
      "2013": 3514,
      "2011": 3515,
      "game": 3516,
      "routed": 3517,
      "route": 3518,
      "artific": 3519,
      "movements": 3520,
      "modal": 3521,
      "movie": 3522,
      "raid": 3523,
      "raised": 3524,
      "raise": 3525,
      "asted": 3526,
      "astax": 3527,
      "exit": 3528,
      "expl": 3529,
      "exits": 3530,
      "exact": 3531,
      "except": 3532,
      "extend": 3533,
      "exists": 3534,
      "existing": 3535,
      "expressed": 3536,
      "expans": 3537,
      "examining": 3538,
      "execut": 3539,
      "existence": 3540,
      "lum": 3541,
      "luding": 3542,
      "result": 3543,
      "resented": 3544,
      "rescue": 3545,
      "resettl": 3546,
      "ishing": 3547,
      "1963": 3548,
      "1967": 3549,
      "1969": 3550,
      "mera": 3551,
      "merge": 3552,
      "merous": 3553,
      "merges": 3554,
      "merchant": 3555,
      "shed": 3556,
      "shals": 3557,
      "shōnen": 3558,
      "sharp": 3559,
      "shops": 3560,
      "illand": 3561,
      "illiant": 3562,
      "airfield": 3563,
      "airlif": 3564,
      "geogr": 3565,
      "ricius": 3566,
      "riculture": 3567,
      "riculated": 3568,
      "occo": 3569,
      "octop": 3570,
      "ococc": 3571,
      "octaw": 3572,
      "oded": 3573,
      "oduce": 3574,
      "ples": 3575,
      "plants": 3576,
      "allow": 3577,
      "allations": 3578,
      "allowing": 3579,
      "oller": 3580,
      "1830": 3581,
      "185th": 3582,
      "186th": 3583,
      "1880": 3584,
      "1853": 3585,
      "1871": 3586,
      "1894": 3587,
      "Commenc": 3588,
      "Commodore": 3589,
      "bsters": 3590,
      "izabe": 3591,
      "overall": 3592,
      "overruled": 3593,
      "overlap": 3594,
      "overseers": 3595,
      "overlook": 3596,
      "ortal": 3597,
      "higher": 3598,
      "highlights": 3599,
      "cry": 3600,
      "crush": 3601,
      "critically": 3602,
      "criminal": 3603,
      "essential": 3604,
      "1952": 3605,
      "1953": 3606,
      "1955": 3607,
      "1956": 3608,
      "1950s": 3609,
      "Church": 3610,
      "Cheri": 3611,
      "Christ": 3612,
      "Chōji": 3613,
      "Choctaw": 3614,
      "avour": 3615,
      "aveng": 3616,
      "avenge": 3617,
      "perial": 3618,
      "permarine": 3619,
      "permanently": 3620,
      "urements": 3621,
      "attach": 3622,
      "attended": 3623,
      "attention": 3624,
      "endent": 3625,
      "endations": 3626,
      "endurance": 3627,
      "itself": 3628,
      "roads": 3629,
      "roadways": 3630,
      "laud": 3631,
      "lared": 3632,
      "redevelop": 3633,
      "rediscover": 3634,
      "wooded": 3635,
      "ansit": 3636,
      "ansmen": 3637,
      "offices": 3638,
      "officers": 3639,
      "asses": 3640,
      "associ": 3641,
      "active": 3642,
      "actually": 3643,
      "idealist": 3644,
      "affili": 3645,
      "Newberry": 3646,
      "egrated": 3647,
      "lift": 3648,
      "lieutenant": 3649,
      "intact": 3650,
      "integrated": 3651,
      "specimen": 3652,
      "82nd": 3653,
      "Homeland": 3654,
      "build": 3655,
      "ranges": 3656,
      "worms": 3657,
      "1944": 3658,
      "1945": 3659,
      "1948": 3660,
      "commands": 3661,
      "bring": 3662,
      "brary": 3663,
      "brates": 3664,
      "brids": 3665,
      "brilliant": 3666,
      "yearly": 3667,
      "remely": 3668,
      "elled": 3669,
      "ellent": 3670,
      "Alan": 3671,
      "Along": 3672,
      "Allan": 3673,
      "Markham": 3674,
      "Martha": 3675,
      "Marstrand": 3676,
      "Marshals": 3677,
      "curve": 3678,
      "ipping": 3679,
      "northeast": 3680,
      "normally": 3681,
      "norvegic": 3682,
      "teacher": 3683,
      "tebrates": 3684,
      "umbrel": 3685,
      "umaki": 3686,
      "western": 3687,
      "engaged": 3688,
      "1931": 3689,
      "1932": 3690,
      "1933": 3691,
      "1937": 3692,
      "1939": 3693,
      "desire": 3694,
      "despatch": 3695,
      "epic": 3696,
      "epang": 3697,
      "epilogue": 3698,
      "goal": 3699,
      "goods": 3700,
      "grown": 3701,
      "growing": 3702,
      "noting": 3703,
      "notable": 3704,
      "victim": 3705,
      "vicinity": 3706,
      "ernan": 3707,
      "progres": 3708,
      "project": 3709,
      "provided": 3710,
      "proxy": 3711,
      "prosperity": 3712,
      "104": 3713,
      "105": 3714,
      "America": 3715,
      "Districts": 3716,
      "irey": 3717,
      "landed": 3718,
      "landing": 3719,
      "newcom": 3720,
      "newborn": 3721,
      "anti": 3722,
      "antive": 3723,
      "1970": 3724,
      "1973": 3725,
      "1974": 3726,
      "1978": 3727,
      "charge": 3728,
      "charges": 3729,
      "struggl": 3730,
      "afterma": 3731,
      "afterwards": 3732,
      "Italian": 3733,
      "Northern": 3734,
      "Nordf": 3735,
      "Norris": 3736,
      "Norweg": 3737,
      "eastward": 3738,
      "ieving": 3739,
      "latter": 3740,
      "lative": 3741,
      "lature": 3742,
      "tense": 3743,
      "tenure": 3744,
      "tension": 3745,
      "ences": 3746,
      "encies": 3747,
      "enclature": 3748,
      "organisation": 3749,
      "organisational": 3750,
      "ousel": 3751,
      "itioned": 3752,
      "itionally": 3753,
      "apply": 3754,
      "154": 3755,
      "Anne": 3756,
      "Angl": 3757,
      "Andrew": 3758,
      "Andover": 3759,
      "Deco": 3760,
      "Penrith": 3761,
      "Several": 3762,
      "ferent": 3763,
      "ferring": 3764,
      "prefer": 3765,
      "prepon": 3766,
      "prepar": 3767,
      "prevent": 3768,
      "prepare": 3769,
      "worker": 3770,
      "working": 3771,
      "Univers": 3772,
      "ipal": 3773,
      "iple": 3774,
      "ipment": 3775,
      "iption": 3776,
      "oba": 3777,
      "obtain": 3778,
      "objects": 3779,
      "obscure": 3780,
      "peers": 3781,
      "peak": 3782,
      "party": 3783,
      "partner": 3784,
      "sibly": 3785,
      "sified": 3786,
      "underway": 3787,
      "undertak": 3788,
      "undertook": 3789,
      "underprepar": 3790,
      "leads": 3791,
      "presents": 3792,
      "preserve": 3793,
      "contain": 3794,
      "contents": 3795,
      "2001": 3796,
      "2002": 3797,
      "2005": 3798,
      "2007": 3799,
      "2009": 3800,
      "231": 3801,
      "234": 3802,
      "coast": 3803,
      "coales": 3804,
      "coincided": 3805,
      "comically": 3806,
      "combin": 3807,
      "combat": 3808,
      "compet": 3809,
      "comprised": 3810,
      "flavour": 3811,
      "gazet": 3812,
      "gastric": 3813,
      "minal": 3814,
      "minating": 3815,
      "neo": 3816,
      "neth": 3817,
      "never": 3818,
      "ritories": 3819,
      "security": 3820,
      "ect2": 3821,
      "supply": 3822,
      "supported": 3823,
      "supplies": 3824,
      "supports": 3825,
      "poster": 3826,
      "places": 3827,
      "currents": 3828,
      "organizer": 3829,
      "organized": 3830,
      "organizing": 3831,
      "135": 3832,
      "242": 3833,
      "248": 3834,
      "601": 3835,
      "Orche": 3836,
      "Orleans": 3837,
      "Southamp": 3838,
      "That": 3839,
      "There": 3840,
      "Thomas": 3841,
      "cargo": 3842,
      "carry": 3843,
      "carried": 3844,
      "carries": 3845,
      "courier": 3846,
      "medical": 3847,
      "oshi": 3848,
      "others": 3849,
      "othorax": 3850,
      "renaming": 3851,
      "rendering": 3852,
      "running": 3853,
      "annex": 3854,
      "annually": 3855,
      "annivers": 3856,
      "announced": 3857,
      "regain": 3858,
      "registry": 3859,
      "regularly": 3860,
      "ilitation": 3861,
      "forehead": 3862,
      "whose": 3863,
      "depots": 3864,
      "deputy": 3865,
      "depending": 3866,
      "lawyer": 3867,
      "teammate": 3868,
      "characteristics": 3869,
      "continental": 3870,
      "462": 3871,
      "Scherg": 3872,
      "distant": 3873,
      "founders": 3874,
      "genius": 3875,
      "generally": 3876,
      "genetically": 3877,
      "sets": 3878,
      "setting": 3879,
      "throughout": 3880,
      "invade": 3881,
      "invasion": 3882,
      "invalid": 3883,
      "invulner": 3884,
      "history": 3885,
      "historian": 3886,
      "istering": 3887,
      "consists": 3888,
      "subishi": 3889,
      "subdiv": 3890,
      "suburbs": 3891,
      "substrates": 3892,
      "submarines": 3893,
      "location": 3894,
      "locating": 3895,
      "poses": 3896,
      "position": 3897,
      "possibly": 3898,
      "assignments": 3899,
      "designing": 3900,
      "designate": 3901,
      "designations": 3902,
      "continuously": 3903,
      "17th": 3904,
      "1758": 3905,
      "1775": 3906,
      "26th": 3907,
      "Counter": 3908,
      "Council": 3909,
      "Country": 3910,
      "Darkn": 3911,
      "Malcol": 3912,
      "Transit": 3913,
      "bling": 3914,
      "cancer": 3915,
      "final": 3916,
      "finally": 3917,
      "finaliz": 3918,
      "finishing": 3919,
      "oval": 3920,
      "persed": 3921,
      "persistent": 3922,
      "sense": 3923,
      "violence": 3924,
      "stationary": 3925,
      "cephal": 3926,
      "olda": 3927,
      "transform": 3928,
      "transitions": 3929,
      "transcend": 3930,
      "transitioned": 3931,
      "transferring": 3932,
      "Headquartered": 3933,
      "lengthy": 3934,
      "372": 3935,
      "Akin": 3936,
      "Arctic": 3937,
      "Army": 3938,
      "Britain": 3939,
      "Carl": 3940,
      "Carousel": 3941,
      "Generation": 3942,
      "Symp": 3943,
      "Sydney": 3944,
      "Sasori": 3945,
      "averaging": 3946,
      "bombers": 3947,
      "decision": 3948,
      "decreases": 3949,
      "declared": 3950,
      "demand": 3951,
      "district": 3952,
      "evidenced": 3953,
      "federate": 3954,
      "iff": 3955,
      "ifting": 3956,
      "ified": 3957,
      "lankton": 3958,
      "langu": 3959,
      "moned": 3960,
      "names": 3961,
      "park": 3962,
      "parts": 3963,
      "parents": 3964,
      "paralecto": 3965,
      "passed": 3966,
      "passes": 3967,
      "takes": 3968,
      "taking": 3969,
      "army": 3970,
      "stemming": 3971,
      "representatives": 3972,
      "heading": 3973,
      "1904": 3974,
      "1905": 3975,
      "1907": 3976,
      "1908": 3977,
      "whereas": 3978,
      "contribut": 3979,
      "contrasted": 3980,
      "defense": 3981,
      "defecting": 3982,
      "defences": 3983,
      "Changi": 3984,
      "intellect": 3985,
      "ranked": 3986,
      "sections": 3987,
      "supporting": 3988,
      "Europe": 3989,
      "businessman": 3990,
      "industries": 3991,
      "11th": 3992,
      "30th": 3993,
      "386": 3994,
      "Africa": 3995,
      "Direction": 3996,
      "Highlands": 3997,
      "Landmarks": 3998,
      "Music": 3999,
      "Mayor": 4000,
      "Operations": 4001,
      "Regional": 4002,
      "Week": 4003,
      "Weidman": 4004,
      "aids": 4005,
      "bier": 4006,
      "create": 4007,
      "crevices": 4008,
      "creamy": 4009,
      "centimetres": 4010,
      "centuries": 4011,
      "ctors": 4012,
      "display": 4013,
      "disappeared": 4014,
      "dispersed": 4015,
      "kills": 4016,
      "nearly": 4017,
      "nearby": 4018,
      "slowed": 4019,
      "slowdown": 4020,
      "sions": 4021,
      "week": 4022,
      "weeks": 4023,
      "weapons": 4024,
      "thanks": 4025,
      "replacing": 4026,
      "transported": 4027,
      "truncated": 4028,
      "truncations": 4029,
      "travelled": 4030,
      "ablished": 4031,
      "response": 4032,
      "activity": 4033,
      "activists": 4034,
      "activism": 4035,
      "featuring": 4036,
      "Allison": 4037,
      "northernmost": 4038,
      "Victorian": 4039,
      "sixteenth": 4040,
      "distinction": 4041,
      "considerable": 4042,
      "COFO": 4043,
      "Colonial": 4044,
      "Elmir": 4045,
      "Elizabe": 4046,
      "Hiden": 4047,
      "Island": 4048,
      "Islands": 4049,
      "Railway": 4050,
      "Supermarine": 4051,
      "While": 4052,
      "Whites": 4053,
      "boats": 4054,
      "burg": 4055,
      "buried": 4056,
      "bodies": 4057,
      "chimera": 4058,
      "damaging": 4059,
      "easier": 4060,
      "holes": 4061,
      "lasts": 4062,
      "lacking": 4063,
      "metal": 4064,
      "metres": 4065,
      "publish": 4066,
      "portion": 4067,
      "portrayed": 4068,
      "pleopods": 4069,
      "rops": 4070,
      "ropolitan": 4071,
      "rules": 4072,
      "shifted": 4073,
      "shipping": 4074,
      "sentenced": 4075,
      "suscept": 4076,
      "signature": 4077,
      "smaller": 4078,
      "timate": 4079,
      "widowed": 4080,
      "widespre": 4081,
      "instance": 4082,
      "installations": 4083,
      "animal": 4084,
      "animation": 4085,
      "animations": 4086,
      "animals": 4087,
      "releasing": 4088,
      "reconfig": 4089,
      "reached": 4090,
      "reaching": 4091,
      "returned": 4092,
      "returning": 4093,
      "ilized": 4094,
      "1986": 4095,
      "1988": 4096,
      "propaganda": 4097,
      "sequence": 4098,
      "strategist": 4099,
      "market": 4100,
      "establishment": 4101,
      "mobility": 4102,
      "resulted": 4103,
      "laziness": 4104,
      "larva": 4105,
      "specialty": 4106,
      "specialised": 4107,
      "remainder": 4108,
      "growth": 4109,
      "appointments": 4110,
      "helps": 4111,
      "helped": 4112,
      "employs": 4113,
      "employer": 4114,
      "regional": 4115,
      "settler": 4116,
      "settlement": 4117,
      "involved": 4118,
      "involves": 4119,
      "involving": 4120,
      "involvement": 4121,
      "Systema": 4122,
      "hniques": 4123,
      "Directorate": 4124,
      "reviewer": 4125,
      "reviewers": 4126,
      "transportation": 4127,
      "traveling": 4128,
      "travelers": 4129,
      "Springvale": 4130,
      "moult": 4131,
      "moulted": 4132,
      "moults": 4133,
      "moulting": 4134,
      "325": 4135,
      "570": 4136,
      "Battles": 4137,
      "Clash": 4138,
      "Cloud": 4139,
      "Clemes": 4140,
      "Confederate": 4141,
      "Drug": 4142,
      "Drifting": 4143,
      "Edgar": 4144,
      "Extra": 4145,
      "Frankston": 4146,
      "Hartley": 4147,
      "Imperial": 4148,
      "Kakuz": 4149,
      "McInnis": 4150,
      "Mania": 4151,
      "Rebuilt": 4152,
      "Rehab": 4153,
      "Rebell": 4154,
      "Territory": 4155,
      "Terminal": 4156,
      "Territories": 4157,
      "aware": 4158,
      "closer": 4159,
      "closely": 4160,
      "closest": 4161,
      "cuttle": 4162,
      "freed": 4163,
      "freeway": 4164,
      "frequently": 4165,
      "film": 4166,
      "facto": 4167,
      "facility": 4168,
      "facilities": 4169,
      "females": 4170,
      "floor": 4171,
      "handed": 4172,
      "handing": 4173,
      "hatching": 4174,
      "hatcheries": 4175,
      "meat": 4176,
      "meet": 4177,
      "means": 4178,
      "menagerie": 4179,
      "mainly": 4180,
      "maintenance": 4181,
      "make": 4182,
      "million": 4183,
      "millimetres": 4184,
      "piloted": 4185,
      "portly": 4186,
      "radio": 4187,
      "rols": 4188,
      "rounds": 4189,
      "system": 4190,
      "synon": 4191,
      "surface": 4192,
      "sizes": 4193,
      "shelf": 4194,
      "shell": 4195,
      "shelled": 4196,
      "tendril": 4197,
      "tendencies": 4198,
      "volunte": 4199,
      "insight": 4200,
      "arriving": 4201,
      "students": 4202,
      "atorium": 4203,
      "alignment": 4204,
      "isions": 4205,
      "restaur": 4206,
      "adapted": 4207,
      "administering": 4208,
      "urchins": 4209,
      "emerging": 4210,
      "terminus": 4211,
      "children": 4212,
      "prodigious": 4213,
      "friendly": 4214,
      "summoned": 4215,
      "committed": 4216,
      "communist": 4217,
      "thereafter": 4218,
      "therefore": 4219,
      "utenants": 4220,
      "utilize": 4221,
      "utilizes": 4222,
      "utilizing": 4223,
      "Indian": 4224,
      "luxury": 4225,
      "merging": 4226,
      "players": 4227,
      "playable": 4228,
      "1861": 4229,
      "crustacean": 4230,
      "period": 4231,
      "typically": 4232,
      "preying": 4233,
      "deployed": 4234,
      "deployment": 4235,
      "subsequently": 4236,
      "blacks": 4237,
      "demolish": 4238,
      "passenger": 4239,
      "successor": 4240,
      "successively": 4241,
      "successful": 4242,
      "boomed": 4243,
      "booming": 4244,
      "Dakota": 4245,
      "juvenile": 4246,
      "21st": 4247,
      "492": 4248,
      "49th": 4249,
      "72nd": 4250,
      "Against": 4251,
      "Agriculture": 4252,
      "Among": 4253,
      "Amtrak": 4254,
      "Board": 4255,
      "Boeroe": 4256,
      "Bridge": 4257,
      "Brigade": 4258,
      "Barry": 4259,
      "Barbara": 4260,
      "Birming": 4261,
      "Birthday": 4262,
      "Cycli": 4263,
      "CyberConn": 4264,
      "Dani": 4265,
      "Dancing": 4266,
      "Division": 4267,
      "Divorced": 4268,
      "Father": 4269,
      "Fairey": 4270,
      "Hancock": 4271,
      "Hanabi": 4272,
      "Hiruko": 4273,
      "Hiroshi": 4274,
      "Like": 4275,
      "Library": 4276,
      "Lieutenant": 4277,
      "Lieutenants": 4278,
      "Promoted": 4279,
      "Prior": 4280,
      "Richard": 4281,
      "Shōnen": 4282,
      "Shinob": 4283,
      "Spence": 4284,
      "Special": 4285,
      "Silent": 4286,
      "Silence": 4287,
      "Surviv": 4288,
      "Survey": 4289,
      "aurant": 4290,
      "baited": 4291,
      "binomial": 4292,
      "below": 4293,
      "believing": 4294,
      "broken": 4295,
      "brothers": 4296,
      "clerk": 4297,
      "classes": 4298,
      "colour": 4299,
      "culation": 4300,
      "culminating": 4301,
      "career": 4302,
      "divided": 4303,
      "drawing": 4304,
      "diverged": 4305,
      "diversified": 4306,
      "dropping": 4307,
      "equipping": 4308,
      "equipment": 4309,
      "farms": 4310,
      "focused": 4311,
      "focusing": 4312,
      "follow": 4313,
      "follows": 4314,
      "failed": 4315,
      "failure": 4316,
      "farmers": 4317,
      "fjorden": 4318,
      "fjords": 4319,
      "foodstuf": 4320,
      "garis": 4321,
      "hybrids": 4322,
      "hony": 4323,
      "honored": 4324,
      "jobs": 4325,
      "ktonic": 4326,
      "longer": 4327,
      "maturity": 4328,
      "matriculated": 4329,
      "murder": 4330,
      "murdered": 4331,
      "massive": 4332,
      "multi": 4333,
      "multiple": 4334,
      "purpose": 4335,
      "purposes": 4336,
      "riot": 4337,
      "rarely": 4338,
      "soldiers": 4339,
      "twice": 4340,
      "twelve": 4341,
      "tallest": 4342,
      "technique": 4343,
      "techniques": 4344,
      "viridans": 4345,
      "water": 4346,
      "waters": 4347,
      "wishes": 4348,
      "ymous": 4349,
      "younger": 4350,
      "thinking": 4351,
      "indicated": 4352,
      "interact": 4353,
      "interests": 4354,
      "thenburg": 4355,
      "started": 4356,
      "starfish": 4357,
      "storehouses": 4358,
      "storyline": 4359,
      "offensive": 4360,
      "escape": 4361,
      "escapism": 4362,
      "recommended": 4363,
      "recommendations": 4364,
      "relating": 4365,
      "relative": 4366,
      "realigned": 4367,
      "realignments": 4368,
      "retired": 4369,
      "retiring": 4370,
      "iliarisation": 4371,
      "advance": 4372,
      "advisor": 4373,
      "adopts": 4374,
      "adopting": 4375,
      "eleven": 4376,
      "Theater": 4377,
      "Theatre": 4378,
      "emane": 4379,
      "protect": 4380,
      "protector": 4381,
      "trading": 4382,
      "traditionally": 4383,
      "immortal": 4384,
      "importance": 4385,
      "important": 4386,
      "concurrently": 4387,
      "departing": 4388,
      "department": 4389,
      "defeats": 4390,
      "destroyed": 4391,
      "destroying": 4392,
      "losses": 4393,
      "commissioned": 4394,
      "estimated": 4395,
      "estimates": 4396,
      "Interstate": 4397,
      "International": 4398,
      "excluding": 4399,
      "excellent": 4400,
      "extremely": 4401,
      "extensive": 4402,
      "extensions": 4403,
      "exceptional": 4404,
      "exceptions": 4405,
      "respective": 4406,
      "respectively": 4407,
      "sheriff": 4408,
      "shortages": 4409,
      "shortening": 4410,
      "planktonic": 4411,
      "crabs": 4412,
      "effective": 4413,
      "assistance": 4414,
      "lifestyle": 4415,
      "described": 4416,
      "description": 4417,
      "Seventh": 4418,
      "helicopter": 4419,
      "helicopters": 4420,
      "completed": 4421,
      "completing": 4422,
      "Organization": 4423,
      "Organizations": 4424,
      "depths": 4425,
      "captive": 4426,
      "capture": 4427,
      "northwesterly": 4428,
      "memorial": 4429,
      "memorabilia": 4430,
      "demonstrated": 4431,
      "evacuate": 4432,
      "evacuations": 4433,
      "headquarters": 4434,
      "headquartered": 4435,
      "controlled": 4436,
      "controlling": 4437,
      "weighing": 4438,
      "enthusias": 4439,
      "relationship": 4440,
      "Electric": 4441,
      "Electronics": 4442,
      "Konoha": 4443,
      "Konohagakure": 4444,
      "kilometre": 4445,
      "kilometres": 4446,
      "metrical": 4447,
      "suspected": 4448,
      "suspects": 4449,
      "responsibility": 4450,
      "responsibilities": 4451,
      "Contrary": 4452,
      "Controller": 4453,
      "piloting": 4454,
      "surviving": 4455,
      "survives": 4456,
      "adaptation": 4457,
      "administrations": 4458,
      "administrative": 4459,
      "production": 4460,
      "producing": 4461,
      "occupation": 4462,
      "occupied": 4463,
      "personality": 4464,
      "Transportation": 4465,
      "schooled": 4466,
      "tasked": 4467,
      "revitalize": 4468,
      "revitalization": 4469,
      "unwillingness": 4470,
      "33rd": 4471,
      "34th": 4472,
      "AADT": 4473,
      "According": 4474,
      "Attempts": 4475,
      "Azores": 4476,
      "Aerococc": 4477,
      "Astacus": 4478,
      "Aviation": 4479,
      "Academy": 4480,
      "Borneo": 4481,
      "Besides": 4482,
      "Baltic": 4483,
      "Bomber": 4484,
      "Buses": 4485,
      "Bungal": 4486,
      "Butterwor": 4487,
      "Brunei": 4488,
      "Block": 4489,
      "CEO": 4490,
      "Crabfish": 4491,
      "Casnov": 4492,
      "Crete": 4493,
      "Central": 4494,
      "Circle": 4495,
      "Captain": 4496,
      "Course": 4497,
      "Crematorium": 4498,
      "Corner": 4499,
      "Celebes": 4500,
      "Daly": 4501,
      "Dunedin": 4502,
      "Defence": 4503,
      "Established": 4504,
      "Equipped": 4505,
      "Education": 4506,
      "Eventually": 4507,
      "Foxley": 4508,
      "Federated": 4509,
      "Females": 4510,
      "Fabricius": 4511,
      "Friedrich": 4512,
      "Gaara": 4513,
      "Gothenburg": 4514,
      "Garing": 4515,
      "Greyhound": 4516,
      "Gambier": 4517,
      "Gentleman": 4518,
      "Gelel": 4519,
      "Gulf": 4520,
      "Gipsy": 4521,
      "Gekitō": 4522,
      "Hyuga": 4523,
      "Haruno": 4524,
      "Hatake": 4525,
      "Henson": 4526,
      "Hammon": 4527,
      "Houston": 4528,
      "Holthuis": 4529,
      "Havilland": 4530,
      "Hokage": 4531,
      "Hobart": 4532,
      "Hilda": 4533,
      "Haido": 4534,
      "Hospital": 4535,
      "Iroquois": 4536,
      "Jackson": 4537,
      "Jump": 4538,
      "Jimmie": 4539,
      "Katherine": 4540,
      "Klansmen": 4541,
      "Koepang": 4542,
      "Kenneth": 4543,
      "Kurenai": 4544,
      "Kagemane": 4545,
      "Killen": 4546,
      "Kampong": 4547,
      "Launce": 4548,
      "Lobsters": 4549,
      "Louisian": 4550,
      "Little": 4551,
      "Limited": 4552,
      "Lewis": 4553,
      "Lauderdale": 4554,
      "Lipke": 4555,
      "Matsuyama": 4556,
      "Morocco": 4557,
      "Micropolitan": 4558,
      "Moure": 4559,
      "Mitsubishi": 4560,
      "Members": 4561,
      "Michael": 4562,
      "Memphis": 4563,
      "Movement": 4564,
      "MAEC": 4565,
      "NTT": 4566,
      "Netherlands": 4567,
      "Nhill": 4568,
      "Numerous": 4569,
      "Naturae": 4570,
      "Nomenclature": 4571,
      "Nanyo": 4572,
      "Neshoba": 4573,
      "Nephrops": 4574,
      "Observer": 4575,
      "Otsutsuki": 4576,
      "Outside": 4577,
      "Oosterschel": 4578,
      "Paul": 4579,
      "Performing": 4580,
      "Pirie": 4581,
      "Poplar": 4582,
      "Preservation": 4583,
      "Possess": 4584,
      "Previously": 4585,
      "Posted": 4586,
      "Pahang": 4587,
      "Percy": 4588,
      "Paddy": 4589,
      "Road": 4590,
      "Reserve": 4591,
      "Rita": 4592,
      "Removal": 4593,
      "Restaurant": 4594,
      "Rabbit": 4595,
      "Rodgers": 4596,
      "Refuel": 4597,
      "Rosenba": 4598,
      "Reconstruction": 4599,
      "Revival": 4600,
      "Rathbun": 4601,
      "RCTA": 4602,
      "Saigon": 4603,
      "Sky": 4604,
      "Sweden": 4605,
      "Shearer": 4606,
      "Security": 4607,
      "Susan": 4608,
      "Sunagakure": 4609,
      "Sabre": 4610,
      "Shelby": 4611,
      "Sparrow": 4612,
      "Society": 4613,
      "Satori": 4614,
      "Taisen": 4615,
      "Toneri": 4616,
      "Tennes": 4617,
      "Takashi": 4618,
      "Today": 4619,
      "Temple": 4620,
      "Tysfjorden": 4621,
      "Tsukuy": 4622,
      "Ultimate": 4623,
      "Uzumaki": 4624,
      "Usually": 4625,
      "Vernon": 4626,
      "Various": 4627,
      "Waters": 4628,
      "Wechsl": 4629,
      "Yuhi": 4630,
      "Yano": 4631,
      "Zealand": 4632,
      "Zeros": 4633,
      "Zoologic": 4634,
      "aete": 4635,
      "awareness": 4636,
      "bacterium": 4637,
      "brought": 4638,
      "budget": 4639,
      "barring": 4640,
      "cinating": 4641,
      "census": 4642,
      "calculation": 4643,
      "couple": 4644,
      "collected": 4645,
      "cremated": 4646,
      "customers": 4647,
      "cantonments": 4648,
      "canned": 4649,
      "crossed": 4650,
      "doubling": 4651,
      "digging": 4652,
      "duties": 4653,
      "different": 4654,
      "drift": 4655,
      "fixed": 4656,
      "fascinating": 4657,
      "familiarisation": 4658,
      "further": 4659,
      "fetch": 4660,
      "folk": 4661,
      "founder": 4662,
      "fears": 4663,
      "future": 4664,
      "fifth": 4665,
      "gnition": 4666,
      "gasoline": 4667,
      "girl": 4668,
      "gaffkaem": 4669,
      "grant": 4670,
      "hosts": 4671,
      "hospitals": 4672,
      "journey": 4673,
      "kidnapp": 4674,
      "laying": 4675,
      "lets": 4676,
      "limits": 4677,
      "liaison": 4678,
      "labor": 4679,
      "lectotype": 4680,
      "moment": 4681,
      "midnight": 4682,
      "mimic": 4683,
      "missing": 4684,
      "molluscs": 4685,
      "meaning": 4686,
      "measurements": 4687,
      "nadir": 4688,
      "nodules": 4689,
      "narrator": 4690,
      "pinpoint": 4691,
      "patrols": 4692,
      "powdered": 4693,
      "potential": 4694,
      "pagurus": 4695,
      "pearler": 4696,
      "pereiopods": 4697,
      "phase": 4698,
      "pierce": 4699,
      "phylum": 4700,
      "physical": 4701,
      "rule": 4702,
      "ratified": 4703,
      "racial": 4704,
      "rapidly": 4705,
      "swim": 4706,
      "soft": 4707,
      "single": 4708,
      "samples": 4709,
      "southeast": 4710,
      "sheer": 4711,
      "similar": 4712,
      "social": 4713,
      "scrap": 4714,
      "sometimes": 4715,
      "tanks": 4716,
      "titled": 4717,
      "tearing": 4718,
      "tempting": 4719,
      "temperature": 4720,
      "utopian": 4721,
      "vulgaris": 4722,
      "variations": 4723,
      "wanted": 4724,
      "written": 4725,
      "yellow": 4726,
      "zooplankton": 4727,
      "シカマル": 4728,
      "影真似の術": 4729,
      "initially": 4730,
      "invertebrates": 4731,
      "introduce": 4732,
      "instructors": 4733,
      "inaugural": 4734,
      "independent": 4735,
      "inhabited": 4736,
      "investigation": 4737,
      "themselves": 4738,
      "arily": 4739,
      "standby": 4740,
      "staple": 4741,
      "stalled": 4742,
      "enemies": 4743,
      "environment": 4744,
      "offering": 4745,
      "asymmetrical": 4746,
      "tours": 4747,
      "tournament": 4748,
      "alternate": 4749,
      "reader": 4750,
      "reorganised": 4751,
      "recognition": 4752,
      "reflected": 4753,
      "rearmament": 4754,
      "recently": 4755,
      "record": 4756,
      "reported": 4757,
      "repaired": 4758,
      "remarked": 4759,
      "rebuffed": 4760,
      "illustrated": 4761,
      "ecdysis": 4762,
      "acquitted": 4763,
      "eliminated": 4764,
      "forfeits": 4765,
      "opponent": 4766,
      "ophora": 4767,
      "universe": 4768,
      "unique": 4769,
      "unenthusiastic": 4770,
      "chakra": 4771,
      "leaflets": 4772,
      "levels": 4773,
      "legislative": 4774,
      "primarily": 4775,
      "private": 4776,
      "principal": 4777,
      "process": 4778,
      "practically": 4779,
      "properties": 4780,
      "protein": 4781,
      "Heffernan": 4782,
      "apathy": 4783,
      "seeking": 4784,
      "seventeenth": 4785,
      "tracks": 4786,
      "frozen": 4787,
      "improvements": 4788,
      "immobilized": 4789,
      "immense": 4790,
      "bypassing": 4791,
      "Shippūden": 4792,
      "Merrehope": 4793,
      "Stewart": 4794,
      "Starting": 4795,
      "Stephens": 4796,
      "Statistical": 4797,
      "conspicuous": 4798,
      "confusion": 4799,
      "substantive": 4800,
      "suggested": 4801,
      "strikes": 4802,
      "withdrawn": 4803,
      "defeating": 4804,
      "defined": 4805,
      "devotion": 4806,
      "aggression": 4807,
      "agrarian": 4808,
      "lodgment": 4809,
      "commuting": 4810,
      "polychaete": 4811,
      "incorporated": 4812,
      "spearheaded": 4813,
      "abdomen": 4814,
      "abrasive": 4815,
      "manipulate": 4816,
      "manslaughter": 4817,
      "Intelligence": 4818,
      "artificially": 4819,
      "astaxanthin": 4820,
      "explores": 4821,
      "extended": 4822,
      "expansion": 4823,
      "executive": 4824,
      "resettlement": 4825,
      "airlifting": 4826,
      "geographically": 4827,
      "octopus": 4828,
      "Commencing": 4829,
      "overlooked": 4830,
      "crushing": 4831,
      "Christopher": 4832,
      "avenges": 4833,
      "attached": 4834,
      "lauded": 4835,
      "redevelopment": 4836,
      "rediscovered": 4837,
      "associated": 4838,
      "affiliated": 4839,
      "norvegicus": 4840,
      "umbrella": 4841,
      "despatching": 4842,
      "victims": 4843,
      "progresses": 4844,
      "newcomers": 4845,
      "struggling": 4846,
      "aftermath": 4847,
      "Italianate": 4848,
      "Nordfolda": 4849,
      "Norwegian": 4850,
      "Anglican": 4851,
      "preponderance": 4852,
      "University": 4853,
      "obtained": 4854,
      "undertaken": 4855,
      "underprepared": 4856,
      "coalesce": 4857,
      "combination": 4858,
      "competition": 4859,
      "gazetted": 4860,
      "Orchestra": 4861,
      "Southampton": 4862,
      "anniversary": 4863,
      "Scherger": 4864,
      "invulnerable": 4865,
      "subdivisions": 4866,
      "Darkness": 4867,
      "Malcolm": 4868,
      "finalized": 4869,
      "cephalothorax": 4870,
      "transformation": 4871,
      "Symphony": 4872,
      "language": 4873,
      "paralectotypes": 4874,
      "contributing": 4875,
      "Weekly": 4876,
      "Weidmann": 4877,
      "displays": 4878,
      "Elmira": 4879,
      "Elizabeth": 4880,
      "published": 4881,
      "susceptible": 4882,
      "widespread": 4883,
      "reconfigured": 4884,
      "Kakuzu": 4885,
      "Rehabilitation": 4886,
      "Rebellion": 4887,
      "cuttlefish": 4888,
      "synonymous": 4889,
      "tendrils": 4890,
      "volunteers": 4891,
      "restaurants": 4892,
      "Birmingham": 4893,
      "Cycliophora": 4894,
      "CyberConnect2": 4895,
      "Shinobi": 4896,
      "Specialist": 4897,
      "Survived": 4898,
      "foodstuff": 4899,
      "enthusiasm": 4900,
      "Aerococcus": 4901,
      "Bungalow": 4902,
      "Butterworth": 4903,
      "Casnovia": 4904,
      "Launceston": 4905,
      "Louisiana": 4906,
      "Oosterschelde": 4907,
      "Possession": 4908,
      "Refueling": 4909,
      "Rosenbaum": 4910,
      "Tennessee": 4911,
      "Tsukuyomi": 4912,
      "Wechsler": 4913,
      "Zoological": 4914,
      "gaffkaemia": 4915,
      "kidnapped": 4916
    },
    "merges": [
      [
        "t",
        "h"
      ],
      [
        "i",
        "n"
      ],
      [
        "e",
        "r"
      ],
      [
        "a",
        "n"
      ],
      [
        "th",
        "e"
      ],
      [
        "o",
        "n"
      ],
      [
        "a",
        "r"
      ],
      [
        "e",
        "d"
      ],
      [
        "s",
        "t"
      ],
      [
        "a",
        "t"
      ],
      [
        "e",
        "n"
      ],
      [
        "o",
        "r"
      ],
      [
        "an",
        "d"
      ],
      [
        "o",
        "f"
      ],
      [
        "a",
        "s"
      ],
      [
        "t",
        "o"
      ],
      [
        "e",
        "s"
      ],
      [
        "in",
        "g"
      ],
      [
        "a",
        "l"
      ],
      [
        "i",
        "s"
      ],
      [
        "i",
        "c"
      ],
      [
        "r",
        "e"
      ],
      [
        "a",
        "m"
      ],
      [
        "i",
        "on"
      ],
      [
        "o",
        "m"
      ],
      [
        "o",
        "u"
      ],
      [
        "i",
        "t"
      ],
      [
        "i",
        "l"
      ],
      [
        "a",
        "d"
      ],
      [
        "h",
        "e"
      ],
      [
        "h",
        "i"
      ],
      [
        "en",
        "t"
      ],
      [
        "1",
        "9"
      ],
      [
        "e",
        "c"
      ],
      [
        "u",
        "r"
      ],
      [
        "u",
        "s"
      ],
      [
        "a",
        "c"
      ],
      [
        "i",
        "d"
      ],
      [
        "w",
        "as"
      ],
      [
        "at",
        "ion"
      ],
      [
        "e",
        "l"
      ],
      [
        "i",
        "r"
      ],
      [
        "o",
        "w"
      ],
      [
        "g",
        "h"
      ],
      [
        "l",
        "y"
      ],
      [
        "T",
        "he"
      ],
      [
        "e",
        "m"
      ],
      [
        "f",
        "or"
      ],
      [
        "i",
        "st"
      ],
      [
        "t",
        "er"
      ],
      [
        "\"",
        "\""
      ],
      [
        ".",
        "\""
      ],
      [
        "o",
        "p"
      ],
      [
        "a",
        "y"
      ],
      [
        "u",
        "n"
      ],
      [
        "c",
        "e"
      ],
      [
        "e",
        "t"
      ],
      [
        "v",
        "e"
      ],
      [
        "c",
        "h"
      ],
      [
        "o",
        "l"
      ],
      [
        "o",
        "t"
      ],
      [
        "l",
        "e"
      ],
      [
        "p",
        "r"
      ],
      [
        "H",
        "e"
      ],
      [
        "a",
        "p"
      ],
      [
        "i",
        "an"
      ],
      [
        "ar",
        "u"
      ],
      [
        "w",
        "h"
      ],
      [
        "om",
        "m"
      ],
      [
        "s",
        "e"
      ],
      [
        "v",
        "er"
      ],
      [
        "t",
        "r"
      ],
      [
        "it",
        "y"
      ],
      [
        "f",
        "r"
      ],
      [
        "b",
        "e"
      ],
      [
        "h",
        "is"
      ],
      [
        "i",
        "m"
      ],
      [
        "b",
        "y"
      ],
      [
        "i",
        "th"
      ],
      [
        "er",
        "s"
      ],
      [
        "ou",
        "n"
      ],
      [
        "S",
        "hi"
      ],
      [
        "M",
        "er"
      ],
      [
        "S",
        "t"
      ],
      [
        "c",
        "on"
      ],
      [
        "s",
        "u"
      ],
      [
        "st",
        "r"
      ],
      [
        "Shi",
        "k"
      ],
      [
        "a",
        "in"
      ],
      [
        "w",
        "ith"
      ],
      [
        "am",
        "aru"
      ],
      [
        "Shik",
        "amaru"
      ],
      [
        "id",
        "ian"
      ],
      [
        "Mer",
        "idian"
      ],
      [
        "fr",
        "om"
      ],
      [
        "d",
        "e"
      ],
      [
        "i",
        "es"
      ],
      [
        "a",
        "g"
      ],
      [
        "i",
        "g"
      ],
      [
        "l",
        "o"
      ],
      [
        "a",
        "f"
      ],
      [
        "t",
        "ed"
      ],
      [
        "u",
        "l"
      ],
      [
        "c",
        "omm"
      ],
      [
        "e",
        "w"
      ],
      [
        "e",
        "ar"
      ],
      [
        "m",
        "ar"
      ],
      [
        "q",
        "u"
      ],
      [
        "ar",
        "e"
      ],
      [
        "He",
        "ad"
      ],
      [
        "i",
        "gh"
      ],
      [
        "m",
        "ent"
      ],
      [
        "t",
        "ion"
      ],
      [
        "b",
        "er"
      ],
      [
        "e",
        "st"
      ],
      [
        "i",
        "a"
      ],
      [
        "t",
        "s"
      ],
      [
        "th",
        "er"
      ],
      [
        "c",
        "ity"
      ],
      [
        "f",
        "ic"
      ],
      [
        "i",
        "v"
      ],
      [
        "u",
        "t"
      ],
      [
        "is",
        "s"
      ],
      [
        "p",
        "o"
      ],
      [
        "in",
        "c"
      ],
      [
        "A",
        "ir"
      ],
      [
        "l",
        "am"
      ],
      [
        "r",
        "o"
      ],
      [
        "s",
        "p"
      ],
      [
        "er",
        "e"
      ],
      [
        "Head",
        "lam"
      ],
      [
        "a",
        "b"
      ],
      [
        "a",
        "k"
      ],
      [
        "d",
        "er"
      ],
      [
        "m",
        "an"
      ],
      [
        "p",
        "p"
      ],
      [
        "s",
        "er"
      ],
      [
        "th",
        "at"
      ],
      [
        "I",
        "n"
      ],
      [
        "N",
        "o"
      ],
      [
        "d",
        "ing"
      ],
      [
        "ar",
        "y"
      ],
      [
        "at",
        "e"
      ],
      [
        "ic",
        "h"
      ],
      [
        "ow",
        "n"
      ],
      [
        "2",
        "0"
      ],
      [
        "g",
        "am"
      ],
      [
        "r",
        "ou"
      ],
      [
        "ar",
        "t"
      ],
      [
        "m",
        "o"
      ],
      [
        "r",
        "a"
      ],
      [
        "oun",
        "d"
      ],
      [
        "a",
        "st"
      ],
      [
        "e",
        "x"
      ],
      [
        "l",
        "u"
      ],
      [
        "r",
        "es"
      ],
      [
        "on",
        "g"
      ],
      [
        "ar",
        "d"
      ],
      [
        "ou",
        "r"
      ],
      [
        "wh",
        "ich"
      ],
      [
        "A",
        "F"
      ],
      [
        "w",
        "ay"
      ],
      [
        "at",
        "ed"
      ],
      [
        "is",
        "h"
      ],
      [
        "19",
        "6"
      ],
      [
        "ur",
        "ing"
      ],
      [
        "i",
        "al"
      ],
      [
        "i",
        "ve"
      ],
      [
        "m",
        "er"
      ],
      [
        "s",
        "h"
      ],
      [
        "w",
        "ere"
      ],
      [
        "il",
        "l"
      ],
      [
        "mar",
        "us"
      ],
      [
        "gam",
        "marus"
      ],
      [
        "a",
        "ir"
      ],
      [
        "g",
        "e"
      ],
      [
        "g",
        "an"
      ],
      [
        "r",
        "ic"
      ],
      [
        "or",
        "ic"
      ],
      [
        "ic",
        "an"
      ],
      [
        "o",
        "c"
      ],
      [
        "o",
        "d"
      ],
      [
        "p",
        "l"
      ],
      [
        "w",
        "n"
      ],
      [
        "al",
        "l"
      ],
      [
        "ation",
        "s"
      ],
      [
        "em",
        "ber"
      ],
      [
        "ol",
        "l"
      ],
      [
        "1",
        "8"
      ],
      [
        "A",
        "u"
      ],
      [
        "C",
        "omm"
      ],
      [
        "b",
        "st"
      ],
      [
        "b",
        "ec"
      ],
      [
        "c",
        "tion"
      ],
      [
        "h",
        "as"
      ],
      [
        "i",
        "z"
      ],
      [
        "o",
        "ver"
      ],
      [
        "or",
        "t"
      ],
      [
        "to",
        "wn"
      ],
      [
        "hi",
        "gh"
      ],
      [
        "ig",
        "n"
      ],
      [
        "igh",
        "t"
      ],
      [
        "A",
        "AF"
      ],
      [
        "R",
        "AAF"
      ],
      [
        "c",
        "r"
      ],
      [
        "e",
        "f"
      ],
      [
        "u",
        "il"
      ],
      [
        "u",
        "ary"
      ],
      [
        "on",
        "e"
      ],
      [
        "es",
        "s"
      ],
      [
        "it",
        "e"
      ],
      [
        "19",
        "5"
      ],
      [
        "C",
        "h"
      ],
      [
        "a",
        "v"
      ],
      [
        "p",
        "er"
      ],
      [
        "u",
        "re"
      ],
      [
        "at",
        "t"
      ],
      [
        "en",
        "d"
      ],
      [
        "it",
        "s"
      ],
      [
        "lo",
        "bst"
      ],
      [
        "ro",
        "ad"
      ],
      [
        "e",
        "en"
      ],
      [
        "l",
        "a"
      ],
      [
        "l",
        "ar"
      ],
      [
        "r",
        "ed"
      ],
      [
        "w",
        "o"
      ],
      [
        "an",
        "s"
      ],
      [
        "or",
        "e"
      ],
      [
        "of",
        "fic"
      ],
      [
        "as",
        "s"
      ],
      [
        "am",
        "e"
      ],
      [
        "ac",
        "k"
      ],
      [
        "ac",
        "t"
      ],
      [
        "id",
        "e"
      ],
      [
        "ist",
        "ric"
      ],
      [
        "im",
        "e"
      ],
      [
        "af",
        "f"
      ],
      [
        "inc",
        "lu"
      ],
      [
        "own",
        "town"
      ],
      [
        "H",
        "ist"
      ],
      [
        "N",
        "ew"
      ],
      [
        "e",
        "g"
      ],
      [
        "f",
        "e"
      ],
      [
        "l",
        "i"
      ],
      [
        "r",
        "on"
      ],
      [
        "s",
        "on"
      ],
      [
        "in",
        "t"
      ],
      [
        "ad",
        "ron"
      ],
      [
        "ot",
        "el"
      ],
      [
        "qu",
        "adron"
      ],
      [
        "sp",
        "ec"
      ],
      [
        "ra",
        "il"
      ],
      [
        "Comm",
        "and"
      ],
      [
        "Hist",
        "oric"
      ],
      [
        "8",
        "2"
      ],
      [
        "H",
        "om"
      ],
      [
        "b",
        "uil"
      ],
      [
        "f",
        "ir"
      ],
      [
        "h",
        "a"
      ],
      [
        "p",
        "op"
      ],
      [
        "r",
        "an"
      ],
      [
        "w",
        "or"
      ],
      [
        "an",
        "ce"
      ],
      [
        "19",
        "4"
      ],
      [
        "ation",
        "al"
      ],
      [
        "ter",
        "s"
      ],
      [
        "be",
        "en"
      ],
      [
        "comm",
        "and"
      ],
      [
        "fir",
        "st"
      ],
      [
        "pop",
        "ul"
      ],
      [
        "J",
        "an"
      ],
      [
        "b",
        "r"
      ],
      [
        "d",
        "uring"
      ],
      [
        "l",
        "d"
      ],
      [
        "o",
        "ther"
      ],
      [
        "t",
        "y"
      ],
      [
        "y",
        "ear"
      ],
      [
        "re",
        "m"
      ],
      [
        "il",
        "e"
      ],
      [
        "el",
        "l"
      ],
      [
        "op",
        "er"
      ],
      [
        "str",
        "al"
      ],
      [
        "rou",
        "gh"
      ],
      [
        "Au",
        "stral"
      ],
      [
        "Jan",
        "uary"
      ],
      [
        "A",
        "l"
      ],
      [
        "M",
        "ar"
      ],
      [
        "c",
        "ur"
      ],
      [
        "d",
        "u"
      ],
      [
        "h",
        "ad"
      ],
      [
        "i",
        "pp"
      ],
      [
        "n",
        "or"
      ],
      [
        "t",
        "e"
      ],
      [
        "t",
        "wo"
      ],
      [
        "u",
        "m"
      ],
      [
        "u",
        "st"
      ],
      [
        "w",
        "est"
      ],
      [
        "en",
        "g"
      ],
      [
        "al",
        "s"
      ],
      [
        "19",
        "3"
      ],
      [
        "ow",
        "ing"
      ],
      [
        "ser",
        "ies"
      ],
      [
        "b",
        "et"
      ],
      [
        "d",
        "es"
      ],
      [
        "d",
        "owntown"
      ],
      [
        "e",
        "p"
      ],
      [
        "g",
        "o"
      ],
      [
        "g",
        "r"
      ],
      [
        "n",
        "ot"
      ],
      [
        "v",
        "ic"
      ],
      [
        "er",
        "n"
      ],
      [
        "en",
        "ce"
      ],
      [
        "al",
        "ly"
      ],
      [
        "al",
        "ong"
      ],
      [
        "ent",
        "er"
      ],
      [
        "pr",
        "o"
      ],
      [
        "1",
        "0"
      ],
      [
        "A",
        "mer"
      ],
      [
        "D",
        "istric"
      ],
      [
        "S",
        "quadron"
      ],
      [
        "i",
        "re"
      ],
      [
        "l",
        "and"
      ],
      [
        "n",
        "ew"
      ],
      [
        "u",
        "d"
      ],
      [
        "v",
        "en"
      ],
      [
        "v",
        "el"
      ],
      [
        "w",
        "een"
      ],
      [
        "in",
        "e"
      ],
      [
        "in",
        "j"
      ],
      [
        "an",
        "t"
      ],
      [
        "ar",
        "us"
      ],
      [
        "as",
        "ed"
      ],
      [
        "ou",
        "th"
      ],
      [
        "19",
        "7"
      ],
      [
        "ur",
        "n"
      ],
      [
        "ch",
        "ar"
      ],
      [
        "aru",
        "to"
      ],
      [
        "str",
        "u"
      ],
      [
        "af",
        "ter"
      ],
      [
        "high",
        "way"
      ],
      [
        "lobst",
        "er"
      ],
      [
        "inclu",
        "ding"
      ],
      [
        "son",
        "s"
      ],
      [
        "spec",
        "ies"
      ],
      [
        "rail",
        "road"
      ],
      [
        "Hom",
        "arus"
      ],
      [
        "A",
        "ve"
      ],
      [
        "I",
        "t"
      ],
      [
        "M",
        "iss"
      ],
      [
        "N",
        "or"
      ],
      [
        "d",
        "ay"
      ],
      [
        "e",
        "ast"
      ],
      [
        "h",
        "er"
      ],
      [
        "i",
        "e"
      ],
      [
        "l",
        "at"
      ],
      [
        "m",
        "s"
      ],
      [
        "o",
        "k"
      ],
      [
        "t",
        "en"
      ],
      [
        "t",
        "ing"
      ],
      [
        "er",
        "al"
      ],
      [
        "en",
        "c"
      ],
      [
        "or",
        "gan"
      ],
      [
        "re",
        "e"
      ],
      [
        "ou",
        "s"
      ],
      [
        "it",
        "ion"
      ],
      [
        "ent",
        "s"
      ],
      [
        "ap",
        "p"
      ],
      [
        "oll",
        "owing"
      ],
      [
        "ha",
        "ve"
      ],
      [
        "Austral",
        "ia"
      ],
      [
        "als",
        "o"
      ],
      [
        "Amer",
        "ican"
      ],
      [
        "Distric",
        "t"
      ],
      [
        "1",
        "5"
      ],
      [
        "A",
        "n"
      ],
      [
        "A",
        "s"
      ],
      [
        "D",
        "ec"
      ],
      [
        "P",
        "en"
      ],
      [
        "S",
        "e"
      ],
      [
        "V",
        "ic"
      ],
      [
        "b",
        "ut"
      ],
      [
        "c",
        "oun"
      ],
      [
        "e",
        "y"
      ],
      [
        "f",
        "er"
      ],
      [
        "p",
        "re"
      ],
      [
        "the",
        "ir"
      ],
      [
        "at",
        "ing"
      ],
      [
        "al",
        "e"
      ],
      [
        "ou",
        "t"
      ],
      [
        "el",
        "y"
      ],
      [
        "ap",
        "po"
      ],
      [
        "ver",
        "al"
      ],
      [
        "ag",
        "ain"
      ],
      [
        "ther",
        "n"
      ],
      [
        "iss",
        "ipp"
      ],
      [
        "wor",
        "k"
      ],
      [
        "bet",
        "ween"
      ],
      [
        "inj",
        "a"
      ],
      [
        "char",
        "ac"
      ],
      [
        "Miss",
        "issipp"
      ],
      [
        "Mississipp",
        "i"
      ],
      [
        "0",
        "0"
      ],
      [
        "F",
        "or"
      ],
      [
        "N",
        "aruto"
      ],
      [
        "U",
        "n"
      ],
      [
        "a",
        "u"
      ],
      [
        "i",
        "p"
      ],
      [
        "i",
        "ed"
      ],
      [
        "o",
        "b"
      ],
      [
        "p",
        "e"
      ],
      [
        "p",
        "art"
      ],
      [
        "r",
        "y"
      ],
      [
        "s",
        "i"
      ],
      [
        "t",
        "or"
      ],
      [
        "v",
        "ed"
      ],
      [
        "th",
        "ou"
      ],
      [
        "re",
        "et"
      ],
      [
        "om",
        "e"
      ],
      [
        "he",
        "l"
      ],
      [
        "us",
        "e"
      ],
      [
        "ac",
        "h"
      ],
      [
        "un",
        "der"
      ],
      [
        "ot",
        "ed"
      ],
      [
        "le",
        "ad"
      ],
      [
        "pr",
        "es"
      ],
      [
        "wh",
        "en"
      ],
      [
        "se",
        "veral"
      ],
      [
        "St",
        "reet"
      ],
      [
        "con",
        "t"
      ],
      [
        "ain",
        "ing"
      ],
      [
        "20",
        "0"
      ],
      [
        "mo",
        "st"
      ],
      [
        "offic",
        "er"
      ],
      [
        "buil",
        "t"
      ],
      [
        "app",
        "ear"
      ],
      [
        "Dec",
        "ember"
      ],
      [
        "2",
        "3"
      ],
      [
        "A",
        "O"
      ],
      [
        "A",
        "f"
      ],
      [
        "C",
        "ity"
      ],
      [
        "H",
        "otel"
      ],
      [
        "I",
        "I"
      ],
      [
        "N",
        "ational"
      ],
      [
        "O",
        "n"
      ],
      [
        "c",
        "o"
      ],
      [
        "c",
        "om"
      ],
      [
        "e",
        "an"
      ],
      [
        "f",
        "l"
      ],
      [
        "g",
        "a"
      ],
      [
        "l",
        "ish"
      ],
      [
        "m",
        "a"
      ],
      [
        "m",
        "in"
      ],
      [
        "m",
        "ay"
      ],
      [
        "n",
        "e"
      ],
      [
        "r",
        "it"
      ],
      [
        "s",
        "ec"
      ],
      [
        "u",
        "p"
      ],
      [
        "u",
        "ly"
      ],
      [
        "th",
        "is"
      ],
      [
        "th",
        "ree"
      ],
      [
        "an",
        "es"
      ],
      [
        "on",
        "t"
      ],
      [
        "on",
        "ly"
      ],
      [
        "at",
        "es"
      ],
      [
        "ec",
        "t"
      ],
      [
        "em",
        "p"
      ],
      [
        "un",
        "ction"
      ],
      [
        "St",
        "aff"
      ],
      [
        "su",
        "pp"
      ],
      [
        "ag",
        "e"
      ],
      [
        "are",
        "a"
      ],
      [
        "igh",
        "ts"
      ],
      [
        "po",
        "st"
      ],
      [
        "ound",
        "ed"
      ],
      [
        "pl",
        "ac"
      ],
      [
        "bec",
        "ame"
      ],
      [
        "popul",
        "ation"
      ],
      [
        "cur",
        "r"
      ],
      [
        "vel",
        "op"
      ],
      [
        "organ",
        "iz"
      ],
      [
        "Af",
        "ter"
      ],
      [
        "1",
        "3"
      ],
      [
        "2",
        "4"
      ],
      [
        "6",
        "0"
      ],
      [
        "J",
        "uly"
      ],
      [
        "O",
        "r"
      ],
      [
        "S",
        "outh"
      ],
      [
        "T",
        "h"
      ],
      [
        "W",
        "ar"
      ],
      [
        "a",
        "il"
      ],
      [
        "c",
        "ar"
      ],
      [
        "c",
        "our"
      ],
      [
        "f",
        "ollowing"
      ],
      [
        "h",
        "otel"
      ],
      [
        "j",
        "unction"
      ],
      [
        "l",
        "es"
      ],
      [
        "m",
        "ed"
      ],
      [
        "o",
        "s"
      ],
      [
        "o",
        "th"
      ],
      [
        "r",
        "en"
      ],
      [
        "r",
        "un"
      ],
      [
        "t",
        "on"
      ],
      [
        "an",
        "n"
      ],
      [
        "an",
        "ime"
      ],
      [
        "as",
        "e"
      ],
      [
        "re",
        "g"
      ],
      [
        "om",
        "oted"
      ],
      [
        "il",
        "it"
      ],
      [
        "hi",
        "m"
      ],
      [
        "ec",
        "ted"
      ],
      [
        "us",
        "ed"
      ],
      [
        "for",
        "e"
      ],
      [
        "ay",
        "go"
      ],
      [
        "wh",
        "o"
      ],
      [
        "ver",
        "y"
      ],
      [
        "de",
        "p"
      ],
      [
        "de",
        "velop"
      ],
      [
        "qu",
        "ar"
      ],
      [
        "iv",
        "il"
      ],
      [
        "rou",
        "p"
      ],
      [
        "sh",
        "al"
      ],
      [
        "la",
        "w"
      ],
      [
        "New",
        "aygo"
      ],
      [
        "te",
        "am"
      ],
      [
        "charac",
        "ter"
      ],
      [
        "For",
        "ce"
      ],
      [
        "pres",
        "ent"
      ],
      [
        "cont",
        "in"
      ],
      [
        "0",
        "s"
      ],
      [
        "4",
        "6"
      ],
      [
        "9",
        "0"
      ],
      [
        "E",
        "n"
      ],
      [
        "F",
        "rem"
      ],
      [
        "H",
        "ow"
      ],
      [
        "H",
        "ud"
      ],
      [
        "J",
        "ap"
      ],
      [
        "M",
        "ain"
      ],
      [
        "S",
        "ch"
      ],
      [
        "T",
        "his"
      ],
      [
        "b",
        "att"
      ],
      [
        "b",
        "ased"
      ],
      [
        "b",
        "ounded"
      ],
      [
        "c",
        "ap"
      ],
      [
        "c",
        "law"
      ],
      [
        "d",
        "ist"
      ],
      [
        "f",
        "ound"
      ],
      [
        "g",
        "en"
      ],
      [
        "i",
        "ver"
      ],
      [
        "l",
        "ine"
      ],
      [
        "m",
        "ore"
      ],
      [
        "n",
        "ow"
      ],
      [
        "n",
        "inja"
      ],
      [
        "o",
        "ol"
      ],
      [
        "s",
        "et"
      ],
      [
        "t",
        "l"
      ],
      [
        "u",
        "e"
      ],
      [
        "v",
        "ide"
      ],
      [
        "th",
        "rough"
      ],
      [
        "in",
        "v"
      ],
      [
        "in",
        "ted"
      ],
      [
        "an",
        "y"
      ],
      [
        "ar",
        "i"
      ],
      [
        "st",
        "aff"
      ],
      [
        "at",
        "ive"
      ],
      [
        "at",
        "ure"
      ],
      [
        "or",
        "der"
      ],
      [
        "hi",
        "st"
      ],
      [
        "ly",
        "ing"
      ],
      [
        "ist",
        "er"
      ],
      [
        "pr",
        "omoted"
      ],
      [
        "wh",
        "ite"
      ],
      [
        "be",
        "gan"
      ],
      [
        "con",
        "s"
      ],
      [
        "con",
        "stru"
      ],
      [
        "su",
        "b"
      ],
      [
        "lo",
        "c"
      ],
      [
        "iss",
        "ion"
      ],
      [
        "po",
        "s"
      ],
      [
        "ab",
        "le"
      ],
      [
        "lar",
        "g"
      ],
      [
        "ass",
        "ign"
      ],
      [
        "year",
        "s"
      ],
      [
        "rough",
        "ly"
      ],
      [
        "nor",
        "th"
      ],
      [
        "des",
        "ign"
      ],
      [
        "lat",
        "er"
      ],
      [
        "fer",
        "red"
      ],
      [
        "appo",
        "inted"
      ],
      [
        "again",
        "st"
      ],
      [
        "thou",
        "gh"
      ],
      [
        "anes",
        "e"
      ],
      [
        "contin",
        "u"
      ],
      [
        "Frem",
        "ont"
      ],
      [
        "How",
        "ard"
      ],
      [
        "Hud",
        "sons"
      ],
      [
        "Jap",
        "anese"
      ],
      [
        "1",
        "7"
      ],
      [
        "2",
        "6"
      ],
      [
        "A",
        "re"
      ],
      [
        "C",
        "oun"
      ],
      [
        "C",
        "enter"
      ],
      [
        "D",
        "ar"
      ],
      [
        "D",
        "ep"
      ],
      [
        "J",
        "un"
      ],
      [
        "M",
        "al"
      ],
      [
        "P",
        "l"
      ],
      [
        "T",
        "r"
      ],
      [
        "b",
        "l"
      ],
      [
        "b",
        "ers"
      ],
      [
        "c",
        "an"
      ],
      [
        "c",
        "all"
      ],
      [
        "e",
        "br"
      ],
      [
        "f",
        "t"
      ],
      [
        "f",
        "u"
      ],
      [
        "f",
        "in"
      ],
      [
        "f",
        "our"
      ],
      [
        "f",
        "lying"
      ],
      [
        "i",
        "or"
      ],
      [
        "k",
        "e"
      ],
      [
        "k",
        "n"
      ],
      [
        "l",
        "ed"
      ],
      [
        "l",
        "eng"
      ],
      [
        "m",
        "em"
      ],
      [
        "n",
        "ame"
      ],
      [
        "o",
        "v"
      ],
      [
        "p",
        "on"
      ],
      [
        "p",
        "ers"
      ],
      [
        "s",
        "en"
      ],
      [
        "t",
        "ime"
      ],
      [
        "t",
        "urn"
      ],
      [
        "v",
        "i"
      ],
      [
        "in",
        "to"
      ],
      [
        "in",
        "es"
      ],
      [
        "in",
        "ess"
      ],
      [
        "er",
        "ican"
      ],
      [
        "the",
        "y"
      ],
      [
        "on",
        "d"
      ],
      [
        "st",
        "ation"
      ],
      [
        "st",
        "ate"
      ],
      [
        "at",
        "ch"
      ],
      [
        "is",
        "hi"
      ],
      [
        "am",
        "s"
      ],
      [
        "am",
        "erican"
      ],
      [
        "hi",
        "ef"
      ],
      [
        "ec",
        "on"
      ],
      [
        "ac",
        "e"
      ],
      [
        "gh",
        "t"
      ],
      [
        "for",
        "c"
      ],
      [
        "ist",
        "ed"
      ],
      [
        "ce",
        "p"
      ],
      [
        "ce",
        "an"
      ],
      [
        "ol",
        "d"
      ],
      [
        "tr",
        "ans"
      ],
      [
        "be",
        "fore"
      ],
      [
        "St",
        "ation"
      ],
      [
        "lo",
        "y"
      ],
      [
        "ul",
        "t"
      ],
      [
        "Head",
        "quar"
      ],
      [
        "man",
        "ga"
      ],
      [
        "ser",
        "ved"
      ],
      [
        "lobst",
        "ers"
      ],
      [
        "Mar",
        "shal"
      ],
      [
        "du",
        "e"
      ],
      [
        "Nor",
        "th"
      ],
      [
        "Pen",
        "fu"
      ],
      [
        "Se",
        "a"
      ],
      [
        "Vic",
        "e"
      ],
      [
        "Un",
        "ion"
      ],
      [
        "AO",
        "C"
      ],
      [
        "curr",
        "ent"
      ],
      [
        "hotel",
        "s"
      ],
      [
        "continu",
        "ed"
      ],
      [
        "Are",
        "a"
      ],
      [
        "Jun",
        "e"
      ],
      [
        "leng",
        "th"
      ],
      [
        "american",
        "us"
      ],
      [
        "Penfu",
        "i"
      ],
      [
        "1",
        "4"
      ],
      [
        "2",
        "9"
      ],
      [
        "3",
        "7"
      ],
      [
        "A",
        "k"
      ],
      [
        "A",
        "r"
      ],
      [
        "A",
        "su"
      ],
      [
        "B",
        "rit"
      ],
      [
        "C",
        "ar"
      ],
      [
        "C",
        "hief"
      ],
      [
        "D",
        "uring"
      ],
      [
        "E",
        "ur"
      ],
      [
        "G",
        "en"
      ],
      [
        "H",
        "es"
      ],
      [
        "K",
        "ishi"
      ],
      [
        "O",
        "cean"
      ],
      [
        "P",
        "art"
      ],
      [
        "S",
        "y"
      ],
      [
        "S",
        "as"
      ],
      [
        "T",
        "em"
      ],
      [
        "W",
        "est"
      ],
      [
        "a",
        "e"
      ],
      [
        "a",
        "ver"
      ],
      [
        "b",
        "om"
      ],
      [
        "b",
        "us"
      ],
      [
        "b",
        "ack"
      ],
      [
        "c",
        "il"
      ],
      [
        "c",
        "ted"
      ],
      [
        "c",
        "enter"
      ],
      [
        "d",
        "ec"
      ],
      [
        "d",
        "em"
      ],
      [
        "d",
        "istric"
      ],
      [
        "d",
        "ale"
      ],
      [
        "e",
        "v"
      ],
      [
        "f",
        "ed"
      ],
      [
        "g",
        "ust"
      ],
      [
        "h",
        "n"
      ],
      [
        "h",
        "ome"
      ],
      [
        "i",
        "f"
      ],
      [
        "i",
        "fic"
      ],
      [
        "k",
        "m"
      ],
      [
        "k",
        "s"
      ],
      [
        "l",
        "an"
      ],
      [
        "l",
        "isted"
      ],
      [
        "m",
        "on"
      ],
      [
        "n",
        "am"
      ],
      [
        "o",
        "y"
      ],
      [
        "p",
        "ar"
      ],
      [
        "p",
        "ass"
      ],
      [
        "s",
        "s"
      ],
      [
        "s",
        "in"
      ],
      [
        "s",
        "ide"
      ],
      [
        "t",
        "ain"
      ],
      [
        "t",
        "ak"
      ],
      [
        "v",
        "es"
      ],
      [
        "v",
        "ember"
      ],
      [
        "w",
        "in"
      ],
      [
        "w",
        "ar"
      ],
      [
        "w",
        "ard"
      ],
      [
        "w",
        "ell"
      ],
      [
        "in",
        "du"
      ],
      [
        "the",
        "m"
      ],
      [
        "ar",
        "m"
      ],
      [
        "st",
        "em"
      ],
      [
        "ic",
        "ally"
      ],
      [
        "re",
        "present"
      ],
      [
        "om",
        "y"
      ],
      [
        "ou",
        "ld"
      ],
      [
        "ou",
        "thern"
      ],
      [
        "it",
        "ed"
      ],
      [
        "il",
        "d"
      ],
      [
        "ad",
        "e"
      ],
      [
        "ad",
        "ow"
      ],
      [
        "he",
        "ad"
      ],
      [
        "19",
        "0"
      ],
      [
        "ur",
        "d"
      ],
      [
        "ot",
        "s"
      ],
      [
        "wh",
        "ere"
      ],
      [
        "con",
        "tr"
      ],
      [
        "su",
        "c"
      ],
      [
        "de",
        "f"
      ],
      [
        "ig",
        "ation"
      ],
      [
        "iv",
        "ing"
      ],
      [
        "sp",
        "ort"
      ],
      [
        "No",
        "vember"
      ],
      [
        "mo",
        "to"
      ],
      [
        "sh",
        "adow"
      ],
      [
        "Au",
        "gust"
      ],
      [
        "bec",
        "om"
      ],
      [
        "Ch",
        "an"
      ],
      [
        "per",
        "ia"
      ],
      [
        "lar",
        "ge"
      ],
      [
        "li",
        "k"
      ],
      [
        "int",
        "ell"
      ],
      [
        "buil",
        "ding"
      ],
      [
        "ran",
        "k"
      ],
      [
        "command",
        "er"
      ],
      [
        "vic",
        "e"
      ],
      [
        "An",
        "sons"
      ],
      [
        "lead",
        "er"
      ],
      [
        "appear",
        "ance"
      ],
      [
        "fl",
        "ight"
      ],
      [
        "sec",
        "tion"
      ],
      [
        "supp",
        "ort"
      ],
      [
        "post",
        "ed"
      ],
      [
        "develop",
        "ment"
      ],
      [
        "batt",
        "le"
      ],
      [
        "vide",
        "o"
      ],
      [
        "hist",
        "oric"
      ],
      [
        "Dar",
        "win"
      ],
      [
        "Mal",
        "ay"
      ],
      [
        "Tr",
        "aining"
      ],
      [
        "kn",
        "own"
      ],
      [
        "econ",
        "omy"
      ],
      [
        "Headquar",
        "ters"
      ],
      [
        "Asu",
        "ma"
      ],
      [
        "Eur",
        "op"
      ],
      [
        "Hes",
        "peria"
      ],
      [
        "Kishi",
        "moto"
      ],
      [
        "Tem",
        "ari"
      ],
      [
        "bus",
        "iness"
      ],
      [
        "sin",
        "ce"
      ],
      [
        "indu",
        "str"
      ],
      [
        "1",
        "1"
      ],
      [
        "1",
        "20"
      ],
      [
        "3",
        "0"
      ],
      [
        "3",
        "8"
      ],
      [
        "5",
        "th"
      ],
      [
        "A",
        "S"
      ],
      [
        "A",
        "fr"
      ],
      [
        "A",
        "ven"
      ],
      [
        "C",
        "an"
      ],
      [
        "D",
        "owntown"
      ],
      [
        "D",
        "ire"
      ],
      [
        "E",
        "ast"
      ],
      [
        "F",
        "ebr"
      ],
      [
        "G",
        "roup"
      ],
      [
        "H",
        "igh"
      ],
      [
        "L",
        "and"
      ],
      [
        "M",
        "us"
      ],
      [
        "M",
        "ay"
      ],
      [
        "O",
        "c"
      ],
      [
        "O",
        "f"
      ],
      [
        "O",
        "per"
      ],
      [
        "R",
        "ag"
      ],
      [
        "R",
        "AF"
      ],
      [
        "R",
        "eg"
      ],
      [
        "U",
        "S"
      ],
      [
        "W",
        "e"
      ],
      [
        "W",
        "ing"
      ],
      [
        "W",
        "ard"
      ],
      [
        "a",
        "i"
      ],
      [
        "a",
        "id"
      ],
      [
        "b",
        "i"
      ],
      [
        "b",
        "le"
      ],
      [
        "c",
        "re"
      ],
      [
        "c",
        "ent"
      ],
      [
        "c",
        "au"
      ],
      [
        "c",
        "tor"
      ],
      [
        "c",
        "ivil"
      ],
      [
        "d",
        "is"
      ],
      [
        "e",
        "very"
      ],
      [
        "f",
        "av"
      ],
      [
        "g",
        "ic"
      ],
      [
        "h",
        "ous"
      ],
      [
        "i",
        "qu"
      ],
      [
        "j",
        "or"
      ],
      [
        "k",
        "ill"
      ],
      [
        "l",
        "ate"
      ],
      [
        "m",
        "i"
      ],
      [
        "m",
        "ember"
      ],
      [
        "m",
        "ilit"
      ],
      [
        "n",
        "o"
      ],
      [
        "n",
        "ear"
      ],
      [
        "n",
        "ight"
      ],
      [
        "o",
        "ot"
      ],
      [
        "o",
        "od"
      ],
      [
        "o",
        "int"
      ],
      [
        "p",
        "ite"
      ],
      [
        "r",
        "ow"
      ],
      [
        "r",
        "ied"
      ],
      [
        "r",
        "ights"
      ],
      [
        "s",
        "l"
      ],
      [
        "s",
        "ion"
      ],
      [
        "s",
        "quadron"
      ],
      [
        "s",
        "outh"
      ],
      [
        "s",
        "dale"
      ],
      [
        "t",
        "il"
      ],
      [
        "u",
        "f"
      ],
      [
        "u",
        "ke"
      ],
      [
        "w",
        "e"
      ],
      [
        "y",
        "s"
      ],
      [
        "th",
        "an"
      ],
      [
        "an",
        "ge"
      ],
      [
        "on",
        "n"
      ],
      [
        "ar",
        "a"
      ],
      [
        "en",
        "th"
      ],
      [
        "or",
        "n"
      ],
      [
        "or",
        "y"
      ],
      [
        "as",
        "hi"
      ],
      [
        "to",
        "ber"
      ],
      [
        "to",
        "ok"
      ],
      [
        "al",
        "es"
      ],
      [
        "al",
        "though"
      ],
      [
        "is",
        "ed"
      ],
      [
        "re",
        "l"
      ],
      [
        "re",
        "at"
      ],
      [
        "re",
        "plac"
      ],
      [
        "re",
        "vi"
      ],
      [
        "ent",
        "ed"
      ],
      [
        "ur",
        "y"
      ],
      [
        "ur",
        "ed"
      ],
      [
        "id",
        "er"
      ],
      [
        "el",
        "ected"
      ],
      [
        "ow",
        "er"
      ],
      [
        "for",
        "m"
      ],
      [
        "op",
        "le"
      ],
      [
        "un",
        "in"
      ],
      [
        "un",
        "til"
      ],
      [
        "pr",
        "ess"
      ],
      [
        "tr",
        "an"
      ],
      [
        "tr",
        "un"
      ],
      [
        "tr",
        "af"
      ],
      [
        "tr",
        "av"
      ],
      [
        "su",
        "k"
      ],
      [
        "ag",
        "ed"
      ],
      [
        "comm",
        "on"
      ],
      [
        "ment",
        "s"
      ],
      [
        "fic",
        "er"
      ],
      [
        "ut",
        "y"
      ],
      [
        "inc",
        "re"
      ],
      [
        "ab",
        "lish"
      ],
      [
        "res",
        "pon"
      ],
      [
        "ish",
        "ed"
      ],
      [
        "oc",
        "cur"
      ],
      [
        "high",
        "ly"
      ],
      [
        "ef",
        "for"
      ],
      [
        "195",
        "9"
      ],
      [
        "Ch",
        "unin"
      ],
      [
        "av",
        "igation"
      ],
      [
        "att",
        "ack"
      ],
      [
        "offic",
        "ial"
      ],
      [
        "act",
        "iv"
      ],
      [
        "fe",
        "at"
      ],
      [
        "li",
        "fe"
      ],
      [
        "command",
        "ing"
      ],
      [
        "popul",
        "ar"
      ],
      [
        "oper",
        "ating"
      ],
      [
        "Al",
        "l"
      ],
      [
        "Mar",
        "ch"
      ],
      [
        "nor",
        "thern"
      ],
      [
        "along",
        "side"
      ],
      [
        "railroad",
        "s"
      ],
      [
        "enc",
        "ed"
      ],
      [
        "ition",
        "s"
      ],
      [
        "Vic",
        "tor"
      ],
      [
        "coun",
        "ty"
      ],
      [
        "coun",
        "cil"
      ],
      [
        "work",
        "ers"
      ],
      [
        "pe",
        "ople"
      ],
      [
        "si",
        "x"
      ],
      [
        "may",
        "or"
      ],
      [
        "organiz",
        "ations"
      ],
      [
        "Or",
        "der"
      ],
      [
        "cour",
        "se"
      ],
      [
        "Sch",
        "ool"
      ],
      [
        "dist",
        "inc"
      ],
      [
        "cons",
        "ider"
      ],
      [
        "assign",
        "ed"
      ],
      [
        "call",
        "ed"
      ],
      [
        "mem",
        "bers"
      ],
      [
        "forc",
        "es"
      ],
      [
        "Brit",
        "ish"
      ],
      [
        "Gen",
        "eral"
      ],
      [
        "Sas",
        "uke"
      ],
      [
        "bom",
        "b"
      ],
      [
        "distric",
        "ts"
      ],
      [
        "ward",
        "s"
      ],
      [
        "represent",
        "ative"
      ],
      [
        "Chan",
        "ey"
      ],
      [
        "intell",
        "ig"
      ],
      [
        "Europ",
        "ean"
      ],
      [
        "Aven",
        "ue"
      ],
      [
        "Febr",
        "uary"
      ],
      [
        "Oc",
        "tober"
      ],
      [
        "Of",
        "ficer"
      ],
      [
        "Rag",
        "sdale"
      ],
      [
        "cau",
        "ght"
      ],
      [
        "fav",
        "or"
      ],
      [
        "milit",
        "ary"
      ],
      [
        "traf",
        "fic"
      ],
      [
        "1",
        "2"
      ],
      [
        "2",
        "24"
      ],
      [
        "6",
        "th"
      ],
      [
        "8",
        "th"
      ],
      [
        "A",
        "ge"
      ],
      [
        "B",
        "all"
      ],
      [
        "B",
        "uil"
      ],
      [
        "C",
        "B"
      ],
      [
        "C",
        "O"
      ],
      [
        "C",
        "om"
      ],
      [
        "C",
        "ol"
      ],
      [
        "C",
        "ivil"
      ],
      [
        "E",
        "l"
      ],
      [
        "F",
        "ollowing"
      ],
      [
        "G",
        "r"
      ],
      [
        "G",
        "old"
      ],
      [
        "H",
        "id"
      ],
      [
        "I",
        "s"
      ],
      [
        "K",
        "on"
      ],
      [
        "L",
        "ond"
      ],
      [
        "M",
        "el"
      ],
      [
        "M",
        "urd"
      ],
      [
        "N",
        "inja"
      ],
      [
        "Q",
        "u"
      ],
      [
        "R",
        "ile"
      ],
      [
        "R",
        "ail"
      ],
      [
        "S",
        "u"
      ],
      [
        "S",
        "ing"
      ],
      [
        "S",
        "pr"
      ],
      [
        "T",
        "ec"
      ],
      [
        "W",
        "h"
      ],
      [
        "W",
        "or"
      ],
      [
        "a",
        "th"
      ],
      [
        "a",
        "ve"
      ],
      [
        "a",
        "use"
      ],
      [
        "b",
        "o"
      ],
      [
        "b",
        "an"
      ],
      [
        "b",
        "ur"
      ],
      [
        "b",
        "our"
      ],
      [
        "b",
        "od"
      ],
      [
        "b",
        "oth"
      ],
      [
        "b",
        "ase"
      ],
      [
        "c",
        "er"
      ],
      [
        "c",
        "or"
      ],
      [
        "c",
        "hi"
      ],
      [
        "c",
        "ess"
      ],
      [
        "d",
        "am"
      ],
      [
        "e",
        "k"
      ],
      [
        "e",
        "as"
      ],
      [
        "e",
        "am"
      ],
      [
        "g",
        "l"
      ],
      [
        "g",
        "s"
      ],
      [
        "g",
        "es"
      ],
      [
        "g",
        "et"
      ],
      [
        "g",
        "over"
      ],
      [
        "g",
        "lish"
      ],
      [
        "g",
        "roup"
      ],
      [
        "h",
        "ol"
      ],
      [
        "h",
        "ard"
      ],
      [
        "i",
        "us"
      ],
      [
        "i",
        "el"
      ],
      [
        "j",
        "i"
      ],
      [
        "j",
        "o"
      ],
      [
        "k",
        "il"
      ],
      [
        "k",
        "eg"
      ],
      [
        "l",
        "ast"
      ],
      [
        "l",
        "ack"
      ],
      [
        "l",
        "ines"
      ],
      [
        "m",
        "p"
      ],
      [
        "m",
        "ou"
      ],
      [
        "m",
        "et"
      ],
      [
        "m",
        "all"
      ],
      [
        "m",
        "ission"
      ],
      [
        "m",
        "ade"
      ],
      [
        "n",
        "d"
      ],
      [
        "n",
        "ment"
      ],
      [
        "n",
        "eg"
      ],
      [
        "o",
        "st"
      ],
      [
        "o",
        "ch"
      ],
      [
        "o",
        "se"
      ],
      [
        "p",
        "u"
      ],
      [
        "p",
        "or"
      ],
      [
        "p",
        "le"
      ],
      [
        "p",
        "air"
      ],
      [
        "p",
        "oll"
      ],
      [
        "r",
        "d"
      ],
      [
        "r",
        "op"
      ],
      [
        "r",
        "ul"
      ],
      [
        "s",
        "hi"
      ],
      [
        "s",
        "ent"
      ],
      [
        "s",
        "us"
      ],
      [
        "s",
        "ign"
      ],
      [
        "s",
        "mall"
      ],
      [
        "t",
        "im"
      ],
      [
        "u",
        "ally"
      ],
      [
        "w",
        "id"
      ],
      [
        "w",
        "ill"
      ],
      [
        "w",
        "ould"
      ],
      [
        "in",
        "ed"
      ],
      [
        "in",
        "st"
      ],
      [
        "in",
        "al"
      ],
      [
        "in",
        "su"
      ],
      [
        "er",
        "a"
      ],
      [
        "er",
        "g"
      ],
      [
        "an",
        "im"
      ],
      [
        "ar",
        "s"
      ],
      [
        "at",
        "tr"
      ],
      [
        "ic",
        "hi"
      ],
      [
        "re",
        "le"
      ],
      [
        "re",
        "con"
      ],
      [
        "re",
        "ef"
      ],
      [
        "re",
        "ach"
      ],
      [
        "re",
        "ferred"
      ],
      [
        "re",
        "turn"
      ],
      [
        "ou",
        "se"
      ],
      [
        "il",
        "ity"
      ],
      [
        "il",
        "iz"
      ],
      [
        "19",
        "8"
      ],
      [
        "ec",
        "ts"
      ],
      [
        "ur",
        "al"
      ],
      [
        "us",
        "ing"
      ],
      [
        "ac",
        "es"
      ],
      [
        "id",
        "ents"
      ],
      [
        "em",
        "ent"
      ],
      [
        "for",
        "med"
      ],
      [
        "ter",
        "ms"
      ],
      [
        "un",
        "its"
      ],
      [
        "ch",
        "ange"
      ],
      [
        "ot",
        "e"
      ],
      [
        "pr",
        "op"
      ],
      [
        "ap",
        "er"
      ],
      [
        "ap",
        "ore"
      ],
      [
        "ian",
        "ce"
      ],
      [
        "se",
        "g"
      ],
      [
        "se",
        "qu"
      ],
      [
        "con",
        "vic"
      ],
      [
        "su",
        "ch"
      ],
      [
        "str",
        "ate"
      ],
      [
        "ag",
        "es"
      ],
      [
        "af",
        "t"
      ],
      [
        "comm",
        "ented"
      ],
      [
        "mar",
        "k"
      ],
      [
        "est",
        "ablish"
      ],
      [
        "iv",
        "en"
      ],
      [
        "iv",
        "es"
      ],
      [
        "ro",
        "ss"
      ],
      [
        "ak",
        "ure"
      ],
      [
        "man",
        "y"
      ],
      [
        "ser",
        "vice"
      ],
      [
        "gam",
        "es"
      ],
      [
        "art",
        "ment"
      ],
      [
        "mo",
        "b"
      ],
      [
        "res",
        "ul"
      ],
      [
        "res",
        "idents"
      ],
      [
        "way",
        "s"
      ],
      [
        "196",
        "4"
      ],
      [
        "196",
        "5"
      ],
      [
        "196",
        "6"
      ],
      [
        "air",
        "cr"
      ],
      [
        "oc",
        "i"
      ],
      [
        "oc",
        "k"
      ],
      [
        "bec",
        "ause"
      ],
      [
        "la",
        "z"
      ],
      [
        "lar",
        "v"
      ],
      [
        "act",
        "ing"
      ],
      [
        "eg",
        "gs"
      ],
      [
        "spec",
        "ial"
      ],
      [
        "Command",
        "ing"
      ],
      [
        "wor",
        "ld"
      ],
      [
        "194",
        "2"
      ],
      [
        "ty",
        "pe"
      ],
      [
        "rem",
        "ain"
      ],
      [
        "oper",
        "ated"
      ],
      [
        "Austral",
        "ian"
      ],
      [
        "gr",
        "ow"
      ],
      [
        "not",
        "ed"
      ],
      [
        "stru",
        "ction"
      ],
      [
        "east",
        "ern"
      ],
      [
        "enc",
        "y"
      ],
      [
        "Pen",
        "insu"
      ],
      [
        "appo",
        "int"
      ],
      [
        "hel",
        "p"
      ],
      [
        "emp",
        "loy"
      ],
      [
        "Th",
        "reef"
      ],
      [
        "ren",
        "ov"
      ],
      [
        "run",
        "s"
      ],
      [
        "reg",
        "ion"
      ],
      [
        "En",
        "glish"
      ],
      [
        "claw",
        "s"
      ],
      [
        "set",
        "tl"
      ],
      [
        "inv",
        "ol"
      ],
      [
        "constru",
        "ction"
      ],
      [
        "constru",
        "cted"
      ],
      [
        "larg",
        "er"
      ],
      [
        "larg",
        "est"
      ],
      [
        "Coun",
        "ty"
      ],
      [
        "Dep",
        "artment"
      ],
      [
        "Pl",
        "aces"
      ],
      [
        "sen",
        "ior"
      ],
      [
        "cep",
        "t"
      ],
      [
        "Car",
        "neg"
      ],
      [
        "Sy",
        "stem"
      ],
      [
        "West",
        "ern"
      ],
      [
        "fed",
        "eral"
      ],
      [
        "hn",
        "iqu"
      ],
      [
        "mon",
        "th"
      ],
      [
        "becom",
        "es"
      ],
      [
        "lik",
        "ely"
      ],
      [
        "business",
        "es"
      ],
      [
        "Afr",
        "ican"
      ],
      [
        "Dire",
        "ctor"
      ],
      [
        "Mus",
        "keg"
      ],
      [
        "Reg",
        "ister"
      ],
      [
        "onn",
        "el"
      ],
      [
        "replac",
        "ed"
      ],
      [
        "revi",
        "ew"
      ],
      [
        "tran",
        "sport"
      ],
      [
        "trav",
        "el"
      ],
      [
        "suk",
        "i"
      ],
      [
        "respon",
        "si"
      ],
      [
        "attack",
        "ed"
      ],
      [
        "All",
        "iance"
      ],
      [
        "Victor",
        "ia"
      ],
      [
        "distinc",
        "t"
      ],
      [
        "consider",
        "ed"
      ],
      [
        "Buil",
        "ding"
      ],
      [
        "Gr",
        "and"
      ],
      [
        "Gold",
        "en"
      ],
      [
        "Lond",
        "on"
      ],
      [
        "Mel",
        "bour"
      ],
      [
        "Murd",
        "och"
      ],
      [
        "Qu",
        "een"
      ],
      [
        "Rile",
        "y"
      ],
      [
        "Sing",
        "apore"
      ],
      [
        "Spr",
        "ing"
      ],
      [
        "Wor",
        "ld"
      ],
      [
        "gover",
        "nment"
      ],
      [
        "iel",
        "d"
      ],
      [
        "jo",
        "ined"
      ],
      [
        "mou",
        "l"
      ],
      [
        "convic",
        "ted"
      ],
      [
        "aircr",
        "aft"
      ],
      [
        "Peninsu",
        "la"
      ],
      [
        "Threef",
        "oot"
      ],
      [
        "Carneg",
        "ie"
      ],
      [
        "Muskeg",
        "on"
      ],
      [
        "Melbour",
        "ne"
      ],
      [
        "2",
        "2"
      ],
      [
        "2",
        "7"
      ],
      [
        "3",
        "2"
      ],
      [
        "5",
        "7"
      ],
      [
        "8",
        "0"
      ],
      [
        "A",
        "pr"
      ],
      [
        "A",
        "tl"
      ],
      [
        "B",
        "att"
      ],
      [
        "C",
        "l"
      ],
      [
        "C",
        "o"
      ],
      [
        "C",
        "on"
      ],
      [
        "D",
        "e"
      ],
      [
        "D",
        "r"
      ],
      [
        "D",
        "ak"
      ],
      [
        "E",
        "d"
      ],
      [
        "E",
        "x"
      ],
      [
        "E",
        "ra"
      ],
      [
        "E",
        "mp"
      ],
      [
        "F",
        "er"
      ],
      [
        "F",
        "rank"
      ],
      [
        "G",
        "N"
      ],
      [
        "H",
        "in"
      ],
      [
        "H",
        "art"
      ],
      [
        "I",
        "m"
      ],
      [
        "I",
        "GN"
      ],
      [
        "K",
        "ak"
      ],
      [
        "K",
        "ey"
      ],
      [
        "L",
        "aver"
      ],
      [
        "M",
        "c"
      ],
      [
        "M",
        "an"
      ],
      [
        "M",
        "ed"
      ],
      [
        "M",
        "ob"
      ],
      [
        "M",
        "any"
      ],
      [
        "N",
        "ara"
      ],
      [
        "O",
        "P"
      ],
      [
        "O",
        "hi"
      ],
      [
        "P",
        "ac"
      ],
      [
        "P",
        "oint"
      ],
      [
        "R",
        "e"
      ],
      [
        "R",
        "et"
      ],
      [
        "R",
        "oy"
      ],
      [
        "S",
        "ak"
      ],
      [
        "S",
        "had"
      ],
      [
        "S",
        "aruto"
      ],
      [
        "S",
        "her"
      ],
      [
        "S",
        "outhern"
      ],
      [
        "S",
        "ai"
      ],
      [
        "T",
        "er"
      ],
      [
        "T",
        "im"
      ],
      [
        "T",
        "wo"
      ],
      [
        "T",
        "eam"
      ],
      [
        "U",
        "r"
      ],
      [
        "U",
        "chi"
      ],
      [
        "W",
        "il"
      ],
      [
        "W",
        "ill"
      ],
      [
        "a",
        "h"
      ],
      [
        "a",
        "w"
      ],
      [
        "a",
        "iss"
      ],
      [
        "a",
        "used"
      ],
      [
        "b",
        "urn"
      ],
      [
        "b",
        "enth"
      ],
      [
        "b",
        "orn"
      ],
      [
        "c",
        "ad"
      ],
      [
        "c",
        "lo"
      ],
      [
        "c",
        "ut"
      ],
      [
        "c",
        "aused"
      ],
      [
        "d",
        "ed"
      ],
      [
        "d",
        "id"
      ],
      [
        "d",
        "own"
      ],
      [
        "d",
        "ire"
      ],
      [
        "d",
        "ail"
      ],
      [
        "e",
        "ad"
      ],
      [
        "f",
        "re"
      ],
      [
        "f",
        "il"
      ],
      [
        "f",
        "ac"
      ],
      [
        "f",
        "em"
      ],
      [
        "f",
        "ig"
      ],
      [
        "f",
        "lo"
      ],
      [
        "f",
        "ish"
      ],
      [
        "f",
        "ive"
      ],
      [
        "f",
        "ight"
      ],
      [
        "g",
        "iven"
      ],
      [
        "h",
        "and"
      ],
      [
        "h",
        "ic"
      ],
      [
        "h",
        "atch"
      ],
      [
        "i",
        "er"
      ],
      [
        "i",
        "am"
      ],
      [
        "i",
        "end"
      ],
      [
        "i",
        "fe"
      ],
      [
        "i",
        "ble"
      ],
      [
        "j",
        "u"
      ],
      [
        "j",
        "ust"
      ],
      [
        "j",
        "ects"
      ],
      [
        "k",
        "line"
      ],
      [
        "m",
        "e"
      ],
      [
        "m",
        "u"
      ],
      [
        "m",
        "en"
      ],
      [
        "m",
        "ain"
      ],
      [
        "m",
        "ak"
      ],
      [
        "m",
        "ill"
      ],
      [
        "n",
        "er"
      ],
      [
        "n",
        "ature"
      ],
      [
        "n",
        "avigation"
      ],
      [
        "n",
        "aiss"
      ],
      [
        "o",
        "op"
      ],
      [
        "o",
        "de"
      ],
      [
        "o",
        "gr"
      ],
      [
        "o",
        "ji"
      ],
      [
        "p",
        "il"
      ],
      [
        "p",
        "ort"
      ],
      [
        "p",
        "atch"
      ],
      [
        "p",
        "ots"
      ],
      [
        "p",
        "ower"
      ],
      [
        "r",
        "ad"
      ],
      [
        "r",
        "ol"
      ],
      [
        "r",
        "ound"
      ],
      [
        "s",
        "y"
      ],
      [
        "s",
        "ur"
      ],
      [
        "s",
        "iz"
      ],
      [
        "s",
        "ite"
      ],
      [
        "s",
        "hel"
      ],
      [
        "s",
        "outhern"
      ],
      [
        "t",
        "ar"
      ],
      [
        "t",
        "le"
      ],
      [
        "t",
        "end"
      ],
      [
        "u",
        "al"
      ],
      [
        "v",
        "ent"
      ],
      [
        "v",
        "ol"
      ],
      [
        "v",
        "ill"
      ],
      [
        "w",
        "ent"
      ],
      [
        "w",
        "ife"
      ],
      [
        "th",
        "ose"
      ],
      [
        "in",
        "s"
      ],
      [
        "in",
        "ters"
      ],
      [
        "er",
        "c"
      ],
      [
        "er",
        "ran"
      ],
      [
        "an",
        "ts"
      ],
      [
        "ar",
        "r"
      ],
      [
        "ar",
        "ch"
      ],
      [
        "ar",
        "ies"
      ],
      [
        "st",
        "on"
      ],
      [
        "st",
        "art"
      ],
      [
        "st",
        "ud"
      ],
      [
        "at",
        "a"
      ],
      [
        "at",
        "or"
      ],
      [
        "at",
        "suki"
      ],
      [
        "or",
        "ig"
      ],
      [
        "as",
        "h"
      ],
      [
        "as",
        "ing"
      ],
      [
        "to",
        "p"
      ],
      [
        "al",
        "iz"
      ],
      [
        "al",
        "ign"
      ],
      [
        "is",
        "e"
      ],
      [
        "is",
        "on"
      ],
      [
        "is",
        "ion"
      ],
      [
        "is",
        "ode"
      ],
      [
        "ic",
        "al"
      ],
      [
        "re",
        "w"
      ],
      [
        "re",
        "st"
      ],
      [
        "am",
        "a"
      ],
      [
        "am",
        "p"
      ],
      [
        "am",
        "ong"
      ],
      [
        "om",
        "et"
      ],
      [
        "it",
        "erran"
      ],
      [
        "il",
        "es"
      ],
      [
        "ad",
        "d"
      ],
      [
        "ad",
        "ap"
      ],
      [
        "ad",
        "min"
      ],
      [
        "he",
        "ld"
      ],
      [
        "ent",
        "ly"
      ],
      [
        "19",
        "th"
      ],
      [
        "19",
        "14"
      ],
      [
        "ec",
        "tion"
      ],
      [
        "ur",
        "a"
      ],
      [
        "ur",
        "ch"
      ],
      [
        "ur",
        "ity"
      ],
      [
        "us",
        "h"
      ],
      [
        "ac",
        "tion"
      ],
      [
        "ac",
        "ross"
      ],
      [
        "id",
        "ed"
      ],
      [
        "el",
        "f"
      ],
      [
        "gh",
        "ter"
      ],
      [
        "em",
        "erg"
      ],
      [
        "ist",
        "s"
      ],
      [
        "ist",
        "ing"
      ],
      [
        "ter",
        "m"
      ],
      [
        "ter",
        "min"
      ],
      [
        "un",
        "likely"
      ],
      [
        "ce",
        "ed"
      ],
      [
        "et",
        "work"
      ],
      [
        "ve",
        "hic"
      ],
      [
        "ch",
        "ild"
      ],
      [
        "le",
        "ge"
      ],
      [
        "le",
        "ft"
      ],
      [
        "pr",
        "od"
      ],
      [
        "ap",
        "ace"
      ],
      [
        "wh",
        "ile"
      ],
      [
        "se",
        "en"
      ],
      [
        "tr",
        "y"
      ],
      [
        "fr",
        "iend"
      ],
      [
        "be",
        "ing"
      ],
      [
        "oun",
        "g"
      ],
      [
        "St",
        "ates"
      ],
      [
        "su",
        "m"
      ],
      [
        "str",
        "ong"
      ],
      [
        "ain",
        "s"
      ],
      [
        "comm",
        "it"
      ],
      [
        "comm",
        "un"
      ],
      [
        "ear",
        "ly"
      ],
      [
        "ther",
        "e"
      ],
      [
        "ut",
        "en"
      ],
      [
        "ut",
        "iliz"
      ],
      [
        "man",
        "uf"
      ],
      [
        "man",
        "ages"
      ],
      [
        "pp",
        "ort"
      ],
      [
        "In",
        "d"
      ],
      [
        "rou",
        "ting"
      ],
      [
        "mo",
        "ve"
      ],
      [
        "mo",
        "ved"
      ],
      [
        "ex",
        "ams"
      ],
      [
        "lu",
        "x"
      ],
      [
        "196",
        "2"
      ],
      [
        "196",
        "0s"
      ],
      [
        "mer",
        "g"
      ],
      [
        "air",
        "ed"
      ],
      [
        "oc",
        "c"
      ],
      [
        "od",
        "s"
      ],
      [
        "od",
        "ore"
      ],
      [
        "pl",
        "ay"
      ],
      [
        "18",
        "6"
      ],
      [
        "18",
        "th"
      ],
      [
        "18",
        "90"
      ],
      [
        "bec",
        "ome"
      ],
      [
        "cr",
        "ust"
      ],
      [
        "195",
        "0"
      ],
      [
        "195",
        "7"
      ],
      [
        "Ch",
        "oji"
      ],
      [
        "per",
        "i"
      ],
      [
        "act",
        "uring"
      ],
      [
        "inclu",
        "de"
      ],
      [
        "inclu",
        "ded"
      ],
      [
        "li",
        "br"
      ],
      [
        "Hom",
        "e"
      ],
      [
        "194",
        "7"
      ],
      [
        "popul",
        "ations"
      ],
      [
        "ty",
        "p"
      ],
      [
        "oper",
        "ational"
      ],
      [
        "Al",
        "though"
      ],
      [
        "ipp",
        "ed"
      ],
      [
        "193",
        "5"
      ],
      [
        "bet",
        "ter"
      ],
      [
        "des",
        "pite"
      ],
      [
        "ep",
        "isode"
      ],
      [
        "gr",
        "am"
      ],
      [
        "gr",
        "ound"
      ],
      [
        "vic",
        "es"
      ],
      [
        "pro",
        "gram"
      ],
      [
        "land",
        "s"
      ],
      [
        "ant",
        "ic"
      ],
      [
        "197",
        "1"
      ],
      [
        "197",
        "9"
      ],
      [
        "urn",
        "ing"
      ],
      [
        "highway",
        "s"
      ],
      [
        "ok",
        "ing"
      ],
      [
        "ten",
        "ance"
      ],
      [
        "American",
        "s"
      ],
      [
        "pre",
        "y"
      ],
      [
        "charac",
        "ters"
      ],
      [
        "00",
        "0"
      ],
      [
        "Un",
        "ited"
      ],
      [
        "ry",
        "ing"
      ],
      [
        "thou",
        "se"
      ],
      [
        "lead",
        "ing"
      ],
      [
        "most",
        "ly"
      ],
      [
        "appear",
        "ed"
      ],
      [
        "23",
        "rd"
      ],
      [
        "AO",
        "S"
      ],
      [
        "co",
        "oking"
      ],
      [
        "ma",
        "jor"
      ],
      [
        "sec",
        "ond"
      ],
      [
        "emp",
        "ts"
      ],
      [
        "13",
        "1"
      ],
      [
        "car",
        "apace"
      ],
      [
        "cour",
        "thouse"
      ],
      [
        "med",
        "ia"
      ],
      [
        "os",
        "ed"
      ],
      [
        "ilit",
        "ies"
      ],
      [
        "dep",
        "loy"
      ],
      [
        "gen",
        "us"
      ],
      [
        "sub",
        "sequ"
      ],
      [
        "loc",
        "al"
      ],
      [
        "pos",
        "ite"
      ],
      [
        "design",
        "ation"
      ],
      [
        "Dep",
        "uty"
      ],
      [
        "Pl",
        "ans"
      ],
      [
        "bl",
        "ic"
      ],
      [
        "bl",
        "ack"
      ],
      [
        "pers",
        "on"
      ],
      [
        "14",
        "th"
      ],
      [
        "Ak",
        "atsuki"
      ],
      [
        "Ocean",
        "a"
      ],
      [
        "dec",
        "line"
      ],
      [
        "dem",
        "ol"
      ],
      [
        "nam",
        "ed"
      ],
      [
        "pass",
        "eng"
      ],
      [
        "tak",
        "e"
      ],
      [
        "suc",
        "cess"
      ],
      [
        "suc",
        "ceed"
      ],
      [
        "def",
        "ence"
      ],
      [
        "building",
        "s"
      ],
      [
        "industr",
        "y"
      ],
      [
        "Can",
        "cer"
      ],
      [
        "We",
        "ber"
      ],
      [
        "hous",
        "es"
      ],
      [
        "no",
        "vel"
      ],
      [
        "press",
        "ion"
      ],
      [
        "trun",
        "kline"
      ],
      [
        "incre",
        "ased"
      ],
      [
        "occur",
        "s"
      ],
      [
        "effor",
        "ts"
      ],
      [
        "bomb",
        "ing"
      ],
      [
        "intellig",
        "ence"
      ],
      [
        "favor",
        "ite"
      ],
      [
        "CO",
        "M"
      ],
      [
        "Col",
        "lege"
      ],
      [
        "Hid",
        "an"
      ],
      [
        "Rail",
        "road"
      ],
      [
        "Su",
        "pport"
      ],
      [
        "bo",
        "om"
      ],
      [
        "bod",
        "y"
      ],
      [
        "cor",
        "ding"
      ],
      [
        "get",
        "s"
      ],
      [
        "hol",
        "ding"
      ],
      [
        "mission",
        "s"
      ],
      [
        "pu",
        "blic"
      ],
      [
        "rul",
        "ed"
      ],
      [
        "rele",
        "ased"
      ],
      [
        "recon",
        "naiss"
      ],
      [
        "prop",
        "osed"
      ],
      [
        "strate",
        "gic"
      ],
      [
        "resul",
        "ting"
      ],
      [
        "laz",
        "y"
      ],
      [
        "larv",
        "ae"
      ],
      [
        "remain",
        "ed"
      ],
      [
        "appoint",
        "ment"
      ],
      [
        "hniqu",
        "e"
      ],
      [
        "Spring",
        "s"
      ],
      [
        "Apr",
        "il"
      ],
      [
        "Atl",
        "antic"
      ],
      [
        "Co",
        "ok"
      ],
      [
        "De",
        "pression"
      ],
      [
        "Dak",
        "ot"
      ],
      [
        "Emp",
        "ire"
      ],
      [
        "Fer",
        "ry"
      ],
      [
        "Hin",
        "ata"
      ],
      [
        "Laver",
        "ton"
      ],
      [
        "Med",
        "iterran"
      ],
      [
        "Mob",
        "ile"
      ],
      [
        "OP",
        "COM"
      ],
      [
        "Ohi",
        "o"
      ],
      [
        "Pac",
        "ific"
      ],
      [
        "Ret",
        "urning"
      ],
      [
        "Roy",
        "al"
      ],
      [
        "Sak",
        "ura"
      ],
      [
        "Shad",
        "ow"
      ],
      [
        "Saruto",
        "bi"
      ],
      [
        "Sher",
        "man"
      ],
      [
        "Tim",
        "or"
      ],
      [
        "Ur",
        "ban"
      ],
      [
        "Uchi",
        "ha"
      ],
      [
        "Wil",
        "ton"
      ],
      [
        "Will",
        "iam"
      ],
      [
        "burn",
        "ed"
      ],
      [
        "benth",
        "ic"
      ],
      [
        "dire",
        "ction"
      ],
      [
        "dail",
        "y"
      ],
      [
        "ju",
        "ven"
      ],
      [
        "mu",
        "ch"
      ],
      [
        "tar",
        "gets"
      ],
      [
        "vill",
        "age"
      ],
      [
        "inters",
        "ection"
      ],
      [
        "orig",
        "inal"
      ],
      [
        "vehic",
        "les"
      ],
      [
        "manuf",
        "acturing"
      ],
      [
        "libr",
        "aries"
      ],
      [
        "reconnaiss",
        "ance"
      ],
      [
        "Mediterran",
        "ean"
      ],
      [
        "1",
        "6"
      ],
      [
        "2",
        "1"
      ],
      [
        "2",
        "8th"
      ],
      [
        "4",
        "8"
      ],
      [
        "4",
        "9"
      ],
      [
        "5",
        "1"
      ],
      [
        "5",
        "3"
      ],
      [
        "6",
        "2"
      ],
      [
        "7",
        "1"
      ],
      [
        "7",
        "2"
      ],
      [
        "9",
        "5"
      ],
      [
        "9",
        "6"
      ],
      [
        "9",
        "7"
      ],
      [
        "A",
        "g"
      ],
      [
        "A",
        "m"
      ],
      [
        "A",
        "v"
      ],
      [
        "A",
        "ves"
      ],
      [
        "B",
        "o"
      ],
      [
        "B",
        "r"
      ],
      [
        "B",
        "y"
      ],
      [
        "B",
        "ar"
      ],
      [
        "B",
        "ir"
      ],
      [
        "B",
        "et"
      ],
      [
        "B",
        "ill"
      ],
      [
        "B",
        "ran"
      ],
      [
        "B",
        "oth"
      ],
      [
        "B",
        "ath"
      ],
      [
        "B",
        "lack"
      ],
      [
        "C",
        "y"
      ],
      [
        "C",
        "ed"
      ],
      [
        "C",
        "AS"
      ],
      [
        "D",
        "O"
      ],
      [
        "D",
        "an"
      ],
      [
        "D",
        "es"
      ],
      [
        "D",
        "ou"
      ],
      [
        "D",
        "ent"
      ],
      [
        "D",
        "iv"
      ],
      [
        "D",
        "ut"
      ],
      [
        "D",
        "CAS"
      ],
      [
        "E",
        "ven"
      ],
      [
        "E",
        "merg"
      ],
      [
        "F",
        "T"
      ],
      [
        "F",
        "a"
      ],
      [
        "F",
        "ound"
      ],
      [
        "F",
        "our"
      ],
      [
        "F",
        "red"
      ],
      [
        "F",
        "ield"
      ],
      [
        "G",
        "u"
      ],
      [
        "G",
        "ood"
      ],
      [
        "G",
        "reat"
      ],
      [
        "H",
        "an"
      ],
      [
        "H",
        "on"
      ],
      [
        "H",
        "is"
      ],
      [
        "H",
        "ir"
      ],
      [
        "H",
        "ouse"
      ],
      [
        "J",
        "o"
      ],
      [
        "J",
        "am"
      ],
      [
        "J",
        "ut"
      ],
      [
        "J",
        "oint"
      ],
      [
        "L",
        "i"
      ],
      [
        "L",
        "in"
      ],
      [
        "L",
        "am"
      ],
      [
        "L",
        "em"
      ],
      [
        "L",
        "inc"
      ],
      [
        "L",
        "ie"
      ],
      [
        "L",
        "ower"
      ],
      [
        "L",
        "ock"
      ],
      [
        "M",
        "as"
      ],
      [
        "M",
        "il"
      ],
      [
        "M",
        "oun"
      ],
      [
        "M",
        "ember"
      ],
      [
        "M",
        "ating"
      ],
      [
        "M",
        "ichi"
      ],
      [
        "M",
        "DO"
      ],
      [
        "N",
        "ative"
      ],
      [
        "N",
        "avigation"
      ],
      [
        "N",
        "etwork"
      ],
      [
        "O",
        "to"
      ],
      [
        "O",
        "ver"
      ],
      [
        "O",
        "ther"
      ],
      [
        "P",
        "e"
      ],
      [
        "P",
        "r"
      ],
      [
        "P",
        "ar"
      ],
      [
        "P",
        "ers"
      ],
      [
        "R",
        "ich"
      ],
      [
        "S",
        "h"
      ],
      [
        "S",
        "o"
      ],
      [
        "S",
        "p"
      ],
      [
        "S",
        "er"
      ],
      [
        "S",
        "il"
      ],
      [
        "S",
        "ur"
      ],
      [
        "S",
        "AS"
      ],
      [
        "T",
        "as"
      ],
      [
        "T",
        "ran"
      ],
      [
        "T",
        "eng"
      ],
      [
        "U",
        "pp"
      ],
      [
        "V",
        "i"
      ],
      [
        "W",
        "al"
      ],
      [
        "W",
        "ith"
      ],
      [
        "Y",
        "am"
      ],
      [
        "a",
        "x"
      ],
      [
        "a",
        "ur"
      ],
      [
        "b",
        "a"
      ],
      [
        "b",
        "in"
      ],
      [
        "b",
        "re"
      ],
      [
        "b",
        "ou"
      ],
      [
        "b",
        "el"
      ],
      [
        "b",
        "ro"
      ],
      [
        "b",
        "lu"
      ],
      [
        "c",
        "l"
      ],
      [
        "c",
        "m"
      ],
      [
        "c",
        "ed"
      ],
      [
        "c",
        "ing"
      ],
      [
        "c",
        "el"
      ],
      [
        "c",
        "ol"
      ],
      [
        "c",
        "ul"
      ],
      [
        "c",
        "are"
      ],
      [
        "c",
        "ated"
      ],
      [
        "c",
        "over"
      ],
      [
        "c",
        "ame"
      ],
      [
        "c",
        "ase"
      ],
      [
        "c",
        "ould"
      ],
      [
        "d",
        "en"
      ],
      [
        "d",
        "et"
      ],
      [
        "d",
        "ers"
      ],
      [
        "d",
        "iv"
      ],
      [
        "d",
        "ra"
      ],
      [
        "d",
        "au"
      ],
      [
        "d",
        "ied"
      ],
      [
        "d",
        "iver"
      ],
      [
        "d",
        "rop"
      ],
      [
        "d",
        "rew"
      ],
      [
        "e",
        "e"
      ],
      [
        "e",
        "em"
      ],
      [
        "e",
        "qu"
      ],
      [
        "e",
        "ight"
      ],
      [
        "e",
        "ach"
      ],
      [
        "e",
        "ase"
      ],
      [
        "f",
        "ar"
      ],
      [
        "f",
        "un"
      ],
      [
        "f",
        "igh"
      ],
      [
        "f",
        "oc"
      ],
      [
        "f",
        "oll"
      ],
      [
        "f",
        "ect"
      ],
      [
        "f",
        "ail"
      ],
      [
        "f",
        "arm"
      ],
      [
        "f",
        "jor"
      ],
      [
        "f",
        "ood"
      ],
      [
        "f",
        "ield"
      ],
      [
        "f",
        "lux"
      ],
      [
        "g",
        "ar"
      ],
      [
        "g",
        "res"
      ],
      [
        "g",
        "ue"
      ],
      [
        "g",
        "akure"
      ],
      [
        "h",
        "y"
      ],
      [
        "h",
        "on"
      ],
      [
        "h",
        "am"
      ],
      [
        "h",
        "ab"
      ],
      [
        "h",
        "ouse"
      ],
      [
        "i",
        "ef"
      ],
      [
        "i",
        "um"
      ],
      [
        "j",
        "et"
      ],
      [
        "j",
        "ob"
      ],
      [
        "j",
        "ury"
      ],
      [
        "k",
        "el"
      ],
      [
        "k",
        "ey"
      ],
      [
        "k",
        "ton"
      ],
      [
        "k",
        "ys"
      ],
      [
        "l",
        "b"
      ],
      [
        "l",
        "ow"
      ],
      [
        "l",
        "ong"
      ],
      [
        "l",
        "ive"
      ],
      [
        "l",
        "ight"
      ],
      [
        "m",
        "m"
      ],
      [
        "m",
        "at"
      ],
      [
        "m",
        "ing"
      ],
      [
        "m",
        "ur"
      ],
      [
        "m",
        "ass"
      ],
      [
        "m",
        "ile"
      ],
      [
        "m",
        "ale"
      ],
      [
        "m",
        "ult"
      ],
      [
        "m",
        "urd"
      ],
      [
        "n",
        "s"
      ],
      [
        "n",
        "in"
      ],
      [
        "n",
        "on"
      ],
      [
        "n",
        "en"
      ],
      [
        "n",
        "ing"
      ],
      [
        "n",
        "ational"
      ],
      [
        "n",
        "um"
      ],
      [
        "n",
        "ey"
      ],
      [
        "n",
        "ae"
      ],
      [
        "o",
        "sp"
      ],
      [
        "p",
        "an"
      ],
      [
        "p",
        "ur"
      ],
      [
        "p",
        "ig"
      ],
      [
        "p",
        "ect"
      ],
      [
        "p",
        "aper"
      ],
      [
        "r",
        "i"
      ],
      [
        "r",
        "er"
      ],
      [
        "r",
        "ar"
      ],
      [
        "r",
        "iver"
      ],
      [
        "s",
        "ch"
      ],
      [
        "s",
        "ia"
      ],
      [
        "s",
        "ive"
      ],
      [
        "s",
        "ome"
      ],
      [
        "s",
        "old"
      ],
      [
        "s",
        "aid"
      ],
      [
        "s",
        "elected"
      ],
      [
        "s",
        "oci"
      ],
      [
        "s",
        "kys"
      ],
      [
        "t",
        "w"
      ],
      [
        "t",
        "as"
      ],
      [
        "t",
        "al"
      ],
      [
        "t",
        "ic"
      ],
      [
        "t",
        "ec"
      ],
      [
        "t",
        "ir"
      ],
      [
        "t",
        "ipped"
      ],
      [
        "u",
        "ished"
      ],
      [
        "v",
        "ing"
      ],
      [
        "v",
        "it"
      ],
      [
        "v",
        "ir"
      ],
      [
        "v",
        "em"
      ],
      [
        "w",
        "at"
      ],
      [
        "w",
        "ing"
      ],
      [
        "w",
        "ish"
      ],
      [
        "w",
        "ern"
      ],
      [
        "w",
        "ild"
      ],
      [
        "y",
        "m"
      ],
      [
        "y",
        "go"
      ],
      [
        "y",
        "oung"
      ],
      [
        "z",
        "el"
      ],
      [
        "ō",
        "nen"
      ],
      [
        "th",
        "in"
      ],
      [
        "th",
        "ir"
      ],
      [
        "in",
        "d"
      ],
      [
        "in",
        "ter"
      ],
      [
        "in",
        "struction"
      ],
      [
        "in",
        "flux"
      ],
      [
        "er",
        "i"
      ],
      [
        "er",
        "ve"
      ],
      [
        "an",
        "g"
      ],
      [
        "an",
        "ak"
      ],
      [
        "the",
        "n"
      ],
      [
        "the",
        "se"
      ],
      [
        "the",
        "ast"
      ],
      [
        "on",
        "es"
      ],
      [
        "on",
        "ce"
      ],
      [
        "ar",
        "ound"
      ],
      [
        "ar",
        "sen"
      ],
      [
        "ed",
        "ge"
      ],
      [
        "ed",
        "ible"
      ],
      [
        "st",
        "ar"
      ],
      [
        "st",
        "ore"
      ],
      [
        "st",
        "ory"
      ],
      [
        "at",
        "pl"
      ],
      [
        "at",
        "ives"
      ],
      [
        "en",
        "ed"
      ],
      [
        "or",
        "es"
      ],
      [
        "or",
        "ation"
      ],
      [
        "or",
        "ted"
      ],
      [
        "and",
        "y"
      ],
      [
        "and",
        "ise"
      ],
      [
        "of",
        "f"
      ],
      [
        "as",
        "i"
      ],
      [
        "to",
        "mob"
      ],
      [
        "es",
        "e"
      ],
      [
        "es",
        "h"
      ],
      [
        "es",
        "cap"
      ],
      [
        "ing",
        "uished"
      ],
      [
        "is",
        "m"
      ],
      [
        "is",
        "ation"
      ],
      [
        "ic",
        "a"
      ],
      [
        "ic",
        "s"
      ],
      [
        "ic",
        "y"
      ],
      [
        "ic",
        "op"
      ],
      [
        "ic",
        "ip"
      ],
      [
        "re",
        "ce"
      ],
      [
        "re",
        "tr"
      ],
      [
        "re",
        "comm"
      ],
      [
        "re",
        "lat"
      ],
      [
        "re",
        "align"
      ],
      [
        "re",
        "tir"
      ],
      [
        "re",
        "vit"
      ],
      [
        "am",
        "ent"
      ],
      [
        "ou",
        "ted"
      ],
      [
        "it",
        "es"
      ],
      [
        "it",
        "ation"
      ],
      [
        "it",
        "ime"
      ],
      [
        "it",
        "ect"
      ],
      [
        "il",
        "i"
      ],
      [
        "ad",
        "v"
      ],
      [
        "ad",
        "op"
      ],
      [
        "ad",
        "ult"
      ],
      [
        "he",
        "e"
      ],
      [
        "he",
        "ed"
      ],
      [
        "hi",
        "p"
      ],
      [
        "hi",
        "ms"
      ],
      [
        "ent",
        "ial"
      ],
      [
        "19",
        "19"
      ],
      [
        "19",
        "20"
      ],
      [
        "19",
        "10"
      ],
      [
        "19",
        "13"
      ],
      [
        "19",
        "26"
      ],
      [
        "19",
        "29"
      ],
      [
        "ec",
        "to"
      ],
      [
        "ec",
        "tr"
      ],
      [
        "ur",
        "es"
      ],
      [
        "us",
        "her"
      ],
      [
        "us",
        "age"
      ],
      [
        "ac",
        "u"
      ],
      [
        "ac",
        "ted"
      ],
      [
        "ac",
        "res"
      ],
      [
        "ac",
        "cording"
      ],
      [
        "was",
        "hee"
      ],
      [
        "el",
        "e"
      ],
      [
        "ow",
        "s"
      ],
      [
        "ow",
        "ed"
      ],
      [
        "The",
        "at"
      ],
      [
        "em",
        "an"
      ],
      [
        "em",
        "per"
      ],
      [
        "for",
        "mer"
      ],
      [
        "for",
        "ms"
      ],
      [
        "ist",
        "r"
      ],
      [
        "ist",
        "ee"
      ],
      [
        "ter",
        "ed"
      ],
      [
        "ter",
        "tain"
      ],
      [
        "op",
        "ods"
      ],
      [
        "op",
        "ened"
      ],
      [
        "un",
        "will"
      ],
      [
        "un",
        "ders"
      ],
      [
        "et",
        "on"
      ],
      [
        "et",
        "res"
      ],
      [
        "et",
        "nam"
      ],
      [
        "ve",
        "st"
      ],
      [
        "ch",
        "ains"
      ],
      [
        "ch",
        "aired"
      ],
      [
        "ch",
        "andise"
      ],
      [
        "ol",
        "ns"
      ],
      [
        "ol",
        "icy"
      ],
      [
        "le",
        "y"
      ],
      [
        "le",
        "ave"
      ],
      [
        "pr",
        "ot"
      ],
      [
        "pr",
        "ior"
      ],
      [
        "ap",
        "pro"
      ],
      [
        "ap",
        "lan"
      ],
      [
        "se",
        "h"
      ],
      [
        "se",
        "at"
      ],
      [
        "se",
        "as"
      ],
      [
        "ver",
        "sion"
      ],
      [
        "tr",
        "ad"
      ],
      [
        "tr",
        "ial"
      ],
      [
        "tr",
        "aining"
      ],
      [
        "tr",
        "oop"
      ],
      [
        "fr",
        "ont"
      ],
      [
        "be",
        "ars"
      ],
      [
        "im",
        "m"
      ],
      [
        "im",
        "um"
      ],
      [
        "im",
        "ichi"
      ],
      [
        "im",
        "port"
      ],
      [
        "im",
        "etres"
      ],
      [
        "Mer",
        "chandise"
      ],
      [
        "St",
        "ate"
      ],
      [
        "con",
        "du"
      ],
      [
        "con",
        "curr"
      ],
      [
        "con",
        "current"
      ],
      [
        "con",
        "cept"
      ],
      [
        "str",
        "ated"
      ],
      [
        "str",
        "oy"
      ],
      [
        "de",
        "part"
      ],
      [
        "de",
        "feat"
      ],
      [
        "de",
        "termin"
      ],
      [
        "de",
        "stroy"
      ],
      [
        "ag",
        "ing"
      ],
      [
        "ag",
        "akure"
      ],
      [
        "lo",
        "ss"
      ],
      [
        "comm",
        "ission"
      ],
      [
        "comm",
        "erc"
      ],
      [
        "comm",
        "odore"
      ],
      [
        "ew",
        "ed"
      ],
      [
        "mar",
        "shal"
      ],
      [
        "mar",
        "ks"
      ],
      [
        "mar",
        "ried"
      ],
      [
        "mar",
        "itime"
      ],
      [
        "are",
        "as"
      ],
      [
        "tion",
        "al"
      ],
      [
        "ber",
        "ra"
      ],
      [
        "est",
        "im"
      ],
      [
        "est",
        "eem"
      ],
      [
        "ts",
        "ide"
      ],
      [
        "iv",
        "ely"
      ],
      [
        "po",
        "int"
      ],
      [
        "sp",
        "ines"
      ],
      [
        "ab",
        "out"
      ],
      [
        "ab",
        "ama"
      ],
      [
        "ak",
        "e"
      ],
      [
        "der",
        "ed"
      ],
      [
        "man",
        "ia"
      ],
      [
        "ser",
        "ve"
      ],
      [
        "ser",
        "ves"
      ],
      [
        "In",
        "o"
      ],
      [
        "In",
        "ter"
      ],
      [
        "20",
        "th"
      ],
      [
        "20",
        "10"
      ],
      [
        "ex",
        "c"
      ],
      [
        "ex",
        "t"
      ],
      [
        "ex",
        "ten"
      ],
      [
        "ex",
        "os"
      ],
      [
        "ex",
        "cep"
      ],
      [
        "ex",
        "peri"
      ],
      [
        "res",
        "pect"
      ],
      [
        "our",
        "s"
      ],
      [
        "196",
        "0"
      ],
      [
        "196",
        "1"
      ],
      [
        "196",
        "8"
      ],
      [
        "ial",
        "ly"
      ],
      [
        "sh",
        "er"
      ],
      [
        "sh",
        "ot"
      ],
      [
        "sh",
        "ort"
      ],
      [
        "gan",
        "iz"
      ],
      [
        "pl",
        "an"
      ],
      [
        "pl",
        "et"
      ],
      [
        "pl",
        "ans"
      ],
      [
        "18",
        "60"
      ],
      [
        "18",
        "37"
      ],
      [
        "Comm",
        "ission"
      ],
      [
        "ight",
        "ly"
      ],
      [
        "cr",
        "ab"
      ],
      [
        "cr",
        "aper"
      ],
      [
        "cr",
        "ash"
      ],
      [
        "cr",
        "usher"
      ],
      [
        "ef",
        "fect"
      ],
      [
        "195",
        "1"
      ],
      [
        "195",
        "4"
      ],
      [
        "195",
        "8"
      ],
      [
        "Ch",
        "ann"
      ],
      [
        "av",
        "al"
      ],
      [
        "att",
        "empts"
      ],
      [
        "end",
        "ed"
      ],
      [
        "een",
        "th"
      ],
      [
        "offic",
        "e"
      ],
      [
        "ass",
        "ist"
      ],
      [
        "New",
        "s"
      ],
      [
        "fe",
        "ed"
      ],
      [
        "fe",
        "ature"
      ],
      [
        "li",
        "f"
      ],
      [
        "rail",
        "s"
      ],
      [
        "rail",
        "ways"
      ],
      [
        "Command",
        "s"
      ],
      [
        "Command",
        "er"
      ],
      [
        "194",
        "0"
      ],
      [
        "194",
        "1"
      ],
      [
        "194",
        "3"
      ],
      [
        "194",
        "6"
      ],
      [
        "br",
        "ief"
      ],
      [
        "rem",
        "aining"
      ],
      [
        "oper",
        "ation"
      ],
      [
        "oper",
        "ations"
      ],
      [
        "Al",
        "ister"
      ],
      [
        "Al",
        "abama"
      ],
      [
        "te",
        "e"
      ],
      [
        "um",
        "e"
      ],
      [
        "um",
        "seh"
      ],
      [
        "ust",
        "in"
      ],
      [
        "eng",
        "ine"
      ],
      [
        "193",
        "0"
      ],
      [
        "193",
        "4"
      ],
      [
        "193",
        "6"
      ],
      [
        "193",
        "8"
      ],
      [
        "des",
        "cr"
      ],
      [
        "ep",
        "h"
      ],
      [
        "enter",
        "ed"
      ],
      [
        "pro",
        "vide"
      ],
      [
        "pro",
        "jects"
      ],
      [
        "new",
        "ly"
      ],
      [
        "inj",
        "ured"
      ],
      [
        "197",
        "6"
      ],
      [
        "197",
        "0s"
      ],
      [
        "Nor",
        "way"
      ],
      [
        "day",
        "s"
      ],
      [
        "her",
        "o"
      ],
      [
        "ie",
        "ve"
      ],
      [
        "ten",
        "th"
      ],
      [
        "ree",
        "k"
      ],
      [
        "ous",
        "ly"
      ],
      [
        "15",
        "0"
      ],
      [
        "15",
        "th"
      ],
      [
        "An",
        "ime"
      ],
      [
        "As",
        "ia"
      ],
      [
        "As",
        "soci"
      ],
      [
        "Se",
        "ven"
      ],
      [
        "Se",
        "aplan"
      ],
      [
        "coun",
        "try"
      ],
      [
        "pre",
        "ferred"
      ],
      [
        "out",
        "bre"
      ],
      [
        "work",
        "ed"
      ],
      [
        "For",
        "est"
      ],
      [
        "au",
        "tomob"
      ],
      [
        "part",
        "icip"
      ],
      [
        "hel",
        "icop"
      ],
      [
        "use",
        "um"
      ],
      [
        "ach",
        "es"
      ],
      [
        "ach",
        "ment"
      ],
      [
        "under",
        "went"
      ],
      [
        "200",
        "6"
      ],
      [
        "200",
        "8"
      ],
      [
        "appear",
        "s"
      ],
      [
        "23",
        "2"
      ],
      [
        "com",
        "ple"
      ],
      [
        "com",
        "plet"
      ],
      [
        "fl",
        "ights"
      ],
      [
        "min",
        "imum"
      ],
      [
        "rit",
        "ory"
      ],
      [
        "post",
        "ing"
      ],
      [
        "plac",
        "e"
      ],
      [
        "plac",
        "ing"
      ],
      [
        "organiz",
        "ation"
      ],
      [
        "Or",
        "ganiz"
      ],
      [
        "Th",
        "ese"
      ],
      [
        "car",
        "rying"
      ],
      [
        "ren",
        "ewed"
      ],
      [
        "ann",
        "ual"
      ],
      [
        "reg",
        "ation"
      ],
      [
        "dep",
        "th"
      ],
      [
        "develop",
        "ed"
      ],
      [
        "En",
        "d"
      ],
      [
        "En",
        "tertain"
      ],
      [
        "Main",
        "tenance"
      ],
      [
        "Sch",
        "wern"
      ],
      [
        "batt",
        "les"
      ],
      [
        "cap",
        "t"
      ],
      [
        "cap",
        "able"
      ],
      [
        "cap",
        "tain"
      ],
      [
        "claw",
        "ed"
      ],
      [
        "dist",
        "inguished"
      ],
      [
        "gen",
        "eral"
      ],
      [
        "iver",
        "s"
      ],
      [
        "order",
        "ed"
      ],
      [
        "cons",
        "isting"
      ],
      [
        "loc",
        "ated"
      ],
      [
        "pos",
[...]
