{
  "version": "1.0",
  "truncation": null,
  "padding": null,
  "added_tokens": [
    {
      "id": 0,
      "content": "[UNK]",
      "single_word": false,
      "lstrip": false,
      "rstrip": false,
      "normalized": false,
      "special": true
    },
    {
      "id": 1,
      "content": "[CLS]",
      "single_word": false,
      "lstrip": false,
      "rstrip": false,
      "normalized": false,
      "special": true
    },
    {
      "id": 2,
      "content": "[SEP]",
      "single_word": false,
      "lstrip": false,
      "rstrip": false,
      "normalized": false,
      "special": true
    },
    {
      "id": 3,
      "content": "[PAD]",
      "single_word": false,
      "lstrip": false,
      "rstrip": false,
      "normalized": false,
      "special": true
    },
    {
      "id": 4,
      "content": "[MASK]",
      "single_word": false,
      "lstrip": false,
      "rstrip": false,
      "normalized": false,
      "special": true
    }
  ],
  "normalizer": null,
  "pre_tokenizer": {
    "type": "Whitespace"
  },
  "post_processor": null,
  "decoder": null,
  "model": {
    "type": "BPE",
    "dropout": null,
    "unk_token": "[UNK]",
    "continuing_subword_prefix": null,
    "end_of_word_suffix": null,
    "fuse_unk": false,
    "byte_fallback": false,
    "ignore_merges": false,
    "vocab": {
      "[UNK]": 0,
      "[CLS]": 1,
      "[SEP]": 2,
      "[PAD]": 3,
      "[MASK]": 4,
      "\u0000": 5,
      "!": 6,
      "\"": 7,
      "#": 8,
      "$": 9,
      "%": 10,
      "&": 11,
      "'": 12,
      "(": 13,
      ")": 14,
      "*": 15,
      "+": 16,
      ",": 17,
      "-": 18,
      ".": 19,
      "/": 20,
      "0": 21,
      "1": 22,
      "2": 23,
      "3": 24,
      "4": 25,
      "5": 26,
      "6": 27,
      "7": 28,
      "8": 29,
      "9": 30,
      ":": 31,
      ";": 32,
      "<": 33,
      "=": 34,
      ">": 35,
      "?": 36,
      "@": 37,
      "A": 38,
      "B": 39,
      "C": 40,
      "D": 41,
      "E": 42,
      "F": 43,
      "G": 44,
      "H": 45,
      "I": 46,
      "J": 47,
      "K": 48,
      "L": 49,
      "M": 50,
      "N": 51,
      "O": 52,
      "P": 53,
      "Q": 54,
      "R": 55,
      "S": 56,
      "T": 57,
      "U": 58,
      "V": 59,
      "W": 60,
      "X": 61,
      "Y": 62,
      "Z": 63,
      "[": 64,
      "\\": 65,
      "]": 66,
      "^": 67,
      "_": 68,
      "`": 69,
      "a": 70,
      "b": 71,
      "c": 72,
      "d": 73,
      "e": 74,
      "f": 75,
      "g": 76,
      "h": 77,
      "i": 78,
      "j": 79,
      "k": 80,
      "l": 81,
      "m": 82,
      "n": 83,
      "o": 84,
      "p": 85,
      "q": 86,
      "r": 87,
      "s": 88,
      "t": 89,
      "u": 90,
      "v": 91,
      "w": 92,
      "x": 93,
      "y": 94,
      "z": 95,
      "{": 96,
      "|": 97,
      "}": 98,
      "~": 99,
      "": 100,
      "": 101,
      "": 102,
      "": 103,
      "": 104,
      "": 105,
      "": 106,
      "": 107,
      "": 108,
      "": 109,
      "": 110,
      "": 111,
      "": 112,
      "": 113,
      "": 114,
      "": 115,
      "": 116,
      "": 117,
      "": 118,
      "¡": 119,
      "¢": 120,
      "£": 121,
      "¤": 122,
      "¥": 123,
      "¦": 124,
      "§": 125,
      "¨": 126,
      "©": 127,
      "ª": 128,
      "«": 129,
      "¬": 130,
      "­": 131,
      "®": 132,
      "¯": 133,
      "°": 134,
      "±": 135,
      "²": 136,
      "³": 137,
      "´": 138,
      "µ": 139,
      "¶": 140,
      "·": 141,
      "¸": 142,
      "¹": 143,
      "º": 144,
      "»": 145,
      "¼": 146,
      "½": 147,
      "¾": 148,
      "¿": 149,
      "À": 150,
      "Á": 151,
      "Â": 152,
      "Ã": 153,
      "Ä": 154,
      "Å": 155,
      "Æ": 156,
      "Ç": 157,
      "È": 158,
      "É": 159,
      "Ë": 160,
      "Í": 161,
      "Î": 162,
      "Ï": 163,
      "Ñ": 164,
      "Ò": 165,
      "Ó": 166,
      "Õ": 167,
      "Ö": 168,
      "×": 169,
      "Ø": 170,
      "Ù": 171,
      "Ú": 172,
      "Ü": 173,
      "Þ": 174,
      "ß": 175,
      "à": 176,
      "á": 177,
      "â": 178,
      "ã": 179,
      "ä": 180,
      "å": 181,
      "æ": 182,
      "ç": 183,
      "è": 184,
      "é": 185,
      "ê": 186,
      "ë": 187,
      "ì": 188,
      "í": 189,
      "î": 190,
      "ï": 191,
      "ð": 192,
      "ñ": 193,
      "ò": 194,
      "ó": 195,
      "ô": 196,
      "õ": 197,
      "ö": 198,
      "÷": 199,
      "ø": 200,
      "ù": 201,
      "ú": 202,
      "û": 203,
      "ü": 204,
      "ý": 205,
      "þ": 206,
      "ÿ": 207,
      "Ā": 208,
      "ā": 209,
      "ă": 210,
      "ą": 211,
      "Ć": 212,
      "ć": 213,
      "Ĉ": 214,
      "ĉ": 215,
      "Č": 216,
      "č": 217,
      "ď": 218,
      "Đ": 219,
      "đ": 220,
      "Ē": 221,
      "ē": 222,
      "ė": 223,
      "ę": 224,
      "ě": 225,
      "Ĝ": 226,
      "ğ": 227,
      "ĥ": 228,
      "ħ": 229,
      "ī": 230,
      "ĭ": 231,
      "į": 232,
      "İ": 233,
      "ı": 234,
      "Ĵ": 235,
      "ĵ": 236,
      "ķ": 237,
      "ĺ": 238,
      "Ļ": 239,
      "Ľ": 240,
      "Ł": 241,
      "ł": 242,
      "ń": 243,
      "ņ": 244,
      "ň": 245,
      "ŋ": 246,
      "Ō": 247,
      "ō": 248,
      "ŏ": 249,
      "ő": 250,
      "Œ": 251,
      "œ": 252,
      "Ř": 253,
      "ř": 254,
      "Ś": 255,
      "ś": 256,
      "Ŝ": 257,
      "Ş": 258,
      "ş": 259,
      "Š": 260,
      "š": 261,
      "ţ": 262,
      "ť": 263,
      "Ŧ": 264,
      "Ũ": 265,
      "ũ": 266,
      "Ū": 267,
      "ū": 268,
      "ŭ": 269,
      "ů": 270,
      "ű": 271,
      "ŵ": 272,
      "Ÿ": 273,
      "ź": 274,
      "Ż": 275,
      "ż": 276,
      "Ž": 277,
      "ž": 278,
      "Ɔ": 279,
      "ƍ": 280,
      "Ƒ": 281,
      "ƒ": 282,
      "ƚ": 283,
      "ơ": 284,
      "ư": 285,
      "ǎ": 286,
      "ǐ": 287,
      "ǒ": 288,
      "ǔ": 289,
      "ǧ": 290,
      "ǫ": 291,
      "ǵ": 292,
      "Ǽ": 293,
      "ȗ": 294,
      "Ș": 295,
      "ș": 296,
      "Ț": 297,
      "ț": 298,
      "ȥ": 299,
      "Ȫ": 300,
      "ȭ": 301,
      "ɐ": 302,
      "ɑ": 303,
      "ɓ": 304,
      "ɔ": 305,
      "ɕ": 306,
      "ɗ": 307,
      "ə": 308,
      "ɛ": 309,
      "ɡ": 310,
      "ɣ": 311,
      "ɥ": 312,
      "ɦ": 313,
      "ɨ": 314,
      "ɪ": 315,
      "ɭ": 316,
      "ɮ": 317,
      "ɯ": 318,
      "ɰ": 319,
      "ɲ": 320,
      "ɵ": 321,
      "ɸ": 322,
      "ɹ": 323,
      "ɾ": 324,
      "ʀ": 325,
      "ʁ": 326,
      "ʂ": 327,
      "ʃ": 328,
      "ʈ": 329,
      "ʊ": 330,
      "ʌ": 331,
      "ʏ": 332,
      "ʑ": 333,
      "ʒ": 334,
      "ʔ": 335,
      "ʕ": 336,
      "ʖ": 337,
      "ʝ": 338,
      "ʪ": 339,
      "ʰ": 340,
      "ʱ": 341,
      "ʲ": 342,
      "ʷ": 343,
      "ʹ": 344,
      "ʺ": 345,
      "ʻ": 346,
      "ʼ": 347,
      "ʾ": 348,
      "ʿ": 349,
      "ˀ": 350,
      "˃": 351,
      "ˈ": 352,
      "ˌ": 353,
      "ː": 354,
      "˒": 355,
      "˚": 356,
      "˜": 357,
      "ˠ": 358,
      "ˡ": 359,
      "ˤ": 360,
      "̀": 361,
      "́": 362,
      "̃": 363,
      "̄": 364,
      "̆": 365,
      "̇": 366,
      "̈": 367,
      "̉": 368,
      "̋": 369,
      "̍": 370,
      "̚": 371,
      "̠": 372,
      "̥": 373,
      "̩": 374,
      "̪": 375,
      "̯": 376,
      "̸": 377,
      "͈": 378,
      "͕": 379,
      "͜": 380,
      "͞": 381,
      "͡": 382,
      "ͤ": 383,
      "ͦ": 384,
      ";": 385,
      "Ά": 386,
      "Έ": 387,
      "Ό": 388,
      "Α": 389,
      "Β": 390,
      "Γ": 391,
      "Δ": 392,
      "Ε": 393,
      "Ζ": 394,
      "Η": 395,
      "Θ": 396,
      "Ι": 397,
      "Κ": 398,
      "Λ": 399,
      "Μ": 400,
      "Ν": 401,
      "Ξ": 402,
      "Ο": 403,
      "Π": 404,
      "Ρ": 405,
      "Σ": 406,
      "Τ": 407,
      "Υ": 408,
      "Φ": 409,
      "Χ": 410,
      "Ω": 411,
      "ά": 412,
      "έ": 413,
      "ή": 414,
      "ί": 415,
      "α": 416,
      "β": 417,
      "γ": 418,
      "δ": 419,
      "ε": 420,
      "ζ": 421,
      "η": 422,
      "θ": 423,
      "ι": 424,
      "κ": 425,
      "λ": 426,
      "μ": 427,
      "ν": 428,
      "ξ": 429,
      "ο": 430,
      "π": 431,
      "ρ": 432,
      "ς": 433,
      "σ": 434,
      "τ": 435,
      "υ": 436,
      "φ": 437,
      "χ": 438,
      "ψ": 439,
      "ω": 440,
      "ό": 441,
      "ύ": 442,
      "ώ": 443,
      "ϕ": 444,
      "ϡ": 445,
      "ϰ": 446,
      "ϵ": 447,
      "Є": 448,
      "І": 449,
      "Ў": 450,
      "А": 451,
      "Б": 452,
      "В": 453,
      "Г": 454,
      "Д": 455,
      "Е": 456,
      "Ж": 457,
      "З": 458,
      "И": 459,
      "К": 460,
      "Л": 461,
      "М": 462,
      "Н": 463,
      "О": 464,
      "П": 465,
      "Р": 466,
      "С": 467,
      "Т": 468,
      "У": 469,
      "Ф": 470,
      "Х": 471,
      "Ц": 472,
      "Ч": 473,
      "Ш": 474,
      "Ъ": 475,
      "Э": 476,
      "Я": 477,
      "а": 478,
      "б": 479,
      "в": 480,
      "г": 481,
      "д": 482,
      "е": 483,
      "ж": 484,
      "з": 485,
      "и": 486,
      "й": 487,
      "к": 488,
      "л": 489,
      "м": 490,
      "н": 491,
      "о": 492,
      "п": 493,
      "р": 494,
      "с": 495,
      "т": 496,
      "у": 497,
      "ф": 498,
      "х": 499,
      "ц": 500,
      "ч": 501,
      "ш": 502,
      "щ": 503,
      "ъ": 504,
      "ы": 505,
      "ь": 506,
      "э": 507,
      "ю": 508,
      "я": 509,
      "ё": 510,
      "є": 511,
      "ѕ": 512,
      "і": 513,
      "ї": 514,
      "ћ": 515,
      "Ѧ": 516,
      "Ѳ": 517,
      "Ѻ": 518,
      "Ѿ": 519,
      "Ҁ": 520,
      "҄": 521,
      "Ғ": 522,
      "җ": 523,
      "қ": 524,
      "Ҡ": 525,
      "Ҭ": 526,
      "ү": 527,
      "ұ": 528,
      "ҵ": 529,
      "ҽ": 530,
      "ӎ": 531,
      "Ӑ": 532,
      "Ӓ": 533,
      "Ӧ": 534,
      "ө": 535,
      "Ԍ": 536,
      "԰": 537,
      "Ա": 538,
      "Դ": 539,
      "թ": 540,
      "ո": 541,
      "։": 542,
      "֑": 543,
      "֗": 544,
      "֝": 545,
      "֣": 546,
      "֥": 547,
      "֫": 548,
      "֭": 549,
      "ְ": 550,
      "ֱ": 551,
      "ֲ": 552,
      "ֳ": 553,
      "ִ": 554,
      "ֵ": 555,
      "ֶ": 556,
      "ַ": 557,
      "ָ": 558,
      "ֹ": 559,
      "ֻ": 560,
      "ּ": 561,
      "ֽ": 562,
      "־": 563,
      "ֿ": 564,
      "ׁ": 565,
      "ׂ": 566,
      "א": 567,
      "ב": 568,
      "ג": 569,
      "ד": 570,
      "ה": 571,
      "ו": 572,
      "ז": 573,
      "ח": 574,
      "ט": 575,
      "י": 576,
      "ך": 577,
      "כ": 578,
      "ל": 579,
      "ם": 580,
      "מ": 581,
      "ן": 582,
      "נ": 583,
      "ס": 584,
      "ע": 585,
      "ף": 586,
      "פ": 587,
      "ץ": 588,
      "צ": 589,
      "ק": 590,
      "ר": 591,
      "ש": 592,
      "ת": 593,
      "׳": 594,
      "״": 595,
      "،": 596,
      "؟": 597,
      "ء": 598,
      "آ": 599,
      "أ": 600,
      "ؤ": 601,
      "إ": 602,
      "ئ": 603,
      "ا": 604,
      "ب": 605,
      "ة": 606,
      "ت": 607,
      "ث": 608,
      "ج": 609,
      "ح": 610,
      "خ": 611,
      "د": 612,
      "ذ": 613,
      "ر": 614,
      "ز": 615,
      "س": 616,
      "ش": 617,
      "ص": 618,
      "ض": 619,
      "ط": 620,
      "ظ": 621,
      "ع": 622,
      "غ": 623,
      "ـ": 624,
      "ف": 625,
      "ق": 626,
      "ك": 627,
      "ل": 628,
      "م": 629,
      "ن": 630,
      "ه": 631,
      "و": 632,
      "ى": 633,
      "ي": 634,
      "ً": 635,
      "ٌ": 636,
      "ٍ": 637,
      "َ": 638,
      "ُ": 639,
      "ِ": 640,
      "ّ": 641,
      "ْ": 642,
      "ٓ": 643,
      "ٖ": 644,
      "ٗ": 645,
      "٠": 646,
      "١": 647,
      "٢": 648,
      "٥": 649,
      "٧": 650,
      "٨": 651,
      "٩": 652,
      "ٰ": 653,
      "ٱ": 654,
      "ٲ": 655,
      "ٹ": 656,
      "پ": 657,
      "چ": 658,
      "ک": 659,
      "ڪ": 660,
      "گ": 661,
      "ڷ": 662,
      "ں": 663,
      "ھ": 664,
      "ۀ": 665,
      "ہ": 666,
      "ی": 667,
      "ے": 668,
      "ۖ": 669,
      "ۗ": 670,
      "ۚ": 671,
      "ۜ": 672,
      "۞": 673,
      "ۡ": 674,
      "ۤ": 675,
      "ۥ": 676,
      "ۦ": 677,
      "۩": 678,
      "۱": 679,
      "۵": 680,
      "۽": 681,
      "ܐ": 682,
      "ܒ": 683,
      "ܘ": 684,
      "ܞ": 685,
      "ܡ": 686,
      "ܢ": 687,
      "ܨ": 688,
      "ܪ": 689,
      "ܵ": 690,
      "ޅ": 691,
      "ޑ": 692,
      "ޓ": 693,
      "ޗ": 694,
      "ު": 695,
      "ं": 696,
      "अ": 697,
      "आ": 698,
      "इ": 699,
      "ई": 700,
      "उ": 701,
      "ऊ": 702,
      "ए": 703,
      "ऐ": 704,
      "ओ": 705,
      "औ": 706,
      "क": 707,
      "ख": 708,
      "ग": 709,
      "घ": 710,
      "च": 711,
      "छ": 712,
      "ज": 713,
      "झ": 714,
      "ञ": 715,
      "ट": 716,
      "ठ": 717,
      "ड": 718,
      "ढ": 719,
      "ण": 720,
      "त": 721,
      "थ": 722,
      "द": 723,
      "ध": 724,
      "न": 725,
      "प": 726,
      "फ": 727,
      "ब": 728,
      "भ": 729,
      "म": 730,
      "य": 731,
      "र": 732,
      "ऱ": 733,
      "ल": 734,
      "व": 735,
      "श": 736,
      "ष": 737,
      "स": 738,
      "ह": 739,
      "़": 740,
      "ा": 741,
      "ि": 742,
      "ी": 743,
      "ु": 744,
      "ू": 745,
      "ृ": 746,
      "े": 747,
      "ै": 748,
      "ॉ": 749,
      "ो": 750,
      "ौ": 751,
      "्": 752,
      "ड़": 753,
      "।": 754,
      "०": 755,
      "१": 756,
      "२": 757,
      "८": 758,
      "আ": 759,
      "ই": 760,
      "উ": 761,
      "এ": 762,
      "ও": 763,
      "ক": 764,
      "খ": 765,
      "গ": 766,
      "ঘ": 767,
      "ঙ": 768,
      "ছ": 769,
      "জ": 770,
      "ট": 771,
      "ণ": 772,
      "ত": 773,
      "দ": 774,
      "ধ": 775,
      "ন": 776,
      "প": 777,
      "ব": 778,
      "ভ": 779,
      "ম": 780,
      "য": 781,
      "র": 782,
      "ল": 783,
      "শ": 784,
      "স": 785,
      "া": 786,
      "ি": 787,
      "ী": 788,
      "ু": 789,
      "ৃ": 790,
      "ে": 791,
      "ো": 792,
      "্": 793,
      "য়": 794,
      "૱": 795,
      "ஜ": 796,
      "௹": 797,
      "౪": 798,
      "ಂ": 799,
      "ಕ": 800,
      "ತ": 801,
      "ನ": 802,
      "ರ": 803,
      "ಶ": 804,
      "ಾ": 805,
      "ಿ": 806,
      "ೀ": 807,
      "್": 808,
      "ර": 809,
      "ු": 810,
      "ก": 811,
      "ข": 812,
      "ง": 813,
      "ช": 814,
      "ต": 815,
      "น": 816,
      "ป": 817,
      "พ": 818,
      "ย": 819,
      "อ": 820,
      "ะ": 821,
      "ั": 822,
      "า": 823,
      "ิ": 824,
      "ู": 825,
      "ฺ": 826,
      "เ": 827,
      "้": 828,
      "๑": 829,
      "་": 830,
      "།": 831,
      "ཀ": 832,
      "ཁ": 833,
      "ག": 834,
      "ང": 835,
      "ཅ": 836,
      "ཆ": 837,
      "ཉ": 838,
      "ད": 839,
      "ན": 840,
      "པ": 841,
      "ཕ": 842,
      "བ": 843,
      "མ": 844,
      "ཙ": 845,
      "ཞ": 846,
      "འ": 847,
      "ར": 848,
      "ལ": 849,
      "ཤ": 850,
      "ས": 851,
      "ི": 852,
      "ུ": 853,
      "ེ": 854,
      "ོ": 855,
      "ྐ": 856,
      "ྒ": 857,
      "ྟ": 858,
      "ྱ": 859,
      "ྲ": 860,
      "ል": 861,
      "ም": 862,
      "ሠ": 863,
      "ሥ": 864,
      "ሱ": 865,
      "ስ": 866,
      "ተ": 867,
      "ት": 868,
      "ነ": 869,
      "ን": 870,
      "ኣ": 871,
      "ኽ": 872,
      "ገ": 873,
      "ጉ": 874,
      "ጣ": 875,
      "፡": 876,
      "ᐛ": 877,
      "ᕙ": 878,
      "᠎": 879,
      "ᠠ": 880,
      "ᠣ": 881,
      "ᠤ": 882,
      "ᠪ": 883,
      "ᠭ": 884,
      "ᴄ": 885,
      "ᴗ": 886,
      "ᵟ": 887,
      "ᵹ": 888,
      "ḇ": 889,
      "ḋ": 890,
      "ḍ": 891,
      "Ḡ": 892,
      "ḡ": 893,
      "Ḥ": 894,
      "ḥ": 895,
      "ḫ": 896,
      "Ḵ": 897,
      "ḵ": 898,
      "ṁ": 899,
      "ṃ": 900,
      "ṅ": 901,
      "ṇ": 902,
      "ṛ": 903,
      "Ṣ": 904,
      "ṣ": 905,
      "Ṭ": 906,
      "ṭ": 907,
      "Ẓ": 908,
      "ẓ": 909,
      "ẕ": 910,
      "ẟ": 911,
      "ạ": 912,
      "ả": 913,
      "ấ": 914,
      "ầ": 915,
      "ậ": 916,
      "ắ": 917,
      "ẳ": 918,
      "ặ": 919,
      "ẹ": 920,
      "ẻ": 921,
      "ế": 922,
      "ề": 923,
      "ễ": 924,
      "Ệ": 925,
      "ệ": 926,
      "ỉ": 927,
      "Ọ": 928,
      "ọ": 929,
      "ồ": 930,
      "ổ": 931,
      "ộ": 932,
      "ớ": 933,
      "ờ": 934,
      "ở": 935,
      "ủ": 936,
      "ử": 937,
      "ữ": 938,
      "ự": 939,
      "ỳ": 940,
      "ỹ": 941,
      "ἀ": 942,
      "ἄ": 943,
      "Ἅ": 944,
      "ὁ": 945,
      "ὅ": 946,
      "ὐ": 947,
      "ὑ": 948,
      "ὠ": 949,
      "ὰ": 950,
      "ὶ": 951,
      "ᾱ": 952,
      "ᾶ": 953,
      "ῆ": 954,
      "ῖ": 955,
      "ῶ": 956,
      "ῷ": 957,
      "​": 958,
      "‌": 959,
      "‍": 960,
      "‎": 961,
      "‏": 962,
      "‐": 963,
      "‑": 964,
      "‒": 965,
      "–": 966,
      "—": 967,
      "―": 968,
      "‘": 969,
      "’": 970,
      "‚": 971,
      "“": 972,
      "”": 973,
      "„": 974,
      "‟": 975,
      "†": 976,
      "‡": 977,
      "•": 978,
      "․": 979,
      "…": 980,
      "‧": 981,
      "‪": 982,
      "‬": 983,
      "‰": 984,
      "′": 985,
      "″": 986,
      "‹": 987,
      "›": 988,
      "※": 989,
      "‼": 990,
      "‿": 991,
      "⁂": 992,
      "⁄": 993,
      "⁡": 994,
      "⁢": 995,
      "⁰": 996,
      "⁴": 997,
      "⁵": 998,
      "⁶": 999,
      "⁷": 1000,
      "⁸": 1001,
      "⁹": 1002,
      "₁": 1003,
      "₃": 1004,
      "₤": 1005,
      "₨": 1006,
      "₩": 1007,
      "₪": 1008,
      "€": 1009,
      "₱": 1010,
      "₹": 1011,
      "℃": 1012,
      "℅": 1013,
      "℉": 1014,
      "ℓ": 1015,
      "№": 1016,
      "℗": 1017,
      "ℝ": 1018,
      "℠": 1019,
      "™": 1020,
      "ℳ": 1021,
      "ⅆ": 1022,
      "⅓": 1023,
      "⅔": 1024,
      "⅕": 1025,
      "⅖": 1026,
      "⅛": 1027,
      "←": 1028,
      "↑": 1029,
      "→": 1030,
      "↓": 1031,
      "↔": 1032,
      "↞": 1033,
      "↠": 1034,
      "↩": 1035,
      "↪": 1036,
      "↺": 1037,
      "↻": 1038,
      "⇀": 1039,
      "⇐": 1040,
      "⇒": 1041,
      "⇓": 1042,
      "⇔": 1043,
      "⇧": 1044,
      "∀": 1045,
      "∂": 1046,
      "∆": 1047,
      "∇": 1048,
      "∈": 1049,
      "∉": 1050,
      "∑": 1051,
      "−": 1052,
      "∓": 1053,
      "∖": 1054,
      "∗": 1055,
      "∘": 1056,
      "√": 1057,
      "∝": 1058,
      "∞": 1059,
      "∩": 1060,
      "∫": 1061,
      "∼": 1062,
      "≈": 1063,
      "≜": 1064,
      "≠": 1065,
      "≡": 1066,
      "≤": 1067,
      "≥": 1068,
      "≦": 1069,
      "≧": 1070,
      "≪": 1071,
      "⊂": 1072,
      "⊕": 1073,
      "⋂": 1074,
      "⋃": 1075,
      "⋅": 1076,
      "⋆": 1077,
      "⌂": 1078,
      "⌛": 1079,
      "⍋": 1080,
      "⍍": 1081,
      "⍙": 1082,
      "⏟": 1083,
      "␤": 1084,
      "①": 1085,
      "Ⓐ": 1086,
      "Ⓜ": 1087,
      "Ⓥ": 1088,
      "ⓒ": 1089,
      "─": 1090,
      "│": 1091,
      "┃": 1092,
      "┌": 1093,
      "└": 1094,
      "┘": 1095,
      "╚": 1096,
      "╝": 1097,
      "╥": 1098,
      "█": 1099,
      "░": 1100,
      "▒": 1101,
      "▓": 1102,
      "■": 1103,
      "□": 1104,
      "▪": 1105,
      "▲": 1106,
      "△": 1107,
      "▸": 1108,
      "►": 1109,
      "▼": 1110,
      "◄": 1111,
      "◆": 1112,
      "◉": 1113,
      "◊": 1114,
      "○": 1115,
      "◌": 1116,
      "◎": 1117,
      "●": 1118,
      "◕": 1119,
      "◠": 1120,
      "◡": 1121,
      "◦": 1122,
      "☀": 1123,
      "☁": 1124,
      "☃": 1125,
      "★": 1126,
      "☆": 1127,
      "☔": 1128,
      "☕": 1129,
      "☧": 1130,
      "☮": 1131,
      "☹": 1132,
      "☺": 1133,
      "♀": 1134,
      "♂": 1135,
      "♚": 1136,
      "♞": 1137,
      "♠": 1138,
      "♡": 1139,
      "♥": 1140,
      "♦": 1141,
      "♪": 1142,
      "♫": 1143,
      "♬": 1144,
      "♭": 1145,
      "♮": 1146,
      "♯": 1147,
      "⚓": 1148,
      "⚛": 1149,
      "⚠": 1150,
      "⚡": 1151,
      "⚪": 1152,
      "⚫": 1153,
      "⚽": 1154,
      "⛄": 1155,
      "⛳": 1156,
      "✅": 1157,
      "✈": 1158,
      "✉": 1159,
      "✊": 1160,
      "✌": 1161,
      "✍": 1162,
      "✓": 1163,
      "✔": 1164,
      "✕": 1165,
      "✖": 1166,
      "✗": 1167,
      "✥": 1168,
      "✧": 1169,
      "✨": 1170,
      "✭": 1171,
      "✰": 1172,
      "✱": 1173,
      "✿": 1174,
      "❄": 1175,
      "❑": 1176,
      "❓": 1177,
      "❤": 1178,
      "❮": 1179,
      "❯": 1180,
      "➜": 1181,
      "➝": 1182,
      "➡": 1183,
      "➤": 1184,
      "➥": 1185,
      "⟦": 1186,
      "⟧": 1187,
      "⟨": 1188,
      "⟩": 1189,
      "⟶": 1190,
      "⟹": 1191,
      "⨁": 1192,
      "⩾": 1193,
      "⪅": 1194,
      "⬇": 1195,
      "⬛": 1196,
      "⭐": 1197,
      "ⲁ": 1198,
      "Ⲃ": 1199,
      "ⲅ": 1200,
      "Ⲇ": 1201,
      "ⲇ": 1202,
      "ⲓ": 1203,
      "ⲗ": 1204,
      "ⲟ": 1205,
      "Ⲡ": 1206,
      "ⲥ": 1207,
      "、": 1208,
      "。": 1209,
      "々": 1210,
      "〈": 1211,
      "〉": 1212,
      "《": 1213,
      "》": 1214,
      "「": 1215,
      "」": 1216,
      "『": 1217,
      "』": 1218,
      "【": 1219,
      "】": 1220,
      "〒": 1221,
      "〜": 1222,
      "ぁ": 1223,
      "あ": 1224,
      "い": 1225,
      "う": 1226,
      "え": 1227,
      "お": 1228,
      "か": 1229,
      "が": 1230,
      "き": 1231,
      "ぎ": 1232,
      "く": 1233,
      "ぐ": 1234,
      "け": 1235,
      "げ": 1236,
      "こ": 1237,
      "ご": 1238,
      "さ": 1239,
      "ざ": 1240,
      "し": 1241,
      "じ": 1242,
      "す": 1243,
      "ず": 1244,
      "せ": 1245,
      "そ": 1246,
      "ぞ": 1247,
      "た": 1248,
      "だ": 1249,
      "ち": 1250,
      "っ": 1251,
      "つ": 1252,
      "づ": 1253,
      "て": 1254,
      "で": 1255,
      "と": 1256,
      "ど": 1257,
      "な": 1258,
      "に": 1259,
      "ぬ": 1260,
      "ね": 1261,
      "の": 1262,
      "は": 1263,
      "ば": 1264,
      "ぱ": 1265,
      "ひ": 1266,
      "び": 1267,
      "ふ": 1268,
      "ぶ": 1269,
      "へ": 1270,
      "べ": 1271,
      "ぺ": 1272,
      "ほ": 1273,
      "ぼ": 1274,
      "ま": 1275,
      "み": 1276,
      "む": 1277,
      "め": 1278,
      "も": 1279,
      "や": 1280,
      "ゆ": 1281,
      "ょ": 1282,
      "よ": 1283,
      "ら": 1284,
      "り": 1285,
      "る": 1286,
      "れ": 1287,
      "ろ": 1288,
      "わ": 1289,
      "を": 1290,
      "ん": 1291,
      "ゞ": 1292,
      "ァ": 1293,
      "ア": 1294,
      "ィ": 1295,
      "イ": 1296,
      "ゥ": 1297,
      "ウ": 1298,
      "ェ": 1299,
      "エ": 1300,
      "ォ": 1301,
      "オ": 1302,
      "カ": 1303,
      "ガ": 1304,
      "キ": 1305,
      "ギ": 1306,
      "ク": 1307,
      "グ": 1308,
      "ケ": 1309,
      "ゲ": 1310,
      "コ": 1311,
      "ゴ": 1312,
      "サ": 1313,
      "ザ": 1314,
      "シ": 1315,
      "ジ": 1316,
      "ス": 1317,
      "ズ": 1318,
      "セ": 1319,
      "ゼ": 1320,
      "ソ": 1321,
      "ゾ": 1322,
      "タ": 1323,
      "ダ": 1324,
      "チ": 1325,
      "ッ": 1326,
      "ツ": 1327,
      "テ": 1328,
      "デ": 1329,
      "ト": 1330,
      "ド": 1331,
      "ナ": 1332,
      "ニ": 1333,
      "ネ": 1334,
      "ノ": 1335,
      "ハ": 1336,
      "バ": 1337,
      "パ": 1338,
      "ヒ": 1339,
      "ビ": 1340,
      "ピ": 1341,
      "フ": 1342,
      "ブ": 1343,
      "プ": 1344,
      "ヘ": 1345,
      "ベ": 1346,
      "ペ": 1347,
      "ホ": 1348,
      "ボ": 1349,
      "ポ": 1350,
      "マ": 1351,
      "ミ": 1352,
      "ム": 1353,
      "メ": 1354,
      "モ": 1355,
      "ャ": 1356,
      "ヤ": 1357,
      "ュ": 1358,
      "ユ": 1359,
      "ョ": 1360,
      "ヨ": 1361,
      "ラ": 1362,
      "リ": 1363,
      "ル": 1364,
      "レ": 1365,
      "ロ": 1366,
      "ワ": 1367,
      "ヲ": 1368,
      "ン": 1369,
      "ヴ": 1370,
      "・": 1371,
      "ー": 1372,
      "ヽ": 1373,
      "ㄱ": 1374,
      "ㄲ": 1375,
      "ㄴ": 1376,
      "ㄷ": 1377,
      "ㄸ": 1378,
      "ㄹ": 1379,
      "ㅁ": 1380,
      "ㅂ": 1381,
      "ㅃ": 1382,
      "ㅅ": 1383,
      "ㅆ": 1384,
      "ㅇ": 1385,
      "ㅈ": 1386,
      "ㅉ": 1387,
      "ㅊ": 1388,
      "ㅋ": 1389,
      "ㅌ": 1390,
      "ㅍ": 1391,
      "ㅎ": 1392,
      "ㅏ": 1393,
      "ㅐ": 1394,
      "ㅑ": 1395,
      "ㅒ": 1396,
      "ㅓ": 1397,
      "ㅔ": 1398,
      "ㅕ": 1399,
      "ㅖ": 1400,
      "ㅗ": 1401,
      "ㅘ": 1402,
      "ㅙ": 1403,
      "ㅚ": 1404,
      "ㅛ": 1405,
      "ㅜ": 1406,
      "ㅝ": 1407,
      "ㅞ": 1408,
      "ㅟ": 1409,
      "ㅠ": 1410,
      "ㅡ": 1411,
      "ㅢ": 1412,
      "ㅣ": 1413,
      "ㆍ": 1414,
      "一": 1415,
      "丁": 1416,
      "七": 1417,
      "万": 1418,
      "丈": 1419,
      "三": 1420,
      "上": 1421,
      "下": 1422,
      "不": 1423,
      "与": 1424,
      "专": 1425,
      "世": 1426,
      "丘": 1427,
      "业": 1428,
      "东": 1429,
      "丝": 1430,
      "両": 1431,
      "两": 1432,
      "並": 1433,
      "个": 1434,
      "中": 1435,
      "丰": 1436,
      "串": 1437,
      "临": 1438,
      "丸": 1439,
      "丹": 1440,
      "为": 1441,
      "主": 1442,
      "丽": 1443,
      "么": 1444,
      "之": 1445,
      "乌": 1446,
      "乐": 1447,
      "乔": 1448,
      "也": 1449,
      "书": 1450,
      "乱": 1451,
      "亀": 1452,
      "亂": 1453,
      "了": 1454,
      "予": 1455,
      "争": 1456,
      "事": 1457,
      "二": 1458,
      "于": 1459,
      "云": 1460,
      "五": 1461,
      "亚": 1462,
      "交": 1463,
      "亦": 1464,
      "产": 1465,
      "京": 1466,
      "人": 1467,
      "什": 1468,
      "仇": 1469,
      "今": 1470,
      "介": 1471,
      "仏": 1472,
      "仕": 1473,
      "他": 1474,
      "仗": 1475,
      "付": 1476,
      "仙": 1477,
      "代": 1478,
      "令": 1479,
      "以": 1480,
      "们": 1481,
      "仰": 1482,
      "件": 1483,
      "任": 1484,
      "份": 1485,
      "仿": 1486,
      "企": 1487,
      "伊": 1488,
      "伍": 1489,
      "会": 1490,
      "伝": 1491,
      "伟": 1492,
      "传": 1493,
      "伯": 1494,
      "伽": 1495,
      "但": 1496,
      "位": 1497,
      "住": 1498,
      "佐": 1499,
      "体": 1500,
      "何": 1501,
      "佛": 1502,
      "作": 1503,
      "你": 1504,
      "使": 1505,
      "來": 1506,
      "供": 1507,
      "依": 1508,
      "侶": 1509,
      "便": 1510,
      "係": 1511,
      "俊": 1512,
      "俗": 1513,
      "保": 1514,
      "俞": 1515,
      "信": 1516,
      "修": 1517,
      "俱": 1518,
      "個": 1519,
      "倒": 1520,
      "値": 1521,
      "假": 1522,
      "偉": 1523,
      "做": 1524,
      "停": 1525,
      "健": 1526,
      "側": 1527,
      "偵": 1528,
      "傍": 1529,
      "催": 1530,
      "傷": 1531,
      "傾": 1532,
      "働": 1533,
      "像": 1534,
      "僕": 1535,
      "僧": 1536,
      "儀": 1537,
      "元": 1538,
      "充": 1539,
      "先": 1540,
      "光": 1541,
      "克": 1542,
      "入": 1543,
      "全": 1544,
      "公": 1545,
      "六": 1546,
      "兰": 1547,
      "共": 1548,
      "关": 1549,
      "兴": 1550,
      "兵": 1551,
      "其": 1552,
      "具": 1553,
      "典": 1554,
      "兹": 1555,
      "兼": 1556,
      "兽": 1557,
      "内": 1558,
      "円": 1559,
      "再": 1560,
      "写": 1561,
      "军": 1562,
      "农": 1563,
      "冠": 1564,
      "冬": 1565,
      "冰": 1566,
      "冶": 1567,
      "凉": 1568,
      "凭": 1569,
      "凯": 1570,
      "凶": 1571,
      "出": 1572,
      "击": 1573,
      "分": 1574,
      "切": 1575,
      "刈": 1576,
      "列": 1577,
      "则": 1578,
      "刚": 1579,
      "创": 1580,
      "初": 1581,
      "判": 1582,
      "別": 1583,
      "利": 1584,
      "别": 1585,
      "到": 1586,
      "制": 1587,
      "刺": 1588,
      "刻": 1589,
      "剁": 1590,
      "前": 1591,
      "剑": 1592,
      "剛": 1593,
      "剣": 1594,
      "剥": 1595,
      "剧": 1596,
      "創": 1597,
      "劇": 1598,
      "力": 1599,
      "功": 1600,
      "加": 1601,
      "劣": 1602,
      "动": 1603,
      "助": 1604,
      "努": 1605,
      "劫": 1606,
      "励": 1607,
      "勃": 1608,
      "勇": 1609,
      "勉": 1610,
      "勒": 1611,
      "動": 1612,
      "務": 1613,
      "勛": 1614,
      "勝": 1615,
      "勞": 1616,
      "勲": 1617,
      "勳": 1618,
      "包": 1619,
      "化": 1620,
      "北": 1621,
      "医": 1622,
      "區": 1623,
      "十": 1624,
      "升": 1625,
      "半": 1626,
      "华": 1627,
      "卐": 1628,
      "卒": 1629,
      "協": 1630,
      "单": 1631,
      "南": 1632,
      "博": 1633,
      "卡": 1634,
      "卢": 1635,
      "卫": 1636,
      "危": 1637,
      "即": 1638,
      "卷": 1639,
      "卸": 1640,
      "厅": 1641,
      "历": 1642,
      "厚": 1643,
      "原": 1644,
      "厦": 1645,
      "厭": 1646,
      "去": 1647,
      "参": 1648,
      "又": 1649,
      "叉": 1650,
      "及": 1651,
      "友": 1652,
      "反": 1653,
      "収": 1654,
      "发": 1655,
      "取": 1656,
      "受": 1657,
      "变": 1658,
      "叙": 1659,
      "叛": 1660,
      "口": 1661,
      "古": 1662,
      "叩": 1663,
      "只": 1664,
      "召": 1665,
      "可": 1666,
      "台": 1667,
      "史": 1668,
      "右": 1669,
      "叶": 1670,
      "号": 1671,
      "司": 1672,
      "各": 1673,
      "合": 1674,
      "吉": 1675,
      "同": 1676,
      "名": 1677,
      "后": 1678,
      "向": 1679,
      "君": 1680,
      "否": 1681,
      "启": 1682,
      "吳": 1683,
      "吹": 1684,
      "吾": 1685,
      "告": 1686,
      "员": 1687,
      "周": 1688,
      "呪": 1689,
      "味": 1690,
      "命": 1691,
      "和": 1692,
      "咸": 1693,
      "咽": 1694,
      "品": 1695,
      "員": 1696,
      "唄": 1697,
      "唐": 1698,
      "唤": 1699,
      "唯": 1700,
      "唱": 1701,
      "商": 1702,
      "問": 1703,
      "啓": 1704,
      "啼": 1705,
      "善": 1706,
      "喚": 1707,
      "喝": 1708,
      "営": 1709,
      "喻": 1710,
      "嘉": 1711,
      "嘗": 1712,
      "噉": 1713,
      "噌": 1714,
      "器": 1715,
      "噴": 1716,
      "四": 1717,
      "回": 1718,
      "因": 1719,
      "团": 1720,
      "団": 1721,
      "园": 1722,
      "囲": 1723,
      "国": 1724,
      "國": 1725,
      "園": 1726,
      "團": 1727,
      "土": 1728,
      "圧": 1729,
      "在": 1730,
      "地": 1731,
      "场": 1732,
      "均": 1733,
      "坎": 1734,
      "坏": 1735,
      "坑": 1736,
      "坛": 1737,
      "坡": 1738,
      "坦": 1739,
      "型": 1740,
      "垢": 1741,
      "埃": 1742,
      "城": 1743,
      "域": 1744,
      "培": 1745,
      "基": 1746,
      "堂": 1747,
      "堅": 1748,
      "堡": 1749,
      "堯": 1750,
      "報": 1751,
      "場": 1752,
      "塊": 1753,
      "塔": 1754,
      "塗": 1755,
      "塘": 1756,
      "塞": 1757,
      "塾": 1758,
      "境": 1759,
      "墓": 1760,
      "増": 1761,
      "增": 1762,
      "墟": 1763,
      "墳": 1764,
      "壇": 1765,
      "壊": 1766,
      "壌": 1767,
      "士": 1768,
      "壮": 1769,
      "売": 1770,
      "壳": 1771,
      "壽": 1772,
      "备": 1773,
      "変": 1774,
      "复": 1775,
      "夏": 1776,
      "外": 1777,
      "多": 1778,
      "夜": 1779,
      "夢": 1780,
      "大": 1781,
      "天": 1782,
      "太": 1783,
      "夫": 1784,
      "夯": 1785,
      "失": 1786,
      "头": 1787,
      "夹": 1788,
      "奇": 1789,
      "奉": 1790,
      "奋": 1791,
      "奖": 1792,
      "奥": 1793,
      "奪": 1794,
      "女": 1795,
      "好": 1796,
      "如": 1797,
      "妍": 1798,
      "妯": 1799,
      "妹": 1800,
      "妻": 1801,
      "始": 1802,
      "委": 1803,
      "姚": 1804,
      "威": 1805,
      "娅": 1806,
      "娌": 1807,
      "娘": 1808,
      "娜": 1809,
      "婆": 1810,
      "婚": 1811,
      "嫁": 1812,
      "嫌": 1813,
      "嫩": 1814,
      "嬢": 1815,
      "子": 1816,
      "孔": 1817,
      "字": 1818,
      "存": 1819,
      "孜": 1820,
      "孝": 1821,
      "孟": 1822,
      "季": 1823,
      "学": 1824,
      "孩": 1825,
      "學": 1826,
      "孺": 1827,
      "宁": 1828,
      "宅": 1829,
      "守": 1830,
      "安": 1831,
      "完": 1832,
      "宗": 1833,
      "官": 1834,
      "定": 1835,
      "宛": 1836,
      "宜": 1837,
      "宝": 1838,
      "实": 1839,
      "実": 1840,
      "客": 1841,
      "宣": 1842,
      "室": 1843,
      "宮": 1844,
      "害": 1845,
      "宴": 1846,
      "家": 1847,
      "容": 1848,
      "宿": 1849,
      "寄": 1850,
      "密": 1851,
      "富": 1852,
      "寒": 1853,
      "察": 1854,
      "審": 1855,
      "寮": 1856,
      "寶": 1857,
      "对": 1858,
      "寺": 1859,
      "寻": 1860,
      "导": 1861,
      "対": 1862,
      "寿": 1863,
      "封": 1864,
      "専": 1865,
      "射": 1866,
      "将": 1867,
      "將": 1868,
      "尊": 1869,
      "對": 1870,
      "小": 1871,
      "少": 1872,
      "尔": 1873,
      "就": 1874,
      "尼": 1875,
      "尾": 1876,
      "局": 1877,
      "居": 1878,
      "屋": 1879,
      "展": 1880,
      "属": 1881,
      "山": 1882,
      "岩": 1883,
      "岸": 1884,
      "島": 1885,
      "崎": 1886,
      "嵐": 1887,
      "巌": 1888,
      "川": 1889,
      "州": 1890,
      "巡": 1891,
      "工": 1892,
      "巨": 1893,
      "巫": 1894,
      "差": 1895,
      "己": 1896,
      "已": 1897,
      "巷": 1898,
      "市": 1899,
      "布": 1900,
      "希": 1901,
      "帕": 1902,
      "帝": 1903,
      "師": 1904,
      "帮": 1905,
      "帰": 1906,
      "常": 1907,
      "幕": 1908,
      "幣": 1909,
      "干": 1910,
      "平": 1911,
      "年": 1912,
      "并": 1913,
      "幸": 1914,
      "幻": 1915,
      "幼": 1916,
      "幾": 1917,
      "广": 1918,
      "広": 1919,
      "庄": 1920,
      "庆": 1921,
      "庐": 1922,
      "底": 1923,
      "店": 1924,
      "庞": 1925,
      "度": 1926,
      "座": 1927,
      "庫": 1928,
      "庭": 1929,
      "廃": 1930,
      "廠": 1931,
      "延": 1932,
      "廷": 1933,
      "建": 1934,
      "开": 1935,
      "弄": 1936,
      "式": 1937,
      "引": 1938,
      "弗": 1939,
      "張": 1940,
      "强": 1941,
      "弾": 1942,
      "彊": 1943,
      "彌": 1944,
      "当": 1945,
      "录": 1946,
      "形": 1947,
      "彦": 1948,
      "彩": 1949,
      "彭": 1950,
      "影": 1951,
      "役": 1952,
      "彼": 1953,
      "往": 1954,
      "待": 1955,
      "很": 1956,
      "律": 1957,
      "後": 1958,
      "従": 1959,
      "得": 1960,
      "徙": 1961,
      "從": 1962,
      "御": 1963,
      "復": 1964,
      "微": 1965,
      "徵": 1966,
      "德": 1967,
      "心": 1968,
      "必": 1969,
      "忍": 1970,
      "志": 1971,
      "忘": 1972,
      "応": 1973,
      "快": 1974,
      "念": 1975,
      "思": 1976,
      "急": 1977,
      "性": 1978,
      "怪": 1979,
      "恆": 1980,
      "恋": 1981,
      "恒": 1982,
      "恩": 1983,
      "息": 1984,
      "恵": 1985,
      "恶": 1986,
      "悟": 1987,
      "悪": 1988,
      "情": 1989,
      "惑": 1990,
      "惠": 1991,
      "想": 1992,
      "愈": 1993,
      "意": 1994,
      "愚": 1995,
      "愛": 1996,
      "感": 1997,
      "慄": 1998,
      "慰": 1999,
      "慶": 2000,
      "憂": 2001,
      "憎": 2002,
      "應": 2003,
      "懐": 2004,
      "懸": 2005,
      "戎": 2006,
      "戏": 2007,
      "成": 2008,
      "我": 2009,
      "或": 2010,
      "战": 2011,
      "戦": 2012,
      "戰": 2013,
      "戴": 2014,
      "户": 2015,
      "戻": 2016,
      "房": 2017,
      "所": 2018,
      "手": 2019,
      "才": 2020,
      "打": 2021,
      "払": 2022,
      "托": 2023,
      "扶": 2024,
      "找": 2025,
      "技": 2026,
      "把": 2027,
      "投": 2028,
      "抗": 2029,
      "折": 2030,
      "抜": 2031,
      "报": 2032,
      "抱": 2033,
      "押": 2034,
      "拉": 2035,
      "拌": 2036,
      "拓": 2037,
      "招": 2038,
      "拠": 2039,
      "拡": 2040,
      "拭": 2041,
      "拳": 2042,
      "拾": 2043,
      "拿": 2044,
      "持": 2045,
      "指": 2046,
      "按": 2047,
      "挑": 2048,
      "振": 2049,
      "捏": 2050,
      "捕": 2051,
      "捞": 2052,
      "换": 2053,
      "捨": 2054,
      "掃": 2055,
      "掌": 2056,
      "排": 2057,
      "掘": 2058,
      "掠": 2059,
      "採": 2060,
      "探": 2061,
      "接": 2062,
      "控": 2063,
      "推": 2064,
      "掲": 2065,
      "揃": 2066,
      "提": 2067,
      "換": 2068,
      "握": 2069,
      "揺": 2070,
      "搅": 2071,
      "搬": 2072,
      "摘": 2073,
      "摩": 2074,
      "撃": 2075,
      "撞": 2076,
      "攝": 2077,
      "支": 2078,
      "收": 2079,
      "攸": 2080,
      "改": 2081,
      "攻": 2082,
      "放": 2083,
      "故": 2084,
      "敏": 2085,
      "敖": 2086,
      "敗": 2087,
      "教": 2088,
      "散": 2089,
      "数": 2090,
      "整": 2091,
      "敵": 2092,
      "斂": 2093,
      "文": 2094,
      "斗": 2095,
      "料": 2096,
      "斜": 2097,
      "斬": 2098,
      "断": 2099,
      "斯": 2100,
      "新": 2101,
      "斷": 2102,
      "方": 2103,
      "施": 2104,
      "旅": 2105,
      "族": 2106,
      "无": 2107,
      "既": 2108,
      "日": 2109,
      "早": 2110,
      "旬": 2111,
      "时": 2112,
      "昆": 2113,
      "昌": 2114,
      "明": 2115,
      "星": 2116,
      "映": 2117,
      "春": 2118,
      "昭": 2119,
      "是": 2120,
      "時": 2121,
      "晓": 2122,
      "普": 2123,
      "景": 2124,
      "晴": 2125,
      "智": 2126,
      "暗": 2127,
      "曜": 2128,
      "更": 2129,
      "書": 2130,
      "曼": 2131,
      "曾": 2132,
      "最": 2133,
      "會": 2134,
      "月": 2135,
      "有": 2136,
      "服": 2137,
      "望": 2138,
      "朝": 2139,
      "期": 2140,
      "木": 2141,
      "未": 2142,
      "本": 2143,
      "札": 2144,
      "朱": 2145,
      "机": 2146,
      "朽": 2147,
      "杂": 2148,
      "李": 2149,
      "杏": 2150,
      "材": 2151,
      "村": 2152,
      "杜": 2153,
      "束": 2154,
      "条": 2155,
      "来": 2156,
      "杰": 2157,
      "東": 2158,
      "板": 2159,
      "构": 2160,
      "林": 2161,
      "果": 2162,
      "柏": 2163,
      "染": 2164,
      "柠": 2165,
      "查": 2166,
      "柯": 2167,
      "柱": 2168,
      "査": 2169,
      "栀": 2170,
      "标": 2171,
      "校": 2172,
      "株": 2173,
      "样": 2174,
      "根": 2175,
      "格": 2176,
      "桂": 2177,
      "案": 2178,
      "桌": 2179,
      "桑": 2180,
      "桥": 2181,
      "桩": 2182,
      "梅": 2183,
      "梦": 2184,
      "梯": 2185,
      "械": 2186,
      "棚": 2187,
      "森": 2188,
      "植": 2189,
      "椒": 2190,
      "検": 2191,
      "楊": 2192,
      "楚": 2193,
      "業": 2194,
      "楼": 2195,
      "楽": 2196,
      "概": 2197,
      "様": 2198,
      "樂": 2199,
      "標": 2200,
      "模": 2201,
      "樹": 2202,
      "樺": 2203,
      "橋": 2204,
      "機": 2205,
      "檻": 2206,
      "次": 2207,
      "歇": 2208,
      "歌": 2209,
      "止": 2210,
      "正": 2211,
      "此": 2212,
      "武": 2213,
      "歩": 2214,
      "歳": 2215,
      "歴": 2216,
      "死": 2217,
      "殊": 2218,
      "残": 2219,
      "殴": 2220,
      "段": 2221,
      "殺": 2222,
      "母": 2223,
      "毎": 2224,
      "每": 2225,
      "比": 2226,
      "毛": 2227,
      "民": 2228,
      "気": 2229,
      "氣": 2230,
      "水": 2231,
      "氷": 2232,
      "永": 2233,
      "汁": 2234,
      "汇": 2235,
      "汉": 2236,
      "汚": 2237,
      "江": 2238,
      "汤": 2239,
      "決": 2240,
      "沒": 2241,
      "沙": 2242,
      "没": 2243,
      "沪": 2244,
      "河": 2245,
      "沸": 2246,
      "油": 2247,
      "治": 2248,
      "沼": 2249,
      "沽": 2250,
      "泉": 2251,
      "法": 2252,
      "波": 2253,
      "泥": 2254,
      "注": 2255,
      "洗": 2256,
      "洛": 2257,
      "洞": 2258,
      "津": 2259,
      "洪": 2260,
      "洲": 2261,
      "活": 2262,
      "派": 2263,
      "流": 2264,
      "济": 2265,
      "浜": 2266,
      "浴": 2267,
      "海": 2268,
      "消": 2269,
      "涙": 2270,
      "涼": 2271,
      "淡": 2272,
      "淨": 2273,
      "深": 2274,
      "添": 2275,
      "清": 2276,
      "済": 2277,
      "渋": 2278,
      "渐": 2279,
      "渡": 2280,
      "渦": 2281,
      "游": 2282,
      "湖": 2283,
      "湘": 2284,
      "湿": 2285,
      "源": 2286,
      "溢": 2287,
      "溪": 2288,
      "溶": 2289,
      "滇": 2290,
      "滑": 2291,
      "滨": 2292,
      "滴": 2293,
      "漁": 2294,
      "漏": 2295,
      "演": 2296,
      "漕": 2297,
      "漠": 2298,
      "漢": 2299,
      "漫": 2300,
      "潔": 2301,
      "潟": 2302,
      "潮": 2303,
      "澤": 2304,
      "澧": 2305,
      "激": 2306,
      "灑": 2307,
      "火": 2308,
      "灰": 2309,
      "灵": 2310,
      "灼": 2311,
      "炎": 2312,
      "炒": 2313,
      "炖": 2314,
      "炮": 2315,
      "点": 2316,
      "為": 2317,
      "烏": 2318,
      "烧": 2319,
      "热": 2320,
      "烹": 2321,
      "無": 2322,
      "然": 2323,
      "焼": 2324,
      "煎": 2325,
      "煒": 2326,
      "照": 2327,
      "煮": 2328,
      "熟": 2329,
      "熬": 2330,
      "熱": 2331,
      "燕": 2332,
      "營": 2333,
      "爆": 2334,
      "爭": 2335,
      "爱": 2336,
      "爵": 2337,
      "父": 2338,
      "爷": 2339,
      "爸": 2340,
      "爽": 2341,
      "爾": 2342,
      "片": 2343,
      "版": 2344,
      "牌": 2345,
      "牙": 2346,
      "牛": 2347,
      "物": 2348,
      "特": 2349,
      "犯": 2350,
      "狂": 2351,
      "狄": 2352,
      "狗": 2353,
      "狡": 2354,
      "独": 2355,
      "狼": 2356,
      "狽": 2357,
      "猫": 2358,
      "猾": 2359,
      "獄": 2360,
      "獅": 2361,
      "獣": 2362,
      "獨": 2363,
      "王": 2364,
      "环": 2365,
      "现": 2366,
      "珍": 2367,
      "珠": 2368,
      "現": 2369,
      "球": 2370,
      "理": 2371,
      "琨": 2372,
      "瑞": 2373,
      "瑪": 2374,
      "環": 2375,
      "瓦": 2376,
      "瓶": 2377,
      "生": 2378,
      "産": 2379,
      "用": 2380,
      "甩": 2381,
      "田": 2382,
      "由": 2383,
      "申": 2384,
      "电": 2385,
      "男": 2386,
      "町": 2387,
      "画": 2388,
      "界": 2389,
      "略": 2390,
      "番": 2391,
      "異": 2392,
      "當": 2393,
      "疆": 2394,
      "疗": 2395,
      "疫": 2396,
      "病": 2397,
      "症": 2398,
      "痛": 2399,
      "瘡": 2400,
      "療": 2401,
      "発": 2402,
      "登": 2403,
      "發": 2404,
      "白": 2405,
      "百": 2406,
      "的": 2407,
      "皇": 2408,
      "皮": 2409,
      "盐": 2410,
      "盛": 2411,
      "監": 2412,
      "目": 2413,
      "盲": 2414,
      "直": 2415,
      "相": 2416,
      "盾": 2417,
      "看": 2418,
      "県": 2419,
      "真": 2420,
      "眠": 2421,
      "眩": 2422,
      "眺": 2423,
      "眼": 2424,
      "眾": 2425,
      "着": 2426,
      "督": 2427,
      "瞬": 2428,
      "瞭": 2429,
      "瞳": 2430,
      "知": 2431,
      "石": 2432,
      "研": 2433,
      "破": 2434,
      "硫": 2435,
      "确": 2436,
      "碎": 2437,
      "碗": 2438,
      "碰": 2439,
      "磯": 2440,
      "示": 2441,
      "礼": 2442,
      "社": 2443,
      "祈": 2444,
      "祐": 2445,
      "祖": 2446,
      "祝": 2447,
      "神": 2448,
      "祠": 2449,
      "祥": 2450,
      "票": 2451,
      "禅": 2452,
      "福": 2453,
      "禪": 2454,
      "禮": 2455,
      "禺": 2456,
      "秀": 2457,
      "私": 2458,
      "种": 2459,
      "科": 2460,
      "秘": 2461,
      "秤": 2462,
      "积": 2463,
      "移": 2464,
      "程": 2465,
      "種": 2466,
      "稲": 2467,
      "稳": 2468,
      "究": 2469,
      "空": 2470,
      "突": 2471,
      "窒": 2472,
      "窝": 2473,
      "窟": 2474,
      "窺": 2475,
      "立": 2476,
      "站": 2477,
      "竞": 2478,
      "端": 2479,
      "競": 2480,
      "笑": 2481,
      "笙": 2482,
      "笠": 2483,
      "符": 2484,
      "笨": 2485,
      "第": 2486,
      "笼": 2487,
      "等": 2488,
      "算": 2489,
      "管": 2490,
      "箱": 2491,
      "節": 2492,
      "篭": 2493,
      "籍": 2494,
      "米": 2495,
      "类": 2496,
      "粉": 2497,
      "粒": 2498,
      "粗": 2499,
      "粤": 2500,
      "粥": 2501,
      "粮": 2502,
      "粹": 2503,
      "精": 2504,
      "糕": 2505,
      "糖": 2506,
      "糙": 2507,
      "糞": 2508,
      "糸": 2509,
      "系": 2510,
      "紀": 2511,
      "約": 2512,
      "紅": 2513,
      "級": 2514,
      "素": 2515,
      "索": 2516,
      "細": 2517,
      "紹": 2518,
      "終": 2519,
      "組": 2520,
      "経": 2521,
      "結": 2522,
      "給": 2523,
      "統": 2524,
      "絶": 2525,
      "經": 2526,
      "続": 2527,
      "綱": 2528,
      "緋": 2529,
      "緑": 2530,
      "編": 2531,
      "緩": 2532,
      "練": 2533,
      "縛": 2534,
      "繊": 2535,
      "繋": 2536,
      "繞": 2537,
      "红": 2538,
      "约": 2539,
      "级": 2540,
      "纯": 2541,
      "纳": 2542,
      "组": 2543,
      "织": 2544,
      "终": 2545,
      "经": 2546,
      "给": 2547,
      "络": 2548,
      "统": 2549,
      "维": 2550,
      "网": 2551,
      "罗": 2552,
      "罪": 2553,
      "置": 2554,
      "羅": 2555,
      "羊": 2556,
      "美": 2557,
      "群": 2558,
      "羲": 2559,
      "羹": 2560,
      "習": 2561,
      "翰": 2562,
      "翼": 2563,
      "耀": 2564,
      "老": 2565,
      "考": 2566,
      "者": 2567,
      "而": 2568,
      "耶": 2569,
      "聊": 2570,
      "联": 2571,
      "聖": 2572,
      "聞": 2573,
      "聪": 2574,
      "聲": 2575,
      "職": 2576,
      "聽": 2577,
      "肉": 2578,
      "肠": 2579,
      "股": 2580,
      "肢": 2581,
      "肥": 2582,
      "育": 2583,
      "胆": 2584,
      "背": 2585,
      "胡": 2586,
      "能": 2587,
      "脑": 2588,
      "脖": 2589,
      "脱": 2590,
      "腊": 2591,
      "腐": 2592,
      "腰": 2593,
      "腸": 2594,
      "腹": 2595,
      "膝": 2596,
      "臟": 2597,
      "臥": 2598,
      "臨": 2599,
      "自": 2600,
      "臭": 2601,
      "至": 2602,
      "致": 2603,
      "舞": 2604,
      "航": 2605,
      "艦": 2606,
      "良": 2607,
      "色": 2608,
      "艾": 2609,
      "芋": 2610,
      "花": 2611,
      "芸": 2612,
      "芽": 2613,
      "苣": 2614,
      "若": 2615,
      "苦": 2616,
      "英": 2617,
      "茂": 2618,
      "范": 2619,
      "茨": 2620,
      "茶": 2621,
      "草": 2622,
      "荒": 2623,
      "药": 2624,
      "莉": 2625,
      "莫": 2626,
      "莱": 2627,
      "莴": 2628,
      "获": 2629,
      "菌": 2630,
      "菎": 2631,
      "菓": 2632,
      "菜": 2633,
      "華": 2634,
      "菲": 2635,
      "萊": 2636,
      "萌": 2637,
      "萨": 2638,
      "落": 2639,
      "葉": 2640,
      "著": 2641,
      "董": 2642,
      "葬": 2643,
      "葱": 2644,
      "蒂": 2645,
      "蒜": 2646,
      "蒟": 2647,
      "蒲": 2648,
      "蒸": 2649,
      "蒻": 2650,
      "蓋": 2651,
      "蓝": 2652,
      "蓮": 2653,
      "蔡": 2654,
      "蔵": 2655,
      "薇": 2656,
      "薩": 2657,
      "薫": 2658,
      "薬": 2659,
      "薯": 2660,
      "藏": 2661,
      "藕": 2662,
      "藥": 2663,
      "蘇": 2664,
      "虎": 2665,
      "虐": 2666,
      "處": 2667,
      "虚": 2668,
      "虫": 2669,
      "虾": 2670,
      "蛋": 2671,
      "蜜": 2672,
      "融": 2673,
      "血": 2674,
      "衅": 2675,
      "衆": 2676,
      "行": 2677,
      "術": 2678,
      "街": 2679,
      "衝": 2680,
      "衣": 2681,
      "表": 2682,
      "衰": 2683,
      "被": 2684,
      "裂": 2685,
      "装": 2686,
      "裏": 2687,
      "裕": 2688,
      "補": 2689,
      "裹": 2690,
      "製": 2691,
      "複": 2692,
      "襄": 2693,
      "西": 2694,
      "要": 2695,
      "覆": 2696,
      "見": 2697,
      "視": 2698,
      "親": 2699,
      "観": 2700,
      "覺": 2701,
      "觀": 2702,
      "见": 2703,
      "规": 2704,
      "角": 2705,
      "解": 2706,
      "言": 2707,
      "計": 2708,
      "討": 2709,
      "託": 2710,
      "記": 2711,
      "設": 2712,
      "許": 2713,
      "訳": 2714,
      "証": 2715,
      "評": 2716,
      "試": 2717,
      "詩": 2718,
      "詰": 2719,
      "話": 2720,
      "詳": 2721,
      "詹": 2722,
      "誌": 2723,
      "認": 2724,
      "誓": 2725,
      "語": 2726,
      "說": 2727,
      "説": 2728,
      "読": 2729,
      "調": 2730,
      "談": 2731,
      "請": 2732,
      "諦": 2733,
      "謀": 2734,
      "謂": 2735,
      "謎": 2736,
      "謐": 2737,
      "謙": 2738,
      "識": 2739,
      "議": 2740,
      "護": 2741,
      "變": 2742,
      "认": 2743,
      "记": 2744,
      "讲": 2745,
      "许": 2746,
      "论": 2747,
      "设": 2748,
      "识": 2749,
      "诉": 2750,
      "话": 2751,
      "该": 2752,
      "语": 2753,
      "误": 2754,
      "说": 2755,
      "读": 2756,
      "调": 2757,
      "谛": 2758,
      "豆": 2759,
      "豊": 2760,
      "豌": 2761,
      "象": 2762,
      "豪": 2763,
      "負": 2764,
      "貢": 2765,
      "販": 2766,
      "貫": 2767,
      "貴": 2768,
      "買": 2769,
      "費": 2770,
      "資": 2771,
      "賓": 2772,
      "質": 2773,
      "贝": 2774,
      "赛": 2775,
      "赤": 2776,
      "赦": 2777,
      "起": 2778,
      "超": 2779,
      "越": 2780,
      "趋": 2781,
      "趣": 2782,
      "距": 2783,
      "路": 2784,
      "身": 2785,
      "車": 2786,
      "軟": 2787,
      "転": 2788,
      "軸": 2789,
      "載": 2790,
      "輝": 2791,
      "輩": 2792,
      "輪": 2793,
      "车": 2794,
      "转": 2795,
      "轰": 2796,
      "载": 2797,
      "辅": 2798,
      "辛": 2799,
      "辺": 2800,
      "込": 2801,
      "达": 2802,
      "过": 2803,
      "迈": 2804,
      "运": 2805,
      "近": 2806,
      "还": 2807,
      "这": 2808,
      "进": 2809,
      "远": 2810,
      "连": 2811,
      "迪": 2812,
      "迫": 2813,
      "述": 2814,
      "迷": 2815,
      "退": 2816,
      "逊": 2817,
      "逐": 2818,
      "途": 2819,
      "這": 2820,
      "通": 2821,
      "速": 2822,
      "造": 2823,
      "週": 2824,
      "進": 2825,
      "逸": 2826,
      "逽": 2827,
      "遂": 2828,
      "遅": 2829,
      "過": 2830,
      "道": 2831,
      "達": 2832,
      "違": 2833,
      "遠": 2834,
      "選": 2835,
      "遺": 2836,
      "邊": 2837,
      "那": 2838,
      "邦": 2839,
      "邮": 2840,
      "郊": 2841,
      "郎": 2842,
      "部": 2843,
      "郷": 2844,
      "都": 2845,
      "鄳": 2846,
      "酌": 2847,
      "配": 2848,
      "酬": 2849,
      "酸": 2850,
      "醋": 2851,
      "醒": 2852,
      "醫": 2853,
      "里": 2854,
      "重": 2855,
      "野": 2856,
      "量": 2857,
      "金": 2858,
      "針": 2859,
      "鉱": 2860,
      "銀": 2861,
      "銘": 2862,
      "銷": 2863,
      "鋙": 2864,
      "錄": 2865,
      "錨": 2866,
      "鍛": 2867,
      "鍬": 2868,
      "鍮": 2869,
      "鏟": 2870,
      "鐘": 2871,
      "鑽": 2872,
      "钥": 2873,
      "钻": 2874,
      "铲": 2875,
      "银": 2876,
      "锅": 2877,
      "锋": 2878,
      "错": 2879,
      "锡": 2880,
      "镇": 2881,
      "長": 2882,
      "长": 2883,
      "開": 2884,
      "間": 2885,
      "閔": 2886,
      "関": 2887,
      "闇": 2888,
      "门": 2889,
      "间": 2890,
      "阁": 2891,
      "队": 2892,
      "阮": 2893,
      "阳": 2894,
      "阴": 2895,
      "阶": 2896,
      "阻": 2897,
      "阿": 2898,
      "际": 2899,
      "陆": 2900,
      "陈": 2901,
      "降": 2902,
      "限": 2903,
      "陕": 2904,
      "院": 2905,
      "陣": 2906,
      "除": 2907,
      "陰": 2908,
      "陳": 2909,
      "陶": 2910,
      "陽": 2911,
      "隆": 2912,
      "隊": 2913,
      "隍": 2914,
      "際": 2915,
      "隠": 2916,
      "雀": 2917,
      "雄": 2918,
      "雅": 2919,
      "集": 2920,
      "雑": 2921,
      "雛": 2922,
      "雜": 2923,
      "離": 2924,
      "難": 2925,
      "雨": 2926,
      "雪": 2927,
      "雲": 2928,
      "雷": 2929,
      "電": 2930,
      "霄": 2931,
      "霊": 2932,
      "霧": 2933,
      "露": 2934,
      "靈": 2935,
      "靑": 2936,
      "青": 2937,
      "面": 2938,
      "革": 2939,
      "韓": 2940,
      "音": 2941,
      "頂": 2942,
      "頃": 2943,
      "順": 2944,
      "須": 2945,
      "頭": 2946,
      "頼": 2947,
      "頽": 2948,
      "顔": 2949,
      "願": 2950,
      "顶": 2951,
      "项": 2952,
      "预": 2953,
      "领": 2954,
      "额": 2955,
      "風": 2956,
      "飞": 2957,
      "食": 2958,
      "飢": 2959,
      "餅": 2960,
      "養": 2961,
      "餐": 2962,
      "餓": 2963,
      "餘": 2964,
      "館": 2965,
      "饗": 2966,
      "饰": 2967,
      "饼": 2968,
      "馅": 2969,
      "馆": 2970,
      "馍": 2971,
      "首": 2972,
      "香": 2973,
      "馬": 2974,
      "駅": 2975,
      "駆": 2976,
      "騎": 2977,
      "騙": 2978,
      "騰": 2979,
      "马": 2980,
      "验": 2981,
      "骨": 2982,
      "髄": 2983,
      "體": 2984,
      "高": 2985,
      "鬱": 2986,
      "鬼": 2987,
      "魂": 2988,
      "魅": 2989,
      "魏": 2990,
      "魔": 2991,
      "鮮": 2992,
      "鱼": 2993,
      "鲁": 2994,
      "鲈": 2995,
      "鲜": 2996,
      "鳥": 2997,
      "鳳": 2998,
      "鴉": 2999,
      "鸡": 3000,
      "鸭": 3001,
      "鹅": 3002,
      "鹌": 3003,
      "鹑": 3004,
      "鹿": 3005,
      "麦": 3006,
      "麻": 3007,
      "黃": 3008,
      "黄": 3009,
      "黒": 3010,
      "黛": 3011,
      "齐": 3012,
      "龍": 3013,
      "龙": 3014,
      "꒳": 3015,
      "꠸": 3016,
      "가": 3017,
      "각": 3018,
      "간": 3019,
      "감": 3020,
      "값": 3021,
      "강": 3022,
      "같": 3023,
      "개": 3024,
      "객": 3025,
      "거": 3026,
      "건": 3027,
      "걸": 3028,
      "겁": 3029,
      "것": 3030,
      "게": 3031,
      "겐": 3032,
      "겠": 3033,
      "격": 3034,
      "견": 3035,
      "결": 3036,
      "겹": 3037,
      "경": 3038,
      "계": 3039,
      "고": 3040,
      "곤": 3041,
      "곱": 3042,
      "공": 3043,
      "과": 3044,
      "곽": 3045,
      "관": 3046,
      "괄": 3047,
      "괴": 3048,
      "구": 3049,
      "국": 3050,
      "군": 3051,
      "굴": 3052,
      "궁": 3053,
      "권": 3054,
      "귀": 3055,
      "규": 3056,
      "그": 3057,
      "글": 3058,
      "금": 3059,
      "급": 3060,
      "기": 3061,
      "길": 3062,
      "김": 3063,
      "깃": 3064,
      "까": 3065,
      "깡": 3066,
      "께": 3067,
      "껴": 3068,
      "꼬": 3069,
      "꽃": 3070,
      "꾸": 3071,
      "끝": 3072,
      "끼": 3073,
      "낀": 3074,
      "나": 3075,
      "낙": 3076,
      "난": 3077,
      "날": 3078,
      "낡": 3079,
      "남": 3080,
      "내": 3081,
      "냈": 3082,
      "너": 3083,
      "넘": 3084,
      "네": 3085,
      "녀": 3086,
      "년": 3087,
      "념": 3088,
      "녕": 3089,
      "노": 3090,
      "녹": 3091,
      "논": 3092,
      "뇽": 3093,
      "누": 3094,
      "눈": 3095,
      "뉴": 3096,
      "느": 3097,
      "는": 3098,
      "늘": 3099,
      "능": 3100,
      "니": 3101,
      "닌": 3102,
      "닐": 3103,
      "님": 3104,
      "닙": 3105,
      "다": 3106,
      "단": 3107,
      "달": 3108,
      "답": 3109,
      "닷": 3110,
      "당": 3111,
      "대": 3112,
      "댓": 3113,
      "더": 3114,
      "덕": 3115,
      "던": 3116,
      "덤": 3117,
      "덩": 3118,
      "데": 3119,
      "덱": 3120,
      "도": 3121,
      "독": 3122,
      "돌": 3123,
      "동": 3124,
      "되": 3125,
      "된": 3126,
      "될": 3127,
      "두": 3128,
      "둥": 3129,
      "뒤": 3130,
      "드": 3131,
      "득": 3132,
      "든": 3133,
      "들": 3134,
      "등": 3135,
      "디": 3136,
      "따": 3137,
      "땅": 3138,
      "때": 3139,
      "또": 3140,
      "뜪": 3141,
      "라": 3142,
      "락": 3143,
      "란": 3144,
      "람": 3145,
      "랐": 3146,
      "랑": 3147,
      "래": 3148,
      "랩": 3149,
      "량": 3150,
      "러": 3151,
      "런": 3152,
      "럼": 3153,
      "럽": 3154,
      "렇": 3155,
      "레": 3156,
      "려": 3157,
      "력": 3158,
      "렬": 3159,
      "렴": 3160,
      "렸": 3161,
      "령": 3162,
      "례": 3163,
      "로": 3164,
      "록": 3165,
      "론": 3166,
      "롤": 3167,
      "루": 3168,
      "률": 3169,
      "르": 3170,
      "른": 3171,
      "를": 3172,
      "름": 3173,
      "리": 3174,
      "린": 3175,
      "릴": 3176,
      "림": 3177,
      "립": 3178,
      "마": 3179,
      "만": 3180,
      "많": 3181,
      "말": 3182,
      "맛": 3183,
      "망": 3184,
      "매": 3185,
      "맵": 3186,
      "맺": 3187,
      "먹": 3188,
      "먼": 3189,
      "멋": 3190,
      "메": 3191,
      "멜": 3192,
      "멤": 3193,
      "며": 3194,
      "면": 3195,
      "명": 3196,
      "모": 3197,
      "목": 3198,
      "몬": 3199,
      "몰": 3200,
      "몸": 3201,
      "못": 3202,
      "묘": 3203,
      "무": 3204,
      "문": 3205,
      "물": 3206,
      "뭐": 3207,
      "미": 3208,
      "민": 3209,
      "밀": 3210,
      "밒": 3211,
      "바": 3212,
      "박": 3213,
      "반": 3214,
      "받": 3215,
      "발": 3216,
      "밤": 3217,
      "밥": 3218,
      "방": 3219,
      "백": 3220,
      "버": 3221,
      "번": 3222,
      "벌": 3223,
      "법": 3224,
      "벗": 3225,
      "벚": 3226,
      "벤": 3227,
      "별": 3228,
      "보": 3229,
      "본": 3230,
      "볼": 3231,
      "봐": 3232,
      "부": 3233,
      "북": 3234,
      "분": 3235,
      "불": 3236,
      "붙": 3237,
      "브": 3238,
      "븐": 3239,
      "비": 3240,
      "빔": 3241,
      "빛": 3242,
      "빠": 3243,
      "뻔": 3244,
      "뻰": 3245,
      "뿐": 3246,
      "쁨": 3247,
      "사": 3248,
      "산": 3249,
      "살": 3250,
      "삼": 3251,
      "상": 3252,
      "생": 3253,
      "샤": 3254,
      "서": 3255,
      "선": 3256,
      "설": 3257,
      "섯": 3258,
      "성": 3259,
      "세": 3260,
      "셀": 3261,
      "셔": 3262,
      "션": 3263,
      "셨": 3264,
      "소": 3265,
      "속": 3266,
      "손": 3267,
      "송": 3268,
      "수": 3269,
      "순": 3270,
      "술": 3271,
      "숨": 3272,
      "숱": 3273,
      "쉬": 3274,
      "스": 3275,
      "습": 3276,
      "승": 3277,
      "시": 3278,
      "식": 3279,
      "신": 3280,
      "실": 3281,
      "심": 3282,
      "십": 3283,
      "싸": 3284,
      "써": 3285,
      "쑤": 3286,
      "쓴": 3287,
      "쓸": 3288,
      "씨": 3289,
      "씬": 3290,
      "아": 3291,
      "안": 3292,
      "앉": 3293,
      "않": 3294,
      "알": 3295,
      "암": 3296,
      "압": 3297,
      "았": 3298,
      "앞": 3299,
      "야": 3300,
      "약": 3301,
      "얄": 3302,
      "얇": 3303,
      "양": 3304,
      "어": 3305,
      "언": 3306,
      "업": 3307,
      "없": 3308,
      "었": 3309,
      "엉": 3310,
      "에": 3311,
      "엠": 3312,
      "여": 3313,
      "역": 3314,
      "연": 3315,
      "열": 3316,
      "였": 3317,
      "영": 3318,
      "예": 3319,
      "오": 3320,
      "온": 3321,
      "올": 3322,
      "옷": 3323,
      "와": 3324,
      "왕": 3325,
      "요": 3326,
      "용": 3327,
      "우": 3328,
      "울": 3329,
      "워": 3330,
      "원": 3331,
      "월": 3332,
      "웠": 3333,
      "위": 3334,
      "유": 3335,
      "육": 3336,
      "윤": 3337,
      "율": 3338,
      "으": 3339,
      "은": 3340,
      "을": 3341,
      "음": 3342,
      "의": 3343,
      "이": 3344,
      "익": 3345,
      "인": 3346,
      "일": 3347,
      "읽": 3348,
      "임": 3349,
      "입": 3350,
      "잇": 3351,
      "있": 3352,
      "잊": 3353,
      "자": 3354,
      "작": 3355,
      "잔": 3356,
      "잘": 3357,
      "잡": 3358,
      "장": 3359,
      "재": 3360,
      "쟁": 3361,
      "저": 3362,
      "적": 3363,
      "전": 3364,
      "절": 3365,
      "점": 3366,
      "정": 3367,
      "제": 3368,
      "젝": 3369,
      "젠": 3370,
      "젶": 3371,
      "졌": 3372,
      "조": 3373,
      "족": 3374,
      "존": 3375,
      "종": 3376,
      "죠": 3377,
      "주": 3378,
      "준": 3379,
      "줄": 3380,
      "중": 3381,
      "쥐": 3382,
      "즐": 3383,
      "지": 3384,
      "직": 3385,
      "진": 3386,
      "질": 3387,
      "짐": 3388,
      "집": 3389,
      "째": 3390,
      "쩍": 3391,
      "쯤": 3392,
      "차": 3393,
      "착": 3394,
      "찬": 3395,
      "찰": 3396,
      "참": 3397,
      "채": 3398,
      "책": 3399,
      "처": 3400,
      "척": 3401,
      "천": 3402,
      "철": 3403,
      "청": 3404,
      "체": 3405,
      "최": 3406,
      "추": 3407,
      "축": 3408,
      "춘": 3409,
      "출": 3410,
      "충": 3411,
      "츠": 3412,
      "치": 3413,
      "칙": 3414,
      "친": 3415,
      "카": 3416,
      "커": 3417,
      "컨": 3418,
      "컴": 3419,
      "케": 3420,
      "켓": 3421,
      "켜": 3422,
      "코": 3423,
      "콩": 3424,
      "쾨": 3425,
      "쿠": 3426,
      "크": 3427,
      "큰": 3428,
      "클": 3429,
      "큼": 3430,
      "키": 3431,
      "타": 3432,
      "탁": 3433,
      "탄": 3434,
      "탓": 3435,
      "태": 3436,
      "택": 3437,
      "탠": 3438,
      "터": 3439,
      "테": 3440,
      "토": 3441,
      "톤": 3442,
      "통": 3443,
      "투": 3444,
      "트": 3445,
      "특": 3446,
      "튼": 3447,
      "티": 3448,
      "팅": 3449,
      "파": 3450,
      "팍": 3451,
      "판": 3452,
      "패": 3453,
      "팬": 3454,
      "퍼": 3455,
      "펄": 3456,
      "페": 3457,
      "펜": 3458,
      "편": 3459,
      "폐": 3460,
      "포": 3461,
      "폴": 3462,
      "표": 3463,
      "푸": 3464,
      "풍": 3465,
      "프": 3466,
      "피": 3467,
      "하": 3468,
      "학": 3469,
      "한": 3470,
      "할": 3471,
      "함": 3472,
      "합": 3473,
      "핫": 3474,
      "해": 3475,
      "햇": 3476,
      "했": 3477,
      "행": 3478,
      "향": 3479,
      "허": 3480,
      "혁": 3481,
      "현": 3482,
      "혜": 3483,
      "호": 3484,
      "혹": 3485,
      "혼": 3486,
      "화": 3487,
      "확": 3488,
      "환": 3489,
      "황": 3490,
      "회": 3491,
      "후": 3492,
      "훈": 3493,
      "휘": 3494,
      "흘": 3495,
      "흥": 3496,
      "희": 3497,
      "히": 3498,
      "": 3499,
      "": 3500,
      "": 3501,
      "": 3502,
      "": 3503,
      "": 3504,
      "": 3505,
      "": 3506,
      "": 3507,
      "": 3508,
      "": 3509,
      "": 3510,
      "": 3511,
      "": 3512,
      "": 3513,
      "": 3514,
      "": 3515,
      "": 3516,
      "": 3517,
      "": 3518,
      "": 3519,
      "": 3520,
      "": 3521,
      "": 3522,
      "": 3523,
      "": 3524,
      "": 3525,
      "": 3526,
      "": 3527,
      "": 3528,
      "": 3529,
      "": 3530,
      "": 3531,
      "": 3532,
      "": 3533,
      "": 3534,
      "": 3535,
      "": 3536,
      "": 3537,
      "": 3538,
      "": 3539,
      "": 3540,
      "": 3541,
      "": 3542,
      "": 3543,
      "": 3544,
      "": 3545,
      "": 3546,
      "": 3547,
      "": 3548,
      "ﬀ": 3549,
      "ﬁ": 3550,
      "ﬂ": 3551,
      "ﬃ": 3552,
      "ﷺ": 3553,
      "️": 3554,
      "︠": 3555,
      "︡": 3556,
      "︿": 3557,
      "﹏": 3558,
      "﻿": 3559,
      "！": 3560,
      "％": 3561,
      "＆": 3562,
      "（": 3563,
      "）": 3564,
      "＊": 3565,
      "，": 3566,
      "／": 3567,
      "０": 3568,
      "１": 3569,
      "２": 3570,
      "３": 3571,
      "４": 3572,
      "５": 3573,
      "６": 3574,
      "７": 3575,
      "９": 3576,
      "：": 3577,
      "；": 3578,
      "？": 3579,
      "＠": 3580,
      "＼": 3581,
      "｀": 3582,
      "ｘ": 3583,
      "～": 3584,
      "｡": 3585,
      "･": 3586,
      "ﾉ": 3587,
      "ﾟ": 3588,
      "￥": 3589,
      "￼": 3590,
      "�": 3591,
      "𐀇": 3592,
      "𐀝": 3593,
      "𐀰": 3594,
      "𐀺": 3595,
      "𐤃": 3596,
      "𝐀": 3597,
      "𝐂": 3598,
      "𝐃": 3599,
      "𝐄": 3600,
      "𝐇": 3601,
      "𝐋": 3602,
      "𝐌": 3603,
      "𝐍": 3604,
      "𝐎": 3605,
      "𝐖": 3606,
      "𝒄": 3607,
      "𝒉": 3608,
      "𝒔": 3609,
      "𝒖": 3610,
      "𝓛": 3611,
      "𝚫": 3612,
      "𝛅": 3613,
      "𝛥": 3614,
      "𝛿": 3615,
      "𝜟": 3616,
      "𝜹": 3617,
      "𝝙": 3618,
      "𝝳": 3619,
      "𝞓": 3620,
      "𝞭": 3621,
      "🀄": 3622,
      "🂮": 3623,
      "🆘": 3624,
      "🇧": 3625,
      "🇩": 3626,
      "🇪": 3627,
      "🇬": 3628,
      "🇮": 3629,
      "🇱": 3630,
      "🇳": 3631,
      "🇴": 3632,
      "🇵": 3633,
      "🇷": 3634,
      "🇸": 3635,
      "🇹": 3636,
      "🇺": 3637,
      "🌈": 3638,
      "🌌": 3639,
      "🌏": 3640,
      "🌟": 3641,
      "🌧": 3642,
      "🌨": 3643,
      "🌴": 3644,
      "🌿": 3645,
      "🍎": 3646,
      "🍕": 3647,
      "🍟": 3648,
      "🍣": 3649,
      "🍫": 3650,
      "🍬": 3651,
      "🎀": 3652,
      "🎁": 3653,
      "🎃": 3654,
      "🎄": 3655,
      "🎅": 3656,
      "🎉": 3657,
      "🎑": 3658,
      "🎓": 3659,
      "🎥": 3660,
      "🎨": 3661,
      "🎬": 3662,
      "🎭": 3663,
      "🎴": 3664,
      "🎶": 3665,
      "🏃": 3666,
      "🏆": 3667,
      "🏈": 3668,
      "🏳": 3669,
      "🏻": 3670,
      "🏼": 3671,
      "🏽": 3672,
      "🏾": 3673,
      "🐍": 3674,
      "🐐": 3675,
      "🐔": 3676,
      "🐗": 3677,
      "🐝": 3678,
      "🐦": 3679,
      "🐧": 3680,
      "🐭": 3681,
      "🐮": 3682,
      "🐯": 3683,
      "🐰": 3684,
      "🐱": 3685,
      "🐲": 3686,
      "🐴": 3687,
      "🐵": 3688,
      "🐶": 3689,
      "🐷": 3690,
      "🐸": 3691,
      "👀": 3692,
      "👇": 3693,
      "👉": 3694,
      "👊": 3695,
      "👋": 3696,
      "👌": 3697,
      "👍": 3698,
      "👏": 3699,
      "👐": 3700,
      "👑": 3701,
      "👦": 3702,
      "👧": 3703,
      "👨": 3704,
      "👩": 3705,
      "👯": 3706,
      "👻": 3707,
      "👽": 3708,
      "💀": 3709,
      "💄": 3710,
      "💌": 3711,
      "💐": 3712,
      "💕": 3713,
      "💚": 3714,
      "💛": 3715,
      "💪": 3716,
      "💫": 3717,
      "💻": 3718,
      "📈": 3719,
      "📋": 3720,
      "📓": 3721,
      "📖": 3722,
      "📢": 3723,
      "📰": 3724,
      "📱": 3725,
      "📷": 3726,
      "📸": 3727,
      "📺": 3728,
      "📽": 3729,
      "🔊": 3730,
      "🔎": 3731,
      "🔐": 3732,
      "🔖": 3733,
      "🔥": 3734,
      "🔧": 3735,
      "🔱": 3736,
      "🔶": 3737,
      "🔸": 3738,
      "🔹": 3739,
      "🖖": 3740,
      "😀": 3741,
      "😁": 3742,
      "😂": 3743,
      "😅": 3744,
      "😆": 3745,
      "😈": 3746,
      "😉": 3747,
      "😊": 3748,
      "😍": 3749,
      "😎": 3750,
      "😏": 3751,
      "😑": 3752,
      "😛": 3753,
      "😜": 3754,
      "😝": 3755,
      "😢": 3756,
      "😤": 3757,
      "😦": 3758,
      "😩": 3759,
      "😬": 3760,
      "😱": 3761,
      "😳": 3762,
      "😵": 3763,
      "😸": 3764,
      "😿": 3765,
      "🙁": 3766,
      "🙂": 3767,
      "🙃": 3768,
      "🙄": 3769,
      "🙋": 3770,
      "🙏": 3771,
      "🚨": 3772,
      "🚩": 3773,
      "🛢": 3774,
      "🛳": 3775,
      "🤔": 3776,
      "🤖": 3777,
      "🤗": 3778,
      "🤘": 3779,
      "🤙": 3780,
      "🥂": 3781,
      "🥃": 3782,
      "🥛": 3783,
      "🥜": 3784,
      "🦁": 3785,
      "🦉": 3786,
      "🦊": 3787,
      "󾌯": 3788,
      "\u0000\u0000": 3789,
      "\u0000\u0000\u0000\u0000": 3790,
      "\u0000\u0000\u0000\u0000\u0000\u0000\u0000\u0000": 3791,
      "th": 3792,
      "\u0000\u0000\u0000\u0000\u0000\u0000\u0000\u0000\u0000\u0000\u0000\u0000\u0000\u0000\u0000\u0000": 3793,
      "in": 3794,
      "er": 3795,
      "an": 3796,
      "the": 3797,
      "on": 3798,
      "00": 3799,
      "re": 3800,
      "at": 3801,
      "en": 3802,
      "\u0000\u0000\u0000\u0000\u0000\u0000\u0000\u0000\u0000\u0000\u0000\u0000\u0000\u0000\u0000\u0000\u0000\u0000\u0000\u0000\u0000\u0000\u0000\u0000\u0000\u0000\u0000\u0000\u0000\u0000\u0000\u0000": 3803,
      "or": 3804,
      "st": 3805,
      "al": 3806,
      "ed": 3807,
      "ou": 3808,
      "ing": 3809,
      "to": 3810,
      "ar": 3811,
      "is": 3812,
      "it": 3813,
      "es": 3814,
      "of": 3815,
      "and": 3816,
      "as": 3817,
      "ic": 3818,
      "le": 3819,
      "ion": 3820,
      "om": 3821,
      "0000": 3822,
      "he": 3823,
      "\u0000\u0000\u0000\u0000\u0000\u0000\u0000\u0000\u0000\u0000\u0000\u0000\u0000\u0000\u0000\u0000\u0000\u0000\u0000\u0000\u0000\u0000\u0000\u0000\u0000\u0000\u0000\u0000\u0000\u0000\u0000\u0000\u0000\u0000\u0000\u0000\u0000\u0000\u0000\u0000\u0000\u0000\u0000\u0000\u0000\u0000\u0000\u0000\u0000\u0000\u0000\u0000\u0000\u0000\u0000\u0000\u0000\u0000\u0000\u0000\u0000\u0000\u0000\u0000": 3824,
      "ent": 3825,
      "se": 3826,
      "il": 3827,
      "ac": 3828,
      "be": 3829,
      "ve": 3830,
      "ly": 3831,
      "id": 3832,
      "ad": 3833,
      "ro": 3834,
      "for": 3835,
      "am": 3836,
      "that": 3837,
      "ow": 3838,
      "ch": 3839,
      "ay": 3840,
      "wh": 3841,
      "im": 3842,
      "ol": 3843,
      "ig": 3844,
      "ver": 3845,
      "ot": 3846,
      "ut": 3847,
      "un": 3848,
      "et": 3849,
      "ith": 3850,
      "ce": 3851,
      "de": 3852,
      "ur": 3853,
      "ir": 3854,
      "ation": 3855,
      "ab": 3856,
      "ct": 3857,
      "are": 3858,
      "ter": 3859,
      "ag": 3860,
      "000": 3861,
      "The": 3862,
      "con": 3863,
      "with": 3864,
      "us": 3865,
      "el": 3866,
      "ers": 3867,
      "ere": 3868,
      "li": 3869,
      "mo": 3870,
      "com": 3871,
      "0000000": 3872,
      "op": 3873,
      "ha": 3874,
      "ne": 3875,
      "ill": 3876,
      "su": 3877,
      "you": 3878,
      "was": 3879,
      "ke": 3880,
      "all": 3881,
      "ld": 3882,
      "pe": 3883,
      "out": 3884,
      "pl": 3885,
      "ri": 3886,
      "pro": 3887,
      "ate": 3888,
      "ul": 3889,
      "we": 3890,
      "res": 3891,
      "em": 3892,
      "ex": 3893,
      "ap": 3894,
      "fr": 3895,
      "lo": 3896,
      "igh": 3897,
      "ain": 3898,
      "ment": 3899,
      "ust": 3900,
      "oun": 3901,
      "tr": 3902,
      "sh": 3903,
      "one": 3904,
      "so": 3905,
      "by": 3906,
      "if": 3907,
      "\u0000\u0000\u0000\u0000\u0000\u0000\u0000\u0000\u0000\u0000\u0000\u0000\u0000\u0000\u0000\u0000\u0000\u0000\u0000\u0000\u0000\u0000\u0000\u0000\u0000\u0000\u0000\u0000\u0000\u0000\u0000\u0000\u0000\u0000\u0000\u0000\u0000\u0000\u0000\u0000\u0000\u0000\u0000\u0000\u0000\u0000\u0000\u0000\u0000\u0000\u0000\u0000\u0000\u0000\u0000\u0000\u0000\u0000\u0000\u0000\u0000\u0000\u0000\u0000\u0000\u0000\u0000\u0000\u0000\u0000\u0000\u0000\u0000\u0000\u0000\u0000\u0000\u0000\u0000\u0000\u0000\u0000\u0000\u0000\u0000\u0000\u0000\u0000\u0000\u0000\u0000\u0000\u0000\u0000\u0000\u0000\u0000\u0000\u0000\u0000\u0000\u0000\u0000\u0000\u0000\u0000\u0000\u0000\u0000\u0000\u0000\u0000\u0000\u0000\u0000\u0000\u0000\u0000\u0000\u0000\u0000\u0000\u0000\u0000\u0000\u0000\u0000\u0000": 3908,
      "his": 3909,
      "ist": 3910,
      "our": 3911,
      "not": 3912,
      "art": 3913,
      "ant": 3914,
      "ess": 3915,
      "have": 3916,
      "ity": 3917,
      "po": 3918,
      "ould": 3919,
      "te": 3920,
      "ther": 3921,
      "from": 3922,
      "um": 3923,
      "this": 3924,
      "sa": 3925,
      "ive": 3926,
      "qu": 3927,
      "ight": 3928,
      "per": 3929,
      "act": 3930,
      "go": 3931,
      "ort": 3932,
      "wor": 3933,
      "fe": 3934,
      "ast": 3935,
      "end": 3936,
      "has": 3937,
      "01": 3938,
      "od": 3939,
      "ge": 3940,
      "ack": 3941,
      "up": 3942,
      "ally": 3943,
      "do": 3944,
      "but": 3945,
      "ies": 3946,
      "ome": 3947,
      "ear": 3948,
      "gh": 3949,
      "In": 3950,
      "ard": 3951,
      "cl": 3952,
      "any": 3953,
      "ak": 3954,
      "me": 3955,
      "co": 3956,
      "they": 3957,
      "can": 3958,
      "au": 3959,
      "will": 3960,
      "said": 3961,
      "pr": 3962,
      "ind": 3963,
      "gr": 3964,
      "ans": 3965,
      "iv": 3966,
      "port": 3967,
      "who": 3968,
      "ough": 3969,
      "ich": 3970,
      "Th": 3971,
      "ame": 3972,
      "af": 3973,
      "der": 3974,
      "ev": 3975,
      "ci": 3976,
      "ide": 3977,
      "their": 3978,
      "more": 3979,
      "ok": 3980,
      "now": 3981,
      "tim": 3982,
      "ong": 3983,
      "ice": 3984,
      "est": 3985,
      "ound": 3986,
      "age": 3987,
      "ous": 3988,
      "ure": 3989,
      "ud": 3990,
      "ions": 3991,
      "no": 3992,
      "bl": 3993,
      "ine": 3994,
      "about": 3995,
      "bo": 3996,
      "ber": 3997,
      "some": 3998,
      "had": 3999,
      "off": 4000,
      "ore": 4001,
      "ell": 4002,
      "It": 4003,
      "ie": 4004,
      "ck": 4005,
      "day": 4006,
      "ated": 4007,
      "year": 4008,
      "int": 4009,
      "ire": 4010,
      "its": 4011,
      "cre": 4012,
      "were": 4013,
      "ep": 4014,
      "able": 4015,
      "which": 4016,
      "would": 4017,
      "thing": 4018,
      "way": 4019,
      "cr": 4020,
      "man": 4021,
      "like": 4022,
      "ake": 4023,
      "ia": 4024,
      "ence": 4025,
      "ass": 4026,
      "comp": 4027,
      "very": 4028,
      "ll": 4029,
      "own": 4030,
      "other": 4031,
      "work": 4032,
      "av": 4033,
      "ach": 4034,
      "get": 4035,
      "iz": 4036,
      "An": 4037,
      "been": 4038,
      "ary": 4039,
      "sp": 4040,
      "over": 4041,
      "her": 4042,
      "ign": 4043,
      "new": 4044,
      "ace": 4045,
      "ite": 4046,
      "201": 4047,
      "part": 4048,
      "ra": 4049,
      "ip": 4050,
      "Wh": 4051,
      "pre": 4052,
      "St": 4053,
      "cont": 4054,
      "mer": 4055,
      "ish": 4056,
      "ue": 4057,
      "pres": 4058,
      "xt": 4059,
      "ile": 4060,
      "than": 4061,
      "my": 4062,
      "ef": 4063,
      "ople": 4064,
      "there": 4065,
      "pos": 4066,
      "ts": 4067,
      "cent": 4068,
      "ser": 4069,
      "time": 4070,
      "19": 4071,
      "dis": 4072,
      "what": 4073,
      "str": 4074,
      "just": 4075,
      "play": 4076,
      "also": 4077,
      "Ch": 4078,
      "ail": 4079,
      "ical": 4080,
      "ial": 4081,
      "them": 4082,
      "44": 4083,
      "when": 4084,
      "ick": 4085,
      "your": 4086,
      "people": 4087,
      "ble": 4088,
      "fir": 4089,
      "att": 4090,
      "He": 4091,
      "cor": 4092,
      "pt": 4093,
      "tw": 4094,
      "inter": 4095,
      "du": 4096,
      "ations": 4097,
      "say": 4098,
      "br": 4099,
      "ens": 4100,
      "fer": 4101,
      "ction": 4102,
      "low": 4103,
      "\u0000\u0000\u0000\u0000\u0000\u0000\u0000\u0000\u0000\u0000\u0000\u0000\u0000\u0000\u0000\u0000\u0000\u0000\u0000\u0000\u0000\u0000\u0000\u0000\u0000\u0000\u0000\u0000\u0000\u0000\u0000\u0000\u0000\u0000\u0000\u0000\u0000\u0000\u0000\u0000\u0000\u0000\u0000\u0000\u0000\u0000\u0000\u0000": 4104,
      "We": 4105,
      "ren": 4106,
      "pol": 4107,
      "ree": 4108,
      ".”": 4109,
      "ance": 4110,
      "ase": 4111,
      "ink": 4112,
      "into": 4113,
      "old": 4114,
      "ang": 4115,
      "form": 4116,
      "ty": 4117,
      "mon": 4118,
      "aw": 4119,
      "how": 4120,
      "ident": 4121,
      "ob": 4122,
      "vel": 4123,
      "ory": 4124,
      "most": 4125,
      "ian": 4126,
      "ark": 4127,
      "back": 4128,
      "\u0000\u0000\u0000\u0000\u0000\u0000\u0000\u0000\u0000\u0000\u0000\u0000\u0000\u0000\u0000\u0000\u0000\u0000\u0000\u0000\u0000\u0000\u0000\u0000\u0000\u0000\u0000\u0000\u0000\u0000\u0000\u0000\u0000\u0000\u0000\u0000\u0000\u0000\u0000\u0000\u0000\u0000\u0000\u0000\u0000\u0000\u0000\u0000\u0000\u0000\u0000\u0000\u0000\u0000\u0000\u0000": 4129,
      "\u0000\u0000\u0000\u0000\u0000\u0000\u0000\u0000\u0000\u0000\u0000\u0000\u0000\u0000\u0000\u0000\u0000\u0000\u0000\u0000\u0000\u0000\u0000\u0000\u0000\u0000\u0000\u0000\u0000\u0000\u0000\u0000\u0000\u0000\u0000\u0000\u0000\u0000\u0000\u0000": 4130,
      "coun": 4131,
      "cau": 4132,
      "ph": 4133,
      "ition": 4134,
      "know": 4135,
      "spe": 4136,
      "ates": 4137,
      "ade": 4138,
      "ors": 4139,
      "This": 4140,
      "og": 4141,
      "after": 4142,
      "\u0000\u0000\u0000\u0000\u0000\u0000\u0000\u0000\u0000\u0000\u0000\u0000\u0000\u0000\u0000\u0000\u0000\u0000\u0000\u0000\u0000\u0000\u0000\u0000\u0000\u0000\u0000\u0000\u0000\u0000\u0000\u0000\u0000\u0000\u0000\u0000": 4143,
      "ple": 4144,
      ",”": 4145,
      "ful": 4146,
      "But": 4147,
      "first": 4148,
      "she": 4149,
      "ose": 4150,
      "him": 4151,
      "\u0000\u0000\u0000\u0000\u0000\u0000\u0000\u0000\u0000\u0000\u0000\u0000\u0000\u0000\u0000\u0000\u0000\u0000\u0000\u0000\u0000\u0000\u0000\u0000\u0000\u0000\u0000\u0000\u0000\u0000\u0000\u0000\u0000\u0000\u0000\u0000\u0000\u0000\u0000\u0000\u0000\u0000\u0000\u0000\u0000\u0000\u0000\u0000\u0000\u0000\u0000\u0000\u0000\u0000\u0000\u0000\u0000\u0000\u0000\u0000\u0000\u0000\u0000\u0000\u0000\u0000\u0000\u0000\u0000\u0000\u0000\u0000\u0000\u0000\u0000\u0000\u0000\u0000\u0000\u0000\u0000\u0000\u0000\u0000\u0000\u0000\u0000\u0000\u0000\u0000\u0000\u0000\u0000\u0000\u0000\u0000\u0000\u0000\u0000\u0000\u0000\u0000\u0000\u0000\u0000\u0000\u0000\u0000\u0000\u0000\u0000\u0000\u0000\u0000\u0000\u0000\u0000\u0000\u0000\u0000\u0000\u0000\u0000\u0000\u0000\u0000\u0000\u0000\u0000\u0000\u0000\u0000\u0000\u0000\u0000\u0000\u0000\u0000\u0000\u0000\u0000\u0000\u0000\u0000\u0000\u0000\u0000\u0000\u0000\u0000\u0000\u0000\u0000\u0000\u0000\u0000\u0000\u0000\u0000\u0000\u0000\u0000\u0000\u0000\u0000\u0000\u0000\u0000": 4152,
      "cause": 4153,
      "cess": 4154,
      "vers": 4155,
      "ubl": 4156,
      "could": 4157,
      "\u0000\u0000\u0000\u0000\u0000\u0000\u0000\u0000\u0000\u0000\u0000\u0000\u0000\u0000\u0000\u0000\u0000\u0000\u0000\u0000\u0000\u0000\u0000\u0000\u0000\u0000\u0000\u0000\u0000\u0000\u0000\u0000\u0000\u0000\u0000\u0000\u0000\u0000\u0000\u0000\u0000\u0000\u0000\u0000\u0000\u0000\u0000\u0000\u0000\u0000\u0000\u0000\u0000\u0000\u0000\u0000\u0000\u0000\u0000\u0000\u0000\u0000\u0000\u0000\u0000\u0000\u0000\u0000\u0000\u0000\u0000\u0000\u0000\u0000\u0000\u0000\u0000\u0000\u0000\u0000\u0000\u0000\u0000\u0000\u0000\u0000\u0000\u0000\u0000\u0000\u0000\u0000\u0000\u0000\u0000\u0000\u0000\u0000\u0000\u0000": 4158,
      "644": 4159,
      "min": 4160,
      "cur": 4161,
      "\u0000\u0000\u0000\u0000\u0000\u0000\u0000\u0000\u0000\u0000\u0000\u0000\u0000\u0000\u0000\u0000\u0000\u0000\u0000\u0000\u0000\u0000\u0000\u0000\u0000\u0000\u0000\u0000\u0000\u0000\u0000\u0000\u0000\u0000\u0000\u0000\u0000\u0000\u0000\u0000\u0000\u0000\u0000\u0000\u0000\u0000\u0000\u0000\u0000\u0000\u0000\u0000\u0000\u0000\u0000\u0000\u0000\u0000\u0000\u0000\u0000\u0000\u0000\u0000\u0000": 4162,
      "sel": 4163,
      "txt": 4164,
      "only": 4165,
      "00000000000": 4166,
      "ustar": 4167,
      "0000644": 4168,
      "two": 4169,
      "ning": 4170,
      "sy": 4171,
      "fore": 4172,
      "ry": 4173,
      "ild": 4174,
      "And": 4175,
      "ting": 4176,
      "10": 4177,
      "bet": 4178,
      "enc": 4179,
      "row": 4180,
      "ater": 4181,
      "ious": 4182,
      "ew": 4183,
      "med": 4184,
      "pp": 4185,
      "read": 4186,
      "comm": 4187,
      "Un": 4188,
      "don": 4189,
      "under": 4190,
      "des": 4191,
      "did": 4192,
      "where": 4193,
      "fin": 4194,
      ".\"": 4195,
      "bu": 4196,
      "see": 4197,
      "add": 4198,
      "right": 4199,
      "want": 4200,
      "even": 4201,
      "again": 4202,
      "gu": 4203,
      "ents": 4204,
      "ict": 4205,
      "use": 4206,
      "oc": 4207,
      "Tr": 4208,
      "si": 4209,
      "sc": 4210,
      "ating": 4211,
      "ult": 4212,
      "because": 4213,
      "need": 4214,
      "reg": 4215,
      "ual": 4216,
      "come": 4217,
      "\u0000\u0000\u0000\u0000\u0000\u0000\u0000\u0000\u0000\u0000\u0000\u0000\u0000\u0000\u0000\u0000\u0000\u0000\u0000\u0000\u0000\u0000\u0000\u0000\u0000\u0000\u0000\u0000\u0000\u0000\u0000\u0000\u0000\u0000\u0000\u0000\u0000\u0000\u0000\u0000\u0000\u0000\u0000\u0000\u0000\u0000\u0000\u0000\u0000\u0000\u0000\u0000\u0000\u0000\u0000\u0000\u0000\u0000\u0000\u0000\u0000\u0000\u0000\u0000\u0000\u0000\u0000\u0000\u0000\u0000\u0000\u0000\u0000\u0000\u0000\u0000\u0000\u0000\u0000\u0000\u0000\u0000\u0000\u0000\u0000\u0000\u0000\u0000\u0000\u0000\u0000\u0000\u0000\u0000\u0000\u0000\u0000\u0000\u0000\u0000\u0000\u0000\u0000\u0000\u0000\u0000\u0000\u0000\u0000\u0000\u0000\u0000\u0000\u0000\u0000\u0000\u0000\u0000\u0000\u0000\u0000\u0000\u0000\u0000\u0000\u0000\u0000\u0000\u0000\u0000\u0000\u0000\u0000\u0000\u0000\u0000\u0000\u0000\u0000\u0000\u0000\u0000\u0000\u0000\u0000\u0000\u0000\u0000\u0000\u0000\u0000\u0000\u0000\u0000\u0000\u0000\u0000\u0000\u0000\u0000\u0000\u0000\u0000\u0000\u0000\u0000\u0000\u0000\u0000\u0000\u0000\u0000\u0000\u0000\u0000\u0000\u0000\u0000\u0000\u0000\u0000\u0000\u0000\u0000\u0000\u0000\u0000\u0000\u0000\u0000\u0000\u0000\u0000\u0000\u0000\u0000\u0000\u0000\u0000\u0000\u0000\u0000\u0000\u0000\u0000\u0000\u0000\u0000\u0000\u0000\u0000\u0000\u0000\u0000\u0000\u0000\u0000\u0000\u0000\u0000\u0000\u0000\u0000\u0000\u0000\u0000\u0000\u0000\u0000\u0000\u0000\u0000\u0000\u0000\u0000\u0000\u0000\u0000\u0000\u0000\u0000\u0000\u0000\u0000\u0000\u0000\u0000\u0000\u0000\u0000\u0000\u0000\u0000\u0000\u0000\u0000": 4218,
      "20": 4219,
      "ason": 4220,
      "ublic": 4221,
      "years": 4222,
      "As": 4223,
      "call": 4224,
      "rough": 4225,
      "ving": 4226,
      "reat": 4227,
      "je": 4228,
      "fl": 4229,
      "ved": 4230,
      "ress": 4231,
      "then": 4232,
      "down": 4233,
      "os": 4234,
      "every": 4235,
      "ever": 4236,
      "many": 4237,
      "col": 4238,
      "used": 4239,
      "air": 4240,
      "make": 4241,
      ",\"": 4242,
      "incl": 4243,
      "look": 4244,
      "urn": 4245,
      "iss": 4246,
      "uch": 4247,
      "think": 4248,
      "ho": 4249,
      "try": 4250,
      "cial": 4251,
      "ins": 4252,
      "ener": 4253,
      "set": 4254,
      "cord": 4255,
      "vie": 4256,
      "amp": 4257,
      "these": 4258,
      "dif": 4259,
      "015": 4260,
      "ational": 4261,
      "ments": 4262,
      "leg": 4263,
      "ek": 4264,
      "land": 4265,
      "Re": 4266,
      "hel": 4267,
      "being": 4268,
      "ump": 4269,
      "cer": 4270,
      "though": 4271,
      "ise": 4272,
      "point": 4273,
      "itt": 4274,
      "well": 4275,
      "arch": 4276,
      "may": 4277,
      "state": 4278,
      "last": 4279,
      "De": 4280,
      "12": 4281,
      "Amer": 4282,
      "red": 4283,
      "long": 4284,
      "Americ": 4285,
      "lect": 4286,
      "15": 4287,
      "ath": 4288,
      "rel": 4289,
      "ject": 4290,
      "ug": 4291,
      "through": 4292,
      "self": 4293,
      "..": 4294,
      "200": 4295,
      "New": 4296,
      "ced": 4297,
      "ative": 4298,
      "cho": 4299,
      "ank": 4300,
      "aking": 4301,
      "ited": 4302,
      "cle": 4303,
      "ps": 4304,
      "should": 4305,
      "ities": 4306,
      "less": 4307,
      "ased": 4308,
      "much": 4309,
      "those": 4310,
      "show": 4311,
      "ash": 4312,
      "let": 4313,
      "high": 4314,
      "rem": 4315,
      ").": 4316,
      "gover": 4317,
      "ann": 4318,
      "ven": 4319,
      "pect": 4320,
      "If": 4321,
      "uring": 4322,
      "You": 4323,
      "stem": 4324,
      "atch": 4325,
      "tain": 4326,
      "does": 4327,
      "govern": 4328,
      "di": 4329,
      "ask": 4330,
      "start": 4331,
      "going": 4332,
      "wr": 4333,
      "oy": 4334,
      "For": 4335,
      "fun": 4336,
      "ces": 4337,
      "before": 4338,
      "als": 4339,
      "team": 4340,
      "sup": 4341,
      "view": 4342,
      "vis": 4343,
      "led": 4344,
      "stand": 4345,
      "car": 4346,
      "dr": 4347,
      "report": 4348,
      "ics": 4349,
      "fect": 4350,
      "sur": 4351,
      "pon": 4352,
      "Al": 4353,
      "while": 4354,
      "cond": 4355,
      "alk": 4356,
      "put": 4357,
      "So": 4358,
      "--": 4359,
      "pers": 4360,
      "ves": 4361,
      "made": 4362,
      "ince": 4363,
      "ma": 4364,
      "Con": 4365,
      "13": 4366,
      "ss": 4367,
      "world": 4368,
      "ff": 4369,
      "ret": 4370,
      "16": 4371,
      "such": 4372,
      "good": 4373,
      "ms": 4374,
      "game": 4375,
      "dec": 4376,
      "produ": 4377,
      "stud": 4378,
      "ily": 4379,
      "They": 4380,
      "ange": 4381,
      "lar": 4382,
      "ward": 4383,
      "week": 4384,
      "ific": 4385,
      "18": 4386,
      "ings": 4387,
      "),": 4388,
      "ually": 4389,
      "sub": 4390,
      "system": 4391,
      "gan": 4392,
      "includ": 4393,
      "ys": 4394,
      "les": 4395,
      "cons": 4396,
      "ility": 4397,
      "lead": 4398,
      "ular": 4399,
      "run": 4400,
      "che": 4401,
      "ext": 4402,
      "against": 4403,
      "There": 4404,
      "tri": 4405,
      "30": 4406,
      "here": 4407,
      "sm": 4408,
      "head": 4409,
      "still": 4410,
      "test": 4411,
      "ton": 4412,
      "17": 4413,
      "Ar": 4414,
      "25": 4415,
      "ower": 4416,
      "Se": 4417,
      "ub": 4418,
      "line": 4419,
      "sim": 4420,
      "Is": 4421,
      "Fr": 4422,
      "fact": 4423,
      "take": 4424,
      "real": 4425,
      "ween": 4426,
      "ner": 4427,
      "That": 4428,
      "char": 4429,
      "14": 4430,
      "olog": 4431,
      "illion": 4432,
      "law": 4433,
      "differ": 4434,
      "says": 4435,
      "ood": 4436,
      "Com": 4437,
      "ism": 4438,
      "trans": 4439,
      "la": 4440,
      "offic": 4441,
      "government": 4442,
      "ists": 4443,
      "sign": 4444,
      "quest": 4445,
      "eng": 4446,
      "ollow": 4447,
      "war": 4448,
      "num": 4449,
      "between": 4450,
      "Trump": 4451,
      "same": 4452,
      "val": 4453,
      "cap": 4454,
      "clo": 4455,
      "cut": 4456,
      "cour": 4457,
      "fi": 4458,
      "Br": 4459,
      "hand": 4460,
      "three": 4461,
      "serv": 4462,
      "No": 4463,
      "app": 4464,
      "around": 4465,
      "help": 4466,
      "side": 4467,
      "support": 4468,
      "grou": 4469,
      "wom": 4470,
      "ters": 4471,
      "really": 4472,
      "book": 4473,
      "person": 4474,
      "vi": 4475,
      "ames": 4476,
      "mem": 4477,
      "50": 4478,
      "inst": 4479,
      "uss": 4480,
      "ax": 4481,
      "ouse": 4482,
      "velop": 4483,
      "io": 4484,
      "found": 4485,
      "fam": 4486,
      "ds": 4487,
      "On": 4488,
      "ten": 4489,
      "got": 4490,
      "ures": 4491,
      "public": 4492,
      "prov": 4493,
      "Le": 4494,
      "fil": 4495,
      "peri": 4496,
      "happ": 4497,
      "sure": 4498,
      "ave": 4499,
      "def": 4500,
      "lot": 4501,
      "ways": 4502,
      "big": 4503,
      "press": 4504,
      "11": 4505,
      "ense": 4506,
      "US": 4507,
      "vol": 4508,
      "pri": 4509,
      "vest": 4510,
      "month": 4511,
      "power": 4512,
      "mark": 4513,
      "net": 4514,
      "ale": 4515,
      "det": 4516,
      "ost": 4517,
      "miss": 4518,
      "both": 4519,
      "irect": 4520,
      "gest": 4521,
      "son": 4522,
      "sul": 4523,
      "Jo": 4524,
      "respon": 4525,
      "cept": 4526,
      ".[": 4527,
      "issu": 4528,
      "find": 4529,
      "Cl": 4530,
      "too": 4531,
      "cal": 4532,
      "aren": 4533,
      "bus": 4534,
      "par": 4535,
      "ages": 4536,
      "told": 4537,
      "during": 4538,
      "ices": 4539,
      "life": 4540,
      "24": 4541,
      "ship": 4542,
      "alth": 4543,
      "follow": 4544,
      "ft": 4545,
      "gener": 4546,
      "ied": 4547,
      "develop": 4548,
      "ng": 4549,
      "How": 4550,
      "came": 4551,
      "polit": 4552,
      "stru": 4553,
      "light": 4554,
      "ama": 4555,
      "ese": 4556,
      "bre": 4557,
      "top": 4558,
      "ically": 4559,
      "pass": 4560,
      "season": 4561,
      "place": 4562,
      "appe": 4563,
      "ared": 4564,
      "cording": 4565,
      "few": 4566,
      "since": 4567,
      "expl": 4568,
      "list": 4569,
      "beli": 4570,
      "60": 4571,
      "vot": 4572,
      "bers": 4573,
      "each": 4574,
      "akes": 4575,
      "incre": 4576,
      "clear": 4577,
      "national": 4578,
      "ider": 4579,
      "using": 4580,
      "ime": 4581,
      "contin": 4582,
      "rest": 4583,
      "vent": 4584,
      "allow": 4585,
      "aim": 4586,
      "commun": 4587,
      "ris": 4588,
      "At": 4589,
      "Ad": 4590,
      "something": 4591,
      "ars": 4592,
      "order": 4593,
      "far": 4594,
      "ody": 4595,
      "blo": 4596,
      "rele": 4597,
      "unt": 4598,
      "care": 4599,
      "oot": 4600,
      "giv": 4601,
      "ues": 4602,
      "ah": 4603,
      "ized": 4604,
      "post": 4605,
      "chool": 4606,
      "another": 4607,
      "iness": 4608,
      "27": 4609,
      "ution": 4610,
      "different": 4611,
      "Sh": 4612,
      "gram": 4613,
      "bit": 4614,
      "camp": 4615,
      "ata": 4616,
      "things": 4617,
      "sol": 4618,
      "open": 4619,
      "ants": 4620,
      "ush": 4621,
      "ready": 4622,
      "gy": 4623,
      "search": 4624,
      "When": 4625,
      "move": 4626,
      "ivers": 4627,
      "called": 4628,
      "second": 4629,
      "might": 4630,
      "never": 4631,
      "23": 4632,
      "best": 4633,
      "rent": 4634,
      "invest": 4635,
      "lim": 4636,
      "kill": 4637,
      "47": 4638,
      "ement": 4639,
      "40": 4640,
      "Be": 4641,
      "child": 4642,
      "build": 4643,
      "What": 4644,
      "contro": 4645,
      "home": 4646,
      "possi": 4647,
      "next": 4648,
      "Pro": 4649,
      "pay": 4650,
      "feel": 4651,
      "ball": 4652,
      "ger": 4653,
      "atter": 4654,
      "including": 4655,
      "ted": 4656,
      "sing": 4657,
      "mar": 4658,
      "dist": 4659,
      "cover": 4660,
      "direct": 4661,
      "000000": 4662,
      "==": 4663,
      "ross": 4664,
      "percent": 4665,
      "plan": 4666,
      "ness": 4667,
      "26": 4668,
      "seem": 4669,
      "requ": 4670,
      "ize": 4671,
      "oper": 4672,
      "por": 4673,
      "ca": 4674,
      "resident": 4675,
      "change": 4676,
      "hum": 4677,
      "conom": 4678,
      "ature": 4679,
      "present": 4680,
      "ittle": 4681,
      "ital": 4682,
      "appro": 4683,
      "won": 4684,
      "American": 4685,
      "mil": 4686,
      "az": 4687,
      "import": 4688,
      "tech": 4689,
      "without": 4690,
      "Rep": 4691,
      "interest": 4692,
      "sit": 4693,
      "hard": 4694,
      "level": 4695,
      "oney": 4696,
      "case": 4697,
      "four": 4698,
      "men": 4699,
      "million": 4700,
      "bro": 4701,
      "inform": 4702,
      "ets": 4703,
      "oth": 4704,
      "ired": 4705,
      "sum": 4706,
      "great": 4707,
      "ele": 4708,
      "pop": 4709,
      "To": 4710,
      "turn": 4711,
      "number": 4712,
      "She": 4713,
      "uck": 4714,
      "resul": 4715,
      "proble": 4716,
      "talk": 4717,
      "ons": 4718,
      "win": 4719,
      "attack": 4720,
      "country": 4721,
      "ably": 4722,
      "dri": 4723,
      "soci": 4724,
      "cri": 4725,
      "ier": 4726,
      "ately": 4727,
      "ished": 4728,
      "better": 4729,
      "partic": 4730,
      "ling": 4731,
      "group": 4732,
      "eld": 4733,
      "cy": 4734,
      "ral": 4735,
      "left": 4736,
      "main": 4737,
      "prom": 4738,
      "keep": 4739,
      "didn": 4740,
      "class": 4741,
      "tra": 4742,
      "little": 4743,
      "ency": 4744,
      "exam": 4745,
      "riend": 4746,
      "hist": 4747,
      "recent": 4748,
      "Af": 4749,
      "Mar": 4750,
      "ines": 4751,
      "fic": 4752,
      "Ob": 4753,
      "35": 4754,
      "28": 4755,
      "del": 4756,
      "prof": 4757,
      "program": 4758,
      "__": 4759,
      "iting": 4760,
      "29": 4761,
      "ont": 4762,
      "jor": 4763,
      "body": 4764,
      "econom": 4765,
      "ern": 4766,
      "ord": 4767,
      "wit": 4768,
      "nor": 4769,
      "ork": 4770,
      "gre": 4771,
      "organ": 4772,
      "near": 4773,
      "ety": 4774,
      "uro": 4775,
      "free": 4776,
      "ather": 4777,
      "claim": 4778,
      "police": 4779,
      "den": 4780,
      "ned": 4781,
      "chang": 4782,
      "school": 4783,
      "ina": 4784,
      "45": 4785,
      "effect": 4786,
      "vious": 4787,
      "night": 4788,
      "data": 4789,
      "grow": 4790,
      "pend": 4791,
      "thor": 4792,
      "women": 4793,
      "eas": 4794,
      "friend": 4795,
      "80": 4796,
      "met": 4797,
      "ional": 4798,
      "company": 4799,
      "Nor": 4800,
      "comple": 4801,
      "ability": 4802,
      "based": 4803,
      "business": 4804,
      "rist": 4805,
      "expect": 4806,
      "Ro": 4807,
      "Can": 4808,
      "money": 4809,
      "president": 4810,
      "tell": 4811,
      "city": 4812,
      "ator": 4813,
      "ats": 4814,
      "small": 4815,
      "atic": 4816,
      "process": 4817,
      "pur": 4818,
      "ik": 4819,
      "United": 4820,
      "ref": 4821,
      "70": 4822,
      "hold": 4823,
      "tem": 4824,
      "coming": 4825,
      "inal": 4826,
      "One": 4827,
      "Col": 4828,
      "var": 4829,
      "reason": 4830,
      "minist": 4831,
      "techn": 4832,
      "bal": 4833,
      "away": 4834,
      "90": 4835,
      "Pr": 4836,
      "All": 4837,
      "design": 4838,
      "official": 4839,
      "ided": 4840,
      "ploy": 4841,
      "current": 4842,
      "mocr": 4843,
      "later": 4844,
      "spec": 4845,
      "key": 4846,
      "ude": 4847,
      "action": 4848,
      "vir": 4849,
      "hn": 4850,
      "experi": 4851,
      "aph": 4852,
      "making": 4853,
      "already": 4854,
      "36": 4855,
      "ones": 4856,
      "46": 4857,
      "always": 4858,
      "bed": 4859,
      "adv": 4860,
      "Or": 4861,
      "story": 4862,
      "Mr": 4863,
      "rece": 4864,
      "imes": 4865,
      "hal": 4866,
      "major": 4867,
      "why": 4868,
      "Gr": 4869,
      "face": 4870,
      "ago": 4871,
      "ration": 4872,
      "project": 4873,
      "ute": 4874,
      "fort": 4875,
      "Co": 4876,
      "ives": 4877,
      "cost": 4878,
      "und": 4879,
      "days": 4880,
      "job": 4881,
      "fac": 4882,
      "kind": 4883,
      "information": 4884,
      "comes": 4885,
      "enter": 4886,
      "past": 4887,
      "sever": 4888,
      "name": 4889,
      "ology": 4890,
      "ric": 4891,
      "health": 4892,
      "consider": 4893,
      "ards": 4894,
      "ised": 4895,
      "Bl": 4896,
      "bor": 4897,
      "tax": 4898,
      "whe": 4899,
      "22": 4900,
      "ged": 4901,
      "unch": 4902,
      "Li": 4903,
      "happen": 4904,
      "Mo": 4905,
      "37": 4906,
      "Go": 4907,
      "elect": 4908,
      "cu": 4909,
      "hop": 4910,
      "working": 4911,
      "aign": 4912,
      "May": 4913,
      "important": 4914,
      "ains": 4915,
      "news": 4916,
      "John": 4917,
      "gin": 4918,
      "Republic": 4919,
      "doesn": 4920,
      "plic": 4921,
      "suc": 4922,
      "qual": 4923,
      "mean": 4924,
      "99": 4925,
      "ury": 4926,
      "...": 4927,
      "must": 4928,
      "ribut": 4929,
      "known": 4930,
      "IS": 4931,
      "position": 4932,
      "Sy": 4933,
      "outh": 4934,
      "que": 4935,
      "late": 4936,
      "large": 4937,
      "possible": 4938,
      "ural": 4939,
      "least": 4940,
      "With": 4941,
      "ained": 4942,
      "ney": 4943,
      "pot": 4944,
      "deal": 4945,
      "Mc": 4946,
      "sk": 4947,
      "until": 4948,
      "acy": 4949,
      "iversity": 4950,
      "edit": 4951,
      "President": 4952,
      "RE": 4953,
      "Pl": 4954,
      "eder": 4955,
      "ror": 4956,
      "likely": 4957,
      "enough": 4958,
      "ision": 4959,
      "curity": 4960,
      "family": 4961,
      "ended": 4962,
      "ey": 4963,
      "campaign": 4964,
      "ley": 4965,
      "record": 4966,
      "ead": 4967,
      "research": 4968,
      "site": 4969,
      "ground": 4970,
      "nam": 4971,
      "took": 4972,
      "sex": 4973,
      "polic": 4974,
      "Car": 4975,
      "ences": 4976,
      "vide": 4977,
      "human": 4978,
      "ides": 4979,
      "ib": 4980,
      "water": 4981,
      "ending": 4982,
      "ians": 4983,
      "aining": 4984,
      "actually": 4985,
      "certain": 4986,
      "21": 4987,
      "Ex": 4988,
      "former": 4989,
      "give": 4990,
      "33": 4991,
      "times": 4992,
      "hour": 4993,
      "cas": 4994,
      "political": 4995,
      "Im": 4996,
      "lear": 4997,
      "posed": 4998,
      "prote": 4999,
      "full": 5000,
      "ird": 5001,
      "exp": 5002,
      "stop": 5003,
      "room": 5004,
      "Don": 5005,
      "plac": 5006,
      "bar": 5007,
      "according": 5008,
      "sci": 5009,
      "ls": 5010,
      "jo": 5011,
      "milit": 5012,
      "Russ": 5013,
      "often": 5014,
      "doing": 5015,
      "After": 5016,
      "went": 5017,
      "event": 5018,
      "market": 5019,
      "Euro": 5020,
      "ru": 5021,
      "bas": 5022,
      "ster": 5023,
      ".\u0000\u0000\u0000\u0000\u0000\u0000\u0000\u0000\u0000\u0000\u0000\u0000\u0000\u0000\u0000\u0000\u0000\u0000\u0000\u0000\u0000\u0000\u0000\u0000\u0000\u0000\u0000\u0000\u0000\u0000\u0000\u0000\u0000\u0000\u0000\u0000\u0000\u0000\u0000\u0000\u0000\u0000\u0000\u0000\u0000\u0000\u0000\u0000\u0000\u0000\u0000\u0000\u0000\u0000\u0000\u0000\u0000\u0000\u0000\u0000\u0000\u0000\u0000\u0000\u0000\u0000\u0000\u0000\u0000\u0000\u0000\u0000\u0000\u0000\u0000\u0000\u0000\u0000\u0000\u0000\u0000\u0000\u0000\u0000\u0000\u0000\u0000\u0000\u0000\u0000\u0000\u0000\u0000\u0000\u0000\u0000\u0000\u0000\u0000\u0000\u0000\u0000\u0000\u0000\u0000\u0000\u0000\u0000\u0000\u0000\u0000\u0000\u0000\u0000\u0000\u0000\u0000\u0000\u0000\u0000\u0000\u0000\u0000\u0000\u0000\u0000\u0000\u0000\u0000\u0000\u0000\u0000\u0000\u0000\u0000\u0000\u0000\u0000\u0000\u0000\u0000\u0000\u0000\u0000\u0000\u0000\u0000\u0000\u0000\u0000\u0000\u0000\u0000\u0000\u0000\u0000\u0000\u0000\u0000\u0000\u0000\u0000\u0000\u0000\u0000\u0000\u0000\u0000\u0000\u0000\u0000\u0000\u0000\u0000\u0000\u0000\u0000\u0000\u0000\u0000\u0000\u0000\u0000\u0000\u0000\u0000\u0000\u0000\u0000\u0000\u0000\u0000\u0000\u0000\u0000\u0000\u0000\u0000\u0000\u0000\u0000\u0000\u0000\u0000\u0000\u0000\u0000\u0000\u0000\u0000\u0000\u0000\u0000\u0000\u0000\u0000\u0000\u0000\u0000\u0000\u0000\u0000\u0000\u0000\u0000\u0000\u0000\u0000\u0000\u0000\u0000\u0000\u0000\u0000\u0000\u0000\u0000\u0000\u0000\u0000\u0000\u0000\u0000\u0000\u0000\u0000\u0000\u0000\u0000\u0000\u0000\u0000\u0000\u0000\u0000\u0000": 5024,
      "tract": 5025,
      "early": 5026,
      "ix": 5027,
      "ined": 5028,
      "Obama": 5029,
      "tar": 5030,
      "sug": 5031,
      "Man": 5032,
      "return": 5033,
      "non": 5034,
      "become": 5035,
      "crit": 5036,
      "Inter": 5037,
      "Ac": 5038,
      "Ind": 5039,
      "Ph": 5040,
      "nal": 5041,
      "\u0000\u0000\u0000": 5042,
      "aring": 5043,
      "aid": 5044,
      "mor": 5045,
      "ben": 5046,
      "course": 5047,
      "ped": 5048,
      "ization": 5049,
      "struct": 5050,
      "seen": 5051,
      "product": 5052,
      "games": 5053,
      "uture": 5054,
      "100": 5055,
      "Mon": 5056,
      "depend": 5057,
      "une": 5058,
      "author": 5059,
      "stre": 5060,
      "graph": 5061,
      "question": 5062,
      "Pol": 5063,
      "Ste": 5064,
      "social": 5065,
      "five": 5066,
      "ying": 5067,
      "55": 5068,
      "having": 5069,
      "media": 5070,
      "today": 5071,
      "ither": 5072,
      "viol": 5073,
      "wer": 5074,
      "ran": 5075,
      "Sp": 5076,
      "players": 5077,
      "members": 5078,
      "half": 5079,
      "York": 5080,
      "success": 5081,
      "meet": 5082,
      "aken": 5083,
      "mid": 5084,
      "West": 5085,
      "along": 5086,
      "fight": 5087,
      "wn": 5088,
      "State": 5089,
      "invol": 5090,
      "web": 5091,
      "employ": 5092,
      "eve": 5093,
      "ential": 5094,
      "several": 5095,
      "mber": 5096,
      "done": 5097,
      "trad": 5098,
      "48": 5099,
      "children": 5100,
      "whether": 5101,
      "ought": 5102,
      "short": 5103,
      "States": 5104,
      "Not": 5105,
      "aged": 5106,
      "force": 5107,
      "close": 5108,
      "fig": 5109,
      "En": 5110,
      "activ": 5111,
      "charac": 5112,
      "//": 5113,
      "Coun": 5114,
      "icle": 5115,
      "ensive": 5116,
      "ks": 5117,
      "offer": 5118,
      "AT": 5119,
      "ories": 5120,
      "understand": 5121,
      "example": 5122,
      "gen": 5123,
      "75": 5124,
      "aff": 5125,
      "2016": 5126,
      "\u0000\u0000\u0000\u0000\u0000\u0000\u0000\u0000\u0000\u0000\u0000\u0000\u0000\u0000\u0000\u0000\u0000\u0000\u0000\u0000\u0000\u0000\u0000\u0000\u0000\u0000\u0000\u0000\u0000\u0000\u0000\u0000\u0000\u0000\u0000\u0000\u0000\u0000\u0000\u0000\u0000\u0000\u0000\u0000\u0000\u0000\u0000\u0000\u0000\u0000\u0000\u0000\u0000\u0000\u0000\u0000\u0000\u0000\u0000\u0000\u0000\u0000\u0000\u0000\u0000\u0000\u0000\u0000\u0000\u0000\u0000\u0000\u0000\u0000\u0000\u0000\u0000\u0000\u0000\u0000\u0000\u0000\u0000\u0000\u0000\u0000\u0000\u0000\u0000\u0000\u0000\u0000\u0000\u0000\u0000\u0000\u0000\u0000\u0000\u0000\u0000\u0000\u0000\u0000\u0000\u0000\u0000\u0000\u0000\u0000\u0000\u0000\u0000\u0000\u0000\u0000\u0000\u0000\u0000\u0000\u0000\u0000\u0000\u0000\u0000\u0000\u0000\u0000\u0000\u0000\u0000\u0000\u0000\u0000\u0000\u0000\u0000\u0000\u0000\u0000\u0000\u0000\u0000\u0000\u0000\u0000\u0000\u0000\u0000\u0000\u0000\u0000\u0000\u0000\u0000\u0000\u0000\u0000\u0000\u0000\u0000\u0000\u0000\u0000\u0000\u0000\u0000\u0000\u0000\u0000\u0000\u0000\u0000\u0000\u0000\u0000\u0000\u0000\u0000\u0000\u0000\u0000\u0000\u0000\u0000\u0000\u0000\u0000\u0000\u0000\u0000\u0000": 5127,
      "count": 5128,
      "Europe": 5129,
      "uc": 5130,
      "ler": 5131,
      "dam": 5132,
      "watch": 5133,
      "bi": 5134,
      "49": 5135,
      "Sen": 5136,
      "local": 5137,
      "sent": 5138,
      "avail": 5139,
      "ER": 5140,
      "idence": 5141,
      "stit": 5142,
      "among": 5143,
      "months": 5144,
      "tion": 5145,
      "sour": 5146,
      "House": 5147,
      "vert": 5148,
      "means": 5149,
      "Democr": 5150,
      "concer": 5151,
      "thought": 5152,
      "ali": 5153,
      "ots": 5154,
      "within": 5155,
      "06": 5156,
      "arm": 5157,
      "once": 5158,
      "future": 5159,
      "uary": 5160,
      "38": 5161,
      "priv": 5162,
      "problem": 5163,
      "asked": 5164,
      "acc": 5165,
      "young": 5166,
      "mus": 5167,
      "step": 5168,
      "ified": 5169,
      "legal": 5170,
      "However": 5171,
      "76": 5172,
      "mand": 5173,
      "ron": 5174,
      "IN": 5175,
      "gun": 5176,
      "AN": 5177,
      "cast": 5178,
      "tt": 5179,
      "house": 5180,
      "tal": 5181,
      "orig": 5182,
      "My": 5183,
      "player": 5184,
      "given": 5185,
      "rael": 5186,
      "gether": 5187,
      "ison": 5188,
      "community": 5189,
      "oto": 5190,
      "ilar": 5191,
      "While": 5192,
      "ague": 5193,
      "ulation": 5194,
      "ially": 5195,
      "imp": 5196,
      "yet": 5197,
      "Israel": 5198,
      "ium": 5199,
      "prob": 5200,
      "investig": 5201,
      "reported": 5202,
      "party": 5203,
      "field": 5204,
      "spo": 5205,
      "ivid": 5206,
      "makes": 5207,
      "video": 5208,
      "issue": 5209,
      "fail": 5210,
      "augh": 5211,
      "Christ": 5212,
      "ane": 5213,
      "descri": 5214,
      "itive": 5215,
      "sl": 5216,
      "getting": 5217,
      "fall": 5218,
      "suggest": 5219,
      "nes": 5220,
      "ators": 5221,
      "control": 5222,
      "ech": 5223,
      "Dr": 5224,
      "strong": 5225,
      "gress": 5226,
      "mom": 5227,
      "ove": 5228,
      "iter": 5229,
      "Min": 5230,
      "ible": 5231,
      "ederal": 5232,
      "across": 5233,
      "39": 5234,
      "others": 5235,
      "University": 5236,
      "hit": 5237,
      "started": 5238,
      "deb": 5239,
      "dev": 5240,
      "ded": 5241,
      "Do": 5242,
      "mit": 5243,
      "pret": 5244,
      "ony": 5245,
      "announ": 5246,
      "film": 5247,
      "indust": 5248,
      "front": 5249,
      "reach": 5250,
      "Wor": 5251,
      "aft": 5252,
      "love": 5253,
      "ured": 5254,
      "series": 5255,
      "together": 5256,
      "War": 5257,
      "pat": 5258,
      "Now": 5259,
      "2015": 5260,
      "area": 5261,
      "hy": 5262,
      "available": 5263,
      "Bo": 5264,
      "ister": 5265,
      "dro": 5266,
      "ising": 5267,
      "believe": 5268,
      "inc": 5269,
      "America": 5270,
      "foot": 5271,
      "hind": 5272,
      "08": 5273,
      "bad": 5274,
      "Some": 5275,
      "Mic": 5276,
      "fav": 5277,
      "particular": 5278,
      "rul": 5279,
      "ived": 5280,
      "Ger": 5281,
      "ient": 5282,
      "ington": 5283,
      "56": 5284,
      "wa": 5285,
      "looking": 5286,
      "empt": 5287,
      "conne": 5288,
      "mission": 5289,
      "foc": 5290,
      "Bar": 5291,
      "isn": 5292,
      "complete": 5293,
      "fire": 5294,
      "anal": 5295,
      "following": 5296,
      "gl": 5297,
      "mind": 5298,
      "military": 5299,
      "fur": 5300,
      "kes": 5301,
      "idea": 5302,
      "ances": 5303,
      "history": 5304,
      "Dav": 5305,
      "almost": 5306,
      "hip": 5307,
      "By": 5308,
      "aster": 5309,
      "bur": 5310,
      "imm": 5311,
      "Ser": 5312,
      "pract": 5313,
      "live": 5314,
      "cou": 5315,
      "six": 5316,
      "experience": 5317,
      "Brit": 5318,
      "These": 5319,
      "round": 5320,
      "tom": 5321,
      "proper": 5322,
      "199": 5323,
      "dra": 5324,
      "pick": 5325,
      "2014": 5326,
      "disc": 5327,
      "Sun": 5328,
      "trying": 5329,
      "Har": 5330,
      "ald": 5331,
      "selves": 5332,
      "photo": 5333,
      "Canad": 5334,
      "threat": 5335,
      "taken": 5336,
      "access": 5337,
      "loc": 5338,
      "Ju": 5339,
      "security": 5340,
      "ond": 5341,
      "uses": 5342,
      "compan": 5343,
      "ON": 5344,
      "mess": 5345,
      "Just": 5346,
      "court": 5347,
      "Clint": 5348,
      "gn": 5349,
      "added": 5350,
      "saying": 5351,
      "ustom": 5352,
      "Res": 5353,
      "cret": 5354,
      "77": 5355,
      "Eng": 5356,
      "itions": 5357,
      "mal": 5358,
      "compet": 5359,
      "His": 5360,
      "cell": 5361,
      "ns": 5362,
      "fully": 5363,
      "North": 5364,
      "wanted": 5365,
      "cult": 5366,
      "death": 5367,
      "anything": 5368,
      "ination": 5369,
      "space": 5370,
      "taking": 5371,
      "ams": 5372,
      "AR": 5373,
      "individ": 5374,
      "itional": 5375,
      "AS": 5376,
      "cop": 5377,
      "32": 5378,
      "break": 5379,
      "uff": 5380,
      "aver": 5381,
      "34": 5382,
      "Dep": 5383,
      "argu": 5384,
      "omet": 5385,
      "special": 5386,
      "Clinton": 5387,
      "National": 5388,
      "bill": 5389,
      "date": 5390,
      "ply": 5391,
      "entire": 5392,
      "cially": 5393,
      "publ": 5394,
      "Aust": 5395,
      "block": 5396,
      "exist": 5397,
      "behind": 5398,
      "works": 5399,
      "either": 5400,
      "aper": 5401,
      "scre": 5402,
      "fa": 5403,
      "road": 5404,
      "ene": 5405,
      "ails": 5406,
      "Fe": 5407,
      "defin": 5408,
      "ference": 5409,
      "version": 5410,
      "points": 5411,
      "single": 5412,
      "sty": 5413,
      "colle": 5414,
      "similar": 5415,
      "band": 5416,
      "roll": 5417,
      "uge": 5418,
      "reed": 5419,
      "bring": 5420,
      "wide": 5421,
      "impro": 5422,
      "type": 5423,
      "glo": 5424,
      "stri": 5425,
      "09": 5426,
      "Me": 5427,
      "vo": 5428,
      "study": 5429,
      "hom": 5430,
      "Mus": 5431,
      "cing": 5432,
      "ana": 5433,
      "policy": 5434,
      "Gu": 5435,
      "board": 5436,
      "sof": 5437,
      "quick": 5438,
      "woman": 5439,
      "ock": 5440,
      "rather": 5441,
      "66": 5442,
      "individual": 5443,
      "pen": 5444,
      "mult": 5445,
      "2017": 5446,
      "nothing": 5447,
      "bank": 5448,
      "ched": 5449,
      "food": 5450,
      "2013": 5451,
      "black": 5452,
      "dom": 5453,
      "ee": 5454,
      ".,": 5455,
      "ior": 5456,
      "ecut": 5457,
      "31": 5458,
      "probably": 5459,
      "imate": 5460,
      "88": 5461,
      "dest": 5462,
      "manag": 5463,
      "check": 5464,
      "ull": 5465,
      "rad": 5466,
      "City": 5467,
      "ES": 5468,
      "exper": 5469,
      "bot": 5470,
      "cand": 5471,
      "someone": 5472,
      "discuss": 5473,
      "sal": 5474,
      "model": 5475,
      "phone": 5476,
      "else": 5477,
      "previous": 5478,
      "dit": 5479,
      "tries": 5480,
      "wards": 5481,
      "sen": 5482,
      "docu": 5483,
      "town": 5484,
      "ban": 5485,
      "load": 5486,
      "create": 5487,
      "redu": 5488,
      "World": 5489,
      "05": 5490,
      "elt": 5491,
      "lies": 5492,
      "walk": 5493,
      "stat": 5494,
      "sell": 5495,
      "ding": 5496,
      "benef": 5497,
      "protect": 5498,
      "Wil": 5499,
      "Wash": 5500,
      "rights": 5501,
      "sus": 5502,
      "third": 5503,
      "supp": 5504,
      "2012": 5505,
      "paren": 5506,
      "decl": 5507,
      "Ge": 5508,
      "rote": 5509,
      "ention": 5510,
      "artment": 5511,
      "equ": 5512,
      "iday": 5513,
      "dle": 5514,
      "infl": 5515,
      "ges": 5516,
      "building": 5517,
      "ww": 5518,
      "lier": 5519,
      "due": 5520,
      "mass": 5521,
      "represent": 5522,
      "comb": 5523,
      "everything": 5524,
      "signific": 5525,
      "enn": 5526,
      "wrote": 5527,
      "TH": 5528,
      "vision": 5529,
      "nat": 5530,
      "lam": 5531,
      "gets": 5532,
      "conf": 5533,
      "viron": 5534,
      "king": 5535,
      "played": 5536,
      "box": 5537,
      "utes": 5538,
      "feat": 5539,
      "Jan": 5540,
      "init": 5541,
      "ging": 5542,
      "China": 5543,
      "ai": 5544,
      "lish": 5545,
      "service": 5546,
      "====": 5547,
      "ids": 5548,
      "however": 5549,
      "Part": 5550,
      ".)": 5551,
      "whole": 5552,
      "65": 5553,
      "rate": 5554,
      "Washington": 5555,
      "custom": 5556,
      "anger": 5557,
      "host": 5558,
      "sound": 5559,
      "dou": 5560,
      "Per": 5561,
      "BC": 5562,
      "result": 5563,
      "aut": 5564,
      "matter": 5565,
      "amoun": 5566,
      "final": 5567,
      "companies": 5568,
      "further": 5569,
      "anti": 5570,
      "true": 5571,
      "Pe": 5572,
      "share": 5573,
      "statement": 5574,
      "hours": 5575,
      "decision": 5576,
      "students": 5577,
      "saw": 5578,
      "arter": 5579,
      "issues": 5580,
      "inj": 5581,
      "ford": 5582,
      "urs": 5583,
      "term": 5584,
      "News": 5585,
      "leaders": 5586,
      "meas": 5587,
      "running": 5588,
      "role": 5589,
      "states": 5590,
      "administ": 5591,
      "Sc": 5592,
      "Su": 5593,
      "itted": 5594,
      "seems": 5595,
      "Pho": 5596,
      "White": 5597,
      "personal": 5598,
      "word": 5599,
      "pite": 5600,
      "Fl": 5601,
      "begin": 5602,
      "outside": 5603,
      "chall": 5604,
      "general": 5605,
      "released": 5606,
      "mis": 5607,
      "officials": 5608,
      "scri": 5609,
      "uation": 5610,
      "began": 5611,
      "federal": 5612,
      "ham": 5613,
      "log": 5614,
      "South": 5615,
      "development": 5616,
      "ender": 5617,
      "drug": 5618,
      "forward": 5619,
      "tit": 5620,
      "attle": 5621,
      "above": 5622,
      "track": 5623,
      "div": 5624,
      "Pa": 5625,
      "typ": 5626,
      "mp": 5627,
      "htt": 5628,
      "cit": 5629,
      "pose": 5630,
      "appear": 5631,
      "sess": 5632,
      "Face": 5633,
      "Twit": 5634,
      "ief": 5635,
      "office": 5636,
      "ctions": 5637,
      "els": 5638,
      "Sep": 5639,
      "pie": 5640,
      "white": 5641,
      "common": 5642,
      "himself": 5643,
      "worth": 5644,
      "specific": 5645,
      "release": 5646,
      "interview": 5647,
      "held": 5648,
      "://": 5649,
      "match": 5650,
      "asing": 5651,
      "itself": 5652,
      "playing": 5653,
      "ox": 5654,
      "ively": 5655,
      "mot": 5656,
      "became": 5657,
      "AM": 5658,
      "groups": 5659,
      "78": 5660,
      "medi": 5661,
      "value": 5662,
      "ilt": 5663,
      "function": 5664,
      "launch": 5665,
      "deli": 5666,
      "reme": 5667,
      "continue": 5668,
      "wind": 5669,
      "arr": 5670,
      "ports": 5671,
      "79": 5672,
      "TV": 5673,
      "ife": 5674,
      "relation": 5675,
      "execut": 5676,
      "include": 5677,
      "ming": 5678,
      "lab": 5679,
      "##": 5680,
      "needed": 5681,
      "mag": 5682,
      "provide": 5683,
      "Twitter": 5684,
      "simply": 5685,
      "ae": 5686,
      "amer": 5687,
      "espe": 5688,
      "ently": 5689,
      "link": 5690,
      "ades": 5691,
      "continu": 5692,
      "shot": 5693,
      "mental": 5694,
      "everyone": 5695,
      "significant": 5696,
      "profess": 5697,
      "needs": 5698,
      "election": 5699,
      "especially": 5700,
      "shows": 5701,
      "ify": 5702,
      "audi": 5703,
      "character": 5704,
      "pack": 5705,
      "ands": 5706,
      "jud": 5707,
      "wasn": 5708,
      "themselves": 5709,
      "candid": 5710,
      "necess": 5711,
      "quite": 5712,
      "vote": 5713,
      "address": 5714,
      "finan": 5715,
      "accept": 5716,
      "ctor": 5717,
      "music": 5718,
      "bb": 5719,
      "ivil": 5720,
      "rac": 5721,
      "ogle": 5722,
      "crim": 5723,
      "angu": 5724,
      "Cor": 5725,
      "diffic": 5726,
      "ried": 5727,
      "Am": 5728,
      "approach": 5729,
      "tee": 5730,
      "unity": 5731,
      "energy": 5732,
      "words": 5733,
      "countries": 5734,
      "sense": 5735,
      "har": 5736,
      "favor": 5737,
      "changes": 5738,
      "wing": 5739,
      "sequ": 5740,
      "Ap": 5741,
      "pretty": 5742,
      "tru": 5743,
      "hor": 5744,
      "lock": 5745,
      "code": 5746,
      "More": 5747,
      "expected": 5748,
      "shoot": 5749,
      "forman": 5750,
      "Med": 5751,
      "ends": 5752,
      "billion": 5753,
      "gir": 5754,
      "**": 5755,
      "industry": 5756,
      "Ne": 5757,
      "economic": 5758,
      "Facebook": 5759,
      "ste": 5760,
      "San": 5761,
      "cir": 5762,
      "commit": 5763,
      "Oc": 5764,
      "evidence": 5765,
      "hol": 5766,
      "reco": 5767,
      "____": 5768,
      "terror": 5769,
      "below": 5770,
      "itch": 5771,
      "anim": 5772,
      "jour": 5773,
      "alleg": 5774,
      "Ab": 5775,
      "strate": 5776,
      "Here": 5777,
      "push": 5778,
      "Syri": 5779,
      "Republican": 5780,
      "super": 5781,
      "educ": 5782,
      "soon": 5783,
      "thod": 5784,
      "stay": 5785,
      "lower": 5786,
      "deter": 5787,
      "review": 5788,
      "period": 5789,
      "Pal": 5790,
      "vic": 5791,
      "ption": 5792,
      "iding": 5793,
      "pan": 5794,
      "AL": 5795,
      "ery": 5796,
      "85": 5797,
      "moment": 5798,
      "cil": 5799,
      "nation": 5800,
      "instead": 5801,
      "Cong": 5802,
      "weeks": 5803,
      "believ": 5804,
      "dict": 5805,
      "quality": 5806,
      "club": 5807,
      "Google": 5808,
      "lost": 5809,
      "II": 5810,
      "serious": 5811,
      "pain": 5812,
      "da": 5813,
      "environ": 5814,
      "uel": 5815,
      "recently": 5816,
      "relig": 5817,
      "ples": 5818,
      "moved": 5819,
      "According": 5820,
      "Par": 5821,
      "risk": 5822,
      "potential": 5823,
      "phys": 5824,
      "core": 5825,
      "respect": 5826,
      "duct": 5827,
      "uni": 5828,
      "opport": 5829,
      "Her": 5830,
      "43": 5831,
      "Off": 5832,
      "rup": 5833,
      "ung": 5834,
      "wrong": 5835,
      "Department": 5836,
      "Apr": 5837,
      "treat": 5838,
      "March": 5839,
      "AC": 5840,
      "Gre": 5841,
      "killed": 5842,
      "Congress": 5843,
      "Photo": 5844,
      "AP": 5845,
      "Of": 5846,
      "ners": 5847,
      "compl": 5848,
      "lin": 5849,
      "Austral": 5850,
      "Aug": 5851,
      "bly": 5852,
      "base": 5853,
      "tro": 5854,
      "ij": 5855,
      "performan": 5856,
      "demand": 5857,
      "created": 5858,
      "technology": 5859,
      "actions": 5860,
      "longer": 5861,
      "42": 5862,
      "apan": 5863,
      "oud": 5864,
      "irst": 5865,
      "0147": 5866,
      "David": 5867,
      "2011": 5868,
      "bert": 5869,
      "coach": 5870,
      "Americans": 5871,
      "online": 5872,
      "fast": 5873,
      "spir": 5874,
      "OR": 5875,
      "covered": 5876,
      "refer": 5877,
      "article": 5878,
      "comput": 5879,
      "joy": 5880,
      "gas": 5881,
      "dead": 5882,
      "object": 5883,
      "ba": 5884,
      "rown": 5885,
      "urch": 5886,
      ");": 5887,
      "protest": 5888,
      "minutes": 5889,
      "Red": 5890,
      "ino": 5891,
      "hood": 5892,
      "Qu": 5893,
      "EN": 5894,
      "Japan": 5895,
      "flo": 5896,
      "sold": 5897,
      "Sm": 5898,
      "surpr": 5899,
      "June": 5900,
      "OS": 5901,
      "express": 5902,
      "friends": 5903,
      "sha": 5904,
      "89": 5905,
      "67": 5906,
      "ember": 5907,
      "Hill": 5908,
      "sed": 5909,
      "ken": 5910,
      "ping": 5911,
      "God": 5912,
      "popular": 5913,
      "July": 5914,
      "Ear": 5915,
      "services": 5916,
      "goal": 5917,
      "pict": 5918,
      "sat": 5919,
      "higher": 5920,
      "famil": 5921,
      "fair": 5922,
      "langu": 5923,
      "vari": 5924,
      "Paul": 5925,
      "moder": 5926,
      "Act": 5927,
      "speak": 5928,
      "anyone": 5929,
      "Russia": 5930,
      "Ed": 5931,
      "April": 5932,
      "easy": 5933,
      "total": 5934,
      "target": 5935,
      "ilities": 5936,
      "workers": 5937,
      "Des": 5938,
      "teach": 5939,
      "responsi": 5940,
      "nu": 5941,
      "Even": 5942,
      "emp": 5943,
      "announced": 5944,
      "via": 5945,
      "contract": 5946,
      "ugg": 5947,
      "estab": 5948,
      "source": 5949,
      "Islam": 5950,
      "contribut": 5951,
      "64": 5952,
      "applic": 5953,
      "tou": 5954,
      "First": 5955,
      "involved": 5956,
      "haps": 5957,
      "57": 5958,
      "counter": 5959,
      "na": 5960,
      "Friday": 5961,
      "lex": 5962,
      "ites": 5963,
      "East": 5964,
      "nearly": 5965,
      "heart": 5966,
      "attempt": 5967,
      "ometimes": 5968,
      "Stre": 5969,
      "content": 5970,
      "users": 5971,
      "sort": 5972,
      "page": 5973,
      "difficult": 5974,
      "weap": 5975,
      "Sat": 5976,
      "results": 5977,
      "amount": 5978,
      "scient": 5979,
      "omb": 5980,
      "opt": 5981,
      "prim": 5982,
      "59": 5983,
      "account": 5984,
      "problems": 5985,
      "spect": 5986,
      "increase": 5987,
      "sil": 5988,
      "private": 5989,
      "cannot": 5990,
      "relationship": 5991,
      "fem": 5992,
      "impact": 5993,
      "reve": 5994,
      "aging": 5995,
      "exact": 5996,
      "comment": 5997,
      "Get": 5998,
      "Lo": 5999,
      "earlier": 6000,
      "screen": 6001,
      "Mi": 6002,
      "leave": 6003,
      "average": 6004,
      "Monday": 6005,
      "global": 6006,
      "turned": 6007,
      "ows": 6008,
      "British": 6009,
      "Tues": 6010,
      "Em": 6011,
      "fill": 6012,
      "print": 6013,
      "2010": 6014,
      "alter": 6015,
      "Spe": 6016,
      "response": 6017,
      "text": 6018,
      "fans": 6019,
      "simple": 6020,
      "worked": 6021,
      "original": 6022,
      "Tuesday": 6023,
      "Geor": 6024,
      "\u0000\u0000\u0000\u0000\u0000\u0000\u0000\u0000\u0000\u0000\u0000\u0000": 6025,
      "built": 6026,
      "international": 6027,
      "received": 6028,
      "broad": 6029,
      "69": 6030,
      "Donald": 6031,
      "published": 6032,
      "ze": 6033,
      "41": 6034,
      "rew": 6035,
      "cli": 6036,
      "questions": 6037,
      "Wed": 6038,
      "vict": 6039,
      "Post": 6040,
      "Then": 6041,
      "mater": 6042,
      "IT": 6043,
      "Mark": 6044,
      "Phil": 6045,
      "IC": 6046,
      "takes": 6047,
      "heav": 6048,
      "Char": 6049,
      "firm": 6050,
      "answer": 6051,
      "Jew": 6052,
      "member": 6053,
      "staff": 6054,
      "dig": 6055,
      "arri": 6056,
      "ED": 6057,
      "gave": 6058,
      "living": 6059,
      "emer": 6060,
      "Muslim": 6061,
      "terms": 6062,
      "collect": 6063,
      "deep": 6064,
      "lines": 6065,
      "director": 6066,
      "sw": 6067,
      "dol": 6068,
      "bility": 6069,
      "associ": 6070,
      "hope": 6071,
      "request": 6072,
      "itten": 6073,
      "civil": 6074,
      "rock": 6075,
      "inside": 6076,
      "seven": 6077,
      "rain": 6078,
      "ote": 6079,
      "chance": 6080,
      "financial": 6081,
      "Let": 6082,
      "star": 6083,
      "58": 6084,
      "Ag": 6085,
      "lack": 6086,
      "ival": 6087,
      "ott": 6088,
      "intro": 6089,
      "plans": 6090,
      "68": 6091,
      "price": 6092,
      "Kore": 6093,
      "Te": 6094,
      "pet": 6095,
      "decided": 6096,
      "cases": 6097,
      "performance": 6098,
      "lying": 6099,
      "capital": 6100,
      "Cr": 6101,
      "goes": 6102,
      "indic": 6103,
      "buy": 6104,
      "regard": 6105,
      "race": 6106,
      "vertis": 6107,
      "sem": 6108,
      "verse": 6109,
      "igence": 6110,
      "izing": 6111,
      "immedi": 6112,
      "foreign": 6113,
      "onto": 6114,
      "arrest": 6115,
      "squ": 6116,
      "van": 6117,
      "stant": 6118,
      "reports": 6119,
      "production": 6120,
      "tember": 6121,
      "Pet": 6122,
      "Nove": 6123,
      "tele": 6124,
      "aving": 6125,
      "Our": 6126,
      "felt": 6127,
      "September": 6128,
      "Cour": 6129,
      "Thurs": 6130,
      "hot": 6131,
      "speed": 6132,
      "teams": 6133,
      "oil": 6134,
      "nia": 6135,
      "particip": 6136,
      "situation": 6137,
      "cd": 6138,
      "tor": 6139,
      "style": 6140,
      "November": 6141,
      "AD": 6142,
      "----": 6143,
      "perform": 6144,
      "west": 6145,
      "whose": 6146,
      "clus": 6147,
      "wood": 6148,
      "tle": 6149,
      "\".": 6150,
      "lives": 6151,
      "Up": 6152,
      "engine": 6153,
      "January": 6154,
      "bon": 6155,
      "isl": 6156,
      "require": 6157,
      "Thursday": 6158,
      "happened": 6159,
      "forces": 6160,
      "Well": 6161,
      "ffer": 6162,
      "store": 6163,
      "ift": 6164,
      "spent": 6165,
      "tre": 6166,
      "Wednes": 6167,
      "thern": 6168,
      "method": 6169,
      "economy": 6170,
      "Cali": 6171,
      "tober": 6172,
      "07": 6173,
      "influ": 6174,
      "Hol": 6175,
      "subject": 6176,
      "UK": 6177,
      "August": 6178,
      "father": 6179,
      "allowed": 6180,
      "Wednesday": 6181,
      "avo": 6182,
      "connect": 6183,
      "fell": 6184,
      "bud": 6185,
      "Russian": 6186,
      "Sch": 6187,
      "October": 6188,
      "email": 6189,
      "events": 6190,
      "cup": 6191,
      "European": 6192,
      "Sunday": 6193,
      "recogn": 6194,
      "heard": 6195,
      "image": 6196,
      "administration": 6197,
      "career": 6198,
      "meeting": 6199,
      "OP": 6200,
      "size": 6201,
      "mention": 6202,
      "atives": 6203,
      "Why": 6204,
      "Califor": 6205,
      "material": 6206,
      "currently": 6207,
      "aily": 6208,
      "tool": 6209,
      "related": 6210,
      "repe": 6211,
      "corpor": 6212,
      "safe": 6213,
      "trade": 6214,
      "weet": 6215,
      "quickly": 6216,
      "letter": 6217,
      "huge": 6218,
      "loss": 6219,
      "ID": 6220,
      "training": 6221,
      "inv": 6222,
      "istic": 6223,
      "Canada": 6224,
      "Dis": 6225,
      "victim": 6226,
      "Tur": 6227,
      "thous": 6228,
      "improve": 6229,
      "bel": 6230,
      "Gener": 6231,
      "grad": 6232,
      "Park": 6233,
      "couple": 6234,
      "separ": 6235,
      "mother": 6236,
      "”.": 6237,
      "included": 6238,
      "Sup": 6239,
      "Star": 6240,
      "wants": 6241,
      "secret": 6242,
      "feature": 6243,
      "prison": 6244,
      "plement": 6245,
      "aled": 6246,
      "areas": 6247,
      "struction": 6248,
      "knew": 6249,
      "El": 6250,
      "ops": 6251,
      "morning": 6252,
      "ises": 6253,
      "lied": 6254,
      "Every": 6255,
      "Ira": 6256,
      "Iran": 6257,
      "From": 6258,
      "Pat": 6259,
      "California": 6260,
      "affect": 6261,
      "ases": 6262,
      "user": 6263,
      "conduct": 6264,
      "rect": 6265,
      "?”": 6266,
      "perfect": 6267,
      "73": 6268,
      "Afr": 6269,
      "introdu": 6270,
      "named": 6271,
      "ica": 6272,
      "liam": 6273,
      "63": 6274,
      "hael": 6275,
      "written": 6276,
      "Iraq": 6277,
      "document": 6278,
      "04": 6279,
      "rules": 6280,
      "atory": 6281,
      "Black": 6282,
      "dy": 6283,
      "\",": 6284,
      "erson": 6285,
      "song": 6286,
      "card": 6287,
      "travel": 6288,
      "wo": 6289,
      "sens": 6290,
      "coin": 6291,
      "website": 6292,
      "dd": 6293,
      "Ang": 6294,
      "Senate": 6295,
      "lay": 6296,
      "numbers": 6297,
      "focus": 6298,
      "exc": 6299,
      "Street": 6300,
      "attention": 6301,
      "rid": 6302,
      "weight": 6303,
      "stead": 6304,
      "tried": 6305,
      "stor": 6306,
      "enjoy": 6307,
      "Cap": 6308,
      "network": 6309,
      "53": 6310,
      "agre": 6311,
      "paid": 6312,
      "regular": 6313,
      "500": 6314,
      "suit": 6315,
      "looks": 6316,
      "population": 6317,
      "visit": 6318,
      "prevent": 6319,
      "systems": 6320,
      "moving": 6321,
      "contact": 6322,
      "bol": 6323,
      "2008": 6324,
      "Police": 6325,
      "defense": 6326,
      "54": 6327,
      "ST": 6328,
      "language": 6329,
      "table": 6330,
      "FC": 6331,
      "craft": 6332,
      "02": 6333,
      "hi": 6334,
      "dollar": 6335,
      "zon": 6336,
      "iment": 6337,
      "labor": 6338,
      "cul": 6339,
      "neigh": 6340,
      "citiz": 6341,
      "natural": 6342,
      "beha": 6343,
      "ny": 6344,
      "tour": 6345,
      "olution": 6346,
      "brought": 6347,
      "giving": 6348,
      "Tex": 6349,
      "dependent": 6350,
      "mob": 6351,
      "ering": 6352,
      "ky": 6353,
      "communic": 6354,
      "FL": 6355,
      "science": 6356,
      "anch": 6357,
      "active": 6358,
      "leading": 6359,
      "74": 6360,
      "Cent": 6361,
      "intell": 6362,
      "Court": 6363,
      "Most": 6364,
      "park": 6365,
      "72": 6366,
      "violence": 6367,
      "reading": 6368,
      "occur": 6369,
      "changed": 6370,
      "Times": 6371,
      "ring": 6372,
      "leader": 6373,
      "Ma": 6374,
      "parts": 6375,
      "Dece": 6376,
      "undred": 6377,
      "Lon": 6378,
      "2009": 6379,
      "fan": 6380,
      "][": 6381,
      "gs": 6382,
      "52": 6383,
      "surve": 6384,
      "various": 6385,
      "Michael": 6386,
      "December": 6387,
      "Read": 6388,
      "upon": 6389,
      "zz": 6390,
      "cc": 6391,
      "Bro": 6392,
      "quarter": 6393,
      "ties": 6394,
      "medical": 6395,
      "ordin": 6396,
      "ological": 6397,
      "Air": 6398,
      "India": 6399,
      "ously": 6400,
      "aves": 6401,
      "regul": 6402,
      "calls": 6403,
      "sites": 6404,
      "County": 6405,
      "Fin": 6406,
      "center": 6407,
      "strugg": 6408,
      "considered": 6409,
      "ux": 6410,
      "bul": 6411,
      "extreme": 6412,
      "growth": 6413,
      "talking": 6414,
      "sexual": 6415,
      "file": 6416,
      "movement": 6417,
      "range": 6418,
      "stra": 6419,
      "message": 6420,
      "demon": 6421,
      "Center": 6422,
      "slow": 6423,
      "progress": 6424,
      "Sand": 6425,
      "rit": 6426,
      "fix": 6427,
      "learn": 6428,
      "hands": 6429,
      "remember": 6430,
      "stream": 6431,
      "yond": 6432,
      "ceed": 6433,
      "latest": 6434,
      "parents": 6435,
      "speech": 6436,
      "critic": 6437,
      "Oh": 6438,
      "movie": 6439,
      "fit": 6440,
      "histor": 6441,
      "ledge": 6442,
      "pul": 6443,
      "sn": 6444,
      "incident": 6445,
      "fo": 6446,
      "istan": 6447,
      "particularly": 6448,
      "tur": 6449,
      "Lab": 6450,
      "carry": 6451,
      "ays": 6452,
      "roy": 6453,
      "98": 6454,
      "stuff": 6455,
      "paper": 6456,
      "ses": 6457,
      "wise": 6458,
      "legisl": 6459,
      "behavi": 6460,
      "boy": 6461,
      "King": 6462,
      "51": 6463,
      "Ben": 6464,
      "Satur": 6465,
      "mach": 6466,
      "forms": 6467,
      "plat": 6468,
      "looked": 6469,
      "placed": 6470,
      "liber": 6471,
      "Chin": 6472,
      "pped": 6473,
      "completely": 6474,
      "consist": 6475,
      "spokes": 6476,
      "mist": 6477,
      "multip": 6478,
      "products": 6479,
      "path": 6480,
      "install": 6481,
      "Rom": 6482,
      "obvious": 6483,
      "books": 6484,
      "UN": 6485,
      "Po": 6486,
      "imag": 6487,
      "arily": 6488,
      "wall": 6489,
      "eight": 6490,
      "Party": 6491,
      "suffer": 6492,
      "door": 6493,
      "Since": 6494,
      "majority": 6495,
      "journal": 6496,
      "cross": 6497,
      "although": 6498,
      "guy": 6499,
      "SE": 6500,
      "nuclear": 6501,
      "stage": 6502,
      "sometimes": 6503,
      "immig": 6504,
      "map": 6505,
      "investigation": 6506,
      "attacks": 6507,
      "hear": 6508,
      "write": 6509,
      "entially": 6510,
      "veh": 6511,
      "conserv": 6512,
      "Mor": 6513,
      "chief": 6514,
      "danger": 6515,
      "prior": 6516,
      "depart": 6517,
      "writing": 6518,
      "climate": 6519,
      "Republicans": 6520,
      "piece": 6521,
      "exactly": 6522,
      "Bill": 6523,
      "Saturday": 6524,
      "except": 6525,
      "growing": 6526,
      "resour": 6527,
      "ec": 6528,
      "ires": 6529,
      "ille": 6530,
      "increasing": 6531,
      "features": 6532,
      "secut": 6533,
      "despite": 6534,
      "Play": 6535,
      "Tor": 6536,
      "tware": 6537,
      "necessary": 6538,
      "London": 6539,
      "ico": 6540,
      "Many": 6541,
      "mak": 6542,
      "kept": 6543,
      "62": 6544,
      "People": 6545,
      "cry": 6546,
      "modern": 6547,
      "usually": 6548,
      "addition": 6549,
      "ees": 6550,
      "hous": 6551,
      "198": 6552,
      "Advertis": 6553,
      "inde": 6554,
      "interesting": 6555,
      "Super": 6556,
      "bir": 6557,
      "hundred": 6558,
      "saf": 6559,
      "middle": 6560,
      "mill": 6561,
      "anned": 6562,
      "Sw": 6563,
      "crow": 6564,
      "extra": 6565,
      "bes": 6566,
      "claims": 6567,
      "costs": 6568,
      "century": 6569,
      "note": 6570,
      "rict": 6571,
      "described": 6572,
      "http": 6573,
      "BI": 6574,
      "Bel": 6575,
      "biggest": 6576,
      "inci": 6577,
      "spot": 6578,
      "effort": 6579,
      "anks": 6580,
      "Ber": 6581,
      "rap": 6582,
      "Democratic": 6583,
      "deliver": 6584,
      "cru": 6585,
      "society": 6586,
      "assist": 6587,
      "opportunity": 6588,
      "Over": 6589,
      "jobs": 6590,
      "required": 6591,
      "wonder": 6592,
      "CE": 6593,
      "zer": 6594,
      "officers": 6595,
      "OT": 6596,
      "nom": 6597,
      "Chinese": 6598,
      "iet": 6599,
      "Like": 6600,
      "71": 6601,
      "Val": 6602,
      "mur": 6603,
      "continued": 6604,
      "Net": 6605,
      "lap": 6606,
      "icles": 6607,
      "starting": 6608,
      "enced": 6609,
      "alone": 6610,
      "reedom": 6611,
      "levels": 6612,
      "Bre": 6613,
      "Apple": 6614,
      "poor": 6615,
      "ening": 6616,
      "analys": 6617,
      "IA": 6618,
      "wel": 6619,
      "emy": 6620,
      "reng": 6621,
      "Mart": 6622,
      "ension": 6623,
      "reli": 6624,
      "finally": 6625,
      "rout": 6626,
      "aur": 6627,
      "born": 6628,
      "ients": 6629,
      "native": 6630,
      "rench": 6631,
      "Che": 6632,
      "smo": 6633,
      "ishing": 6634,
      "served": 6635,
      "details": 6636,
      "summer": 6637,
      "James": 6638,
      "pair": 6639,
      "uk": 6640,
      "ta": 6641,
      "tin": 6642,
      "ries": 6643,
      "hur": 6644,
      "ened": 6645,
      "culture": 6646,
      "figure": 6647,
      "draw": 6648,
      "umb": 6649,
      "61": 6650,
      "spr": 6651,
      "certainly": 6652,
      "stitution": 6653,
      "safety": 6654,
      "mine": 6655,
      "cris": 6656,
      "provided": 6657,
      "limited": 6658,
      "bc": 6659,
      "guys": 6660,
      "education": 6661,
      "surv": 6662,
      "perhaps": 6663,
      "passed": 6664,
      "comments": 6665,
      "remain": 6666,
      "xim": 6667,
      "happy": 6668,
      "arent": 6669,
      "MP": 6670,
      "bd": 6671,
      "correct": 6672,
      "Febr": 6673,
      "Dan": 6674,
      "voters": 6675,
      "central": 6676,
      "rich": 6677,
      "February": 6678,
      "Last": 6679,
      "thinking": 6680,
      "sych": 6681,
      "choice": 6682,
      "practice": 6683,
      "option": 6684,
      "damage": 6685,
      "select": 6686,
      "neg": 6687,
      "0150": 6688,
      "utions": 6689,
      "Green": 6690,
      "Ham": 6691,
      "aries": 6692,
      "forced": 6693,
      "forts": 6694,
      "Texas": 6695,
      "camer": 6696,
      "Def": 6697,
      "football": 6698,
      "smart": 6699,
      "spital": 6700,
      "Str": 6701,
      "95": 6702,
      "ahead": 6703,
      "gone": 6704,
      "showed": 6705,
      "complex": 6706,
      "item": 6707,
      "wouldn": 6708,
      "appoint": 6709,
      "ights": 6710,
      "bf": 6711,
      "sle": 6712,
      "Au": 6713,
      "Ke": 6714,
      "region": 6715,
      "wife": 6716,
      "cele": 6717,
      "bum": 6718,
      "vention": 6719,
      "capt": 6720,
      "ican": 6721,
      "join": 6722,
      "implement": 6723,
      "ampion": 6724,
      "Because": 6725,
      "pressure": 6726,
      "Rich": 6727,
      "03": 6728,
      "vice": 6729,
      "laws": 6730,
      "consum": 6731,
      "mat": 6732,
      "maintain": 6733,
      "designed": 6734,
      "remains": 6735,
      "Sim": 6736,
      "meaning": 6737,
      "berg": 6738,
      "inte": 6739,
      "ert": 6740,
      "mic": 6741,
      "Indian": 6742,
      "soft": 6743,
      "appeared": 6744,
      "girl": 6745,
      "standard": 6746,
      "League": 6747,
      "stories": 6748,
      "purch": 6749,
      "thus": 6750,
      "Bu": 6751,
      "sec": 6752,
      "section": 6753,
      "aa": 6754,
      "hair": 6755,
      "multiple": 6756,
      "standing": 6757,
      "distribut": 6758,
      "iel": 6759,
      "student": 6760,
      "couldn": 6761,
      "blood": 6762,
      "ification": 6763,
      "Democrats": 6764,
      "increased": 6765,
      "clean": 6766,
      "bri": 6767,
      "lie": 6768,
      "(@": 6769,
      "Jack": 6770,
      "LE": 6771,
      "reality": 6772,
      "scene": 6773,
      "George": 6774,
      "income": 6775,
      "efforts": 6776,
      "streng": 6777,
      "throw": 6778,
      "agon": 6779,
      "debate": 6780,
      "ode": 6781,
      "challeng": 6782,
      "touch": 6783,
      "Gover": 6784,
      "toward": 6785,
      "Mid": 6786,
      "enge": 6787,
      "beyond": 6788,
      "task": 6789,
      "respond": 6790,
      "claimed": 6791,
      "gar": 6792,
      "towards": 6793,
      "agency": 6794,
      "PS": 6795,
      "ield": 6796,
      "kids": 6797,
      "cture": 6798,
      "maybe": 6799,
      "died": 6800,
      "sets": 6801,
      "recomm": 6802,
      "bing": 6803,
      "directly": 6804,
      "intelligence": 6805,
      "Minister": 6806,
      "ables": 6807,
      "rates": 6808,
      "agree": 6809,
      "receive": 6810,
      "Day": 6811,
      "drive": 6812,
      "celebr": 6813,
      "b9": 6814,
      "peace": 6815,
      "budget": 6816,
      "iles": 6817,
      "Mer": 6818,
      "appears": 6819,
      "religious": 6820,
      "suspect": 6821,
      "effects": 6822,
      "b8": 6823,
      "Associ": 6824,
      "Tod": 6825,
      "syn": 6826,
      "lic": 6827,
      "throughout": 6828,
      "Tom": 6829,
      "English": 6830,
      "league": 6831,
      "ida": 6832,
      "bound": 6833,
      "anc": 6834,
      "resh": 6835,
      "aint": 6836,
      "thousands": 6837,
      "Although": 6838,
      "opin": 6839,
      "organization": 6840,
      "mitted": 6841,
      "includes": 6842,
      "crime": 6843,
      "conditions": 6844,
      "iers": 6845,
      "liter": 6846,
      "df": 6847,
      "nature": 6848,
      "Lu": 6849,
      "setting": 6850,
      "Ho": 6851,
      "asy": 6852,
      "aughter": 6853,
      "pic": 6854,
      "Mac": 6855,
      "cise": 6856,
      "positive": 6857,
      "computer": 6858,
      "property": 6859,
      "additional": 6860,
      "physical": 6861,
      "za": 6862,
      "plant": 6863,
      "venue": 6864,
      "epis": 6865,
      "ission": 6866,
      "Image": 6867,
      "advant": 6868,
      "software": 6869,
      "immediately": 6870,
      "candidate": 6871,
      "ado": 6872,
      "iver": 6873,
      "strict": 6874,
      "Syria": 6875,
      "sched": 6876,
      "zing": 6877,
      "ston": 6878,
      "iff": 6879,
      "largest": 6880,
      "battle": 6881,
      "atever": 6882,
      "relative": 6883,
      "unk": 6884,
      "Sci": 6885,
      "Mag": 6886,
      "beginning": 6887,
      "www": 6888,
      "normal": 6889,
      "prep": 6890,
      "charge": 6891,
      "gender": 6892,
      "flow": 6893,
      "cf": 6894,
      "Arab": 6895,
      "hab": 6896,
      "allows": 6897,
      "Smith": 6898,
      "confl": 6899,
      "idge": 6900,
      "feed": 6901,
      "powerful": 6902,
      "PC": 6903,
      "device": 6904,
      "Other": 6905,
      "lease": 6906,
      "gold": 6907,
      "weapons": 6908,
      "title": 6909,
      "Wind": 6910,
      "difference": 6911,
      "blog": 6912,
      "myself": 6913,
      "Reg": 6914,
      "encour": 6915,
      "International": 6916,
      "General": 6917,
      "Advertisement": 6918,
      "ov": 6919,
      "era": 6920,
      "impress": 6921,
      "oring": 6922,
      "estim": 6923,
      "failed": 6924,
      "college": 6925,
      "cool": 6926,
      "controll": 6927,
      "Ry": 6928,
      "credit": 6929,
      "spending": 6930,
      "favorite": 6931,
      "Australia": 6932,
      "detail": 6933,
      "Vir": 6934,
      "schools": 6935,
      "prem": 6936,
      "environment": 6937,
      "confir": 6938,
      "sou": 6939,
      "ope": 6940,
      "High": 6941,
      "org": 6942,
      "skill": 6943,
      "During": 6944,
      "upd": 6945,
      "reasons": 6946,
      "German": 6947,
      "ware": 6948,
      "avoid": 6949,
      "trust": 6950,
      "poll": 6951,
      "French": 6952,
      "officer": 6953,
      "easily": 6954,
      "antic": 6955,
      "princi": 6956,
      "compared": 6957,
      "analy": 6958,
      "thers": 6959,
      "inated": 6960,
      "helped": 6961,
      "operation": 6962,
      "comfort": 6963,
      "Jer": 6964,
      "analysis": 6965,
      "copy": 6966,
      "shop": 6967,
      "Mal": 6968,
      "conference": 6969,
      "hest": 6970,
      "nice": 6971,
      "mix": 6972,
      "scr": 6973,
      "ander": 6974,
      "chair": 6975,
      "Yes": 6976,
      "Law": 6977,
      "bab": 6978,
      "propos": 6979,
      "solute": 6980,
      "omen": 6981,
      "========": 6982,
      "Two": 6983,
      "sea": 6984,
      "signed": 6985,
      "frequ": 6986,
      "CH": 6987,
      "eventually": 6988,
      "Art": 6989,
      "presidential": 6990,
      "Your": 6991,
      "stock": 6992,
      "fol": 6993,
      "executive": 6994,
      "willing": 6995,
      "Ter": 6996,
      "aming": 6997,
      "senior": 6998,
      "eyes": 6999,
      "successful": 7000,
      "Palest": 7001,
      "EU": 7002,
      "beaut": 7003,
      "send": 7004,
      "tic": 7005,
      "places": 7006,
      "meant": 7007,
      "crisis": 7008,
      "gives": 7009,
      "fear": 7010,
      "assa": 7011,
      "alleged": 7012,
      "Angel": 7013,
      "encies": 7014,
      "brain": 7015,
      "Ano": 7016,
      "rise": 7017,
      "uana": 7018,
      "anced": 7019,
      "beat": 7020,
      "earch": 7021,
      "astic": 7022,
      "rule": 7023,
      "yourself": 7024,
      "minim": 7025,
      "truth": 7026,
      "instit": 7027,
      "ultim": 7028,
      "lif": 7029,
      "shown": 7030,
      "bomb": 7031,
      "chan": 7032,
      "lose": 7033,
      "Also": 7034,
      "Follow": 7035,
      "School": 7036,
      "c8": 7037,
      "Union": 7038,
      "Alex": 7039,
      "followed": 7040,
      "PM": 7041,
      "hon": 7042,
      "teen": 7043,
      "Stud": 7044,
      "programs": 7045,
      "Secret": 7046,
      "aware": 7047,
      "Sal": 7048,
      "Rob": 7049,
      "save": 7050,
      "Another": 7051,
      "icks": 7052,
      "Rev": 7053,
      "straight": 7054,
      "sales": 7055,
      "integr": 7056,
      "hero": 7057,
      "curren": 7058,
      "Council": 7059,
      "benefits": 7060,
      "Trans": 7061,
      "ijuana": 7062,
      "developed": 7063,
      "ufact": 7064,
      "ideas": 7065,
      "owners": 7066,
      "families": 7067,
      "aly": 7068,
      "ari": 7069,
      "overall": 7070,
      "predict": 7071,
      "characters": 7072,
      "promot": 7073,
      "station": 7074,
      "decades": 7075,
      "\u0000\u0000\u0000\u0000\u0000\u0000": 7076,
      "names": 7077,
      "Christian": 7078,
      "criminal": 7079,
      "Mex": 7080,
      "drink": 7081,
      "convers": 7082,
      "Any": 7083,
      "GB": 7084,
      "\u0000\u0000\u0000\u0000\u0000\u0000\u0000": 7085,
      "apparent": 7086,
      "counts": 7087,
      "c9": 7088,
      "border": 7089,
      "insur": 7090,
      "2007": 7091,
      "green": 7092,
      "dark": 7093,
      "stitute": 7094,
      "highly": 7095,
      "status": 7096,
      "BA": 7097,
      "jump": 7098,
      "riage": 7099,
      "Hillary": 7100,
      "plays": 7101,
      "CO": 7102,
      "politics": 7103,
      "scale": 7104,
      "ateg": 7105,
      "fighting": 7106,
      "acqu": 7107,
      "expand": 7108,
      "sam": 7109,
      "spend": 7110,
      "adding": 7111,
      "cities": 7112,
      "brand": 7113,
      "\u0000\u0000\u0000\u0000\u0000": 7114,
      "winning": 7115,
      "Cur": 7116,
      "Germany": 7117,
      "calling": 7118,
      "session": 7119,
      "Thom": 7120,
      "itely": 7121,
      "customers": 7122,
      "Gold": 7123,
      "bour": 7124,
      "DE": 7125,
      "projects": 7126,
      "Who": 7127,
      "inno": 7128,
      "iced": 7129,
      "democr": 7130,
      "seemed": 7131,
      "eye": 7132,
      "murder": 7133,
      "stic": 7134,
      "commer": 7135,
      "noted": 7136,
      "fortun": 7137,
      "female": 7138,
      "Flor": 7139,
      "”,": 7140,
      "lection": 7141,
      "mun": 7142,
      "autom": 7143,
      "roid": 7144,
      "La": 7145,
      "minor": 7146,
      "Wall": 7147,
      "die": 7148,
      "aste": 7149,
      "manager": 7150,
      "PA": 7151,
      "resources": 7152,
      "Bit": 7153,
      "wait": 7154,
      "ieve": 7155,
      "measure": 7156,
      "seeing": 7157,
      "treatment": 7158,
      "Internet": 7159,
      "edge": 7160,
      "witch": 7161,
      "determin": 7162,
      "aling": 7163,
      "Press": 7164,
      "psych": 7165,
      "previously": 7166,
      "feet": 7167,
      "clearly": 7168,
      "rank": 7169,
      "ota": 7170,
      "contr": 7171,
      "eff": 7172,
      "organiz": 7173,
      "unique": 7174,
      "revol": 7175,
      "sources": 7176,
      "Ken": 7177,
      "THE": 7178,
      "origin": 7179,
      "suppor": 7180,
      "doub": 7181,
      "Are": 7182,
      "shooting": 7183,
      "color": 7184,
      "Bay": 7185,
      "iew": 7186,
      "knowledge": 7187,
      "sco": 7188,
      "knows": 7189,
      "funding": 7190,
      ".’": 7191,
      "authorities": 7192,
      "activity": 7193,
      "stood": 7194,
      "concept": 7195,
      "voice": 7196,
      "rare": 7197,
      "challenge": 7198,
      "individuals": 7199,
      "pool": 7200,
      "Sha": 7201,
      "a9": 7202,
      "cum": 7203,
      "vs": 7204,
      "album": 7205,
      "Earth": 7206,
      "arian": 7207,
      "ored": 7208,
      "happens": 7209,
      "Scott": 7210,
      "agreement": 7211,
      "isions": 7212,
      "larger": 7213,
      "enty": 7214,
      "birth": 7215,
      "mobile": 7216,
      "frame": 7217,
      "reached": 7218,
      "?\"": 7219,
      "traditional": 7220,
      "England": 7221,
      "options": 7222,
      "phen": 7223,
      "Health": 7224,
      "scen": 7225,
      "Sam": 7226,
      "researchers": 7227,
      "shut": 7228,
      "greater": 7229,
      "virt": 7230,
      "infr": 7231,
      "a8": 7232,
      "creating": 7233,
      "responsible": 7234,
      "ville": 7235,
      "effic": 7236,
      "Chic": 7237,
      "tick": 7238,
      "ault": 7239,
      "ram": 7240,
      "eth": 7241,
      ".\u0000\u0000\u0000\u0000\u0000\u0000\u0000\u0000\u0000\u0000\u0000\u0000\u0000\u0000\u0000\u0000\u0000\u0000\u0000\u0000\u0000\u0000\u0000\u0000\u0000\u0000\u0000\u0000\u0000\u0000\u0000\u0000\u0000\u0000\u0000\u0000\u0000\u0000\u0000\u0000\u0000\u0000\u0000\u0000\u0000\u0000\u0000\u0000\u0000\u0000\u0000\u0000\u0000\u0000\u0000\u0000\u0000\u0000\u0000\u0000\u0000\u0000\u0000\u0000\u0000\u0000\u0000\u0000\u0000\u0000\u0000\u0000\u0000\u0000\u0000\u0000\u0000\u0000\u0000\u0000\u0000\u0000\u0000\u0000\u0000\u0000\u0000\u0000\u0000\u0000\u0000\u0000\u0000\u0000\u0000\u0000\u0000\u0000\u0000\u0000\u0000\u0000\u0000\u0000\u0000\u0000\u0000\u0000\u0000\u0000\u0000\u0000\u0000\u0000\u0000\u0000\u0000\u0000\u0000\u0000\u0000\u0000\u0000\u0000\u0000\u0000\u0000\u0000": 7242,
      "establish": 7243,
      "absolute": 7244,
      "grand": 7245,
      "Met": 7246,
      "basic": 7247,
      "PR": 7248,
      "usion": 7249,
      "SA": 7250,
      "produce": 7251,
      "fee": 7252,
      "Israeli": 7253,
      "d8": 7254,
      "goals": 7255,
      "d9": 7256,
      "emot": 7257,
      "manufact": 7258,
      "ease": 7259,
      "prices": 7260,
      "Mad": 7261,
      "Mike": 7262,
      "Bush": 7263,
      "Korea": 7264,
      "closed": 7265,
      "apped": 7266,
      "Those": 7267,
      "serve": 7268,
      "appropri": 7269,
      "server": 7270,
      "300": 7271,
      "haven": 7272,
      "):": 7273,
      "caused": 7274,
      "Ty": 7275,
      "critical": 7276,
      "Sub": 7277,
      "notes": 7278,
      "clud": 7279,
      "oph": 7280,
      "trou": 7281,
      "Chicago": 7282,
      "iving": 7283,
      "rant": 7284,
      "Cal": 7285,
      "Florida": 7286,
      "Once": 7287,
      "freedom": 7288,
      "sor": 7289,
      "ube": 7290,
      "bs": 7291,
      "fine": 7292,
      "attract": 7293,
      "asc": 7294,
      "concerns": 7295,
      "studies": 7296,
      "operations": 7297,
      "reflect": 7298,
      "Gl": 7299,
      "repor": 7300,
      "asking": 7301,
      "brief": 7302,
      "arms": 7303,
      "CN": 7304,
      "marijuana": 7305,
      "continues": 7306,
      "orders": 7307,
      "Western": 7308,
      "lands": 7309,
      "cat": 7310,
      "gi": 7311,
      "MO": 7312,
      "iful": 7313,
      "wealth": 7314,
      "values": 7315,
      "fant": 7316,
      "mostly": 7317,
      "sad": 7318,
      "France": 7319,
      "ensure": 7320,
      "moun": 7321,
      "goti": 7322,
      "benefit": 7323,
      "dire": 7324,
      "produced": 7325,
      "primary": 7326,
      "leaving": 7327,
      "supposed": 7328,
      "Lin": 7329,
      "Instead": 7330,
      "ivity": 7331,
      "actual": 7332,
      "drop": 7333,
      "ET": 7334,
      "weekend": 7335,
      "ength": 7336,
      "location": 7337,
      "massive": 7338,
      "confirmed": 7339,
      "0146": 7340,
      "employees": 7341,
      ".'": 7342,
      "NFL": 7343,
      "SS": 7344,
      "Commit": 7345,
      "Today": 7346,
      "Los": 7347,
      "Del": 7348,
      "tend": 7349,
      "chain": 7350,
      "posted": 7351,
      "erve": 7352,
      "ING": 7353,
      "ML": 7354,
      "kid": 7355,
      "mechan": 7356,
      "Security": 7357,
      "whatever": 7358,
      "runs": 7359,
      "assu": 7360,
      "sey": 7361,
      "feeling": 7362,
      "policies": 7363,
      "Big": 7364,
      "citizens": 7365,
      "ream": 7366,
      "images": 7367,
      "ager": 7368,
      "agreed": 7369,
      "parties": 7370,
      "charges": 7371,
      "Office": 7372,
      "raised": 7373,
      "Mil": 7374,
      "oppon": 7375,
      "Add": 7376,
      "Work": 7377,
      "opening": 7378,
      "f9": 7379,
      "types": 7380,
      "catch": 7381,
      "sun": 7382,
      "Under": 7383,
      "demonstr": 7384,
      "street": 7385,
      "Mill": 7386,
      "mod": 7387,
      "guard": 7388,
      "ape": 7389,
      "hospital": 7390,
      "san": 7391,
      "Det": 7392,
      "Liber": 7393,
      "weak": 7394,
      "kick": 7395,
      "iled": 7396,
      "plus": 7397,
      "Sil": 7398,
      "minister": 7399,
      "management": 7400,
      "blue": 7401,
      "Rel": 7402,
      "believed": 7403,
      "dollars": 7404,
      "offered": 7405,
      "inner": 7406,
      "negoti": 7407,
      "Tech": 7408,
      "ality": 7409,
      "rating": 7410,
      "Bur": 7411,
      "Palestin": 7412,
      "See": 7413,
      "gers": 7414,
      "limit": 7415,
      "ads": 7416,
      "advantage": 7417,
      "Gar": 7418,
      "odes": 7419,
      "strategy": 7420,
      "television": 7421,
      "Sto": 7422,
      "________": 7423,
      "whom": 7424,
      "equip": 7425,
      "gay": 7426,
      "patter": 7427,
      "behavior": 7428,
      "picture": 7429,
      "effective": 7430,
      "Port": 7431,
      "independent": 7432,
      "Pre": 7433,
      "Islamic": 7434,
      "ighest": 7435,
      "fal": 7436,
      "advis": 7437,
      "heavy": 7438,
      "fat": 7439,
      "solution": 7440,
      "choose": 7441,
      "church": 7442,
      "electric": 7443,
      "east": 7444,
      "etc": 7445,
      "dog": 7446,
      "views": 7447,
      "lets": 7448,
      "dem": 7449,
      "exer": 7450,
      "platform": 7451,
      "bow": 7452,
      "enforce": 7453,
      "rif": 7454,
      "ato": 7455,
      "IP": 7456,
      "shock": 7457,
      "neighbor": 7458,
      "gather": 7459,
      "MS": 7460,
      "memory": 7461,
      "ami": 7462,
      "coal": 7463,
      "Please": 7464,
      "existing": 7465,
      "err": 7466,
      "Chris": 7467,
      "revealed": 7468,
      "Wal": 7469,
      "daily": 7470,
      "f8": 7471,
      "lawy": 7472,
      "occas": 7473,
      "App": 7474,
      "bled": 7475,
      "opened": 7476,
      "documents": 7477,
      "affic": 7478,
      "Fox": 7479,
      "Hum": 7480,
      "yn": 7481,
      "cars": 7482,
      "Uk": 7483,
      "partners": 7484,
      "2006": 7485,
      "slight": 7486,
      "figh": 7487,
      "ental": 7488,
      "Ryan": 7489,
      "Tri": 7490,
      "vill": 7491,
      "learned": 7492,
      "marriage": 7493,
      "bod": 7494,
      "digital": 7495,
      "influence": 7496,
      "definitely": 7497,
      "explained": 7498,
      "han": 7499,
      "apt": 7500,
      "iar": 7501,
      "application": 7502,
      "Committee": 7503,
      "resist": 7504,
      "Out": 7505,
      "preci": 7506,
      "Commission": 7507,
      "interested": 7508,
      "e9": 7509,
      "Sanders": 7510,
      "advoc": 7511,
      "CP": 7512,
      "icit": 7513,
      "worse": 7514,
      "highest": 7515,
      "mail": 7516,
      "pitch": 7517,
      "uries": 7518,
      "sto": 7519,
      "Both": 7520,
      "IR": 7521,
      "temper": 7522,
      "Johnson": 7523,
      "committee": 7524,
      "liament": 7525,
      "residents": 7526,
      "Lou": 7527,
      "initial": 7528,
      "aked": 7529,
      "offers": 7530,
      "records": 7531,
      "Franc": 7532,
      "purpose": 7533,
      "rants": 7534,
      "ule": 7535,
      "ked": 7536,
      "generation": 7537,
      "telling": 7538,
      "showing": 7539,
      "Robert": 7540,
      "Brown": 7541,
      "Direct": 7542,
      "camera": 7543,
      "eb": 7544,
      "pal": 7545,
      "driving": 7546,
      "male": 7547,
      "iction": 7548,
      "Game": 7549,
      "Micro": 7550,
      "Research": 7551,
      "nel": 7552,
      "Mur": 7553,
      "trig": 7554,
      "investment": 7555,
      "prop": 7556,
      "consu": 7557,
      "####": 7558,
      "pun": 7559,
      "mig": 7560,
      "double": 7561,
      "Ver": 7562,
      "makers": 7563,
      "Tim": 7564,
      "draft": 7565,
      "supported": 7566,
      "Pri": 7567,
      "orial": 7568,
      "profit": 7569,
      "provides": 7570,
      "OU": 7571,
      "arrested": 7572,
      "nine": 7573,
      "Francis": 7574,
      "opposition": 7575,
      "condition": 7576,
      "basis": 7577,
      "defend": 7578,
      "mir": 7579,
      "usual": 7580,
      "valid": 7581,
      "extremely": 7582,
      "miles": 7583,
      "understanding": 7584,
      "Justice": 7585,
      "itter": 7586,
      "script": 7587,
      "spl": 7588,
      "Back": 7589,
      "mode": 7590,
      "strength": 7591,
      "stick": 7592,
      "surround": 7593,
      "Ama": 7594,
      "notice": 7595,
      "Britain": 7596,
      "ano": 7597,
      "bell": 7598,
      "https": 7599,
      "unit": 7600,
      ".\u0000\u0000\u0000\u0000\u0000\u0000\u0000\u0000\u0000\u0000\u0000\u0000\u0000\u0000\u0000\u0000\u0000\u0000\u0000\u0000\u0000\u0000\u0000\u0000\u0000\u0000\u0000\u0000\u0000\u0000\u0000\u0000\u0000\u0000\u0000\u0000\u0000\u0000\u0000\u0000\u0000\u0000\u0000\u0000\u0000\u0000\u0000\u0000\u0000\u0000\u0000\u0000\u0000\u0000\u0000\u0000\u0000\u0000\u0000\u0000\u0000\u0000\u0000\u0000\u0000\u0000\u0000\u0000\u0000\u0000\u0000\u0000\u0000\u0000\u0000\u0000\u0000\u0000\u0000\u0000\u0000\u0000\u0000\u0000\u0000\u0000\u0000\u0000\u0000\u0000\u0000\u0000\u0000\u0000\u0000\u0000\u0000\u0000\u0000\u0000\u0000\u0000\u0000\u0000\u0000\u0000\u0000\u0000\u0000\u0000\u0000\u0000\u0000\u0000\u0000\u0000\u0000\u0000\u0000\u0000\u0000\u0000\u0000\u0000\u0000\u0000\u0000\u0000\u0000\u0000\u0000\u0000\u0000\u0000\u0000\u0000\u0000\u0000\u0000\u0000\u0000\u0000\u0000\u0000\u0000\u0000\u0000\u0000\u0000\u0000\u0000\u0000\u0000\u0000\u0000\u0000\u0000\u0000\u0000\u0000\u0000\u0000\u0000\u0000\u0000\u0000\u0000\u0000\u0000\u0000\u0000\u0000\u0000\u0000\u0000\u0000\u0000\u0000\u0000\u0000\u0000\u0000\u0000\u0000\u0000\u0000\u0000\u0000\u0000\u0000\u0000\u0000": 7601,
      "\u0000\u0000\u0000\u0000\u0000\u0000\u0000\u0000\u0000\u0000\u0000\u0000\u0000\u0000\u0000\u0000\u0000\u0000\u0000\u0000\u0000\u0000\u0000\u0000\u0000\u0000\u0000\u0000": 7602,
      "inger": 7603,
      "learning": 7604,
      "negative": 7605,
      "mas": 7606,
      "issued": 7607,
      "IL": 7608,
      "Frank": 7609,
      "mentioned": 7610,
      "Virgin": 7611,
      "tack": 7612,
      "remark": 7613,
      "professional": 7614,
      "internet": 7615,
      "sole": 7616,
      "Android": 7617,
      "Despite": 7618,
      "Mel": 7619,
      "cash": 7620,
      "older": 7621,
      "achieve": 7622,
      "Open": 7623,
      "fuel": 7624,
      "CA": 7625,
      "writer": 7626,
      "vin": 7627,
      "Jeff": 7628,
      "tough": 7629,
      "wish": 7630,
      "ults": 7631,
      "aud": 7632,
      "Church": 7633,
      "charged": 7634,
      "theory": 7635,
      "debt": 7636,
      "!”": 7637,
      "stone": 7638,
      "hundreds": 7639,
      "justice": 7640,
      "generally": 7641,
      "politic": 7642,
      "CB": 7643,
      "Their": 7644,
      "belief": 7645,
      "trial": 7646,
      "opinion": 7647,
      "dete": 7648,
      "cro": 7649,
      "inch": 7650,
      "devices": 7651,
      "radio": 7652,
      "tip": 7653,
      "construction": 7654,
      "dangerous": 7655,
      "Time": 7656,
      "categ": 7657,
      "e8": 7658,
      "atures": 7659,
      "occup": 7660,
      "Dist": 7661,
      "atically": 7662,
      "cks": 7663,
      "Govern": 7664,
      "rian": 7665,
      "command": 7666,
      "afford": 7667,
      "Windows": 7668,
      "Bank": 7669,
      "burn": 7670,
      "destroy": 7671,
      "rob": 7672,
      "compon": 7673,
      "Yet": 7674,
      "ingly": 7675,
      "structure": 7676,
      "millions": 7677,
      "constant": 7678,
      "prefer": 7679,
      "iev": 7680,
      "lished": 7681,
      "Jim": 7682,
      "minute": 7683,
      "rupt": 7684,
      "Jewish": 7685,
      "()": 7686,
      "fd": 7687,
      "click": 7688,
      "audience": 7689,
      "Que": 7690,
      "ga": 7691,
      "display": 7692,
      "instance": 7693,
      "victory": 7694,
      "easier": 7695,
      "victims": 7696,
      "gency": 7697,
      "ume": 7698,
      "Jones": 7699,
      "argument": 7700,
      "train": 7701,
      "rated": 7702,
      "Ukrain": 7703,
      "length": 7704,
      "sch": 7705,
      "direction": 7706,
      "thes": 7707,
      "becomes": 7708,
      "identified": 7709,
      "shared": 7710,
      "spread": 7711,
      "supporters": 7712,
      "TO": 7713,
      "patients": 7714,
      "bottom": 7715,
      "controvers": 7716,
      "floor": 7717,
      "swe": 7718,
      "scientists": 7719,
      "ito": 7720,
      "famous": 7721,
      "watching": 7722,
      "fresh": 7723,
      "cook": 7724,
      "gree": 7725,
      "ara": 7726,
      "DC": 7727,
      "ered": 7728,
      "commission": 7729,
      "bling": 7730,
      "transport": 7731,
      "holding": 7732,
      "discovered": 7733,
      "Hu": 7734,
      "abilities": 7735,
      "owner": 7736,
      "north": 7737,
      "established": 7738,
      "crowd": 7739,
      "none": 7740,
      "daughter": 7741,
      "rum": 7742,
      "prosecut": 7743,
      "conservative": 7744,
      "associated": 7745,
      "traffic": 7746,
      "2d": 7747,
      "stated": 7748,
      "McC": 7749,
      "returned": 7750,
      "doubt": 7751,
      "dat": 7752,
      ".\u0000\u0000\u0000\u0000\u0000\u0000\u0000\u0000\u0000\u0000\u0000\u0000\u0000\u0000\u0000\u0000\u0000\u0000\u0000\u0000\u0000\u0000\u0000\u0000\u0000\u0000\u0000\u0000\u0000\u0000\u0000\u0000\u0000\u0000\u0000\u0000\u0000\u0000\u0000\u0000\u0000\u0000\u0000\u0000\u0000\u0000\u0000\u0000\u0000\u0000\u0000\u0000\u0000\u0000\u0000\u0000\u0000\u0000\u0000\u0000\u0000\u0000\u0000\u0000\u0000\u0000\u0000\u0000\u0000\u0000\u0000\u0000\u0000\u0000\u0000\u0000\u0000\u0000\u0000\u0000\u0000\u0000\u0000\u0000\u0000\u0000\u0000\u0000\u0000\u0000\u0000\u0000\u0000\u0000\u0000\u0000\u0000\u0000\u0000\u0000\u0000\u0000\u0000\u0000\u0000\u0000\u0000\u0000\u0000\u0000\u0000\u0000\u0000\u0000\u0000\u0000\u0000\u0000\u0000\u0000\u0000\u0000\u0000\u0000\u0000\u0000\u0000\u0000\u0000\u0000\u0000\u0000\u0000\u0000\u0000\u0000\u0000\u0000\u0000\u0000\u0000\u0000\u0000\u0000\u0000\u0000\u0000\u0000\u0000\u0000\u0000\u0000\u0000\u0000\u0000\u0000\u0000\u0000\u0000\u0000\u0000\u0000\u0000\u0000\u0000\u0000\u0000\u0000\u0000\u0000\u0000\u0000\u0000\u0000\u0000\u0000\u0000\u0000\u0000\u0000\u0000\u0000\u0000\u0000\u0000\u0000\u0000\u0000\u0000\u0000\u0000\u0000\u0000\u0000\u0000\u0000\u0000\u0000\u0000\u0000\u0000\u0000\u0000\u0000\u0000\u0000\u0000\u0000\u0000\u0000\u0000\u0000\u0000\u0000\u0000\u0000\u0000\u0000\u0000\u0000\u0000\u0000\u0000\u0000\u0000\u0000\u0000\u0000\u0000\u0000\u0000\u0000\u0000\u0000\u0000\u0000\u0000\u0000\u0000\u0000\u0000\u0000\u0000\u0000\u0000\u0000\u0000\u0000\u0000\u0000\u0000\u0000\u0000\u0000\u0000\u0000\u0000\u0000\u0000\u0000\u0000\u0000\u0000\u0000\u0000\u0000\u0000\u0000\u0000\u0000\u0000\u0000\u0000\u0000\u0000\u0000\u0000\u0000\u0000\u0000\u0000\u0000\u0000\u0000\u0000\u0000\u0000\u0000\u0000\u0000\u0000\u0000\u0000\u0000\u0000\u0000\u0000\u0000\u0000\u0000\u0000\u0000\u0000\u0000\u0000\u0000\u0000\u0000\u0000\u0000\u0000\u0000\u0000\u0000\u0000\u0000\u0000\u0000\u0000\u0000\u0000\u0000\u0000\u0000\u0000\u0000\u0000\u0000\u0000\u0000\u0000\u0000\u0000\u0000\u0000\u0000\u0000\u0000\u0000\u0000\u0000\u0000\u0000\u0000\u0000\u0000\u0000\u0000\u0000\u0000\u0000\u0000\u0000\u0000\u0000\u0000\u0000\u0000\u0000\u0000\u0000\u0000\u0000\u0000\u0000\u0000\u0000\u0000\u0000\u0000\u0000\u0000\u0000\u0000\u0000\u0000\u0000\u0000\u0000\u0000\u0000\u0000\u0000\u0000": 7753,
      "illegal": 7754,
      "attor": 7755,
      ".\u0000\u0000\u0000\u0000\u0000\u0000\u0000\u0000\u0000\u0000\u0000\u0000\u0000\u0000\u0000\u0000\u0000\u0000\u0000\u0000\u0000\u0000\u0000\u0000\u0000\u0000\u0000\u0000\u0000\u0000\u0000\u0000\u0000\u0000\u0000\u0000\u0000\u0000\u0000\u0000\u0000\u0000\u0000\u0000\u0000\u0000\u0000\u0000\u0000\u0000\u0000\u0000\u0000\u0000\u0000\u0000\u0000\u0000\u0000\u0000\u0000\u0000\u0000\u0000\u0000\u0000\u0000\u0000\u0000\u0000\u0000\u0000\u0000\u0000\u0000\u0000\u0000\u0000\u0000\u0000\u0000\u0000\u0000\u0000\u0000\u0000\u0000\u0000\u0000\u0000\u0000\u0000\u0000\u0000\u0000\u0000\u0000\u0000\u0000\u0000\u0000\u0000\u0000\u0000\u0000\u0000\u0000\u0000\u0000\u0000\u0000\u0000\u0000\u0000\u0000\u0000\u0000\u0000\u0000\u0000\u0000\u0000\u0000\u0000\u0000\u0000\u0000\u0000\u0000\u0000\u0000\u0000\u0000\u0000\u0000\u0000\u0000\u0000\u0000\u0000\u0000\u0000\u0000\u0000\u0000\u0000\u0000\u0000\u0000\u0000\u0000\u0000\u0000\u0000\u0000\u0000\u0000\u0000\u0000\u0000\u0000\u0000\u0000\u0000\u0000\u0000\u0000\u0000\u0000\u0000\u0000\u0000\u0000\u0000\u0000\u0000\u0000\u0000\u0000\u0000\u0000\u0000\u0000\u0000\u0000\u0000\u0000\u0000\u0000\u0000\u0000\u0000\u0000\u0000\u0000\u0000\u0000\u0000\u0000\u0000\u0000\u0000\u0000\u0000\u0000\u0000\u0000\u0000\u0000\u0000\u0000\u0000\u0000\u0000\u0000\u0000\u0000\u0000\u0000\u0000\u0000\u0000\u0000\u0000\u0000\u0000\u0000\u0000\u0000\u0000\u0000\u0000\u0000\u0000\u0000\u0000\u0000\u0000\u0000\u0000\u0000\u0000\u0000\u0000\u0000\u0000\u0000\u0000\u0000\u0000\u0000\u0000\u0000\u0000\u0000\u0000\u0000\u0000\u0000\u0000\u0000\u0000\u0000\u0000\u0000\u0000\u0000\u0000\u0000\u0000\u0000\u0000\u0000\u0000\u0000\u0000\u0000\u0000\u0000\u0000\u0000\u0000\u0000\u0000\u0000\u0000\u0000\u0000\u0000\u0000\u0000\u0000\u0000\u0000\u0000\u0000\u0000\u0000\u0000\u0000\u0000\u0000\u0000\u0000\u0000\u0000\u0000\u0000\u0000\u0000\u0000\u0000\u0000\u0000\u0000\u0000\u0000\u0000\u0000\u0000\u0000\u0000\u0000\u0000\u0000\u0000\u0000\u0000\u0000\u0000\u0000\u0000\u0000\u0000\u0000\u0000\u0000\u0000\u0000\u0000\u0000\u0000\u0000\u0000\u0000\u0000\u0000\u0000\u0000\u0000\u0000\u0000\u0000\u0000\u0000\u0000\u0000\u0000\u0000\u0000\u0000\u0000\u0000\u0000\u0000\u0000\u0000\u0000\u0000\u0000\u0000\u0000\u0000\u0000\u0000\u0000\u0000\u0000\u0000\u0000\u0000\u0000\u0000\u0000\u0000\u0000\u0000\u0000\u0000\u0000\u0000\u0000\u0000\u0000\u0000\u0000\u0000\u0000\u0000\u0000\u0000\u0000\u0000\u0000\u0000\u0000\u0000\u0000\u0000\u0000\u0000\u0000\u0000\u0000\u0000\u0000\u0000\u0000\u0000\u0000\u0000\u0000\u0000\u0000\u0000\u0000\u0000\u0000\u0000\u0000\u0000\u0000\u0000\u0000\u0000\u0000\u0000\u0000\u0000\u0000\u0000\u0000\u0000\u0000\u0000\u0000\u0000\u0000": 7756,
      "airs": 7757,
      "AND": 7758,
      "Found": 7759,
      "zen": 7760,
      "settle": 7761,
      "drugs": 7762,
      "\u0000\u0000\u0000\u0000\u0000\u0000\u0000\u0000\u0000\u0000\u0000\u0000\u0000\u0000\u0000\u0000\u0000\u0000\u0000\u0000\u0000\u0000\u0000\u0000": 7763,
      "sym": 7764,
      "istics": 7765,
      "earth": 7766,
      "tren": 7767,
      "iring": 7768,
      ".\u0000\u0000\u0000\u0000\u0000\u0000\u0000\u0000\u0000\u0000\u0000\u0000\u0000\u0000\u0000\u0000\u0000\u0000\u0000\u0000\u0000\u0000\u0000\u0000\u0000\u0000\u0000\u0000\u0000\u0000\u0000\u0000\u0000\u0000\u0000\u0000\u0000\u0000\u0000\u0000\u0000\u0000\u0000\u0000\u0000\u0000\u0000\u0000\u0000\u0000\u0000\u0000\u0000\u0000\u0000\u0000\u0000\u0000\u0000\u0000\u0000\u0000\u0000\u0000": 7769,
      "formation": 7770,
      "sports": 7771,
      "lor": 7772,
      "communities": 7773,
      "b5": 7774,
      "solid": 7775,
      "Great": 7776,
      "reduce": 7777,
      "Gree": 7778,
      "ni": 7779,
      "\u0000\u0000\u0000\u0000\u0000\u0000\u0000\u0000\u0000\u0000\u0000\u0000\u0000\u0000\u0000\u0000\u0000\u0000\u0000\u0000\u0000\u0000\u0000\u0000\u0000\u0000\u0000\u0000\u0000\u0000\u0000\u0000\u0000\u0000\u0000\u0000\u0000\u0000\u0000\u0000\u0000\u0000\u0000\u0000\u0000\u0000\u0000\u0000\u0000\u0000\u0000\u0000\u0000\u0000\u0000\u0000\u0000\u0000\u0000\u0000\u0000\u0000\u0000\u0000\u0000\u0000\u0000\u0000\u0000\u0000\u0000\u0000\u0000\u0000\u0000\u0000\u0000\u0000\u0000\u0000\u0000\u0000\u0000\u0000\u0000\u0000\u0000\u0000\u0000\u0000\u0000\u0000\u0000\u0000\u0000\u0000\u0000\u0000\u0000\u0000\u0000\u0000\u0000\u0000\u0000\u0000\u0000\u0000\u0000\u0000\u0000\u0000\u0000\u0000\u0000\u0000\u0000\u0000\u0000\u0000\u0000\u0000\u0000\u0000\u0000\u0000\u0000\u0000\u0000\u0000\u0000\u0000\u0000\u0000\u0000\u0000\u0000\u0000\u0000\u0000\u0000\u0000\u0000\u0000\u0000\u0000\u0000\u0000\u0000\u0000\u0000\u0000\u0000\u0000\u0000\u0000\u0000\u0000\u0000\u0000\u0000\u0000\u0000\u0000\u0000\u0000\u0000\u0000\u0000\u0000\u0000\u0000\u0000\u0000\u0000\u0000\u0000\u0000\u0000\u0000\u0000\u0000\u0000\u0000\u0000\u0000\u0000\u0000\u0000\u0000\u0000\u0000\u0000\u0000\u0000\u0000\u0000\u0000\u0000\u0000\u0000\u0000\u0000\u0000\u0000\u0000\u0000\u0000\u0000\u0000\u0000\u0000\u0000\u0000\u0000\u0000\u0000\u0000\u0000\u0000\u0000\u0000\u0000\u0000\u0000\u0000\u0000\u0000\u0000\u0000\u0000\u0000\u0000\u0000\u0000\u0000\u0000\u0000\u0000\u0000\u0000\u0000\u0000\u0000\u0000\u0000\u0000\u0000\u0000\u0000\u0000\u0000\u0000\u0000\u0000\u0000\u0000\u0000\u0000\u0000\u0000\u0000\u0000\u0000\u0000\u0000\u0000\u0000\u0000\u0000\u0000\u0000\u0000\u0000\u0000\u0000\u0000\u0000\u0000\u0000\u0000\u0000\u0000\u0000\u0000\u0000\u0000\u0000\u0000\u0000\u0000\u0000\u0000\u0000\u0000\u0000\u0000\u0000\u0000\u0000\u0000\u0000\u0000\u0000\u0000\u0000\u0000\u0000\u0000\u0000\u0000\u0000\u0000\u0000\u0000\u0000\u0000\u0000\u0000\u0000\u0000\u0000\u0000\u0000\u0000\u0000\u0000\u0000\u0000\u0000\u0000\u0000\u0000\u0000\u0000\u0000\u0000\u0000\u0000\u0000\u0000\u0000\u0000\u0000\u0000\u0000\u0000\u0000\u0000\u0000\u0000\u0000\u0000\u0000\u0000\u0000\u0000\u0000\u0000\u0000\u0000\u0000\u0000\u0000\u0000\u0000\u0000\u0000\u0000\u0000\u0000\u0000\u0000\u0000\u0000\u0000\u0000\u0000\u0000\u0000\u0000\u0000\u0000\u0000\u0000\u0000\u0000\u0000\u0000\u0000\u0000\u0000\u0000\u0000\u0000\u0000\u0000\u0000\u0000\u0000\u0000\u0000\u0000\u0000\u0000\u0000\u0000\u0000\u0000\u0000\u0000\u0000\u0000\u0000\u0000\u0000\u0000\u0000\u0000\u0000\u0000\u0000\u0000\u0000\u0000\u0000\u0000\u0000\u0000\u0000\u0000\u0000\u0000\u0000\u0000\u0000\u0000\u0000\u0000\u0000\u0000\u0000\u0000\u0000\u0000\u0000\u0000\u0000\u0000\u0000\u0000\u0000\u0000\u0000\u0000\u0000\u0000\u0000\u0000\u0000\u0000\u0000\u0000\u0000\u0000\u0000\u0000\u0000\u0000\u0000\u0000\u0000\u0000\u0000\u0000\u0000\u0000\u0000\u0000\u0000\u0000\u0000\u0000\u0000\u0000\u0000\u0000\u0000\u0000\u0000\u0000\u0000\u0000\u0000\u0000\u0000\u0000\u0000\u0000\u0000\u0000\u0000\u0000\u0000\u0000\u0000\u0000\u0000\u0000\u0000\u0000\u0000": 7780,
      "smaller": 7781,
      "Canadian": 7782,
      "enemy": 7783,
      "missed": 7784,
      "incredi": 7785,
      "Er": 7786,
      "accused": 7787,
      "judge": 7788,
      "Miss": 7789,
      "pm": 7790,
      "yes": 7791,
      "ining": 7792,
      "liance": 7793,
      "commercial": 7794,
      "cards": 7795,
      "pow": 7796,
      "iven": 7797,
      "launched": 7798,
      "Japanese": 7799,
      "mous": 7800,
      "Rock": 7801,
      "spoke": 7802,
      "separate": 7803,
      "iling": 7804,
      "Tre": 7805,
      "Oly": 7806,
      "steps": 7807,
      "MA": 7808,
      "Jon": 7809,
      "proposed": 7810,
      "Jose": 7811,
      "keeping": 7812,
      "businesses": 7813,
      "repeated": 7814,
      "Will": 7815,
      "missing": 7816,
      "icated": 7817,
      "degree": 7818,
      "hus": 7819,
      "putting": 7820,
      "decade": 7821,
      "fare": 7822,
      "stress": 7823,
      "DA": 7824,
      ".\u0000\u0000\u0000\u0000\u0000\u0000\u0000\u0000\u0000\u0000\u0000\u0000\u0000\u0000\u0000\u0000\u0000\u0000\u0000\u0000\u0000\u0000\u0000\u0000\u0000\u0000\u0000\u0000\u0000\u0000\u0000\u0000\u0000\u0000\u0000\u0000\u0000\u0000\u0000\u0000\u0000\u0000\u0000\u0000\u0000\u0000\u0000\u0000\u0000\u0000\u0000\u0000\u0000\u0000\u0000\u0000\u0000\u0000\u0000\u0000\u0000\u0000\u0000\u0000\u0000\u0000\u0000\u0000\u0000\u0000\u0000\u0000\u0000\u0000\u0000\u0000\u0000\u0000\u0000\u0000\u0000\u0000\u0000\u0000\u0000\u0000\u0000\u0000\u0000\u0000\u0000\u0000\u0000\u0000\u0000\u0000\u0000\u0000\u0000\u0000\u0000\u0000\u0000\u0000\u0000\u0000\u0000\u0000\u0000\u0000\u0000\u0000\u0000\u0000\u0000\u0000\u0000\u0000\u0000\u0000\u0000\u0000\u0000\u0000\u0000\u0000\u0000\u0000\u0000\u0000\u0000\u0000\u0000\u0000\u0000\u0000\u0000\u0000\u0000\u0000\u0000\u0000\u0000\u0000\u0000\u0000\u0000\u0000\u0000\u0000\u0000\u0000\u0000\u0000\u0000\u0000\u0000\u0000\u0000\u0000\u0000\u0000\u0000\u0000\u0000\u0000\u0000\u0000\u0000\u0000\u0000\u0000\u0000\u0000\u0000\u0000\u0000\u0000\u0000\u0000\u0000\u0000\u0000\u0000\u0000\u0000\u0000\u0000\u0000\u0000\u0000\u0000\u0000\u0000\u0000\u0000\u0000\u0000\u0000\u0000\u0000\u0000\u0000\u0000\u0000\u0000\u0000\u0000\u0000\u0000\u0000\u0000\u0000\u0000\u0000\u0000\u0000\u0000\u0000\u0000\u0000\u0000\u0000\u0000\u0000\u0000\u0000\u0000\u0000\u0000\u0000\u0000\u0000\u0000\u0000\u0000\u0000\u0000\u0000\u0000\u0000\u0000\u0000\u0000\u0000\u0000\u0000\u0000\u0000\u0000\u0000\u0000\u0000\u0000\u0000\u0000\u0000\u0000\u0000\u0000\u0000\u0000\u0000\u0000\u0000\u0000\u0000\u0000\u0000\u0000\u0000\u0000\u0000\u0000\u0000\u0000\u0000\u0000\u0000\u0000\u0000\u0000\u0000\u0000\u0000\u0000\u0000\u0000\u0000\u0000\u0000\u0000\u0000\u0000\u0000\u0000\u0000\u0000\u0000\u0000\u0000\u0000\u0000\u0000\u0000\u0000\u0000\u0000\u0000\u0000\u0000\u0000\u0000\u0000\u0000\u0000\u0000\u0000\u0000\u0000": 7825,
      "Ros": 7826,
      "b7": 7827,
      "ements": 7828,
      "annual": 7829,
      "oup": 7830,
      "sleep": 7831,
      "partner": 7832,
      "lights": 7833,
      "Pak": 7834,
      "wild": 7835,
      "ka": 7836,
      "obtain": 7837,
      "Joe": 7838,
      "Van": 7839,
      "FBI": 7840,
      "hib": 7841,
      "explain": 7842,
      "restrict": 7843,
      "2005": 7844,
      "Olymp": 7845,
      "Fire": 7846,
      "candidates": 7847,
      "iders": 7848,
      "Secretary": 7849,
      "testing": 7850,
      "false": 7851,
      "PN": 7852,
      "experiment": 7853,
      "fc": 7854,
      "Leg": 7855,
      "machine": 7856,
      "becoming": 7857,
      "finding": 7858,
      "b6": 7859,
      "announce": 7860,
      "faith": 7861,
      "conflict": 7862,
      "anta": 7863,
      "raise": 7864,
      "hearing": 7865,
      "complet": 7866,
      "entirely": 7867,
      "oppos": 7868,
      "voted": 7869,
      "sust": 7870,
      "outs": 7871,
      "Atl": 7872,
      "initi": 7873,
      "crash": 7874,
      "Den": 7875,
      "acity": 7876,
      "background": 7877,
      "waiting": 7878,
      "Good": 7879,
      "strateg": 7880,
      "please": 7881,
      "subscri": 7882,
      "concerned": 7883,
      "Cup": 7884,
      "Power": 7885,
      "grant": 7886,
      "south": 7887,
      "andon": 7888,
      "GOP": 7889,
      "species": 7890,
      "400": 7891,
      "Carol": 7892,
      "hate": 7893,
      "Mat": 7894,
      "leadership": 7895,
      "union": 7896,
      "bass": 7897,
      "amed": 7898,
      "sho": 7899,
      "brary": 7900,
      "items": 7901,
      "ester": 7902,
      "NA": 7903,
      "suggested": 7904,
      "beautiful": 7905,
      "bag": 7906,
      "contain": 7907,
      "transfer": 7908,
      "fourth": 7909,
      "accur": 7910,
      "survey": 7911,
      "compar": 7912,
      "olf": 7913,
      "allowing": 7914,
      "Put": 7915,
      "changing": 7916,
      "surface": 7917,
      "activities": 7918,
      "Ir": 7919,
      "dome": 7920,
      "ght": 7921,
      "Institute": 7922,
      "Bef": 7923,
      "offensive": 7924,
      "hack": 7925,
      "aspect": 7926,
      "vation": 7927,
      "flag": 7928,
      "Association": 7929,
      "mut": 7930,
      "aggress": 7931,
      "eline": 7932,
      "update": 7933,
      "aj": 7934,
      "tact": 7935,
      "icy": 7936,
      "champion": 7937,
      "Before": 7938,
      "master": 7939,
      "hasn": 7940,
      "finished": 7941,
      "joined": 7942,
      "novel": 7943,
      "USA": 7944,
      "driver": 7945,
      "Afgh": 7946,
      "Prime": 7947,
      "Gen": 7948,
      "bac": 7949,
      "photograph": 7950,
      "injury": 7951,
      "Ms": 7952,
      "icon": 7953,
      "Sur": 7954,
      "speaking": 7955,
      "Angeles": 7956,
      "IV": 7957,
      "ctors": 7958,
      "tools": 7959,
      "assault": 7960,
      "Bow": 7961,
      "pts": 7962,
      "worst": 7963,
      "caught": 7964,
      "refuge": 7965,
      "corporate": 7966,
      "itude": 7967,
      "chann": 7968,
      "Web": 7969,
      "cript": 7970,
      "Free": 7971,
      "faces": 7972,
      "models": 7973,
      "Amazon": 7974,
      "ady": 7975,
      "Cha": 7976,
      "Year": 7977,
      "planning": 7978,
      "farm": 7979,
      "husband": 7980,
      "legislation": 7981,
      "bid": 7982,
      "ava": 7983,
      "3d": 7984,
      "andom": 7985,
      "Jud": 7986,
      "consci": 7987,
      "focused": 7988,
      "aker": 7989,
      "fish": 7990,
      "largely": 7991,
      "episode": 7992,
      "2018": 7993,
      "coverage": 7994,
      "files": 7995,
      "competition": 7996,
      "concern": 7997,
      "CEO": 7998,
      "useful": 7999,
      "sche": 8000,
      "revolution": 8001,
      "flight": 8002,
      "gypt": 8003,
      "formed": 8004,
      "ships": 8005,
      "employment": 8006,
      "brother": 8007,
      "Prof": 8008,
      "cells": 8009,
      "gent": 8010,
      "guess": 8011,
      "girls": 8012,
      "department": 8013,
      "Pakistan": 8014,
      "loved": 8015,
      "currency": 8016,
      "b0": 8017,
      "consequ": 8018,
      "truly": 8019,
      "4d": 8020,
      "phil": 8021,
      "techni": 8022,
      "raz": 8023,
      "presence": 8024,
      "holds": 8025,
      "balance": 8026,
      "familiar": 8027,
      "gain": 8028,
      "feels": 8029,
      "requires": 8030,
      "banks": 8031,
      "Willi": 8032,
      "batter": 8033,
      "domin": 8034,
      "itation": 8035,
      "Fore": 8036,
      "eless": 8037,
      "accident": 8038,
      "oo": 8039,
      "reject": 8040,
      "eval": 8041,
      "rail": 8042,
      "micro": 8043,
      "ya": 8044,
      "\u0000\u0000\u0000\u0000\u0000\u0000\u0000\u0000\u0000\u0000\u0000\u0000\u0000\u0000\u0000\u0000\u0000\u0000\u0000\u0000\u0000\u0000\u0000\u0000\u0000\u0000\u0000\u0000\u0000\u0000\u0000\u0000\u0000\u0000\u0000\u0000\u0000\u0000\u0000\u0000\u0000\u0000\u0000\u0000\u0000\u0000\u0000\u0000\u0000\u0000\u0000\u0000\u0000\u0000\u0000\u0000\u0000\u0000\u0000\u0000\u0000\u0000\u0000\u0000\u0000\u0000\u0000\u0000\u0000\u0000\u0000\u0000\u0000\u0000\u0000\u0000\u0000\u0000\u0000\u0000\u0000\u0000\u0000\u0000\u0000\u0000\u0000\u0000\u0000\u0000\u0000\u0000\u0000\u0000\u0000\u0000\u0000\u0000\u0000\u0000\u0000\u0000\u0000\u0000\u0000\u0000\u0000\u0000\u0000\u0000\u0000\u0000\u0000\u0000\u0000\u0000\u0000\u0000\u0000\u0000\u0000\u0000\u0000\u0000\u0000\u0000\u0000\u0000\u0000\u0000\u0000\u0000\u0000\u0000\u0000\u0000\u0000\u0000\u0000\u0000\u0000\u0000\u0000\u0000\u0000\u0000\u0000\u0000\u0000\u0000\u0000\u0000\u0000\u0000\u0000\u0000\u0000\u0000\u0000\u0000\u0000\u0000\u0000\u0000\u0000\u0000\u0000\u0000\u0000\u0000\u0000\u0000\u0000\u0000\u0000\u0000\u0000\u0000\u0000\u0000\u0000\u0000\u0000\u0000\u0000\u0000\u0000\u0000\u0000\u0000\u0000\u0000\u0000\u0000\u0000\u0000\u0000\u0000\u0000\u0000\u0000\u0000\u0000\u0000\u0000\u0000\u0000\u0000\u0000\u0000\u0000\u0000\u0000\u0000\u0000\u0000\u0000\u0000\u0000\u0000\u0000\u0000\u0000\u0000\u0000\u0000\u0000\u0000\u0000\u0000\u0000\u0000\u0000\u0000\u0000\u0000\u0000\u0000\u0000\u0000\u0000\u0000\u0000\u0000\u0000\u0000\u0000\u0000\u0000\u0000\u0000\u0000\u0000\u0000\u0000\u0000\u0000\u0000\u0000\u0000\u0000\u0000\u0000\u0000\u0000\u0000\u0000\u0000\u0000\u0000\u0000\u0000\u0000\u0000\u0000\u0000\u0000\u0000\u0000\u0000\u0000\u0000\u0000\u0000\u0000\u0000\u0000\u0000\u0000\u0000\u0000\u0000\u0000\u0000\u0000\u0000\u0000\u0000\u0000\u0000\u0000\u0000\u0000\u0000\u0000\u0000\u0000\u0000\u0000\u0000\u0000\u0000\u0000\u0000\u0000\u0000\u0000\u0000\u0000\u0000\u0000\u0000\u0000\u0000\u0000\u0000\u0000\u0000\u0000\u0000\u0000\u0000\u0000\u0000\u0000\u0000\u0000\u0000\u0000\u0000\u0000\u0000\u0000\u0000\u0000\u0000\u0000\u0000\u0000\u0000\u0000\u0000\u0000\u0000\u0000\u0000\u0000\u0000\u0000\u0000\u0000\u0000\u0000\u0000\u0000\u0000\u0000\u0000\u0000\u0000\u0000\u0000\u0000\u0000\u0000\u0000\u0000\u0000\u0000\u0000\u0000\u0000\u0000\u0000": 8045,
      "taxes": 8046,
      "onest": 8047,
      "register": 8048,
      "2000": 8049,
      "armed": 8050,
      "exchange": 8051,
      "acknow": 8052,
      "sides": 8053,
      "aints": 8054,
      "download": 8055,
      "Egypt": 8056,
      "nic": 8057,
      "PD": 8058,
      "exclus": 8059,
      "Richard": 8060,
      "Ok": 8061,
      "figures": 8062,
      "supply": 8063,
      "hun": 8064,
      "fiel": 8065,
      "interests": 8066,
      "Peter": 8067,
      "connection": 8068,
      "ada": 8069,
      "igan": 8070,
      "identity": 8071,
      "talent": 8072,
      "paying": 8073,
      "acts": 8074,
      "Microsoft": 8075,
      "eat": 8076,
      "Bitcoin": 8077,
      "Hor": 8078,
      "cuts": 8079,
      "tweet": 8080,
      "shall": 8081,
      "switch": 8082,
      "funds": 8083,
      "providing": 8084,
      "phones": 8085,
      "Martin": 8086,
      "NAS": 8087,
      "plate": 8088,
      "150": 8089,
      "Bern": 8090,
      "housing": 8091,
      "recommend": 8092,
      "appropriate": 8093,
      "py": 8094,
      "rial": 8095,
      "izes": 8096,
      "veter": 8097,
      "lip": 8098,
      "igned": 8099,
      "newsp": 8100,
      "Williams": 8101,
      "laugh": 8102,
      "alle": 8103,
      "ME": 8104,
      "optim": 8105,
      "sud": 8106,
      "Book": 8107,
      "amazing": 8108,
      "homes": 8109,
      "organizations": 8110,
      "Hall": 8111,
      "pa": 8112,
      "restaur": 8113,
      "spokesman": 8114,
      "LA": 8115,
      "otherwise": 8116,
      "1d": 8117,
      "a5": 8118,
      "fle": 8119,
      "Syrian": 8120,
      "Color": 8121,
      "adium": 8122,
      "selling": 8123,
      "mes": 8124,
      "arant": 8125,
      "ounds": 8126,
      "Virginia": 8127,
      "HL": 8128,
      "aps": 8129,
      "\u0000\u0000\u0000\u0000\u0000\u0000\u0000\u0000\u0000\u0000\u0000\u0000\u0000\u0000\u0000\u0000\u0000\u0000\u0000\u0000\u0000\u0000\u0000\u0000\u0000\u0000\u0000\u0000\u0000\u0000\u0000\u0000\u0000\u0000\u0000\u0000\u0000\u0000\u0000\u0000\u0000\u0000\u0000\u0000\u0000\u0000\u0000\u0000\u0000\u0000\u0000\u0000\u0000\u0000\u0000\u0000\u0000\u0000\u0000\u0000\u0000\u0000\u0000\u0000\u0000\u0000\u0000\u0000\u0000\u0000\u0000\u0000\u0000\u0000\u0000\u0000\u0000\u0000\u0000\u0000\u0000\u0000\u0000\u0000\u0000\u0000\u0000\u0000\u0000\u0000\u0000\u0000\u0000\u0000\u0000\u0000\u0000\u0000\u0000\u0000\u0000\u0000\u0000\u0000\u0000\u0000\u0000\u0000\u0000\u0000\u0000\u0000\u0000\u0000\u0000\u0000\u0000\u0000\u0000\u0000\u0000\u0000\u0000\u0000\u0000\u0000\u0000\u0000\u0000\u0000\u0000\u0000\u0000\u0000\u0000\u0000\u0000\u0000\u0000\u0000\u0000\u0000\u0000\u0000\u0000\u0000\u0000\u0000\u0000\u0000\u0000\u0000\u0000\u0000\u0000\u0000\u0000\u0000\u0000\u0000\u0000\u0000\u0000\u0000\u0000\u0000\u0000\u0000\u0000\u0000\u0000\u0000\u0000\u0000\u0000\u0000\u0000\u0000\u0000\u0000\u0000\u0000\u0000\u0000\u0000\u0000\u0000\u0000\u0000\u0000\u0000\u0000\u0000\u0000\u0000\u0000\u0000\u0000\u0000\u0000\u0000\u0000\u0000\u0000\u0000\u0000\u0000\u0000\u0000\u0000\u0000\u0000\u0000\u0000\u0000\u0000\u0000\u0000\u0000\u0000\u0000\u0000\u0000\u0000\u0000\u0000\u0000\u0000\u0000\u0000\u0000\u0000\u0000\u0000\u0000\u0000\u0000\u0000\u0000\u0000\u0000\u0000\u0000\u0000\u0000\u0000\u0000\u0000\u0000\u0000\u0000\u0000\u0000\u0000\u0000\u0000\u0000\u0000\u0000\u0000\u0000\u0000\u0000\u0000\u0000\u0000\u0000\u0000\u0000\u0000\u0000\u0000\u0000\u0000\u0000\u0000\u0000\u0000\u0000\u0000\u0000\u0000\u0000\u0000\u0000\u0000\u0000\u0000\u0000\u0000\u0000\u0000\u0000\u0000\u0000\u0000\u0000\u0000\u0000\u0000\u0000\u0000\u0000\u0000\u0000\u0000\u0000\u0000\u0000\u0000\u0000\u0000\u0000\u0000\u0000\u0000\u0000\u0000\u0000\u0000": 8130,
      "Ru": 8131,
      "managed": 8132,
      "assess": 8133,
      "Ko": 8134,
      "zone": 8135,
      "tells": 8136,
      "Images": 8137,
      "0000001": 8138,
      "2c": 8139,
      "tests": 8140,
      "Team": 8141,
      "African": 8142,
      "Jour": 8143,
      "Show": 8144,
      "votes": 8145,
      "Public": 8146,
      "inct": 8147,
      "Second": 8148,
      "Comp": 8149,
      "believes": 8150,
      "button": 8151,
      "vehicle": 8152,
      "astru": 8153,
      "Sou": 8154,
      "eful": 8155,
      "decisions": 8156,
      "strike": 8157,
      "Afghan": 8158,
      "arrived": 8159,
      "happening": 8160,
      "Far": 8161,
      "planet": 8162,
      "Mu": 8163,
      "trip": 8164,
      "Roy": 8165,
      "boys": 8166,
      "collection": 8167,
      "86": 8168,
      "heat": 8169,
      "witness": 8170,
      "Sol": 8171,
      "Watch": 8172,
      "cha": 8173,
      "ounder": 8174,
      "numer": 8175,
      "->": 8176,
      "4f": 8177,
      "3e": 8178,
      "Ve": 8179,
      "adjust": 8180,
      "rot": 8181,
      "azine": 8182,
      "vul": 8183,
      "university": 8184,
      "bigger": 8185,
      "Week": 8186,
      "killing": 8187,
      "Group": 8188,
      "disease": 8189,
      "Phone": 8190,
      "GO": 8191,
      "context": 8192,
      "reform": 8193,
      "Mexico": 8194,
      "ios": 8195,
      "\u0000\u0000\u0000\u0000\u0000\u0000\u0000\u0000\u0000\u0000\u0000\u0000\u0000\u0000\u0000\u0000\u0000\u0000\u0000\u0000\u0000\u0000\u0000\u0000\u0000\u0000\u0000\u0000\u0000\u0000\u0000\u0000\u0000\u0000\u0000\u0000\u0000\u0000\u0000\u0000\u0000\u0000\u0000\u0000\u0000\u0000\u0000\u0000\u0000\u0000\u0000\u0000\u0000\u0000\u0000\u0000\u0000\u0000\u0000\u0000\u0000\u0000\u0000\u0000\u0000\u0000\u0000\u0000\u0000\u0000\u0000\u0000\u0000\u0000\u0000\u0000\u0000\u0000\u0000\u0000\u0000\u0000\u0000\u0000\u0000\u0000\u0000\u0000\u0000\u0000\u0000\u0000\u0000\u0000\u0000\u0000\u0000\u0000\u0000\u0000\u0000\u0000\u0000\u0000\u0000\u0000\u0000\u0000\u0000\u0000\u0000\u0000\u0000\u0000\u0000\u0000\u0000\u0000\u0000\u0000\u0000\u0000\u0000\u0000\u0000\u0000\u0000\u0000\u0000\u0000\u0000\u0000\u0000\u0000\u0000\u0000\u0000\u0000\u0000\u0000\u0000\u0000\u0000\u0000\u0000\u0000\u0000\u0000\u0000\u0000\u0000\u0000\u0000\u0000\u0000\u0000\u0000\u0000\u0000\u0000\u0000\u0000\u0000\u0000\u0000\u0000\u0000\u0000\u0000\u0000\u0000\u0000\u0000\u0000\u0000\u0000\u0000\u0000\u0000\u0000\u0000\u0000\u0000\u0000\u0000\u0000\u0000\u0000\u0000\u0000\u0000\u0000\u0000\u0000\u0000\u0000\u0000\u0000\u0000\u0000\u0000\u0000\u0000\u0000\u0000\u0000\u0000\u0000\u0000\u0000\u0000\u0000\u0000\u0000\u0000\u0000\u0000\u0000\u0000\u0000\u0000\u0000\u0000\u0000\u0000\u0000\u0000\u0000\u0000\u0000\u0000\u0000\u0000\u0000\u0000\u0000\u0000\u0000\u0000\u0000\u0000\u0000\u0000\u0000\u0000\u0000\u0000\u0000\u0000\u0000\u0000\u0000\u0000\u0000\u0000\u0000\u0000\u0000\u0000\u0000\u0000\u0000\u0000\u0000\u0000\u0000\u0000\u0000\u0000\u0000\u0000\u0000\u0000\u0000\u0000\u0000\u0000\u0000\u0000\u0000\u0000\u0000\u0000\u0000\u0000\u0000\u0000\u0000\u0000\u0000\u0000\u0000\u0000\u0000\u0000\u0000\u0000\u0000\u0000\u0000\u0000\u0000\u0000\u0000\u0000\u0000\u0000\u0000\u0000\u0000\u0000\u0000\u0000\u0000\u0000\u0000\u0000\u0000\u0000\u0000\u0000\u0000\u0000\u0000\u0000\u0000\u0000\u0000\u0000\u0000\u0000\u0000\u0000\u0000\u0000\u0000\u0000\u0000\u0000\u0000\u0000\u0000\u0000\u0000\u0000\u0000\u0000\u0000\u0000\u0000\u0000\u0000\u0000\u0000\u0000\u0000\u0000\u0000\u0000\u0000\u0000\u0000\u0000\u0000\u0000\u0000\u0000\u0000\u0000\u0000\u0000\u0000\u0000\u0000\u0000\u0000\u0000\u0000\u0000\u0000\u0000\u0000\u0000\u0000\u0000\u0000\u0000\u0000\u0000\u0000\u0000\u0000\u0000\u0000\u0000\u0000\u0000\u0000\u0000\u0000\u0000\u0000\u0000\u0000\u0000\u0000\u0000\u0000\u0000\u0000\u0000\u0000\u0000\u0000\u0000\u0000\u0000\u0000\u0000\u0000\u0000\u0000\u0000\u0000\u0000\u0000\u0000\u0000\u0000\u0000\u0000\u0000\u0000\u0000\u0000\u0000\u0000\u0000\u0000\u0000\u0000\u0000\u0000\u0000\u0000\u0000\u0000\u0000": 8196,
      "eah": 8197,
      "Thomas": 8198,
      "HT": 8199,
      "conce": 8200,
      "Social": 8201,
      "uce": 8202,
      "grade": 8203,
      "presents": 8204,
      "sudden": 8205,
      "3f": 8206,
      "nar": 8207,
      "army": 8208,
      "aces": 8209,
      "Force": 8210,
      "luck": 8211,
      "planned": 8212,
      "aks": 8213,
      "stopped": 8214,
      "portion": 8215,
      "committed": 8216,
      "seek": 8217,
      "introduced": 8218,
      "enforcement": 8219,
      "removed": 8220,
      "mere": 8221,
      "mical": 8222,
      "finish": 8223,
      "Government": 8224,
      "\":": 8225,
      "gins": 8226,
      "Matt": 8227,
      "fellow": 8228,
      "Bal": 8229,
      "a7": 8230,
      "spirit": 8231,
      "Pan": 8232,
      "isation": 8233,
      "Sign": 8234,
      "wear": 8235,
      "Camp": 8236,
      "DP": 8237,
      "Ari": 8238,
      "corner": 8239,
      "3c": 8240,
      "monit": 8241,
      "sky": 8242,
      "Louis": 8243,
      "vant": 8244,
      "rig": 8245,
      "crew": 8246,
      "Where": 8247,
      "Middle": 8248,
      "Di": 8249,
      "Africa": 8250,
      "a6": 8251,
      "4e": 8252,
      "pi": 8253,
      "fly": 8254,
      "astructure": 8255,
      "Bet": 8256,
      "Army": 8257,
      "RO": 8258,
      "EC": 8259,
      "abuse": 8260,
      "bles": 8261,
      "error": 8262,
      "96": 8263,
      "seconds": 8264,
      "insurance": 8265,
      "slightly": 8266,
      "Ron": 8267,
      "Jews": 8268,
      "imin": 8269,
      "experts": 8270,
      "operating": 8271,
      "2e": 8272,
      "acting": 8273,
      "creation": 8274,
      "awa": 8275,
      "2004": 8276,
      "Service": 8277,
      "shots": 8278,
      "=\"": 8279,
      "voc": 8280,
      "plane": 8281,
      "relatively": 8282,
      "prospect": 8283,
      "elements": 8284,
      "sport": 8285,
      "circum": 8286,
      "fortunately": 8287,
      "uty": 8288,
      "actor": 8289,
      "cancer": 8290,
      "broken": 8291,
      "turns": 8292,
      "1f": 8293,
      "Federal": 8294,
      "territ": 8295,
      "starts": 8296,
      "measures": 8297,
      "Look": 8298,
      "trail": 8299,
      "thanks": 8300,
      "Mean": 8301,
      "promise": 8302,
      "Getty": 8303,
      "!\"": 8304,
      "pes": 8305,
      "fund": 8306,
      "expensive": 8307,
      "comfortable": 8308,
      "eg": 8309,
      "Blue": 8310,
      "FA": 8311,
      "score": 8312,
      "pil": 8313,
      "breaking": 8314,
      "conversation": 8315,
      "4c": 8316,
      "failure": 8317,
      "igno": 8318,
      "construct": 8319,
      "losing": 8320,
      "photos": 8321,
      "brow": 8322,
      "irt": 8323,
      "fif": 8324,
      "lived": 8325,
      "developing": 8326,
      "connected": 8327,
      "kin": 8328,
      "——": 8329,
      "remind": 8330,
      "insp": 8331,
      "protection": 8332,
      "discussion": 8333,
      "aircraft": 8334,
      "possibly": 8335,
      "Steve": 8336,
      ",'": 8337,
      "weather": 8338,
      "Offic": 8339,
      "impossible": 8340,
      "intended": 8341,
      "adem": 8342,
      "apparently": 8343,
      "Bob": 8344,
      "award": 8345,
      "1e": 8346,
      "ifying": 8347,
      "symp": 8348,
      "helping": 8349,
      "fired": 8350,
      "suggests": 8351,
      "hang": 8352,
      "harm": 8353,
      "uate": 8354,
      "absolutely": 8355,
      "Glo": 8356,
      "Ky": 8357,
      "0153": 8358,
      "Mod": 8359,
      "Mich": 8360,
      "Each": 8361,
      "Chief": 8362,
      "Bost": 8363,
      "broadcast": 8364,
      "1c": 8365,
      "patch": 8366,
      "healthy": 8367,
      "prove": 8368,
      "87": 8369,
      "consul": 8370,
      "Colle": 8371,
      "Hel": 8372,
      "sitting": 8373,
      "eter": 8374,
      "defensive": 8375,
      "Lat": 8376,
      "comed": 8377,
      "twice": 8378,
      "capable": 8379,
      "filed": 8380,
      "animals": 8381,
      "Right": 8382,
      "dropped": 8383,
      "spring": 8384,
      "capacity": 8385,
      "Media": 8386,
      "mad": 8387,
      "alternative": 8388,
      "EL": 8389,
      "unless": 8390,
      "filled": 8391,
      "noon": 8392,
      "Still": 8393,
      "immigration": 8394,
      "atest": 8395,
      "Only": 8396,
      "Though": 8397,
      "gotten": 8398,
      "CIA": 8399,
      "prepared": 8400,
      "Top": 8401,
      "valu": 8402,
      "sounds": 8403,
      "standards": 8404,
      "soldiers": 8405,
      "authority": 8406,
      "decide": 8407,
      "terri": 8408,
      "internal": 8409,
      "--------": 8410,
      "2f": 8411,
      "ologies": 8412,
      "therefore": 8413,
      "avy": 8414,
      "skin": 8415,
      "transl": 8416,
      "ache": 8417,
      "Boston": 8418,
      "variety": 8419,
      "positions": 8420,
      "Py": 8421,
      "clim": 8422,
      "carried": 8423,
      "!!": 8424,
      "lon": 8425,
      "tot": 8426,
      "professor": 8427,
      "schedul": 8428,
      "suff": 8429,
      "reser": 8430,
      "flu": 8431,
      "Guard": 8432,
      "Cy": 8433,
      "Pac": 8434,
      "Ten": 8435,
      "a0": 8436,
      "apply": 8437,
      "Muslims": 8438,
      "window": 8439,
      "increasingly": 8440,
      "RA": 8441,
      "Space": 8442,
      "uters": 8443,
      "sett": 8444,
      "Central": 8445,
      "prime": 8446,
      "district": 8447,
      "troops": 8448,
      "ception": 8449,
      "solar": 8450,
      "Grand": 8451,
      "tight": 8452,
      "Fort": 8453,
      "tun": 8454,
      "agues": 8455,
      "secure": 8456,
      "lots": 8457,
      "located": 8458,
      "mov": 8459,
      "0152": 8460,
      "cultural": 8461,
      "enses": 8462,
      "warm": 8463,
      "skills": 8464,
      "rush": 8465,
      "arg": 8466,
      "films": 8467,
      "ares": 8468,
      "pled": 8469,
      "River": 8470,
      "markets": 8471,
      "tag": 8472,
      "warning": 8473,
      "religion": 8474,
      "va": 8475,
      "apers": 8476,
      "Australian": 8477,
      "plenty": 8478,
      "appearance": 8479,
      "deploy": 8480,
      "pping": 8481,
      "apping": 8482,
      "talks": 8483,
      "cohol": 8484,
      "Toronto": 8485,
      "vast": 8486,
      "helps": 8487,
      "infrastructure": 8488,
      "elected": 8489,
      "sight": 8490,
      "univers": 8491,
      "cold": 8492,
      "equal": 8493,
      "Ref": 8494,
      "agencies": 8495,
      "Mass": 8496,
      "Vol": 8497,
      "fundam": 8498,
      "glass": 8499,
      "imagine": 8500,
      "sid": 8501,
      "index": 8502,
      "accounts": 8503,
      "rog": 8504,
      "mm": 8505,
      "Men": 8506,
      "medic": 8507,
      "multi": 8508,
      "Mary": 8509,
      "expert": 8510,
      "auto": 8511,
      "Hist": 8512,
      "Main": 8513,
      "units": 8514,
      "attend": 8515,
      "Lee": 8516,
      "faced": 8517,
      "bringing": 8518,
      "hase": 8519,
      "raw": 8520,
      "nut": 8521,
      "stim": 8522,
      "eds": 8523,
      "Foundation": 8524,
      "beer": 8525,
      "scientific": 8526,
      "Supreme": 8527,
      "ker": 8528,
      "council": 8529,
      "passing": 8530,
      "possibility": 8531,
      "College": 8532,
      "apps": 8533,
      "endment": 8534,
      "stances": 8535,
      "gry": 8536,
      "cred": 8537,
      "satis": 8538,
      "symbol": 8539,
      "faster": 8540,
      "ti": 8541,
      "lean": 8542,
      "ibility": 8543,
      "affected": 8544,
      "domestic": 8545,
      "lyn": 8546,
      "responsibility": 8547,
      "ray": 8548,
      "weapon": 8549,
      "uration": 8550,
      "lan": 8551,
      "facing": 8552,
      "Down": 8553,
      "dress": 8554,
      "umn": 8555,
      "seeking": 8556,
      "Journal": 8557,
      "IG": 8558,
      "worry": 8559,
      "Bud": 8560,
      "ko": 8561,
      "governments": 8562,
      "Bus": 8563,
      "wearing": 8564,
      "bridge": 8565,
      "Maybe": 8566,
      "crack": 8567,
      "ronic": 8568,
      "detect": 8569,
      "ador": 8570,
      "evin": 8571,
      "sts": 8572,
      "2003": 8573,
      "Gal": 8574,
      "NBA": 8575,
      "closer": 8576,
      "About": 8577,
      "Turkey": 8578,
      "baby": 8579,
      "gor": 8580,
      "stret": 8581,
      "guns": 8582,
      "surprising": 8583,
      "ius": 8584,
      "ancy": 8585,
      "potentially": 8586,
      "],": 8587,
      "ansion": 8588,
      "CNN": 8589,
      "abs": 8590,
      "typically": 8591,
      "OL": 8592,
      "ultimately": 8593,
      "estimated": 8594,
      "1990": 8595,
      "bin": 8596,
      "carbon": 8597,
      "mouth": 8598,
      "leads": 8599,
      "environmental": 8600,
      "proposal": 8601,
      "Paris": 8602,
      "aters": 8603,
      "Note": 8604,
      "conclus": 8605,
      "complic": 8606,
      "poses": 8607,
      "neighborhood": 8608,
      "yards": 8609,
      "quar": 8610,
      "Sing": 8611,
      "ulate": 8612,
      "resol": 8613,
      "ups": 8614,
      "surprise": 8615,
      "fest": 8616,
      "attorney": 8617,
      "97": 8618,
      "cycle": 8619,
      "hurt": 8620,
      "83": 8621,
      "Andrew": 8622,
      "District": 8623,
      "Life": 8624,
      "equipment": 8625,
      "Daily": 8626,
      "vulner": 8627,
      "illa": 8628,
      "Labour": 8629,
      "Haw": 8630,
      "agent": 8631,
      "assum": 8632,
      "thr": 8633,
      "plants": 8634,
      "</": 8635,
      "turning": 8636,
      "chemical": 8637,
      "batt": 8638,
      "pointed": 8639,
      "factors": 8640,
      "applications": 8641,
      "NE": 8642,
      "Ul": 8643,
      "determined": 8644,
      "esterday": 8645,
      "convict": 8646,
      "determine": 8647,
      "ureau": 8648,
      "maxim": 8649,
      "animal": 8650,
      "94": 8651,
      "Blo": 8652,
      "urban": 8653,
      "legit": 8654,
      "drivers": 8655,
      "regarding": 8656,
      "excited": 8657,
      "minimum": 8658,
      "owned": 8659,
      "retail": 8660,
      "violent": 8661,
      "boost": 8662,
      "signs": 8663,
      "Hou": 8664,
      "TI": 8665,
      "ki": 8666,
      "phy": 8667,
      "streets": 8668,
      "seasons": 8669,
      "Card": 8670,
      "Du": 8671,
      "zy": 8672,
      "recru": 8673,
      "factor": 8674,
      "athe": 8675,
      "Dou": 8676,
      "Fig": 8677,
      "rapid": 8678,
      "Sour": 8679,
      "render": 8680,
      "Francisco": 8681,
      "presented": 8682,
      "Sum": 8683,
      "6d": 8684,
      "Jes": 8685,
      "gment": 8686,
      "random": 8687,
      "experienced": 8688,
      "confidence": 8689,
      "modif": 8690,
      "Four": 8691,
      "opportun": 8692,
      "OF": 8693,
      "pieces": 8694,
      "icide": 8695,
      "approved": 8696,
      "philos": 8697,
      "consistent": 8698,
      "mort": 8699,
      "quot": 8700,
      "alty": 8701,
      "Conserv": 8702,
      "tested": 8703,
      "supporting": 8704,
      "ruling": 8705,
      "Cam": 8706,
      "reci": 8707,
      "sector": 8708,
      "originally": 8709,
      "Greg": 8710,
      "remove": 8711,
      "anda": 8712,
      "dram": 8713,
      "seat": 8714,
      "letters": 8715,
      "twitter": 8716,
      "auth": 8717,
      "porary": 8718,
      "expressed": 8719,
      "Colorado": 8720,
      "Home": 8721,
      "antly": 8722,
      "honest": 8723,
      "string": 8724,
      "250": 8725,
      "mi": 8726,
      "ruption": 8727,
      "Cru": 8728,
      "Dar": 8729,
      "apart": 8730,
      "cluded": 8731,
      "ader": 8732,
      "collap": 8733,
      "pulled": 8734,
      "Director": 8735,
      "Mont": 8736,
      "sac": 8737,
      "isher": 8738,
      "ski": 8739,
      "Ev": 8740,
      "ause": 8741,
      "athlet": 8742,
      "remained": 8743,
      "constitution": 8744,
      "elections": 8745,
      "].": 8746,
      "Thank": 8747,
      "basically": 8748,
      "client": 8749,
      "youth": 8750,
      "arts": 8751,
      "visual": 8752,
      "humans": 8753,
      "specifically": 8754,
      "shape": 8755,
      "obviously": 8756,
      "default": 8757,
      "84": 8758,
      "listen": 8759,
      "Ze": 8760,
      "proof": 8761,
      "pursu": 8762,
      "square": 8763,
      "dream": 8764,
      "Reuters": 8765,
      "Bul": 8766,
      "cher": 8767,
      "evil": 8768,
      "regime": 8769,
      "grew": 8770,
      "websites": 8771,
      "Project": 8772,
      "handle": 8773,
      "relevant": 8774,
      "kins": 8775,
      "vehicles": 8776,
      "controlled": 8777,
      "powers": 8778,
      "System": 8779,
      "Kur": 8780,
      "wers": 8781,
      "explo": 8782,
      "Carolina": 8783,
      "Meanwhile": 8784,
      "cles": 8785,
      "terrorism": 8786,
      "rising": 8787,
      "occurred": 8788,
      "liberal": 8789,
      "stance": 8790,
      "olic": 8791,
      "Best": 8792,
      "Lake": 8793,
      "pull": 8794,
      "Next": 8795,
      "ji": 8796,
      "insist": 8797,
      "heads": 8798,
      "cean": 8799,
      "agement": 8800,
      "TS": 8801,
      "1980": 8802,
      "conducted": 8803,
      "rat": 8804,
      "itz": 8805,
      "Jr": 8806,
      "serving": 8807,
      "93": 8808,
      "Bat": 8809,
      "sale": 8810,
      "dynam": 8811,
      "Rem": 8812,
      "proto": 8813,
      "offering": 8814,
      "Rad": 8815,
      "wave": 8816,
      "ulty": 8817,
      "ashion": 8818,
      "BBC": 8819,
      "Hen": 8820,
      "Sa": 8821,
      "Sher": 8822,
      "Saudi": 8823,
      "rang": 8824,
      "Sovi": 8825,
      "graphic": 8826,
      "weren": 8827,
      "parent": 8828,
      "Human": 8829,
      "decre": 8830,
      "William": 8831,
      "appreci": 8832,
      "Club": 8833,
      "2001": 8834,
      "listed": 8835,
      "messages": 8836,
      "Michigan": 8837,
      "refused": 8838,
      "reduced": 8839,
      "stores": 8840,
      "Walk": 8841,
      "profile": 8842,
      "defined": 8843,
      "Palestinian": 8844,
      "exercise": 8845,
      "NY": 8846,
      "moves": 8847,
      "evening": 8848,
      "writes": 8849,
      "icient": 8850,
      "craz": 8851,
      "rom": 8852,
      "chip": 8853,
      "writ": 8854,
      "ISIS": 8855,
      "fold": 8856,
      "ours": 8857,
      "guarant": 8858,
      "recorded": 8859,
      "useum": 8860,
      "explos": 8861,
      "hat": 8862,
      "uster": 8863,
      "contrast": 8864,
      "cient": 8865,
      "perspect": 8866,
      "combat": 8867,
      "jail": 8868,
      "alcohol": 8869,
      "ayed": 8870,
      "Cath": 8871,
      "Sports": 8872,
      "instruct": 8873,
      "ogue": 8874,
      "voting": 8875,
      "Fur": 8876,
      "identify": 8877,
      "Korean": 8878,
      "bodies": 8879,
      "OK": 8880,
      "narr": 8881,
      "franch": 8882,
      "acted": 8883,
      "7d": 8884,
      "Thanks": 8885,
      "greatest": 8886,
      "tradition": 8887,
      "stars": 8888,
      "Island": 8889,
      "struggle": 8890,
      "Fre": 8891,
      "ques": 8892,
      "terrorist": 8893,
      "Max": 8894,
      "moral": 8895,
      "purchase": 8896,
      "abort": 8897,
      "zero": 8898,
      "broke": 8899,
      "advance": 8900,
      "motiv": 8901,
      "appointed": 8902,
      "pin": 8903,
      "truck": 8904,
      "attach": 8905,
      "',": 8906,
      "00000003": 8907,
      "preced": 8908,
      "involve": 8909,
      "Ohio": 8910,
      "Hal": 8911,
      "ordered": 8912,
      "campus": 8913,
      "plom": 8914,
      "Key": 8915,
      "stands": 8916,
      "graphy": 8917,
      "academ": 8918,
      "reference": 8919,
      "percentage": 8920,
      "backs": 8921,
      "nav": 8922,
      "asp": 8923,
      "loy": 8924,
      "entry": 8925,
      "differences": 8926,
      "shift": 8927,
      "discrim": 8928,
      "shar": 8929,
      "emergency": 8930,
      "Again": 8931,
      "talked": 8932,
      "calcul": 8933,
      "panel": 8934,
      "challenges": 8935,
      "Squ": 8936,
      "Wood": 8937,
      "wire": 8938,
      "combined": 8939,
      "emphas": 8940,
      "Vide": 8941,
      "plug": 8942,
      "assem": 8943,
      "Kel": 8944,
      "root": 8945,
      "Romney": 8946,
      "dish": 8947,
      "burg": 8948,
      "methods": 8949,
      "revenue": 8950,
      "afternoon": 8951,
[...]
