#version: 0.2
Ġ t
Ġ a
i n
h e
o n
r e
Ġt he
Ġ s
a t
e r
Ġ c
Ġ Ġ
e s
o r
n d
o u
Ġ w
i t
e n
i s
a n
Ġ p
in g
Ġ f
Ġ o
Ġ m
Ġ b
Ġt o
a l
Ġa nd
i on
Ġ d
l e
Ġ in
# #
a r
Ġo f
s e
i c
c t
s t
r o
e d
Ġ I
ĠĠ ĠĠ
Ġt h
Ġ y
Ġ h
Ġ e
Ġy ou
Ġ l
o m
en t
Ġ re
Ġ n
v e
Ġ is
e t
i l
Ġ u
## #
i m
Ġ g
a s
o w
Ġ T
Ġb e
r a
Ġf or
l y
c e
c h
i d
Ġth at
r u
o t
ct ion
o l
at ion
Ġ R
u t
i g
Ġ on
Ġs t
i f
ĠI n
a m
Ġ it
it h
Ġp ro
Ġ A
e l
Ġa s
v er
a y
o d
Ġa n
Ġc an
Ġc on
p on
u l
Ġw ith
u r
Ġ or
Ġa re
l d
k e
at e
st ru
g e
i r
Ġ S
pon se
p e
stru ction
ĠR es
Ġe x
ĠIn struction
ĠRes ponse
Ġw h
a d
Ġa l
Ġs u
Ġc om
Ġ C
q u
he r
ĠT he
er s
Ġd e
is t
Ġyou r
a b
u m
ou ld
es s
Ġ he
Ġ v
r i
an t
Ġh a
ĠĠĠĠ ĠĠĠĠ
t er
u re
o re
t h
e re
es t
o p
ou t
e m
it y
' s
Ġ P
p l
c k
Ġn e
m ent
a in
ig h
n t
Ġ H
p t
i ve
Ġ 1
Ġ -
or t
il l
Ġ "
Ġ im
o s
Ġ M
i es
Ġ le
Ġc h
Ġs e
Ġm e
Ġ W
u n
Ġu se
Ġ (
p le
Ġha ve
Ġ B
om e
Ġn ot
u s
Ġb y
ro m
a se
a ge
igh t
in e
Ġm a
e ct
i z
Ġ D
Ġs h
Ġd o
p er
Ġ F
id e
Ġw or
Ġ E
i al
i v
ou r
Ġ en
Ġa b
p p
Ġf rom
Ġin t
ic al
a nd
Ġu s
Ġp l
re s
t her
u d
ar t
Ġ 2
al l
Ġ G
Ġw e
Ġ L
Ġth is
o c
el l
Ġ =
Ġa t
ic h
o g
or m
am e
ĠT h
Ġ r
Ġ k
Ġa d
ab le
Ġim p
a ct
i le
Ġl i
Ġ O
a re
ion s
Ġm ore
u st
Ġcon t
r y
a g
ar d
c l
in d
` `
Ġo ther
ul t
r ou
Ġre s
ation s
an g
Ġwh ich
f f
Ġt e
f orm
k ing
- -
Ġs ome
Ġcom p
Ġthe ir
e p
Ġw ill
Ġ qu
s o
Ġw as
i e
ve l
Ġw he
Ġ N
a ck
l ow
g h
ĠTh is
o st
i re
Ġhe l
im e
it e
Ġg o
Ġs c
b le
c es
a st
en ce
Ġw ould
c ess
Ġc re
Ġ if
Ġb ut
an s
Ġhel p
Ġs pe
o o
an ce
Ġli ke
Ġ 3
Ġsu ch
d u
Ġm od
if f
Ġ j
u e
h at
Ġan y
Ġs o
Ġc l
ou s
at ed
Ġu n
a ch
Ġd at
Ġh as
Ġf e
k s
ĠI t
Ġm an
ic e
Ġ U
0 0
Ġab out
Ġa c
Ġs y
or y
Ġt ra
Ġd iff
Ġthe y
on g
ig n
x t
Ġm y
a c
a v
n ow
if ic
a p
Ġal so
ar y
Ġm ay
al ly
as s
in t
a ce
Ġ Y
Ġa r
Ġne ed
Ġ out
it ion
nd er
ra m
i p
Ġh ow
od e
on e
b er
cl ud
j ect
Ġthe re
Ġ ro
Ġcom m
Ġpro v
Ġe v
Ġc ould
Ġu p
Ġk now
Ġp re
Ġcon s
Ġthe m
Ġdat a
e nd
st em
Ġt ime
Ġ J
Ġex am
Ġimp ort
Ġd is
Ġal l
Ġon e
i ent
Ġin clud
Ġus ing
Ġuse d
et w
Ġp er
en s
or s
l o
Ġf un
Ġd es
a il
Ġspe c
n ing
Ġwh at
Ġdiff ere
Ġma ke
a ke
Ġa m
Ġint o
â Ģ
Ġit s
res s
at ing
Ġsy stem
ou nt
' t
o se
en er
ic s
Ġo ver
ar i
Ġs p
Ġne w
a u
c om
at er
or d
f t
c on
Ġs er
Ġ 4
a k
u al
le d
Ġc ol
Ġw ay
p ut
ĠY ou
Ġsh ould
f ul
Ġmod el
Ġc ode
iz e
Ġ *
Ġin ter
Ġad d
ing s
`` `
Ġu nder
l l
at ure
Ġ ke
ver y
u b
er m
il d
re e
ul ar
ang u
Ġfun ction
et h
Ġa p
T he
i ble
p en
o ve
n e
Ġe m
l es
ĠS t
Ġa pp
Ġthe se
Ġ 5
ment s
Ġ ru
Ġs im
Ġn um
Ġ ```
ol og
Ġp art
Ġl angu
vel op
ĠI f
Ġs et
Ġp os
Ġp e
Ġp r
ĠH ow
Ġh is
Ġwh o
at es
Ġt y
Ġexam ple
Ġp h
Ġpro g
Ġv al
ic k
Ġg et
Ġg ener
Ġwor k
Ġh um
Ġdiffere nt
Ġin d
Ġb u
ase d
ver s
is h
Ġre qu
il ity
Ġw ant
an ge
ou nd
Ġ {
Ġre l
p h
ĠĠĠĠ Ġ
Ġ |
Ġo b
Ġle ar
le ct
Ġth an
r it
ent s
Ġe ff
e ar
t e
Ġp ers
ri b
Ġwhe n
Ġe ach
ou gh
Ġman y
Ġde velop
g et
y s
i a
ow er
ro w
Ġst r
/ /
rou gh
Ġin v
is e
Ġ V
it ies
Ġfor m
ur n
Ġp o
Ġimport ant
Ġf ol
Ġ #
op le
Ġn o
Ġex pl
-- --
Ġ ra
at ive
Ġd et
Ġpl ay
e en
ic t
Ġt r
e ver
c re
o od
Ġm ost
W hat
ch n
rou nd
Ġv ari
pe nd
Ġ K
Ġs m
t ain
au se
ĠA I
ar k
ĠĠĠĠĠĠĠĠ ĠĠĠĠĠĠĠĠ
at h
etw een
ri pt
ir st
Ġin form
Ġcre ate
Ġwor ld
oo k
Ġex per
ag es
Ġwhe re
Ġb etween
Ġprog ram
Ġ <
( )
Ġpro cess
Ġprov ide
c ur
i ence
Ġpe ople
Ġthe n
st and
Ġt w
al s
Ġlangu age
ĠA s
Ġde f
g g
Ġof f
y th
le ase
Ġte chn
Ġbe c
ot h
Ġa ct
o v
Ġth rough
Ġf ind
ow n
p s
Ġst art
Ġ '
Ġas s
r ite
Ġfol low
w are
Ġcom ple
Ġin st
pl ic
se l
Ġl ist
Ġc ur
ter n
t ing
Ġbe en
Ġqu est
Ġpro du
re at
Ġpers on
Ġc al
i ous
c ed
Ġre g
w n
it s
Ġunder stand
Ġinform ation
i b
ic es
t en
Ġgo od
he s
Ġm at
Ġ [
o b
if e
Ġwh ile
Ġ }
Ġat t
ra ct
ĠHow ever
Ġj ust
yth on
ĠF or
c y
Ġch ar
Ġs ol
ent ial
Ġcomp ut
Ġ 0
Ġtw o
" ,
Ġw ell
d s
Ġtr ans
in k
Ġl ar
ay s
Ġc o
Ġad v
on s
Ġre p
er g
Ġspec ific
ce pt
Ġcons id
. .
u es
Ġf irst
ĠH ere
n g
al ity
Ġ 6
ar ch
e f
Ġdo es
s ible
m s
Ġg ame
Ġh igh
Ġa g
pe ct
Ġtra in
Ġ `
Ġf l
Ġw ere
Ġhum an
Ġre t
Ġf ile
Ġd ist
Ġc he
Ġre c
Ġre m
or k
ĠC h
v ing
Ġo pt
he n
iz ed
pp ort
Ġwe b
Ġon ly
Ġte xt
Ġal low
Ġp ower
Ġinclud ing
Ġsu b
d er
ĠĠ Ġ
o y
Ġke y
Ġnum ber
ical ly
ut ion
Ġa v
Ġs a
i qu
if y
Ġru n
Ġre f
Ġ +
Ġin f
sel f
n ess
re ad
Ġs ign
ur al
Ġb est
) ;
Ġg ra
ĠA d
t t
Ġt ake
ie w
Ġo wn
Ġt ry
ur ing
Ġs k
Ġbu ild
Ġb ack
Ġm ain
n ce
Ġf act
' m
re nt
ĠR e
f ore
v es
eth od
in es
Ġde pend
Ġbe ing
ere d
i an
v ed
en g
Ġcl ass
t s
Ġha nd
Ġ our
Ġl ight
Ġl ong
Ġpl an
Ġf i
Ġp op
Ġo pen
et y
Ġprov id
Ġc or
Ġm in
Ġper form
d ition
er n
Ġres ult
Ġ $
Ġse e
Ġdes ign
Ġl ife
Ġst ep
Ġf il
re d
Ġd on
s w
ĠT o
our ce
) .
r on
Ġde c
ĠH e
Ġchar act
u ch
Ġl oc
Ġh ad
a x
Ġd own
) ,
i ed
Ġapp ro
Ġimp ro
Ġm ethod
g or
Ġob ject
ĠĠĠĠĠĠĠĠ ĠĠĠĠ
ĠW hat
Ġp ol
se d
ction s
Ġ ide
Ġs oc
Ġ her
al th
Ġ2 0
Ġty p
H ow
ad e
i en
Ġm ed
Ġrequ ire
ol d
olog y
Ġar t
Ġe l
l ine
pl es
Ġpo int
Ġp ot
Ġex p
c ript
Ġy ear
Ġe very
Ġinclud e
Ġb ased
it ed
ir on
Ġex t
ot her
Ġpos sible
is m
ar s
od y
' re
Ġle ad
Ġe as
Ġe nd
Ġb oth
g an
ure s
Ġg u
Ġev en
at her
Ġst ud
Ġ 7
Ġg ive
Ġ1 0
m ing
Ġin s
ĠA n
Ġan sw
* *
Ġsm all
Ġlar ge
t y
Ġcomm un
Ġen g
Ġre al
Ġn ame
Ġpro ble
Ġeff ect
Ġ ent
il y
w ard
et ter
an y
Ġw ater
Ġin cre
Ġap plic
Ġm ight
b r
Ġm ult
Ġin put
Ġcomple x
our ces
Ġa ut
iz ation
r ic
he d
Ġle t
Ġ âĢ
Ġl a
gor ith
Ġpro m
f ter
Ġval ue
Ġlear ning
Ġcon f
â ĸ
c ial
Ġt erm
u p
Ġfe el
Ġt as
iv id
e x
C an
Ġd ire
Ġret urn
Ġp ar
erg y
ra in
im ate
Ġst ru
Ġ i
v ent
Ġlear n
Ġpro ject
ion al
Ġe qu
Ġs ur
Ġs om
Ġm uch
ature s
Ġto ol
v iron
Ġsu pport
ĠU n
Ġac c
r ing
Ġb etter
Ġb l
Ġd i
Ġpro per
Ġso ft
Ġty pe
ĠThe y
Ġme an
Ġto p
Ġcont ro
h ip
ro s
id ent
Ġal gorith
e g
Ġ 8
Ġof ten
er tain
Ġhe re
iv es
a king
Ġr ight
Ġbe h
ere st
Ġc ount
Ġs he
Ġm em
Ġfe w
Ġcur rent
Ġp at
com m
m at
Ġconsid er
ĠThe se
Ġc a
Ġen ergy
i er
âĢ Ļ
c ul
ĠA l
Ġknow n
u ally
Ġf in
an k
Ġa round
ĠW h
Ġ1 9
Ġs ame
Ġus er
Ġhe alth
Ġc ar
ab ility
Ġpart ic
Ġinv ol
ri end
Ġt ru
Ġn etw
Ġbec ause
) :
Ġ .
Ġh ard
Ġo per
Ġre ad
Ġdis c
Ġen viron
Ġre du
ĠO pen
e xt
Ġansw er
ation al
Ġfollow ing
ist ant
Ġbe l
ĠW e
Ġsu re
ĠThe re
Ġb re
as es
ĠC on
T h
Ġd ay
Ġpop ular
Ġbe fore
Ġw rit
i x
ĠP ro
n er
Ġpot ential
ar m
rib ut
Ġv is
Ġint erest
e w
ĠĠĠĠ ĠĠ
Ġwith out
o id
S ure
res ent
v ice
Ġ very
o x
u c
l ic
Ġm ade
s er
Ġst ill
Ġab le
is s
2 0
Ġe le
Ġ ve
Ġma king
am es
Ġw rite
ot e
ar th
Ġh ist
Ġf ree
Ġen s
e c
Ġc le
Ġsoft ware
ĠP ython
Ġac cess
Ġimpro ve
Ġcomm on
. "
in ce
i o
Ġp ur
v en
eth ing
Ġl o
Ġcon st
Ġg reat
t le
Ġke ep
t o
ĠA nd
th ing
Ġch ang
Ġmult i
Ġind ivid
Ġha pp
Ġag ain
a ir
re n
in u
v ices
Ġt em
el f
Ġse ver
Ġsystem s
Ġm on
Ġma ch
g in
m m
Ġdevelop ment
Ġ \
Ġto o
Ġbel ie
Ġm et
ple ment
Ġ ed
Ġcomput er
Ġcont ain
Ġres pon
Ġindivid ual
d ay
Ġc ent
Ġl im
al e
Ġle vel
Ġexpl ain
Ġc ap
con om
ist s
Ġenviron ment
Ġpr int
Ġsom ething
Ġcontro l
it ive
Ġtrain ing
Ġcomm and
e ad
Ġquest ion
Ġm us
---- ----
Ġst ate
Ġdire ct
w ays
gg est
Ġsever al
W h
a ve
Ġm ark
Ġst ory
in ess
Ġquest ions
iqu e
en se
Ġcharact er
Ġf ood
Ġph ys
Ġexper ience
Ġe lect
Ġis s
Ġpro f
el d
Ġf am
Ġth ings
Ġre se
ĠC an
Ġr ange
: :
Ġimp act
Ġprodu ct
ĠE x
im es
Ġsu ggest
ak es
Ġf oc
Ġs w
Ġm ove
Ġb lo
b ers
ĠS ome
= "
00 0
Ġweb s
Ġsim ple
Ġt est
Ġ x
p ro
( "
Ġa ir
Ġstru ct
Ġf ound
l u
n ot
comm end
Ġp ri
at ch
ater ial
Ġth ose
Ġstep s
re am
o pe
s c
Ġs elf
Ġp ub
Ġch all
Ġa fter
Ġp ract
Ġav ail
ĠD e
Ġsign ific
' ll
ra y
: //
Ġl ess
o ard
Ġre commend
Ġb as
Ġth ough
Ġm ess
et s
ind ow
d it
Ġc ult
oo king
y le
o ck
Ġg row
Ġprogram ming
Ġd id
m er
are d
ver se
ri es
l i
Ġc ause
i or
t ed
Ġ /
re ct
at a
' ,
Ġ vers
Ġpro t
Ġt ell
Ġyear s
Ġch ange
ust om
Ġsh ow
Ġf riend
Ġp lease
iv en
Ġm ust
Ġd uring
ic ult
I n
Ġpl ace
Ġl ine
he re
ent ion
n ect
Ġ est
Ġor gan
Ġsc ript
Ġ //
Ġout put
a pe
Ġan al
Ġim age
Ġm ov
Ġe conom
il ar
r or
_ _
Ġor der
Ġeff ic
c ing
Ġ Ð
Ġth ink
Ġli br
Ġl ook
Ġam ount
t on
in ed
Ġal ways
Ġcon cept
Ġexam ples
l ess
Ġim plement
ul l
c i
g er
Ġh im
Ġother s
Ġdet erm
Ġens ure
Ġ er
ĠB ut
ab les
em s
in al
at or
e e
Ġfe atures
Ġdiff icult
Ġfact ors
Ġex ist
Ġl ay
Ġas k
Ġb i
ĠC om
ill s
Ġsoc ial
d e
Ġcal led
Ġnetw ork
Ġres ources
Ġme ans
av a
Ġw ide
ell ig
v iew
v al
il ities
as h
in s
Ġadd ition
Ġgener al
us ion
um ent
Ġv ide
o h
Ġsignific ant
Ġn ow
Ġf ut
Ġavail able
p o
Ġc ost
Ġs it
Ġwor ks
Ġel se
Ġbeh av
ra ph
Ġg re
Ġperson al
ch ie
Ġm aterial
Ġu nt
Ġcom b
Ġunderstand ing
ĠU se
â Ķ
Ġf ast
ĠI s
k es
Y ou
s h
Ġs ource
ĠS o
tt ps
c rib
Ġs ize
Ġp ass
y n
Ġb ody
Ġmodel s
Ġvari ous
1 0
Ġche ck
7 7
Ġcal cul
Ġb r
el s
Ġmach ine
Ġa ff
Ġr is
âĶ Ģ
in ation
n ces
Ġre st
Ġan other
Ġcont ent
Ġser ver
Ġen c
Ġc ase
Ġproble m
Ġway s
pl ay
Ġtechn ology
Ġc ustom
Ġin c
o ot
Ġwh y
Ġneed s
Ġc are
l ish
er ing
Ġde m
Ġa chie
Ġres ponse
Ġact iv
if ied
o ice
Ġus es
p os
Ġg rou
oo se
Ġsp ace
Ġalgorith m
Ġfoc us
Ġtas ks
ros s
or ld
l ing
Ġb en
ĠA r
H ere
Ġd ra
Ġ 9
cur ity
f ace
u nd
Ġ z
ate g
Ġfut ure
" :
Ġd ri
he mat
Ġ es
Ġspe ed
Ġre as
Ġle g
Ġs ay
it al
Ġperform ance
c le
Ġ* *
Ġsa f
Ġus ers
Ġsim ilar
Ġ Q
Ġunt il
Ġ ident
Ġc ertain
ail s
" .
Ġwebs ite
Ġchall eng
r al
u ck
ant s
Ġar g
Ġinter n
led ge
Ġcon c
Ġma g
ĠAs s
] [
ĠD o
Ġs l
or ies
Ġst and
Ġinst all
Ġme as
Ġm ind
Ġl og
Ġany thing
Ġeng ine
Ġsh ort
ch an
w ay
Â ł
, ,
Ġallow s
Ġse arch
Ġpat tern
Ġmulti ple
Ġcomp any
Ġbec ome
Ġide a
os s
Ġrequ est
Ġrese arch
Ġan im
Ġun ique
Y es
at s
on d
Ġb us
Ġun i
is ion
Ġl it
p ar
ĠS h
ra ft
Ġp ort
at form
Ġchang es
n ame
Ġlike ly
at ural
Ġst ore
ĠW hen
us s
Ġtool s
Ġpub lic
Ġcor rect
ire d
p ort
dition ally
Ġyour self
Ġsu c
Ġsc ient
ver n
er y
Ġcol or
an ces
Ġhist ory
P I
um e
p ose
ĠG o
con d
âĶĢ âĶĢ
S t
Ġne cess
Ġint ellig
ĠO ne
Ġs ound
Ġc ell
Ġf ur
f or
Ġd ue
Ġre le
Ġval ues
Ġtyp es
w w
ul ation
Ġfi eld
Ġs ing
Ġinv est
p re
Ġstr ong
Ġs ent
ic ation
iv ing
Ð ¾
Ġint eg
em ber
Ġab ility
ĠS e
Ġapplic ations
Ġcont in
Ġp a
Ġwe ight
a z
Ġd el
Ġcont ext
Ġmean ing
Ġpartic ular
op h
ĠE arth
Ġmark et
2 3
Ġw ar
ĠP lease
Ġqu ant
Ġsk ills
Ġmat hemat
d ing
i um
Ġte am
ut e
Ġinf lu
Ġknow ledge
Ġconsid ered
Ġor ig
Ġprom pt
Ġh y
i res
Ġblo ck
id es
Ġo ld
inu x
Ġhum ans
ĠAd ditionally
Ġterm s
Ġdes crib
re ate
Ġs ince
Ġwor ds
Ġs qu
Ġpl atform
u g
w s
Ġnot e
Ġsu mm
Ġt ri
at ic
Ġfil es
c hes
Ġthe ory
Ġp ain
Ġpol it
Ġben ef
o ol
Ġl ow
Ġwith in
Ġcre ating
A s
Ġon line
Ġpre vent
er t
al k
eng th
Ġprovid es
an ced
Ġprof ess
Ġne xt
d ict
Ġtem per
ĠP l
ou n
ct or
Ġman age
Ġopt im
u ro
a ces
Ġp ack
Ġcon nect
Ġen ough
Ġrel ations
ro du
Ġpre f
Ġstruct ure
Ġg iven
Ġcan not
Ġstud y
pl oy
Ġev ent
Ġ X
il os
Ġloc al
ĠWh ile
b e
Ġbehav ior
am p
w ord
Ġg l
ress ion
Ġnum bers
ver t
lo ad
ut es
ĠE ng
Ġredu ce
Ġiss ues
Ġv iew
Ġto get
ir t
Ġtoget her
ĠS c
ĠW ith
Ġmess age
og n
Ġhe ad
Ġh ope
Ġsuc cess
P T
ab or
Ġbuild ing
p or
Ġo c
ol ution
p ri
er c
ĠO ver
Ġt urn
Ġd ig
ĠS p
ĠE n
Ġbe gin
Ġme chan
Ġstr ateg
Ġqu ick
Ġgener ate
Ġrep resent
âĸ Ī
Ġap pe
Ġth ree
Ġst re
Ġsoc i
b oard
Ġvers ion
v ant
Ġup d
< /
Ġ ess
Ġlangu ages
am et
Ġsu n
a ut
om et
Ġav oid
h or
ĠB y
our s
iqu es
d le
Ġdo g
Ġsome one
le ep
Ġst yle
I t
Ġbus iness
Ġl ooking
en cy
Ġqu ality
ĠU S
Ġmain tain
Ġrelations hip
Ġl ove
Ġdo c
Ġgo vern
Ġde ep
Ġwor king
t he
Ġs ide
mer ic
v ious
p y
Ġcom e
Ġma kes
m e
T o
Ġt able
pt ion
Ġagain st
Ġt re
Ġcom pon
Ġgo als
Ġwrit ing
) )
Ġn atural
ell o
Ġj ob
Ġeas y
Ġf re
Ġcont ribut
ĠâĢ ¢
( '
Ġb at
.. .
c ome
pl ace
ĠJ ava
Ġmus ic
an n
Ġse curity
Ġtra vel
Ġapplic ation
Ġeffect ive
ot s
ĠL et
oo ks
Ġc ir
ou se
Ġn on
Ġvari ety
c o
Ġm il
Âł Âł
Ġt akes
Ġmem ory
Ġk ind
A I
Ġf ram
Ġappro ach
Ġpri v
Ġlibr ary
ar get
Ġopt ions
b ack
Ġe ar
iz ing
ĠL inux
Ġnecess ary
1 9
j s
it ing
Ġdesign ed
Ġm ot
j oy
Ġser vices
m b
Ġtechn iques
Ġvide o
Ġp ast
Ġexper ien
Ġintellig ence
id ence
Ġfur ther
Ġare a
Ġro le
Ġdepend ing
l t
ar ies
Ġsub ject
Ġv ol
u nt
Ġspec ial
Ġs al
Ġ Z
Ġincre ase
imate ly
Ġ :
Ġg en
Ġh ig
Ġcle ar
Ġj o
en ces
ĠA meric
Ġha ving
Ġph ilos
Ġinst ead
Ġmin utes
Ġg r
The re
ĠAss istant
Ġind ust
dit ions
ile d
one y
om s
ord ing
o f
or ing
Ġch ild
Ġpoint s
" )
Ġproble ms
Ġl and
Ġsing le
( (
] ,
Ġs ong
Ġc r
se t
Ġm o
Ġreg ular
ver age
' ve
ate ly
Ġstr ing
Ġobject s
ur y
a pt
Ġa ud
ĠS he
Ġmethod s
Ġprot ect
ff ic
ac y
or n
Ġne ver
Ġeffic ient
1 1
Ġatt ack
Ġp ath
olog ical
Ð °
Ġcre ated
ist ic
Ð µ
ent al
Ġp ress
Ġb ro
Ġmod ern
Ġcl ose
Ġide as
Ġphys ical
ĠB e
a pp
u ation
st r
is hed
f ort
t ies
or ry
Ġcommun ity
z e
Ġp res
ient s
Ġhelp s
b y
ã ģ
ir d
Ġbas ic
ĠM y
Ġse cond
Ġtas k
i k
Ġcharact ers
ere nce
Ġrun ning
m ed
Ġd one
Ġsu per
ub e
am ed
le t
ip s
l er
li ke
H ello
m an
Ġsc en
Ġde p
Ġcomple te
Ġc y
Ġh ome
or ks
Ġt imes
Ġto day
Ġachie ve
Ġinvol ves
b al
Ġc all
ic ro
Ġg e
ib ility
Ġrem ain
uro pe
W rite
m l
ĠI m
Ġele ments
Ġn ature
Ġser vice
Ġadd ress
Ġresult s
Ġwor d
Ġm ass
te xt
Ġgrou p
Ġc ard
Ġe t
Ġtru e
Ġexpl ore
Ġ ĉ
l and
l ight
Ġs ch
Ġl ast
j ust
Ġe y
Ġaddition al
ĠC reate
Ġm or
Ġ >
ag ing
ent ly
Ġt arget
an ks
Ġeconom ic
Ġn orm
ĠP h
og le
ward s
Ġfam ily
Ġf ore
stru ct
Ġle ft
Ġc rit
Ġb ook
iv ed
Ġaff ect
+ +
in ter
an e
Ġsc ience
Ġl ot
am ple
Ġgra ph
ĠM ake
Ġch oice
ys is
Ġaut om
Ġacc ount
Ġquant um
E R
k en
Ġin it
Ġch oose
j or
Ġs ense
il t
ĠF in
p r
Ġb al
Ġh ttps
Ġtra ck
Ġra d
Ġs ort
Ġg ames
Ġrespon s
âĸĪ âĸĪ
a h
Ġpower ful
ĠUn ited
S S
ĠA PI
ĠW orld
iv ity
c raft
Ġdist ance
Ġreas on
, "
ne y
Ġal tern
op y
ill ion
b ased
ĠAd d
ly ing
Ġfunction s
irt ual
O N
o ver
it es
Ġp ython
Ġex erc
Ġset s
Ġris k
Ġre ce
Ġare as
nd om
c ol
dition al
p ath
um n
Ġen joy
Ġtyp ically
Ġc our
Ġf all
as k
Ġwhe ther
Ġdeterm ine
1 2
d en
Ġr ather
ĠO n
he ad
Ġgo ing
s ide
Ġ &
Ġser ies
Ġne g
Ġdepend s
I f
ĠO r
Ġf ar
ĠC l
ĠC he
Ġwe e
Ġsc re
Ġalgorith ms
Ġpolit ical
u se
Ġa ction
Ġb rain
as ing
pe cial
m it
Ġre ally
Ġcon ditions
oc i
Ġneed ed
Ġprofess ional
Ġs leep
Ġc ity
Ġform at
Ġp ie
Ġab ove
Ġpre dict
Ġbre ak
indow s
Ġh arm
Ġg lo
M L
Ġcol le
Ġpre vious
ĠC ons
Ġim ages
Ġrel ated
Ġeas ier
Ġlo op
i od
Ġb ot
Ġo p
ar ing
se qu
Ġsoci ety
Ġadv ant
s y
Ġuse ful
Ġplay ers
i pe
Ġb row
Ġtemper ature
Ġs ources
le x
Ġe th
Ġle ast
ĠD es
ry pt
Ġ< /
ro id
ĠE urope
Ġgo al
oh n
it her
ĠĠĠĠĠĠĠĠĠĠĠĠĠĠĠĠ ĠĠĠĠĠĠĠĠĠĠĠĠĠĠĠĠ
Ġoc cur
Ġ1 2
Ġev ents
Ġrequ ires
Ġtry ing
r ation
Ġst ay
if t
Ġcount ry
Ġp ut
Ġa way
Ġp resent
âĢ Ŀ
Ġpos ition
Ġb ig
Ġm oney
Ġv ary
Ġfriend s
st er
ĠH T
read y
Ġdef in
Ġmed ia
Ġs ens
Ġro b
= =
an cial
ĠO nce
Ġev idence
Ġex pect
Ġval id
Ġuni verse
5 0
Ġb all
Ġdiffere nce
Ġstand ard
t ime
ast e
olog ies
Ġdo ing
Ġdat ab
I s
Ġb ase
Ġindividual s
Ð ¸
Ġem ot
Ġtrain ed
o es
ĠĠĠĠĠĠĠĠ Ġ
Ġcle an
Ġl ive
w e
on t
Ġquick ly
Ġpro te
Ġrequire ments
Ġtrans form
pri ate
S T
en c
Ġex ec
Ġass ist
b s
ne w
Ġplay er
Ġstart ed
Ġpro b
Ġfe ed
Ġmaterial s
Ġscient ific
Ġchalleng es
Ġmeas ure
Ġinter act
Ñ Ĥ
Ġg ain
un e
Ġident ify
E x
P lease
Ġac cur
Ġcol l
Ġsa id
Ġex act
Ġt aking
Ġhelp ful
ĠâĢ ľ
u sed
Ġinclud es
ng th
t ml
is es
ere nces
c he
id er
Ġcount ries
P U
a ctions
Ġal ready
Ġph ot
ul ate
iz es
Ġdet ails
Ġoff er
Ġd r
Ġper iod
Ġpol ic
Th ank
Ġhapp en
ens ion
Ġca us
g round
Ġma x
og raph
Ġreg ard
Ġrec ogn
Ġre ach
Ġst at
Ġmin im
Q L
es e
Ġsh are
Ġd ark
ra g
Ġopt ion
Ġem ail
Ġprovid ed
Ġf ig
Ġne ural
Ġob ser
in ci
Ġl ength
Ġma jor
it ch
f ile
Ġ1 8
Ġlit tle
Ġhigh ly
em pt
av es
Ġdoc ument
Ġa ge
is ed
Ġf low
ke y
Ġatt ention
Ġhig her
u ra
Ġe gg
Ġf ac
ĠIn st
ĠD is
Ġgovern ment
1 5
Ġcon vers
Ġpar amet
Ġf lo
Ġad just
Ġro ot
Ġb it
Ġca pt
i us
et ic
ĠE m
c ious
Ġp ay
us h
ens ive
ĠOver all
at ors
Ġst e
Ġde vices
Ġlim it
it or
ro p
Ġproper ties
" >
ific ial
Ġstart ing
Ġer ror
Ġphilos oph
Ġf ull
Ġd ays
ĠK e
Ġdirect ory
d ata
ĠC hat
Ġmat ter
Ġp ost
un g
Ġ= =
Ġfin ancial
Ġcontin ue
pecial ly
Ġit ems
Ġro om
Ġpos itive
Ġpract ice
Ġn amed
Ġcon ne
Ġcour se
Ġcomp et
a iled
ul a
ĠY our
Ġlevel s
Ġanal y
ĠR em
Ġtra ditional
Ġd am
av or
Ġcons um
Ġloc ation
Ġbl ack
are nt
Ġpa per
ĠSt ates
Ġget ting
Ġdoes n
on es
nd s
ut ions
Ġra ndom
Ġthough t
Ġst op
Ġint rodu
pport un
T hat
Ġadv anced
Ġconc ern
Ġpattern s
Ġg round
Ġrele vant
ĠS et
ar b
Ġar ch
S cript
Ġl ower
Ġb ra
Ġwh ite
Ġass oci
Ġla w
u ild
ĠA p
Ġse qu
ĠN ew
Ġro ck
ou d
Ġde b
Ġsh ape
Ġhard ware
Ġth ing
Ġl oss
Ġar ray
Ġwide ly
Ġes pecially
Ġv i
Ġv irtual
Ġme et
Ġn ight
Ġappro priate
Wh y
Ġf ul
ron t
ien cy
Ġconf ig
Ġdis play
Ġest ab
Ġdat ase
im ent
Ġab s
Ġus ually
ĠG erm
Ġac ross
Ġbenef its
Ġw on
al king
Ġe arth
ific ation
a ult
Ġanal ysis
yn am
Ġm ix
ic ate
Ġan t
Ġc ru
c c
Ġr out
om an
Ġon ce
Ġsaf e
Ġsqu are
Ġre view
id th
ĠG od
Ġprodu ction
Ġa verage
Ġs orry
Ġc at
Ġc ases
ĠTh at
int s
Ġprodu ce
Ġcell s
g o
ra p
ang er
Ġ3 0
Ġcons ist
ĠJ ohn
Ġsm o
Ġfram ew
2 2
m y
Ġse en
Ġpr im
Ġbelie ve
ĠEng lish
Ġet c
Ġse lect
Ġwrit ten
Ġele ment
Ġess ential
c ient
in king
Ġpur pose
ĠGo ogle
Ġsch ool
Ġs low
ĠC al
du ct
' d
Ġf ace
Ġf ish
Ġvari able
Ġ ?
Ġd est
ĠA t
Ġpart s
y stem
G PT
in ing
Ġpos s
Ġgrow th
Ġprog ress
Ġeffect s
on al
Ġeff ort
Ġrequire d
Ġdra w
Ġorig inal
I N
Ġh ours
' )
Ġo pportun
Ġe ither
res h
Ġatt empt
cript ion
Ġem ploy
Ġa ctions
pect ive
Ġfre qu
Ġhe art
pl ain
ac hes
Ġintern et
Ġf it
Ġf und
Ġ2 00
Ġinter pre
Ġru les
is ions
ĠR ust
Ġad apt
Ġplan et
Ġproject s
Ġbl ue
Ġd iv
Ġl ab
il i
Ġprocess ing
Ġsol ution
r ight
Ã ©
Ġse par
ap s
Ġconcept s
Ġb o
ĠN ote
Ġbelie f
Ġ ver
Ġ1 00
Ġpr inci
Ġsmall er
l og
ĠC ol
ĠFin ally
it le
ab ilities
Ġcons cious
Ġed uc
Ġcon sequ
Ġbr an
r ans
Ġexpl an
ative ly
Ġt reat
Ġf ire
ar c
rib ution
ð Ł
C ould
Ġre d
Ġal ong
Ġcol lect
A T
Ġfor ce
id s
Ġan g
ab ly
Ġaut hor
ro ll
el ds
Ġbu y
al ing
Ġoper ating
Ġdatab ase
Ġdevelop ed
Ġfi x
iss ion
Ġw ood
Ġon es
p ly
ur ation
Ð¾ Ð
Ġnorm al
Ġinit ial
Ġglo bal
Ġne ar
ĠB l
ĠAmeric an
Ġp age
Ġcomp an
Ġoff ers
Ġlead ing
Ġsumm ary
s ource
d om
Ġprovid ing
Ġmanage ment
A M
Ġs n
Ġp an
Ġlong er
-------- --------
A N
s p
ak en
Ġin n
Ġde vice
cl usion
() ;
Ġsol ve
ag er
Ġb ad
Ġl at
Ġst ates
Ġindust ry
p ython
um p
Ġgener ally
Ġinc or
d o
v olution
Ġdescrib e
Ñ Ģ
Ġd ate
Ġyou ng
Ġit self
Ġmed ical
Ġstre ngth
Ġ â
ful ly
Ġproper ty
a ction
Ġm ar
Ġlar ger
Ġhand le
Ġam ong
Ġinterest ing
Ġlim ited
Ġproduct s
ĠHT ML
Ġw a
is on
ĠS er
Ġcom es
Ġ1 1
Ġcont inu
Ġj our
it ect
Ġb ar
al se
Ñ ģ
in ary
al f
Ġdet ect
Ġass istant
Ġhe av
Ġdec ision
h tml
y m
ul ations
Ġsu it
her s
Ġhist or
Ġconst ant
oun ter
l ict
Ġcompon ents
Ġsu pp
Ġh ost
ight s
Ġhapp y
lt imately
l ished
Ġh old
ose d
Ġsur face
Ġpri or
s on
or th
ĠA fter
Ġspec ies
Ġover all
Ġsit uation
Ġanim als
8 0
f ect
it ation
ĠJava Script
l ist
u ff
Ġ ing
Ġp ow
e ction
Ġbe com
Ġins p
Ġdisc uss
Ġb ring
Ġlo ad
Ġscre en
I D
Ġwe ather
Ġins ide
Ġcir c
Ġd ream
ig ate
Ġbeh ind
a ur
Ġlet ter
z z
Ġm id
iz ations
ĠE l
ĠL e
n y
au gh
Ġgu id
Ġmathemat ical
A R
o ad
ĠIn t
Ġref er
om en
ad d
Ġcommun ication
Ġiss ue
c ent
Ġb ed
Ġac cept
ww w
h ttps
Ġt ips
iv il
Ġev al
Ġbu ilt
O S
Ġu t
Ġcomp ared
Ġdiffere nces
L E
Ġc opy
Ġde g
iv al
Ġdevelop ers
Ġactiv ities
ic ial
ĠW indows
Ġact ive
Ġtrans l
Ġlay er
r ong
Ġmat ch
Ġco ol
Ġsur v
Ġcurrent ly
L ist
ĠAn other
Ġ1 6
ĠB rit
Ġarch itect
Ġhe at
Ġse nd
so le
Ġkey board
a i
Ġas pect
Ġsim ply
Ġeffic iency
Ġexperien ces
Ġf our
ĠN o
Ġcar b
Ġcult ure
g est
t al
os ing
red ients
Ġt er
Ġm is
a a
c s
w hat
Ġg ot
ĠM on
Ġr ate
Ġcult ural
Ġdig ital
P ro
pp ed
Ġem b
Ġprocess es
Ġvis ual
Ġleg al
R E
Ġd om
Ġgra v
Ġelect ric
mb ol
Â °
in a
Ġsy nt
Ġthrough out
m os
Ġw indow
av ing
Ġind e
sel ves
Ġve get
Ġn p
Ġpack age
Ġwee k
a im
l s
so ft
it ions
Ġd ynam
ĠW ar
d ate
Ġm om
ru s
s ing
Ġro ll
Ġplay ing
Ġparticular ly
Ġaud ience
Ġo il
Ġsc he
ict ion
Ġsol ar
Ġcomput ing
sy ch
Ġc ut
il es
ĠP er
Ġd er
Ġhe ight
n um
he l
un ch
Ġcol umn
Ġent ire
Ġsim pl
Ġtop ic
5 5
Ġch at
ell ing
Ġnetw orks
Ġaccur ate
ĠChat GPT
a w
m in
Ġ %
um ents
Ġwor th
Ġdist ribution
Ġinterest ed
g es
Ġo pp
Ġl ack
ĠM an
Th is
Ġear ly
ar ily
Ġl ives
Ġl iving
Ġconsequ ences
N o
Ġs at
Ġrec ord
Ġfi elds
Ġdown load
6 4
Ġsaf ety
Ġto wards
od es
Ġan cient
ist ics
Ġpl ant
Ġcol ors
Ġoper ations
Ġgre en
Ġappe ar
r ics
al y
ĠA re
Ġsu m
pl ies
Ġallow ing
Ġhealth y
Ġfast er
Ġa ware
ĠN e
Ġrep ort
t ings
Ġf ru
Ġre ality
el t
Ġ1 5
Ġspec if
ĠSt art
Ġevery thing
Ġinvol ved
ĠQ u
for ce
C h
or ial
Ġ= >
Ġdec isions
Ġart ificial
Ġdirect ly
c ure
Ġact ually
3 0
Ġh ab
Ġ- -
ff ee
Ġsy mbol
Ġro t
Ġfeed back
Ġassoci ated
1 6
b all
Ð ½
it ud
Ġim m
Ġrelationship s
im ens
ac ed
Ġdist ribut
is ing
ang le
Ġdes ired
Ġmon th
w rite
Ġy et
Ġn ut
ĠThe n
Ġcont ra
Ġche m
Ġstud ents
icro soft
m a
Ġc ook
Ġd anger
Ġn ames
iz z
ĠAl so
b ody
Ġa im
Ġl ater
Ġsc ore
Ġdi et
Ġcent ury
' :
Ġbec ame
âĸ Ĵ
Ġdri ve
ĠC ould
ist er
ĠN ow
cept ion
Ġrem ember
Ġinvol ve
Ġphys ics
Ġlibr aries
ra ge
Ġevery one
y pe
Ġcom fort
ri e
Ġim ag
vers ity
Ġbat ter
d own
e ch
Ġt ree
Ġh ot
ĠG ree
Ġvari ables
Ġactiv ity
] )
g en
Ġeas ily
L L
Ġ _
Ġst ream
Ġappro x
Ġcompan ies
Ġd ou
ĠT ry
Ġle d
ĠF r
Ġcomm it
Ġcomplex ity
Ġcommon ly
val ue
m on
Ġe ver
Ġpre c
Ġsp read
Ġback ground
âĶĢâĶĢ âĶĢâĶĢ
Ġey es
1 7
Ġse em
Ġdet ailed
Ġcontain s
le ar
Ġfe ature
Ġsa ve
Ġcent er
Ġdem on
Ġinflu ence
he t
ĠF irst
Ġno ise
ĠKe ep
Ġp ad
Ġe at
i ans
Ġl if
cl es
ĠChe ck
Ġframew ork
Ġb oard
Ġd ru
Ġspe ak
p ite
Ġ id
oc ol
Ġtechn ologies
d r
or g
Ġl ink
c are
Ġbe aut
end ed
Ġfeel ing
Ġmot iv
Ġsequ ence
Ġinn ov
f ra
u le
Ġadv ent
Ġadv ice
Ġaltern ative
i et
Ġto tal
Ġu pon
ra w
ru pt
ĠD ef
Ġpr ice
Ġfl u
ĠRe g
Ġconf lict
Ġbal ance
Ġeth ical
Ġmax im
i ate
Ġsuggest ions
Ġrecommend ed
Ġdam age
1 3
ĠP re
Ġcl imate
Ġdis e
Ġset ting
// //
Ġform ula
Ġcalcul ate
Ġdatase t
1 8
M y
Ġper fect
Ġinter face
Ġchalleng ing
Ġb ow
Ġse cure
Ġsh ap
Ġout side
Ġcomb ination
I T
f er
Ġt ax
Ġh or
Ġmag n
Ġpriv ate
Ġĉ ĉ
Ġneg ative
g ra
ĠP r
Ġrequest s
n ers
Ġb ooks
ĠI nd
Ġh ol
Ġem erg
Ġreas ons
g s
Ġb ud
Ġtop ics
Ġw arm
Ġmod ify
clud e
3 2
Ġc ross
Ġd ed
Ġqu ite
Ġno vel
Ġdef ine
Ġp y
Ġsm art
Ġequ al
ou th
Ġu r
Ġsu st
Ġthem selves
Ġfin al
e le
k y
Ġ ill
el come
ĠThere fore
Ġimplement ation
D o
h ing
ers on
Ġpl ants
Ġcre ates
Ġparamet ers
Ġconne ction
Ġf ine
Ġm en
Ġm ut
ĠR ed
op s
ck et
Ġform s
Ġprogram s
ĠCon t
ou rage
am ing
ap an
Ġrec ipe
Ġb ox
Ġfor ward
Ġmov ie
Ġchild ren
Ġrespons es
o le
ĠM od
ph as
Ġref ers
Ġequ ation
Ġproper ly
Ġmove ment
A re
Ġcon dition
ĠP C
Ġm illion
Ġin struction
ens ity
77 77
ure d
ast ic
ove red
Ġass um
b it
Ġh ouse
ren ch
Ġgrou ps
Ġsust ain
Ġhow ever
Ġmechan ics
Ġbut ton
Ġref lect
p are
Ġin j
am er
ĠM ay
u ate
Ġex c
Ġse as
ĠRem ember
4 0
Ġl ines
Ġg old
ĠA ll
ĠN ame
R L
r ist
Ġt aken
Ġw rong
Ġre place
Ġn av
Ġful ly
in o
Ġas king
Ġev ol
Ġwho le
Ġstrateg y
Ġexerc ise
c er
p ire
Ġ ][
ĠT w
ag n
Ġrel i
Ġrem ove
Ġegg s
Ġp sych
Ġf lex
od ing
pl ied
Ġapp ly
S C
re me
Ġm ount
Ġm ention
Ġsc ale
Ġla ws
Ġreturn s
Ġpriv acy
s u
Ġthe ore
ĠS u
ĠG et
Ġtru st
Ġgraph ics
Ġbelief s
b ase
Ġt aste
Ġf ight
ic le
Ġth reat
ri x
Ġfollow s
Ġstru gg
w orld
Ġt ur
er o
Ġstrateg ies
A D
f act
Ġch ord
Ġprinci ples
y ond
Ġt im
ĠM ar
res sed
ĠSt ep
ick en
Th anks
Ġplatform s
ograph y
g ed
as c
ĠĠĠĠĠĠĠĠ ĠĠ
Ġsur round
Ġgre ater
Ġpref erences
s cript
at t
ĠT ake
Ġres pect
Ġlist en
Ġmag ic
Ġpress ure
itud e
. ,
u el
Ġc ast
nd ing
Ġde ath
ĠF rom
it ar
it ary
now n
Ġarchitect ure
1 4
f riend
Ġc ivil
Ġvide os
ine craft
Ġcons ult
Ġrespon sible
Ġcompon ent
i eld
w h
as y
ow s
ĠS w
ail y
Ġarg ument
Ġmom ent
h ost
Ġp arent
Ġf ront
qu ality
ill ing
Ġse ems
ind er
Ġconscious ness
? "
a f
m ar
al le
Ġch ann
Ġman ip
f it
Ġth read
Ġsy m
Ġincre asing
Ġinteg r
or age
Ġw atch
con t
Ġpract ices
ĠD ata
Ġref erence
Ġblo od
Ġb ir
Ġab ilities
Ġsol utions
Ġco ffee
Ġinf in
Ġacc ording
Ġfam ous
Ġop in
E D
g ar
ore d
Ġimport ance
Ġche ese
Ġsal t
Ġadvant age
b re
Ġcl ient
ari an
Ġpie ce
Ġrob ot
ura cy
Ġc ore
ĠG e
ĠYou T
Ġph one
Ġexp ress
ĠDe velop
Ġjour ney
n a
w ise
Ġf ive
ĠS ince
Ġv ul
ĠE ach
Ġmod e
Ġlit er
ffic ient
s ize
Ġw all
Ġp ip
pp ing
Ġpo ly
Ġexper t
Ġupd ate
Ġexplan ation
s ive
ĠA m
ĠJ apan
Ġtest ing
at ives
Ġf oot
ĠS im
th ough
Ġch o
Ġsub st
Ġsk y
Ġline ar
Ġm ist
Ġqu ery
Ġcl aim
Ġbud get
Ġm it
Ġelect ron
Ġstruct ures
6 0
he nt
Ġth ird
Ġde cl
Ġma p
ram e
omet ry
a pon
ic ious
ac hed
Ġind ex
Ġconcern s
Ġbran ch
b ook
Ġc u
Ġn uc
ol f
Ġcon sole
ty pe
Ġbot t
Ġhistor ical
on y
Ġcont act
Ġem phas
Ġdet ail
Ġexper iment
o int
Ġg as
ĠL ear
Ġcre ative
Ġnum er
tern al
r ors
r ict
Ġen em
Ġact ual
Ġinst ance
Ġinterest s
ĠEurope an
Ġexec ut
Ġl y
ĠM e
un ction
ĠJ ust
lo ck
Ġacc uracy
Ġexist ing
h ow
re l
ĠĠĠĠ ĠĠĠ
et imes
Ġbe yond
Ġcon clusion
Ġ1 4
Ġ2 5
Ġte ach
Ġpass word
Ġorig in
Ġincor por
! "
Ġit er
ist ance
um b
Ġrespon d
Ġsuit able
N ame
al led
Ġnot hing
Ġcre ation
Ġadd ing
Ġ20 23
d iv
x y
Ġ ðŁ
Ġc up
Ġw alk
ag ed
Ġloc ated
Ġexp and
Ġeduc ation
r im
u ations
in ks
Ġw elcome
Ġf air
Ġf avor
Ġd aily
Ġst ress
Ġk n
Ġcause d
Ġorgan ization
M M
er ia
is ms
Ġp ick
ru e
plic ations
Ġpotential ly
Ġpur ch
Ġcustom er
Ġvul ner
Y our
p ass
Ġt alk
in ct
Ġm ental
Ġl ic
Ġst y
Ġdevelop ing
Ġpartic les
ĠWe b
Ġinde pend
9 9
am ent
Ġro w
Ġgu itar
% %
v ide
ĠR oman
Ġrem ov
Ġris ks
Ġdem and
Ġdemon str
2 5
u zz
Ġre pe
Ġne ur
Ġsh ad
ĠL i
Ġcre atures
Ġent er
Ġdel i
Ġvol ume
Ġs il
ĠF e
Ġfl at
Ġincre ased
1 00
ic les
Ġterm inal
Ġing redients
p ing
ro om
Ġh alf
Ġex ce
ri al
ound s
Ġexist ence
il led
Ġde ad
Ġgener ation
Ġscen e
Ġconvers ation
Ġopportun ities
o on
Ġc rypt
Ġsu p
ter m
ĠM icrosoft
Ġredu cing
iss ions
Ġcarb on
E N
ĠG ra
Ġr ise
Ġrel ig
Ġdire ction
Ġhealth care
Ġsound s
ÂłÂł ÂłÂł
Ġcoll abor
Ġdanger ous
Ð »
Ġf alse
am b
ri ed
Ġgo es
Ġmem bers
Ġvi ol
C ertain
o e
Ġn ode
Ġu nd
Ġhand s
Ġcap able
Ġsmo oth
ili ar
at ory
Ġp ush
Ġbe gan
ĠP y
Ġse cre
Ġspecif ically
t ers
om ic
Ġext reme
Ġelect r
ĠYouT ube
d ir
} ,
Ġf ail
Ġadd ed
Ġmeas ures
âĸĴ âĸĴ
Ġmed ium
Ġprom ot
Ġpref er
: **
i ation
Ġ- >
ĠM at
Ġinstruction s
d es
ad em
ĠO ther
Ġtrans port
Ġbre ath
Ġcap ital
Ġstate ment
Ġthe ories
Ġdes cription
Ġsp ir
ord er
Ġwant ed
enc ies
Ġpolic y
c an
Ġ1 7
Ġmess ages
Ġsuccess ful
Ġattack s
T P
[ '
w here
Ġ1 3
Ġpers pective
Ġmov ing
Ġcolle ction
Ġdou ble
` .
Ġc atch
Ġf an
ct ors
ĠS ystem
Ġv oice
ĠF rench
ĠG it
Ġcol d
Ġcomput ers
Ġhuman ity
Ġext ra
Ġmathemat ics
cc ording
c hed
g ame
Ġt alking
Ġm er
Ġst ock
Ġob tain
E T
w ar
~ ~
en e
le vel
ĠI I
Ġwe apon
ap ter
Ġext ract
Ġve ctor
ĠCons ider
Ġinterpre t
mos p
b ra
r id
Ġa x
le ction
ir m
ĠK ing
Ġfind ing
Ġadvant ages
f low
o k
ut ton
el ine
Ġch icken
Ġk ing
Ġsent ence
en ge
ĠG ener
Ġso on
Ġap art
n ed
Ġc amp
ir l
em ent
Ġqu e
Ġaut hent
Ġsom etimes
Ġchang ing
,, ,,
W hen
b l
in y
ch ain
Ġst orage
Ġeffective ly
Ġmil itary
Ġsym pt
p ot
s pe
Ġth inking
ra ck
ĠS QL
Ġpl ot
ĠL a
Ġgu ide
Ġconfig uration
a e
ĠT rans
ri ve
un k
ĠB uild
ĠG PU
Ġsc al
ac he
Ġdid n
Ġcost s
Ġconnect ed
Ġchem ical
Certain ly
at ivity
Ġm i
Ġst ar
ĠIn ter
Ġat mosp
Ġplay ed
Ġpop ulation
Ġeng age
Ġwebs ites
Ġemot ions
O R
t op
Ġle tt
ĠU ltimately
Ġtechn ical
Ġrep ly
Ġcap abilities
Ġsche du
Ġp air
ff e
Ġdef ined
Ġreg ion
ren cy
Ġeconom y
Ġscen ari
ell ow
Ġtrans fer
ĠOpen AI
ar r
ĠU sing
Ġval u
Ġcap ac
Ġey e
s ol
Ġw in
ess age
Ġch ain
ag raph
ep per
A n
H T
e es
v as
Ġc ame
Ġcl oud
Ġgener ated
hes is
ob ject
Ġco ver
Ġresult ing
d d
Ġst ars
ĠP ol
ĠM any
ast er
ip ment
ear ch
Ġfil m
? ?
U S
k nown
Ġt un
le g
Ġit em
Ġcon vert
Ġv ac
Ġap olog
Ġadv ance
Ġfl our
Ġ+ =
Wh o
Ġsupp ly
ĠGree k
e y
Ġm el
ight ly
Ġany one
Ġprom ote
Ġmach ines
Ġbelie ved
Ġcomp re
Ġcontain er
Wh ich
Ġdra g
Ġcaus es
ĠA v
ri ef
ĠP ar
ĠG u
hes s
pl ot
ire ct
ĠV is
Ġfl ight
Ġallow ed
Ġtru th
Ġcommand s
pos es
l ab
Ġ vel
in ate
it iz
Ġb an
Ġl ost
Ġg ram
if ul
Ġv ast
Ġma c
Ġcl ick
Ġra ce
ib r
Ġamount s
Ġphilosoph y
Ġsepar ate
Ġal ign
Ġhe ar
op t
ens or
Ġfil ter
2 1
C T
ou ch
et her
Ġwe ak
ass es
Ġrec ent
20 23
Ġer rors
Ġexact ly
. )
a it
m or
Ġc amer
ĠA ut
ĠO ut
Ġspe ech
Ġfe et
Ġengine ering
p art
ru n
Ġnot es
Ġrel ax
ĠCom m
Ġregular ly
Ġaspect s
C om
s um
in put
or ch
st ring
ĠD iff
res ents
Ġsw e
Ġlay ers
po int
Ġanim al
ĠGerm any
Ġbecom es
ell s
Ġ8 0
re st
Ġf ing
## ##
Ġim med
ĠB at
Ġmy self
Ġsee k
** **
Ġconsist ent
t rain
Ġst ra
Ġser ve
at ically
ĠIn tern
Ġme ant
us er
Ġpl aces
Ġret rie
Ġenvironment al
Ġcontribut e
ĠDef ine
Ġsympt oms
es tern
Ġg od
id ed
ur ance
Ġthough ts
Ġapprox imately
m ost
Ġd ry
Ġru le
Ġlar gest
Ġinf ra
Ġh ar
id den
ur ies
Ġsu ff
Ġres ource
Ġcomp are
Ġro ad
Ġoff icial
b i
ir ing
ĠH is
Ġun it
Ġtra de
Ġrep resents
ĠWh y
Ġgrav ity
Ġb ur
ĠM inecraft
Ġse g
ĠD on
Ġtechn ique
Ġmo le
Ġexerc ises
Ġcaus ing
g ing
Ġ ir
Ġveget ables
A L
Ġm ent
pl ate
ĠCh oose
Ġbrow ser
' ]
Ġp hen
ces sed
Ġar r
Ġmil k
Ġbro ad
4 5
A l
a ks
n am
st ep
Ġre lease
ĠT e
ĠC SS
and roid
Ġinv ent
Ġext ension
Ġfig ure
Ġcapt ure
Ġestab lished
e per
Ã ³
Ġs ides
Ġto mat
Ġbe low
ers hip
ĠG ood
ific ations
Ġequ ipment
Ġcent ral
Ġpie ces
9 0
h old
Ġs ample
Ġl ate
Ġl ooks
am s
Ġcl ar
Ġrel atively
Ġcrit ical
Ġrout ine
Ġlat est
Ġt ables
il s
il ing
ĠC o
oc al
ous ly
Ġset tings
Ġremain s
Ġanaly ze
ĠP e
Ġk il
Ġdef e
Ġdef ault
Ġprompt s
Ġmo on
Ġexpect ed
Ġw ind
Ġm icro
Ġha ir
Ġfact or
Ġstud ent
Ġpolic ies
N A
Ġm iss
le y
Ġg ives
Ġev il
Ġright s
Ġuni vers
I M
P S
` ,
d is
Ġc os
ĠA f
qu e
ĠV al
Ġimpro ving
Ġmet al
Ġrele ased
Ġinflu en
Ġevent ually
(( ((
Ġphilosoph ical
Ġprim ary
Ġmid dle
O k
o ff
w ork
Ġc hess
Ġre in
Ġre ward
Ġst able
Ġus age
Ġnew s
Ġ5 0
plic ation
Ġvis it
Ġfoc used
Ġchall enge
Ġcontin ues
Ġmor al
âĸĪâĸĪ âĸĪâĸĪ
== ==
Ġmention ed
Ġly rics
Ġvalu able
C on
S D
v est
id ing
ol l
Ġhe ard
Ġestab lish
Ġut il
I G
w idth
Ġp epper
Ġm ob
Ġac adem
Ġcult ures
Ġest imate
Ġorgan izations
pos ition
Ġprote in
Ġs ite
Ġv ill
Ġse a
Ġen h
Ġfeel ings
Ġintern ational
Ġcomplete ly
Ġpow ers
H i
b ox
is f
Ġe ating
as ure
ch ange
Ġex h
os ition
Ġch ance
Ġr h
Ġask ed
Ġsit uations
struct ure
Ġang le
Ġbatter y
Ġschedu le
Ġm al
ĠM in
-- -
ac ing
Ġstr ings
Ġexp ression
Ġinvest ment
Ġdr ink
ĠAp ple
I nt
c os
Ġa w
an a
Ġf resh
Ġre pl
Ġv ar
Ġfil led
Ġrest rict
Ġes c
Ġlimit ations
Ġ ri
Ġd en
ve re
ut orial
res pon
ĠTh ank
ĠN ot
Ġcl os
Ġmy th
Ġout line
ib ly
yn c
Ġlog ic
Ġbat tle
Ð° Ð
re g
Ġb ul
Ġsupport s
Ġdog s
Ġphen omen
A r
g ram
r ror
Ġt rou
on ic
re es
Ġf at
al ax
Ġst d
Ġansw ers
Ġprob ability
Ġ ice
it ory
Ġas se
Ġv ia
ĠM ark
Ġres ol
ĠCh rist
Ġsk ill
Ġdep th
r is
Ġb ound
Ġre act
ĠH igh
ĠG PT
Ġk new
Ġinst alled
Ġmem ber
Ġread y
Ġbr ight
Ġprob ably
alle l
- >
I m
r an
Ġ ]
Ġs ou
Ġin stru
op er
ĠSt ud
Ġvis ion
Ġapolog ize
7 0
^ ^
h ood
m ore
Ã ¼
Ã Ń
Ġc ounter
an ish
Ġl abor
el ines
Ġsu gar
ĠC ent
ain s
Ġtra ffic
Ġser ious
Ġreg ulations
Ġco ord
Ġclass es
Ġcommun ities
Ġtoo k
ĠDes pite
Ġdefin ition
= '
} {
Ġm other
as sed
Ġpro s
Ġqu al
Ġac com
au ce
Ġ4 0
Ġapp re
Ġra in
Ġsa w
Ġrese arc
Ġbi ases
Ġcompre hen
o ke
Ġs pl
it er
ke nd
ge bra
Ex plain
Ġcomfort able
C l
ic y
ed s
Ġst ories
Ġcon ver
and s
** :
Ġcustom ers
cs v
Ġneur ons
Ã ¡
ĠW rite
Ġcomp at
] .
s m
Ġd ough
Ġl uck
ul ating
Ġcur ve
Ġpur poses
Ġcru cial
Ġbow l
z ing
Ġw ild
Ġg irl
ĠA c
Ġte nd
Ġ} );
Ġbehav i
Ġstat us
F or
Ġm ath
om b
Ġdo ctor
oc r
Ġr ich
Ġbut ter
Ġopen ing
Ġstud ies
âĸ ĵ
Ġbi as
Ġrece ive
ĠBrit ish
Ġdynam ic
Ġsty les
2 00
u a
er v
Ġo s
Ġman ner
Ġlearn ed
ĠAr t
Ġsl ightly
Ġhy d
ĠGerm an
Ġprior it
u fact
ra d
Ġst atic
ĠE U
Ġun like
Ġke ys
Ġind ic
Ġpartic ip
Ġread ing
St ring
Ġweight s
Ġupd ated
Ġmaxim um
Ġatmosp here
Ġt our
ar ry
ra se
Ġex ternal
pl oad
Ġle ave
Ġdo or
ĠN orth
Ġcre dit
Ġthem es
Ġfunction al
Ġpart y
ib ilities
Ġcommun icate
Ġdeterm ined
Ġc ro
it ution
pon ent
Ġmod ule
Ġspec ify
ress ive
Ġatt ribut
Ġsubject ive
unt u
Ġheav y
friend ly
6 5
O M
f l
h aps
it ter
ĠF l
Ġunder lying
Ġhy pot
Ġbeaut iful
Ġb read
ĠS un
Ġex cept
.. ..
Ġrun s
Ġla pt
Ġblock s
Ġjob s
A S
R e
od ies
Ġplan ning
not ation
Ġgrow ing
Ġshow s
Ġdise ase
Ġappre ci
P E
c or
Ñ ĥ
Ġw idth
am ples
Ġor d
Ġde v
Ġab st
row s
Ġoff ice
Ġrecommend ations
Ġrest aur
Ġfavor ite
Ġcamer a
D e
Ġc ooking
Ġw ent
it em
Ġspec ified
Ġrep os
Ġshe ll
__ __
we ight
Ġcontra st
g y
m ain
u ed
he st
ant asy
Ġpe ace
Ġsk in
Ġarg uments
Ġtre es
ĠEm pire
Ġsat isf
2 4
l ay
r ices
re f
Ġb rief
Ġd ie
ar ge
id ity
ol ute
ĠS ol
ĠP ort
ĠO ur
Ġfunction ality
Ġcorrect ly
ĠInst ead
Ġbott om
d f
Ġc raft
Ġd ivid
ic ed
ĠR uss
ad es
Ġcom ing
ĠD uring
Ġclass ic
Ġmus cle
Ġstore d
C P
o very
ic king
as cript
ĠA ct
ĠA pp
el i
Ġcon v
ad a
av ascript
row n
Ġass ume
Ġpar ad
ĠCom p
ĠDis c
Ġadvent ure
Ñ ĭ
Ġs av
ro l
Ġe p
Ġg ar
Ġcon duct
ĠS m
Ġsy n
xt ure
Ġdevelop er
Ġsw itch
Ġrepresent ation
Ġassist ance
er ies
Ġcon struct
Ġal ien
Ġsh own
Ġsh ared
Ġen able
Ġclass ical
Ġexp ensive
Ġdisc over
Ġcir cle
Ġfore st
Ġg iving
Ġhe ro
em ale
ĠW ould
Ġun its
Ġap plied
Ġimpro ved
Ġmot ion
Ġprote ction
ĠAf ric
Ġinfluen ced
Ġre b
ĠT ra
ul ated
oc ity
ĠU RL
Ġed ge
ĠSp anish
Ġharm ful
Ġsynt ax
force ment
G ive
a res
d ef
Ġa st
Ġon to
am ental
ĠA g
Ġdi verse
Ġcapac ity
Ġinfra structure
a per
re t
Ġn ice
et ch
Ġg ather
ĠA ust
Ġal gebra
Ġv oid
Ġle aves
ĠL ist
form ation
Ġpar agraph
Ġess ay
Ġrad ius
" );
ĠD r
ĠO ff
Ġstart s
Ġgra du
Ġcor respon
ern ame
Ġart ists
Ġest im
Ġspir it
r ig
in st
ot t
ĠH er
pt ions
Ġse ction
ĠD et
ĠO f
Ġmat rix
Ġeng aging
Ġdisc overed
ĠPl ay
Ġbegin ning
Ġexperien ced
Ġautom atically
T H
l ib
ing u
Ġd f
ĠP ract
Ġun able
Ġman ufact
Ġredu ced
ec ause
Ġfam iliar
po ints
co in
m od
p ack
Ġp le
Ġb le
st yle
Ġh at
Ġma ster
ough t
Ġsol id
ĠRe act
Ġcar ry
Ġpract ical
Ġland sc
Ġrece ived
' );
@ @
I I
Ġf elt
se ct
Ġst ri
cl us
ness es
Ġlight s
Ġpar allel
Ġdescrib ed
Ġcontribut ions
Ġchann el
l ife
p ed
Ġ iron
Ġt utorial
or ation
Ġpro ced
ĠC O
ĠU p
Ġarg ue
Ġemot ional
Ġobser v
ic ing
ĠM ed
Ġra p
ĠCh ar
Ġkey word
Ġenviron ments
Ġflo at
Ġfund amental
Ġâ Ī
Ġcirc um
c oh
l in
s he
Ġt it
in clude
er ve
Ġc ab
Ġd in
Ġh it
ĠC PU
ard s
con nect
Ġinter actions
Ġfre ed
Ġpres ence
Ġacadem ic
Ġp et
Ġp assed
Ġm ill
Ġb illion
Ġis n
ĠR un
Ġst ack
os sible
tt p
Ġide al
Ġinput s
Ġaccess ible
Ġmi xture
i ra
p m
â ķ
Ġs auce
Ġp and
Ġb inary
ĠT ime
ist ry
ĠP ower
Ġme at
Ġsign al
Ġlim its
Ġfood s
iven ess
Ġscient ists
Ġbrow n
" ;
C reate
] ;
Ġc itiz
Ġb ank
Ġg aming
ce l
Ġcl im
Ġman ager
Ġsp ort
angu age
Ġ} ,
Ġhigh light
ĠInst all
IG HT
coh ol
U R
Ġme al
ĠE ast
Ġinter f
Ġapp s
Ġmag ical
Ġjo in
Ġfix ed
Ġder iv
Ġseas on
Ġnav igate
Ġreli able
p x
Ġf arm
Ġto ken
Ġh idden
Ġim plications
os is
os ure
iz er
Ġcomp ar
Ġmat rices
Ġguid ance
S V
T T
Ġ Â
Ġ vert
Ġt all
ĠI N
Ġre v
Ġpro p
est s
Ġwe ar
Ġcre d
Ġhelp ed
ish ing
cur rent
Ġpot at
Ġlay out
Ġfram e
or ous
Ġh unt
Ġre ps
ĠT V
ĠL at
po on
Ġsumm ar
Ġupd ates
Ġcy ber
Ġ ;
Ġin e
ĠĠĠĠĠĠĠĠ ĠĠĠĠĠ
ĠUn ion
Ġmov es
Ġcontinu ed
ĠFr ance
b utton
m ap
u gg
Ñ ı
Ġt one
Ġt ouch
Ġb oot
Ġl ived
Ġu pload
Ġfor ces
ĠB ob
Ġget s
Ġfollow ed
Ġmed ic
imens ions
E rror
c ies
e ed
ĠA ccording
ess ion
ill a
os en
ĠM ach
Ġsh op
ĠE lect
Ġr at
ĠO b
ĠN ext
Ġover come
Ġmon itor
oun c
abor ate
or ge
Ġp ict
Ġo ven
st ood
ro y
ĠI D
con ds
Ġsol ving
Ġz ero
Ġminim um
Ġtreat ment
Ġdeg ree
fra c
Ġshap es
Ġrepos itory
! !
C E
p es
al t
Ġd ial
ic ks
ĠA b
Ġmod ified
00 00
Ġcomm er
Ġsol d
Ġve h
sc ale
Ġcare er
Ġoc c
Ġphilos op
Ġsustain able
Ġ ,
Ġ __
Ġp in
Ġf uel
Ġb ird
et er
ĠR ep
Ġsu s
Ġde ploy
Ġac id
Ġsp aces
Ġform al
Ġtr ig
() :
ef ore
Ġtru ly
Ġhim self
ĠAmeric a
Ġprim arily
Ġhab it
f ig
en ed
Ġl ov
Ġde eper
ĠW ill
Ġr ough
ĠJ S
Ġpr ime
Ġass ign
Ġmov ies
Ġrecogn ition
Ġconsum ption
Ġbra nd
c al
p ir
Ġ ...
ar ray
ce an
Ġan ime
ri er
ĠW estern
Ġad ult
Ġwill ing
Ġun s
oth ing
Ġperson ality
Ġprint ing
ĠCom put
Ġinc ome
Ġintern al
i ant
n el
Ġt ab
Ġt ag
Ġb orn
im age
Ġcom ment
ab y
ag ue
Ġthere fore
com ing
() .
Ġgu ess
ĠUn i
ĠEx pl
Ġleg s
Ġtri angle
rodu ction
Ġmeet ing
Ġinnov ation
e vent
g u
n o
n et
t itle
Ñ Į
Ġc ars
Ġw ave
Ġd im
ĠA R
un ge
Ġpo em
Ġfol der
ten ance
D ata
O ne
f ree
ĠM ax
Ġse x
Ġwe alth
Ġk it
Ġcont ract
Ġpo or
Ġexpl oring
Ġbenef it
Ġefficient ly
) ^
o in
r ate
Ġ ign
Ġd ensity
Ġy ellow
ĠP art
Ġ" "
Ġpl t
ĠG ame
Ġwork ed
Ġra ise
Ġdi agn
js on
Ġregard ing
Ġdocument ation
Ġelectric ity
ĠLear ning
Ġvel ocity
O f
V iew
b untu
Ġ Î
Ġc ou
Ġd imensions
st ream
Ġh our
ur t
ĠS at
Ġal t
ĠL ook
Ġimp ossible
ff ect
Ġso il
Ġoper ation
ĠPro vide
Ġopportun ity
Ġdeg rees
imens ional
Ġmonth s
ounc il
Ġ il
Ġth ick
om y
ĠS pe
Ġde cre
os ite
ĠB it
Ġsim ulation
Ġrem ote
Ġpat ient
Ġhapp iness
Ġcare fully
Ġinteg er
Ġoptim ization
ĠCal cul
es h
Ġf ill
Ġn ational
Ġu lt
am m
Ġpro of
ens es
Ġtrans ition
Ġfl avor
Ġappro aches
Ġhig hest
Ġphot os
c ount
l ines
Ġb ac
ĠP ot
ĠN etw
ub lic
rough t
Ġfact s
:: ::
Ġachie ved
Ġabs or
Ġcopy right
ffe ine
W e
i ers
Ġ )
Ġc oding
Ġre volution
ce ler
ul es
ĠL L
ber ry
Ġident ity
Ġjo ke
go ing
Ġnuc lear
Ġpurch ase
Ġsecre t
lab el
m p
p ow
an cing
Ġp en
Ġre nder
et ime
ĠT ype
ĠS k
Ġex change
ĠH um
ĠB oth
ite ly
Ġhas h
Ġgood s
Ġatt ract
Ġfin ally
Ġspecial ized
Ġge nder
Ġge ometry
Ġenem ies
Ġmob ile
[ "
l en
Ġt itle
Ġa gg
Ġc op
Ġc ogn
se ction
Ġh om
ent y
Ġan n
um ber
Ġdes cript
Ġthan ks
ines e
Ġobject ive
ĠâĢ ĵ
Ġconsider ing
ock et
Ġcomb ined
Ġinsp ired
augh t
Ġsurv ive
E n
w rit
z er
ou rag
Ġf ict
ic ated
Ġst age
Ġst ability
ck er
Ġ2 4
Ġper m
Ġover view
cre te
ĠRe ad
Ġsee king
Ġ19 9
Ġprot ocol
Ġbusiness es
b ed
c ast
y our
Ġw ish
Ġw aste
as p
ab et
Ġsh all
ĠF ind
Ġdist inct
Ġplan e
Ġtemper atures
Ġmor ning
Ġpad dle
u ce
Ð º
en ing
ĠI d
Ġh on
Ġre ve
ĠR et
ut s
ind ex
ang ing
Ġser vers
Ġart icle
Ġincre d
Ġ19 8
ĠDo es
az on
Ġsong s
pr int
Ġfrequ ency
Ġlett ers
f rame
i ately
p an
Ġt ail
Ġg ard
ĠA tt
Ġal cohol
Ġte le
Ġinclud ed
Ġens uring
Ġed iting
Ġdistribut ed
a ign
Ġp ig
ate gor
ĠD ay
âĢ ĵ
ll ent
ĠSt ar
Ġinf l
Ġgra nd
ash ing
Ġsay ing
Ġtri ed
ĠMay be
Ġexpert ise
xy gen
Ġstra ight
Ġil leg
c ode
l a
Ġ !
Ġ @
Ġs on
Ġv oc
ĠH ave
un ately
Ġint ended
ĠG reat
Ġfe ar
Ġdis h
Ġpr ices
Ġrec ip
ify ing
Ġrecogn ize
ĠBl ack
Ġbecom ing
izz a
Ġweapon s
Ġcomprehen sive
S P
S QL
r m
Ġto ld
Ġde al
um s
ĠE nd
Ġj ump
ĠU nder
Ġac qu
ap pend
Ġdes k
Ġthan k
pend ing
Ġprodu ced
pect ives
Ġchang ed
Ġoutput s
Ġenc ourage
Ġblock chain
Ġmaintain ing
Ġmil es
AI ON
Ġparamet er
Ġcompet ition
Ġeval uate
het ic
Ġmen u
Ġcommer cial
im al
ĠT ext
Ġal most
ĠThe ir
pt y
ĠM er
oc ument
ĠĠĠĠĠĠĠĠĠĠĠĠĠĠĠĠ ĠĠĠĠ
Ġass ess
Ġdec ide
Ġent ertain
Ġsuggest s
Ġair craft
Ġwa it
ĠPract ice
Ġrap id
h and
Ġa id
st art
Ġv ict
ĠM ore
Ġle aving
ĠU buntu
ĠJ ames
Ġexper ts
Ġmat ches
Ġrep air
Ġext end
Ġlead s
Ġcare ful
Ġcy cle
Ġimmed iately
t es
or us
ot es
ig ation
Ġte as
ie f
ex ample
eg in
Ġstudy ing
Ġcr is
Ġconne ctions
U T
Ġto wn
Ġg alax
Ġch osen
âĢ Ķ
Ġstr ange
Ġexper im
tt y
Ġbas is
Ġdri ving
Ġold er
Ġtri p
Ġvalid ation
Ġemploy ees
Ġfru it
c hen
d a
er al
Ġw alking
it ate
Ġex ists
um in
ĠD i
ĠL anguage
Ġ6 0
Ġsign als
âĸ ĳ
amet er
Ġmass ive
ele br
Ġflex ible
Ġpriorit ize
Ġabst ract
O pen
e qu
t able
Ġw aves
Ġb ru
le an
Ġre actions
et a
ĠT est
ĠRes earch
ph a
Ġ| |
Ġpers pectives
Ġreg ions
Ġpopular ity
Ġimplement ed
be ing
Ġprec ise
Ġhor iz
Ġswe et
Ġfict ional
O T
b ing
b ar
Ġf ly
Ġf antasy
Ġst ick
Ġas ync
Ġal one
ĠM ac
ĠG r
oc ur
ĠJ ack
com es
Ġfl ag
Ġdec ided
Ġloc ations
Ġins urance
Ġeng ines
Ġread er
Ġoptim ize
Ġappe ars
Ġsoci et
ER T
Ġwon der
Ġhab its
Ġnumer ous
Ġcamp aign
f ol
Ġd u
ĠB efore
ĠE conom
Ġspe nd
ĠJ an
ĠĠĠĠĠĠĠĠĠĠĠĠ ĠĠ
Ġconst ra
Ġtem plate
Ġpub lished
Ġimplement ing
Ġaff ord
Ġview s
Ġabs olute
Ġeffort s
Ġimag ine
Ġresearc hers
Ġunlike ly
Ġlapt op
ĠJS ON
7 5
l or
p ace
Ġc ry
Ġc ert
ic a
Ġmay be
Ġgener ating
Ġwant s
Ġatt end
Ġequ ival
ĠAnd roid
pose d
ĠSc ience
Ġaccur ately
Ġemb ed
Ġbir ds
Ġsup plies
m ark
m aking
p at
s ub
u gin
re al
it ches
ĠA N
Ġcon vent
ĠS ub
ain t
Ġse conds
us es
Ġsh aring
Ġk id
ĠY ork
Ġoccur s
hold ers
Ġaccom pl
T ell
d ed
r s
y ear
or ter
it ial
ol t
Ġnot ing
ĠF orm
ĠG raph
Ġli k
Ġqu eries
Ġhelp ing
Ġwork out
Ġve ctors
As s
Ġstandard s
Ġstrength s
H E
d imensional
q l
s k
t ical
Ġc ake
Ġw oman
Ġu ltimately
Ġcan vas
Ġv ibr
ĠF ur
ĠE very
Ġmed itation
Ġins ights
Ġtest s
Ġfound ation
Ġconc ent
Ġfac ing
Ġflo or
Ġrelig ious
Ġretrie ve
" ?
O P
R I
U n
Ġc and
Ġf ans
ĠR E
ĠA nt
os es
ĠM ain
Ġpl ans
Ġli qu
ĠIt s
Ġlead er
Ġcontro ll
ĠWh ich
Ġgreat ly
Ġcharacter istics
Ġopin ion
ĠAust ral
z y
Ġ ic
er ate
Ġth us
Ġpre pare
Ġprof it
ĠEx ample
Ġconc ise
Ġdel icious
Ġgl ad
por ary
Ġextreme ly
Ġenh ance
P L
j ava
m ers
s uch
u ber
Ġc m
ra ction
ot ic
ĠM ost
ĠW here
ĠG re
Ġem issions
() )
Ġgreat est
ĠPl ace
Ġpack ages
Ġgr id
Ġreview s
Ġfish ing
Ġsimpl er
Ġtur ning
Ġscenari o
C ol
k ens
r t
Ġs em
Ġp ap
Ġf ro
Ġth ous
ad vant
Ġv an
ĠP i
ag on
ĠIm plement
Ġful f
Ġappear ance
ĠReg ular
fit ting
Ġfreed om
3 3
i os
Ġo xygen
ce ed
ur s
ust er
Ġag re
oy al
Ġhard er
pro per
ĠEng ine
Ġremain ing
Ð ¼
in ated
Ġp uzz
Ġm ir
Ġb aking
ic ians
ĠE nder
ach ing
Ġset tle
ĠCh inese
Ġhand ling
Ġpersonal ized
Ġmarket ing
fort unately
Ġlab el
Ġconstant ly
Ġparent s
Ġcho ices
Ġexce llent
Ġelectr ical
= {
z en
Ġf asc
Ġcom ments
pl ays
us ing
Ġsh oot
Ġpl enty
Ġev olution
Ġmain tenance
Ġbre aking
Ġve gan
Ġsent ient
Ġpa id
Ġprofess ion
Ġfrequ ently
Ġbran ches
b ot
o om
p ress
in ating
he rent
Ġm ood
Ġg all
ĠT rain
Ġbe at
ru st
ap i
Ġout comes
Ġob st
Ġport al
Ġstore s
Ġinteg ers
Ġpredict ions
Ġdest roy
Ġopp osite
Ġopin ions
Ġmiss ing
p ad
y d
y ing
er se
en n
id ents
Ġhe ld
ĠĠĠĠĠĠĠĠ ĠĠĠ
th og
ĠB ecause
Ġad vert
Ġfun ny
Ġem pty
Ġca ffeine
gin x
pro cess
ĠÐ ¸
Ġfast ing
crib e
ateg ory
Ġturn ed
Ġbro ken
Ġclose d
ĠĠĠĠĠĠĠĠĠĠĠĠĠĠĠĠĠĠĠĠĠĠĠĠĠĠĠĠĠĠĠĠ ĠĠĠĠĠĠĠĠĠĠĠĠĠĠĠĠĠĠĠĠĠĠĠĠĠĠĠĠĠĠĠĠ
Ġhappen ed
Ġintrodu ced
Ġaccept ed
Ġlif est
Ġcrypt ocur
ĠAv oid
Ġgar lic
thog onal
c a
p air
s s
t d
y dr
Ġf emale
est ed
un ning
ĠB est
ĠL im
oo oo
Ġph rase
Ġmon it
rid ge
Ġhyd ro
Ġt act
Ġc ities
ic it
Ġh i
Ġne ut
ĠN ational
Ġind icate
pect ed
Ġequ ations
Ġmove ments
pr ise
Ġinj ury
Ġparad ox
B ase
H P
Ġs and
Ġs izes
Ġg ave
ĠS ch
op en
Ġpl ugin
Ġun c
ens ions
Ġwork ers
stand ing
Ġexp osure
Ġmult ip
Ġcontain ing
Ġenc ounter
Ġguid elines
Ġlandsc ape
C ont
S e
S orry
Ġs ad
Ġp un
Ġp ull
Ġto w
Ġd ance
Ġn ative
id ay
Ġon going
ith ub
Ġpro port
ir ation
ĠH arry
Ġr ates
Ġcomp il
ans ion
Ġdes ire
Ġcal end
Ġpartic le
Ġteam s
Ġgen re
Ġcrit eria
Ġsort ed
Ġsurv ival
Ġsurround ing
Ġbir th
Ġelectron ic
Ġilleg al
D P
e k
n al
in f
Ġre put
ĠC re
Ġcre ativity
Ġspe nding
Ġman aging
Ġdiff er
Ġadd s
Ġext ensive
ven ue
Ġhapp ens
Ġgl ass
Ġdep art
Ġobser ved
ĠTw itter
Ġindepend ent
Ġcircum st
ĠFur ther
c m
u it
Ġc rack
Ġc elebr
Ġp ages
Ġm outh
Ġb and
Ġd war
ar p
Ġbe ans
ck s
Ġplay s
Ġco oper
ern el
Ġshe et
cul es
Ġmet ers
Ġstate ments
Ġmechan ism
Ġdream s
Ġpy game
ĠPe ople
Ġphenomen on
G B
T ext
l ength
p erson
y l
Ġ q
er ry
Ġf iction
Ġb urn
ĠA M
ri ents
Ġpl astic
ĠN one
Ġwould n
Ġinform ed
plic ated
Ġ[ ]
Ġcomput e
Ġfl av
Ġtyp ing
Ġtyp ical
Ġel aborate
Ġimprove ment
Ġinflu ential
Ġdoc uments
Ġcolle ge
Ġearth qu
ĠGe orge
ĠAm azon
rel ated
Ġcollabor ation
Ġcab in
ĠMach ine
Ġconstra ints
8 9
A B
d b
d den
h op
o ly
t r
Ġthe rm
Ġs ays
ĠIn cre
Ġsu dden
ant ic
Ġse vere
Ġj ud
Ġj oy
Ġro ots
Ġpre tty
Ġown er
Ġcor por
Ġbi ological
Ġrad io
Ġdeb ate
fra id
Ġesc ape
Ġderiv ative
pow ered
Ġequival ent
A P
G et
d ri
u ps
Ġ rom
Ġd iction
le ment
Ġy es
Ġl inks
et ary
Ġan x
ĠW he
Ġ2 2
og ram
Ġr ound
Ġun ex
Ġtra ding
Ġcould n
Ġcons ists
Ġag ent
Ġreal istic
Ġcalcul us
arb on
Ġattempt s
ĠLi ke
Ġmer ge
Ġspl it
Ġappreci ate
Ġcogn itive
U I
f ast
i ance
l n
ã Ĥ
Ġt al
in ant
Ġn odes
ad o
Ġsh orter
ĠE ven
Ġr ice
Ġout come
ĠRe volution
Ġclass ification
Ġla unch
Ġcontro vers
Ġkeep ing
Ġed itor
Ġcent uries
Ġhy per
Ġpain ting
ours es
Ġaud io
Ġbeaut y
Ġevol ved
Ġtheore m
ĠDiff usion
ĠId ent
T ime
m ber
Ġc ats
ent ral
Ġst ir
Ġpro ve
Ġne ck
Ġnot ation
iz ard
ĠTh rough
Ġcont ents
Ġres pective
Ġdiff usion
Ġfi ber
Ġvers at
az i
Ġaffect ed
Ġsens itive
Ġinteract ive
Ġbo ost
Ġroll s
//// ////
w hel
Ġa head
on ds
ar ter
pt ic
ĠL ED
Ġsc ope
ble m
Ġup gra
Ġstr ict
Ġdi am
ĠWh o
Ġtre nds
ocol ate
Ġlic ense
Ġlifest yle
b les
m en
m ax
Ã ¤
Ġw omen
an cy
Ġand roid
ic ian
Ġbe ef
ĠS outh
ep th
Ġac celer
Ġjust ice
Ġpass ion
Ġfocus es
Ġoptim al
Ġpast a
Ġindust rial
Ġprevious ly
Ġincor rect
Ġliter ature
Ã³ n
Ġw inter
ar a
ĠT uring
Ġst im
Ġst uff
ĠA ng
th is
ĠP ri
ment al
ĠF ace
res ident
ĠL AION
Ġr id
Ġdet ection
Ġperform ing
ĠAl tern
Ġstrong er
Ġturn s
Ġgen etic
ĠDes ign
Ġcolumn s
Ġded icated
Ġauthent ication
Ġgram mar
Ġtutorial s
' ;
u ary
u nder
v ar
Ġ ou
in ations
Ġc ub
ĠR ick
ĠW ord
ĠL o
Ġte ch
Ġdis hes
Ġover whel
ĠSt ring
Ġnum py
Ġtechn ological
Ġlight ing
ĠCon st
Ġvers ions
ellig ence
min ist
ĠJapan ese
pass word
Ġrh yth
Ġbehavi ors
Ġcitiz ens
D es
b an
m essage
p read
r in
Ġa fraid
at us
Ġp ure
Ġh op
Ġl ose
ur ch
Ġv it
ĠM ag
Ġad op
ang es
Ġpre p
Ġsp in
Ġcol on
ph one
Ġoff ering
Ġlist ed
Ġlight weight
Ġmeaning ful
ug ment
Ġsuccess fully
Ġstrugg le
Ġpand as
A C
F ile
N ow
W S
a el
u x
Ġc ategor
Ġp izza
ar ant
ro ot
Ġe ase
Ġg it
ĠC ity
ab ric
Ġsh ot
Ġres istance
Ġsign s
Ġcomb ine
Ġdatase ts
Ġprinci ple
Ġter rain
Ġill ust
Ġclos er
Ġcircumst ances
" ]
3 5
F T
Ġs in
or ough
Ġcan cer
igh b
Ġnot ice
ĠG ive
ry ption
Ġpos itions
Ġplan ets
ĠEn c
Ġfore ign
col or
Ġexec ute
Ġminim ize
Ġmix ed
Ġking dom
Ġmole cules
Ġresol ve
ocr atic
clus ive
3 4
L P
in ates
ra ys
ĠC ode
qu est
Ġv s
ĠD rag
ĠE p
all ow
Ġset up
Ġra re
Ġsub mit
Ġpol l
Ġsignificant ly
ĠAr ch
AT E
Ġinterpret ation
ĠTe chn
Ġtomat o
Ġpotat oes
Ġ"" "
6 7
b ru
h ouse
u k
Ġ ###
Ġs ell
Ġc in
Ġw ire
Ġw ings
Ġm ask
Ġre cur
Ġor bit
oc ation
Ġr ig
Ġsc an
Ġcre am
ob by
Ġcomput ational
Ġreal ized
Ġimpact s
Ġinvest ing
ĠUS B
Ġprotect ed
Ġbro ther
Ġaltern atives
Ġemerg ency
Ġfail ure
0 1
G ener
I d
L ine
S I
S ome
W here
c ase
Ġd ro
Ġin h
Ġy e
ra nd
Ġon ion
Ġal though
ĠP HP
ĠD ec
Ġ2 1
Ġli ber
Ġj u
Ġsp ent
Ġfind s
Ġrec ently
Ġref erences
Ġrob ust
Ġintrodu ction
Ġeval u
Ġmanip ulate
Ġasse ts
R es
n ote
t xt
Ð ´
on na
or a
it arian
Ġo cean
Ġm ale
ro te
id ate
Ġcon ve
Ġch uck
ĠD NA
ĠE st
ĠL ight
ag ine
Ġj son
Ġro ws
Ġser ved
ĠK ore
Ġsm ell
Ġcomple ted
ĠCh ina
": "
Ġbal anced
Ġmist ake
Ġcu is
Ġcorrespon ding
âĸĳ âĸĳ
2 8
S o
a cles
c ra
l ink
p age
Ġs ac
al ysis
Ġd rop
ĠI P
ĠR AM
ĠA lex
out put
ĠP ros
Ġdo cker
ĠE th
Ġat oms
Ġper ce
Ġrel ative
ĠÐ ²
Ġminim al
Ġexplan ations
num ber
âĸĵ âĸĵ
Ġtit les
s v
u ge
Ñ ĩ
in it
ed ia
Ġl as
Ġre ly
ch ron
if ier
Ġex cess
ĠC SV
Ġsh ift
ap h
Ġexpl icit
Ġgra d
Ġsupport ed
Ġbre aks
mm et
Ġnecess arily
Ġbenef icial
ĠOr thogonal
Ġwee ks
---------------- ----------------
Ġfru its
Ġmotiv ated
Ġfing er
Ġcou ple
proper ty
s ort
Ġc ourses
Ġb act
Ġre write
ĠIn itial
Ġcon struction
cl ient
Ġqu iet
ĠN ode
Ġun f
Ġmy ster
ac her
Ġser ving
Ġph ase
ential s
Ġel im
Ġent ry
Ġsit es
Ġcomb at
Ġenc rypt
Ġcr ime
Ġcard s
Ġperiod s
Ġflow ers
Ġter rit
hel lo
Ġentire ly
Ġdise ases
Ġexc iting
Ġmit igate
Ġrepl aced
Ġtrou ble
Ġast ron
2 7
e ctions
m ut
Ï Ģ
igh ter
Ġdis advant
Ġdis plays
Ġdisc rim
Ġanim ation
Ġinteg ration
Ġbegin ner
Ġstre t
Ġpsych ology
Ġdefe at
eli hood
Ġteas poon
G reat
f unction
n om
u ke
Ġl os
Ġis ol
ra ctions
ĠR ef
ur d
ĠC opy
Ġne ighb
Ġme ets
Ġwor ry
ĠL ife
act ive
ag ers
ang ers
ĠSt able
Ġprog ression
Ġcal m
ĠAn y
ĠUn ity
hip s
ĠAl though
Ġcar ro
In ter
oh ydr
Ġsent ences
Ġsn ack
Ġtransl ate
Ġnuc le
ĠDisc ord
S c
W ell
r atch
Ġa er
or row
Ġw ides
Ġf ather
Ġto x
Ġth orough
ĠC ar
ant ed
ant um
Ġpl aced
Ġsp ell
Ġunder stood
Ġmost ly
Ġag o
Ġprovid er
Ġart ist
Ġend s
Ġvis ible
St ate
Ġmechan ical
cent er
Ġcontra dict
âĶĢâĶĢâĶĢâĶĢ âĶĢâĶĢâĶĢâĶĢ
Ġgradu ally
ĠUni versity
Ġbac kend
T e
] (
ĉ Ġ
it utions
Ġp ul
Ġp ix
Ġb odies
Ġre ct
ru ption
am in
ĠS T
Ġ1 000
ĠM oon
ĠE d
Ġpre par
Ġlist s
ĠPro gram
Ġpur su
Ġcontrol s
ĠÐ ¿
ĠCl ick
Ġstat istics
Ġdiv ide
Ġcivil ization
Ġinfin ite
ĠComm un
Ġprofession als
O ST
V al
b ash
d irect
i ety
l ier
t un
Ġf ox
Ġb rought
le te
st ate
Ġch ocolate
Ġup per
Ġover l
Ġgu arant
Wh ile
Ġavail ability
Ġengine er
for ward
omet ric
Ġsch ol
ĠHT TP
Ġant ib
Ġcook ed
Ġpromot ing
ĠRuss ia
Ġcompar ison
Ġrat io
Ġkit chen
Ġcuis ine
Ġwides pread
R O
g re
r ine
Ġ ##
Ġc v
Ġc as
Ġw ife
Ġw rote
ĠP ers
Ġ2 7
og ue
Ġpers ist
ĠV R
Ġtext ure
Ġ20 22
Ġcalcul ated
Ġsearch ing
Ġmechan isms
Ñģ ÑĤ
Ġdom ain
Ġenem y
Ġexh ib
Ġrestaur ant
Ġcry st
Ġcalend ar
E S
P G
l ocal
y nt
Ġ Ã
Ġt en
Ġc odes
it ute
Ġb ub
Ġre action
ist ical
ĠM us
ĠB re
Ġun a
Ġprodu cing
Ġperform ed
Ġele g
to ken
Ġfriend ly
Ġintellig ent
Ġcy l
Ġslow ly
Ġdraw ing
Ġrestrict ions
Ġaccompl ish
' },
A nd
B y
F rame
H ey
t est
Ġc oc
Ġp or
Ġre ached
el p
Ġhe s
ĠM id
ĠB ack
Ġbre ed
Ġspeed s
Ġlog ical
Ġsun light
Ġpres ident
land s
Ġregard less
aa aa
Ġinnov ative
SC II
Ġdeli very
plot lib
Ġrein forcement
cos ystem
Ġcro ps
entral ized
E O
P r
S ocket
i pp
t ent
v is
y e
Ð ²
ĉ ĉ
it ational
Ġm erg
Ġin sect
ed y
Ġl en
ol ic
ĠF oc
Ġ2 3
Ġwe igh
orm al
Ġdes pite
Ġsp ot
Ġsp ells
Ġsw im
Ġindust ries
Ġcr im
Ġcrit ic
ĠSer vice
augh ter
Ġmount ain
Ġmist akes
Ġcu ps
Ġremov ing
Ass istant
D O
p arent
he ight
Ġs ix
Ġw at
an notation
se curity
et ing
Ġfor get
ĠS ee
ĠC ur
ĠM ort
ĠW ork
Ġint u
Ġ2 6
lo at
Ġser ves
ĠSt e
Ġrep et
Ġbl og
Ġwrit er
Ġenc ryption
Ġoptim ized
Ġaware ness
Ġchord s
Ġtransport ation
spe ed
Ġlov ed
Ġcris is
Ġprep ared
f in
m ission
t em
Ġ ×
Ġs ister
Ġc able
Ġd oll
Ġh ous
Ġe cosystem
Ġre form
Ġg ift
Ġcon ven
Ġcon crete
rou p
Ġcomp ile
Ġcl ub
ĠY es
Ġi P
Ġconsider ation
Ġprint s
Ġcontrol led
ĠPl an
Ġposs ibilities
ĠInt elligence
Ġtransl ation
Ġthread s
Ġwatch ing
Ġelectr ons
Ġsuff ering
Ġcompat ible
ĠLL M
nom ial
J J
O L
Ġc ategory
ch ing
ĠR ob
ĠM art
Ġnot able
ud d
Ġpre m
ient ed
Ġinter view
Ġpart ies
Ġdef ines
Ġsw itches
omet ers
Ġear lier
Ġfall ing
Ġframew orks
Ġinterpre ted
Ġmatch ing
ĠJan uary
Ġunc ertain
8 5
m ath
in i
is k
Ġy og
as ion
ol es
ĠA SCII
Ġal i
ore s
ĠF ire
ĠF lu
Ġint el
cl ass
ult ure
Ġsc ratch
Ġown ership
Ġmain ly
br id
Ġconf ident
Ġorgan ized
Ġinstall ation
Ġpolit ics
ĠAdd ress
Ġformat ting
Ġfig ures
Ġanaly zing
Ġchann els
Ġclaim s
Ġsummar ize
Ġunex pected
T rue
Ġt iny
in formation
Ġs now
Ġb oss
Ġin her
Ġth row
Ġh ttp
ĠT y
her n
ĠP erson
Ġch op
rom e
ĠL android
cl ick
Ġcl ock
ber t
Ġform ed
Ġconf usion
Ġoper ator
Ġmon ad
Ġtell s
ĠÐ ½
Ġfocus ing
Ġdescrib es
ĠIm pro
Ex ception
Ġvi rus
Ġcontinu ous
Ġrefer red
Ġincorpor ate
Ġvac u
ĠVis it
Ġgard en
Ġlik elihood
q rt
t ion
Ã ¶
Ġf irm
Ġh tml
ĠC y
ĠP ick
Ġse ed
res ult
Ġdis rupt
ens us
ock er
Ġstand s
Ġrepresent ing
Ġclean ing
ĠMon day
Ġgrav itational
Ġrepe ated
Ġanx iety
9 7
b uild
e fficient
Ġt rib
at ur
Ġw indows
Ġo k
Ġm eth
le ts
Ġre new
am a
Ġpro pos
od ed
ĠS n
ere n
ell a
ag ram
Ġun known
Ġper haps
Ġem pire
Ġdef end
Ġbuild ings
Ġback up
Ġdesign s
Ġsw ord
Ġcheck ing
Ġlog o
Ġinvest ors
ĠMod el
Ġincreasing ly
Ġweak nesses
Ok ay
Ġmanufact ure
ĠBit coin
l ive
r c
Ġt ong
he et
Ġf usion
ic o
il let
ra b
ĠR ome
ĠS il
ab ul
ĠM arch
ĠD ep
ĠL arge
Ġother wise
Ġwhe els
Ġro les
com ple
Ġobject ives
ien ces
Ġel if
Ġdisc overy
air s
ĠSe cond
Ġrepresent ed
Ġcall s
Ġreason ing
Ġnear by
ĠBrit ain
Ġflex ibility
Ġtheore tical
Ġlisten ing
Ġdecl ine
train ed
Ġhar vest
Ġclar ify
Ġobst acles
6 8
B ut
E LE
b ow
d em
g ent
i am
t ra
er ts
Ġm ic
ar ah
ĠI S
ĠS ur
ere nt
ĠB en
ĠL ord
Ġso cket
Ġthem e
Ġapp lying
Ġexpl oration
cre en
Ġ< <
Ġchar ge
Ġincre ases
Ġdifficult y
Ġcontribut ed
Ġintrodu ce
Ġpow der
Ġconflict s
Ġthreat s
Ġwall s
Ġpoly nomial
Ġvulner abilities
ĠIntern et
A dd
E lement
S h
Ġa ugment
Ġc ache
Ġb ond
Ġin ner
Ġe ch
Ġfor g
Ġsu ited
est ion
ĠL ast
ĠO pt
cre ate
Ġinst itutions
Ġ} ;
Ġdist ances
ody nam
Ġsur ve
Ġoper ate
ĠCan ada
ĠEx plain
Ġcustom ize
Ġclose ly
Ġdep ict
Ġinsp iration
Ġmagn etic
ĠSu per
ĠLear n
ohydr ates
3 8
A d
a ust
i pl
n es
s es
s ers
Ġc aught
Ġp d
Ġth in
id en
ĠS al
ĠS SD
Ġcom plicated
Ġse lection
ĠB i
us iness
oc ial
ĠN P
Ġtr ick
Ġ$ \
Ġconsider ations
Ġed it
Ġcharacter ized
Ġeth ics
ograph ic
arb age
Ġlab els
Ġcut ting
Ġstream ing
umb b
Ġinstru ment
Ġdescript ions
Ġmir ror
ĠFurther more
' .
A p
C H
k a
he m
Ġl oyal
ch ar
ot al
pe are
nt ime
Ġint ent
ĠL ua
ang ed
com fort
Ġpart ner
Ġart icles
Ġmem or
Ġsignific ance
Ġloop s
Ġop ponent
Ġdr inking
Ġadvance ments
Ġhunt ing
Ġcooper ation
ĠMort y
( [
C C
F eed
M essage
P y
b in
re m
re ngth
Ġc row
Ġw is
Ġm ission
Ġn ose
if orn
Ġpro posed
od ay
ĠC or
Ġim per
ĠM ich
Ġch ron
ĠD AN
Ġ2 8
ĠG old
ast ing
Ġcre ature
vers ion
Ġra w
ĠRe c
sc ore
Ġbas ics
Ġenc ourag
ĠQ ue
ĠSe curity
Ġcoll ap
Ġant i
Ġhold ing
Ġdeli ver
Ġviol ence
Ġscenari os
Ġspirit ual
ĠNetw ork
asp berry
Ġexperim ents
Ġmonit oring
( {
P ath
T X
r ange
v in
v ision
w ik
w orth
se nd
Ġn one
Ġn ull
Ġbe ar
Ġst one
ĠM a
ĠTh anks
Ġad opt
ĠO F
ĠĠĠĠĠĠĠĠĠĠĠĠĠĠĠĠ Ġ
ĠâĢ Ķ
Ġfeel s
ĠEx per
Ġsuggest ed
sh ape
Ġsumm er
Ġbegin s
ĠIm age
mit tent
Ġstay ing
Ġdest ru
resh old
Ġrefer ring
Ġrecord s
Ġpict ure
Ġbact eria
iforn ia
d raw
g ener
i pping
r ition
t a
t hen
â Ļ
Ġs en
or king
it ure
en ame
Ġo d
Ġg one
ch uck
Ġare n
ĠS CP
ĠB ar
ĠO h
Ġcre ators
Ġcl othing
ĠU k
Ġar ms
Ġar mor
Ġcons ensus
Ġcur ious
Ġdec entralized
Ġmark ets
Ġpa wn
Ġexperien cing
Ġvol t
Ġaccount s
Ġgain ed
Ġrout e
Ġver ify
ĠBl ue
Ġflu id
Ġcho osing
Ġdim ension
ashing ton
L et
b ur
e led
f all
m ble
t rans
Ġw ider
Ġf abric
Ġb aby
al ed
se g
Ġn ation
Ġg host
ĠA B
ĠA ir
ate ver
ĠS arah
res ponse
ĠL eg
Ġad minist
cl ose
du c
Ġsim ulate
ĠAs ia
Ġprodu ces
Ġmin or
Ġmet ric
Ġed ges
akes peare
Ġcheck s
Ġinc ent
Ġscient ist
Ġpref erence
Ġdep ression
Ġdefin itely
ĠCal ifornia
Ġposs ibility
Ġexecut ed
Ġrepe at
Ġdivid ed
ĠAfric a
Ġrhyth m
M ake
S ub
f rom
l ers
l ang
ĠS qu
Ġsu fficient
ĠC ut
ore m
oc ate
Ġk ernel
Ġspe aking
Ġinter action
Ġinst ances
Ġcal ories
ian o
ĠDe pending
Ġtell ing
Ġshow ing
ĠSh ould
Ġtri al
ĠEn s
Ġfac ed
Ġdest ination
Ġdiv ision
Ġbuy ing
ĠSim ilar
Ġbreath ing
ĠOut put
Ġliqu id
ĠFace book
A ct
E vent
I Base
v ol
Ġt ensor
Ġb ag
Ġto kens
Ġd ied
ĠT rue
ch ild
ĠM ove
ĠW ell
Ġsp ark
Ġgener ates
Ġform ation
Ġtrans mit
ĠCh orus
Ġacc ident
Ġachie ving
Ġdig it
ĠSp ain
Ġmor ality
ĠCl ass
Ġdatab ases
Ġrock et
Ġvulner able
Ġax is
Ġtomat oes
Ġdesk top
h id
Ġt k
Ġf n
ĠT ur
Ġk ill
ap ple
Ġknow s
Ġam b
ĠSt ate
red ict
Ġevery day
Ġfin ish
Ġbel ong
Ġeconom ics
77 7
els ius
Ġclear ly
Ġhappen ing
Ġadapt ed
Ġveget able
Ġhol ds
Ġstrugg ling
MM MM
%% %%
==== ====
Ġaw ait
Ġkeyword s
ĠPot ter
bru ary
ĠMich ael
hid l
3 9
i est
at o
Ġp ars
Ġf urn
le ft
Ġk m
Ġk ids
Ġres olution
Ġcl ients
Ġcl uster
Ġper ception
ĠSt ay
ser ver
Ġelect ed
Ġwar ri
Ġexplore s
ĠPh ot
Ġmajor ity
Ġfit ness
ĠInt roduction
Ġchat bot
ky o
Ġseg ments
Ġestim ated
I A
Q u
f il
g ue
i i
j oin
Ġs od
Ġw izard
Ġd ot
Ġd ram
ic ity
Ġg arbage
as azi
ĠA WS
Ġwh ose
Ġde als
um ing
res istant
ĠG al
ast s
Ġprov en
Ġpre d
Ġ4 5
Ġpo inter
Ġexpl o
Ġinst ant
ĠCh ange
Ġ20 21
comm od
Ġorgan ic
ĠSe lect
omet imes
Ġregard s
Ġinde ed
Ġfight ing
Ġfing ers
Ġseg ment
Ġsou l
agon ist
ĠKore a
ĠFoc us
Ġtong ue
4 2
4 7
H ub
I S
Y PE
m ail
w all
ra ndom
ĠM em
ĠM ult
ĠB ay
Ġint ric
Ġ3 00
Ġar m
ject ure
Ġph r
Ġwhere as
Ġcomput ation
Ġche st
Ġsee ing
Ġend less
Ġent ity
Ġinvol ving
Ġimprove ments
Ġless on
Ġdig its
Ġexpect ations
Ġslow er
Ġrot ation
ĠKing dom
Ġmel ody
ĠIntern ational
ĠDet erm
Ġsport s
unge on
ĠCalcul ate
ĠRet urn
Ġmyster ious
Ġcyl inder
' '
3 7
6 6
c her
c ular
g ers
y ou
} $
Ġs amples
Ġc overed
Ġf its
Ġf ont
Ġn et
od er
ĠP at
Ġpl ate
Ġr ide
Ġspe ct
Ġ3 2
Ġdis k
ft ware
ak ed
Ġem it
Ġsub t
ĠAn asazi
ox ide
Ġmus cles
Ġmo ist
Ġheav ily
Ġdru m
cont roll
Ġtun nel
ĠVis ual
Ġmill ions
Ġult imate
Ġvibr ant
Ġcoc on
abul ary
D E
g n
h a
r ich
Ġp al
Ġf t
al ian
Ġn ar
im ation
ĠT om
ĠR ub
ĠIn g
ĠC ustom
ĠP resident
ĠF ed
ĠL ine
Ġr ing
Ġres ume
Ġdat es
Ġknow ing
ĠSt and
Ġpo ison
Ġdesign ing
ĠPro cess
Ġproduct ivity
PI O
Ġbegin ners
Ġtravel ing
Ġfore ver
Ġrad ar
ura ble
Ġmotiv ation
Ġadvent ures
Ġgold en
Ġemphas izes
Ġrelig ion
amb da
sol ving
**** ****
Ġbul let
Ġdin ner
Ġveh icles
Ġthous ands
Ġschol ars
Ġintel lect
Ġvacu um
) ?
A A
B e
D ear
f are
f loat
h i
s ion
Ġt ight
Ġs oph
at ter
en a
Ġb oy
Ġn ginx
im g
Ġg low
ot ype
ol low
Ġal ert
ĠC T
ĠC at
ĠH ist
ĠM ount
un s
ĠE xt
Ġr ating
act er
Ġte a
ĠN ether
Ġun w
Ġdec or
ĠCon nect
Ġlook ed
Ġsqu ared
Ġsubject s
Ġste el
Ġpan el
Ġded ication
ĠWeb Socket
~~ ~~
Ġhypot het
Ġgalax ies
Ġafford able
Ġneut ral
ĠIdent ify
I ON
O IN
T orch
s l
Ġh und
Ġre verse
ĠC a
ĠM ad
Ġ2 000
ĠU I
Ġar ri
ĠJ ew
Ġpr on
Ġbu nd
Ġ6 4
Ġrem ind
Ġcor ner
Ġins ight
Ġdi versity
Ġmulti plication
po ons
ĠAr ray
Ġavoid ing
back s
Ġ: =
Ġsuper con
Ġautom ated
Ġprote ins
Ġimm une
Ġcommit ment
Ġincorpor ating
Ġapart ment
Ġphilosop her
ĠHum an
Ġcryptocur rency
Ġdiction ary
ĠWhe ther
Ġju ice
G e
I P
L e
b um
e ffect
v o
| |
Ñ ħ
Ġt orch
in c
on omic
Ġw ine
Ġp ine
Ġf lying
Ġd uration
Ġre plic
as on
ru m
if ies
Ġpro cessed
ur l
em ents
pl ing
ĠH y
ĠD av
ĠD ark
Ġsh arp
per form
ĠG PS
ang o
Ġcomp osition
Ġmy st
Ġar rays
con st
tain er
Ġ< !
Ġ< =
ĠRe place
Ġreal ize
Ġbas h
Ġbr id
Ġinstall ing
ĠSh akespeare
Ġrespons ibility
Ġauthor ity
Ġdiscuss ion
cs s
Ġagg ressive
Ġhoriz ont
Ġconcent ration
Ġvolt age
L ear
O h
a ws
p g
x im
y a
Ġt ick
in er
Ġw al
Ġo dd
ot ics
ig en
ĠC ap
um es
pt ember
ĠB ro
Ġman ual
ap pe
Ġform er
Ġprogram mers
() ,
Ġag ree
Ġag ric
Ġrec over
Ġsk illet
ĠDe ep
Ġmov ed
Ġcalcul ations
Ġ9 0
Ġcontribut ing
app ing
Ġscre ens
Ġput ting
Ġstat istical
Ġpay ment
Ġkil ometers
Ġhydro gen
Ġflav ors
0 3
4 8
L android
l ong
u ros
on a
ro oms
Ġl ies
ent le
im als
ra ine
ol ds
Ġst unning
Ġsu do
ĠW est
ĠB as
us ername
Ġli e
Ġany where
Ġam az
Ġinter section
Ġra ised
Ġvari ations
Ġtrans actions
Ġpract icing
Ġleg acy
ĠSp ace
Ġstrateg ic
Ġgovern ments
Ġbot tle
Ġpresent ation
Ġphot o
Ġnut rients
Ġaim s
Ġarr ange
Ã¼ r
gy pt
ĠUp date
âķ £
Ġsex ual
ĠAltern atively
O n
a ff
a wn
i Ã³n
Ġs ession
er ror
Ġm old
id a
ĠR PG
ĠIn vest
ĠA ge
Ġwh atever
ri p
ri ent
rom pt
Ġma ps
Ġcomp aring
con fig
Ġgener ations
Ġob j
Ġsol ved
Ġend ing
Ġmus h
ĠEn joy
app ro
Ġtrack ing
Ġste am
ĠKe y
ĠRem ove
Ġconcern ed
Ġhost ing
Ġmount ains
Ġaccording ly
Ġpip eline
ĠPy Torch
Ġsecre ts
ĠBuild ing
Cl ient
ugg ing
Ġpap ers
Ġhes itate
Ġcrim inal
D B
D R
e in
o j
v ised
Ġs aving
or iented
Ġf o
Ġf ed
Ġin con
ĠI T
Ġre nt
Ġbe ings
ra py
ĠR el
if ts
ĠC ouncil
ĠP o
ĠM or
Ġse nds
ĠW ashington
ĠE nt
Ġint ake
art s
vel ength
Ġman aged
ign ed
ĠJ u
Ġrel ativity
ph ony
ys ics
Ġexpl os
ĠK now
Ġeffect iveness
Ġpat ent
ĠAl ice
Ġexplain ing
Ġdri vers
Ġuni versity
ĠEng land
++ )
Ġposs ess
Ġtrust ed
Ġdemonstr ate
ĠGit Hub
Ġlett uce
ĠAfric an
Ġvoc abulary
Ġchop ped
6 9
E C
G I
G ood
S er
Ġt ension
Ġp ounds
Ġb ind
ĠI ron
Ġh un
Ġre venue
ĠT re
Ġst rain
pon ents
Ġor ange
ĠH it
os aur
ĠM ex
ĠO R
du ino
ĠU ser
Ġout do
Ġinter val
Ġbu cket
() `
Ġ20 20
Ġart if
Ġlead ership
Ġshe l
Ġconnect ing
Ġexec ution
Ġcompet itive
Ġlink ed
Ġpy ram
Ġteach ing
EN T
Ġban king
Ġexh aust
Ġcompat ibility
ĠEast ern
Ġadult s
ĠComput er
6 3
A LL
D oes
h oot
i pped
r ant
v i
on ym
Ġc sv
Ġf a
Ġm ig
Ġl ots
if orm
ĠIn clude
ĠS um
ĠS ocial
ĠC ost
Ġint ense
Ġcont em
ĠIt aly
Ġro gue
Ġcons ume
Ġover fitting
Ġapp oint
Ġfol k
Ġ7 0
Ġdi ameter
Ġcalcul ation
Ġenc ount
ĠUS A
Ġkind s
Ġtransform ation
Ġcru st
ĠCol l
Ġmar gin
Ġinj uries
ĠMat hemat
ĠGPU s
Ġkil ogram
ĠElect ron
2 9
t here
u i
Ġc e
Ġo live
Ġb orrow
se arch
ro ph
Ġh uge
im ages
Ġg ap
ol s
ĠR aspberry
ut ch
Ġon ions
ĠS S
ĠS ometimes
Ġv ent
ĠB ased
Ġprocess or
Ġexp ort
Ġfew er
ren cies
Ġmet rics
uck et
co ver
Ġvol unt
Ġposs ibly
Ġsimpl ify
Ġdistribut ions
Ġexc ited
ĠBat man
Ġvert ical
Ġmedic ine
Ġrespective ly
Ġversat ile
Ġdisadvant ages
ynt hesis
ĠQue en
ĠIng redients
Ġhypothet ical
Ġartif act
) );
8 8
A ut
D C
F F
M ap
U LL
a os
Ġ erg
an o
Ġp enc
Ġf ert
ic ations
Ġl on
ĠT oday
el ess
ge nd
ĠS ir
Ġv aries
est amp
ĠP ost
ĠB usiness
ĠD em
ĠE gypt
Ġus ername
ĠTh ree
Ġcomp ass
ĠN um
Ġpre t
Ġke pt
Ġhum or
pend ent
Ġcur ves
Ġrec overy
Ġpar a
Ġsw allow
Ġdem ocratic
ĠEn ter
Ġstre et
Ġ> =
Ġrob ots
Ġeval uation
ĠReg ard
Ġintegr ated
Ġemphas is
ĠFe bruary
âĸĴâĸĴ âĸĴâĸĴ
ĠTrans form
Ġscal able
ĠArt ificial
Ġsav ings
abet es
Ġrapid ly
ĠAustral ia
Ġantib i
Ġech o
' (
D ate
E Y
a ud
w ith
Â ²
Ġ Ñģ
Ġs lic
ou p
Ġin herent
st ers
om al
Ġcon qu
Ġex it
ri a
Ġha ven
est ic
ĠH ouse
iz able
Ġsh ip
Ġwe aring
oc ra
Ġmod ules
Ġcl one
Ġun less
Ġac commod
Ġtra its
ac le
ak er
Ġ5 00
Ġstart up
Ġrec ording
ĠCh urch
Ġtext s
Ġsign ature
Ġlight ning
line ar
Ġequ ality
ser t
Ġmus ical
Ġdeterm ining
Ġben ch
Ġmind ful
Ġport ion
col umn
use um
Ġreach ing
Ġwa iting
Ġnut rition
Ġhor ror
Ġvill age
Ġshop ping
Ġhon est
Ġinsect s
: ,
; ;
H e
R ead
W ould
Ġt u
Ġw ing
it ems
is l
Ġd ict
Ġd uck
Ġd angers
Ġe ll
ĠR o
Ġst ages
Ġas ks
Ġcom pl
Ġv irt
Ġha z
th read
ĠB I
Ġen ables
ĠG en
ĠO per
so cket
ip her
ip edia
Ġdata frame
ĠJ erry
Ġmodel ing
Ġact s
ĠAd v
Ġgu y
ier arch
ĠWh ite
ĠEx amples
Ġpub lish
Ġ/ >
Ġprot agonist
Ġer a
Ġz one
Ġcertain ly
ĠSe ptember
Ġgl asses
Ġdefin itive
Ġregard ed
Ġselect ing
Ġbatter ies
Ġprec ision
Ġspeak er
Ġassum es
pare n
Ġtim eline
spe c
Ġunivers al
(((( ((((
erv ation
ĠPort al
L ink
P A
W indow
b egin
d istance
l im
Ġt ort
Ġs an
Ġs ight
Ġp ark
Ġm esh
Ġd ir
if ically
ab ling
Ġhe ap
pl an
ĠM c
Ġch apter
ĠD own
ĠG UI
ĠO d
Ġsp o
Ġsp r
ord ers
Ġpart ners
Ġident ified
Ġpast e
Ġsal ad
Ġautom ation
Ġmeasure d
ĠJohn son
Ġjour nal
Ġspecif ies
Ġnut s
Ġfoot ball
--- |
^^ ^^
Ġrough ly
Ġincred ible
direct ory
Ġintric ate
( -
A ccording
H and
P ipe
g ov
w ater
Ġt iss
it ors
Ġb ath
Ġb anks
st ack
Ġis land
ig ating
ĠRes t
Ġhe x
Ġ- --
ĠB u
Ġ2 55
Ġat omic
og ether
Ġcomp osed
Ġsc roll
Ġso le
ĠIt alian
Ġsy mmet
Ġper cent
ĠK n
Ġtw ice
Ġco verage
Ġdepend ent
Ġconf irm
Ġwar ning
Ġcollect ed
Ġwood chuck
Ġnormal ization
Ġwa velength
Ġseas ons
Ġreli ability
Ġindepend ence
Ġremov ed
Ġtrou bles
Ġrecip es
Ġgall on
Ġgrad ient
Ġcarro ts
Ġfurn iture
H w
U RL
c ut
d ers
f u
k it
m ic
m as
p op
Ĩ Ĵ
Ġs ke
Ġp ipe
Ġf le
Ġm ort
ed ge
Ġth r
ig ma
Ġpro pri
Ġor g
ĠP ut
Ġse ven
oc aly
Ġj ava
Ġun ne
Ġtra ditions
Ġdis appe
Ġru st
Ġ{ }
ĠV irtual
Ġsm ile
Ġass ert
plic ity
Ġreg ul
Ġsk illed
Ġdepend encies
Ġfil ters
ĠTo kyo
Ġens ures
Ġtem porary
sh ow
sh ot
Ġdri ven
aut hor
Ġpath s
Ġaltern ate
Ġvalid ate
Ch ange
af e
Ġgod s
Ġcred entials
Ġtrig ger
ĠExpl ore
ĠSpe c
paren cy
5 00
l asses
o ices
p ower
ã Ģ
re ly
Ġm ouse
Ġd ust
ic on
Ġh al
Ġre tain
Ġn u
ĠT op
ĠIn put
Ġcom edy
ĠB le
ĠB el
ĠB ERT
Ġint ention
ĠTh us
Ġte acher
ac ent
Ġinter rupt
Ġcur rency
Ġprom in
Ġsur f
Ġdi oxide
Ġvis ited
sc rib
Ġless ons
Ġpass ing
ĠAr duino
ĠWith out
Ġrad iation
Ġconvers ations
Ġeduc ational
Ġpan els
Ġinsp ire
Ġdynam ically
Ġdru gs
Ġevol ving
Ġiter ate
Ġmyth ology
Ġrestaur ants
Ġearthqu ake
Ġrecur sive
F orm
k in
m g
Ġp il
Ġf rag
Ġb ass
Ġb atch
al es
st d
Ġh ole
Ġre con
Ġg iant
Ġst om
ĠIn te
ĠS ov
ĠS RE
ĠC ro
ĠC elsius
Ġne uro
ĠM ox
ĠG l
cl oud
ble d
Ġfe at
Ġfe es
Ġar ise
con f
ne ver
ĠAs k
Ġclass ified
Ġfin ance
Ġprof ound
ĠEx cel
Ġstand ing
Ġdeep ly
Ġsal es
Ġautom ate
Ġreason able
Ġrecogn ized
Ġattempt ing
ĠMan ager
7777 7777
ĠStep s
sum ing
dis play
Ġcontroll ing
Ġcategor ies
Ġsac r
Ġintu itive
ĠUk raine
Ġintellect ual
4 9
F rom
` :
b ows
f e
f ess
k i
s ue
v able
er as
an c
ar n
se ll
Ġh urt
Ġl ingu
ĠT ensor
ra ce
ut il
Ġas set
Ġan c
ir med
Ġal ive
Ġal bum
ĠC our
Ġhe ating
Ġse eds
ĠW ater
ĠD ist
our ced
Ġat om
ff ball
Ġam pl
Ġrel ief
Ġreg ulate
Ġlong est
Ġdec ades
Ġexp ansion
ars h
Ġstud ied
Ġconf idence
Ġmark ed
sc ill
ĠDe v
Ġinc hes
Ġinteg ral
Ġtre nd
Ġcall ing
Ġconsist ency
Ġcarb ohydrates
Ġder ived
Ġinfin ity
Ġinvent ory
âĸĪâĸĪâĸĪâĸĪ âĸĪâĸĪâĸĪâĸĪ
Ġproced ures
connect ed
Ġphilosop hers
Ġconvent ions
ĠGraph QL
Ġpoll ution
ĠEns ure
Ġphr ases
Ġcocon ut
Lear ning
A pp
C S
V ID
p redict
v ity
ou st
ĠI mm
Ġl osing
ĠS an
her ry
ĠP ress
ĠP eter
os p
ĠW olf
ĠF ollow
Ġreturn ed
Ġcontain ers
Ġorgan ize
ash ion
Ġgre w
Ġstructure d
Ġtre asure
Ġfar ming
Ġtransform er
Ġconsum ers
ĠNew ton
Ġmix ing
Ġselect ed
Ġfrequ ent
ĠSer ver
Ġactive ly
Ġsymbol s
Ġcommit ted
Ġemerg ed
wh ile
ĠDevelop ment
Ġnumer ical
ÂłÂłÂłÂł ÂłÂłÂłÂł
part y
rad ius
Ġobserv ations
ĠDrag on
ĠFlu ffball
ĠJew ish
ocra cy
3 6
F irst
L java
O b
P ress
V M
o ch
s creen
z a
Ġc ere
Ġc ube
Ġp ound
Ġb ill
Ġb omb
Ġd ense
ct ure
Ġn or
il ies
Ġg entle
ĠT O
ĠInstruction s
Ġch ances
Ġme als
age ment
ĠD ear
ud o
ĠL og
ĠL ink
Ġcomp elling
Ġap ologies
Ġru ntime
Ġrel ate
Ġtw ist
Ġoff line
ĠCh apter
Ġgra in
ĠHe y
Ġlead ers
Ġfree ly
Ġcult iv
Ġorgan isms
Ġneg ot
Ġsens ory
Ġconsum er
Ġang les
Ġdynam ics
ĠPer form
Ġsat ell
Ġflu ct
Ġshap ing
Ġmut ual
Ġdecre ase
Ġbru sh
Ġencrypt ed
ĠDeterm ine
Ġunne cess
7 9
d at
g ithub
i el
t k
in cess
he at
er ves
Ġc ow
Ġc ouncil
Ġw it
Ġo scill
Ġb old
Ġg ear
ĠT es
ĠC lean
qu ery
ĠP ack
ck ets
ĠM ethod
un ar
ĠD oc
ĠL ay
Ġgo bl
ast ed
Ġun us
ĠU t
ari a
Ġfunction ing
Ġchar ged
Ġread ers
ĠPro blem
Ġmeasure ments
Ġidentify ing
Ġsafe ly
ID TH
Ġcool ing
Pro cess
Ġur ban
ĠCont rol
cont ent
Ġattribut es
ĠFl ask
AS E
Val ue
* .
S et
b o
b u
on ed
Ġs elling
Ġp i
Ġb order
Ġin du
ol a
ĠIn c
Ġan notation
pe at
ĠC ivil
Ġhe aring
ive ly
Ġint ensity
ag o
Ġsp here
Ġra ises
ĠĠĠĠĠĠĠĠĠĠĠĠĠĠĠĠ ĠĠĠĠĠĠ
Ġoff ered
Ġdec imal
Ġmem ories
uc ose
Ġpur sue
Ġanal og
Ġactiv ation
Ġdri ver
Ġschool s
Ġsepar ated
ĠCol or
Ġsn ipp
Ġâ ĨĴ
Ġdiscuss ions
Ġkeyboard s
Pro vide
ĠPr int
Ġsurround ings
Ġcast ing
Ġmanip ulation
Ġple asure
Ġentertain ment
Ġsociet al
Ġbub ble
ĠBre ak
Ġwis dom
Ġerg onomic
0 5
> <
A V
F S
L C
L I
O ptions
r ated
z ure
Ġt ale
Ġt ape
Ġc ra
it ical
Ġto mor
st atus
Ġe ager
ve ctor
el es
Ġor b
ĠC ook
ĠC AR
th rop
ck now
os ity
ĠD ocker
ĠL oad
Ġad j
Ġpre v
Ġgame play
ĠHe alth
Ġfin ished
Ġgl ucose
Ġrespons ibilities
Ġsens ors
Ġnear ly
Ġshap ed
Ġrelax ation
ĠBat tle
Ġmal icious
Ġcoord inates
ĠPort ug
Ġincred ibly
Ġtact ics
Ġsudden ly
Ġconven ient
umbb ell
seg ments
ĠSov iet
Ġtomor row
( &
B A
B l
B utton
B SD
F i
I L
M od
f iles
s ign
w ood
Ġw ise
it is
Ġto ler
Ġre ject
il ize
am iliar
Ġas ide
pe g
ĠC B
ri an
ĠM r
ple ments
ĠB rown
ĠE dit
ĠG PIO
ĠL ond
ĠTh ink
Ġk ick
Ġar row
Ġ[ âĻ
", "
Ġexp osed
Ġexp ressed
Ġext ended
Ġent ities
Ġanswer ing
ĠCon sole
Ġpur ple
Ġphys ically
Ġsl ice
Ġengine ers
az e
Ġdescrib ing
Ġbat t
Ġ: )
ane ously
Ġbig gest
Ġball s
Ġ18 0
Ġgreen house
Ġaim ed
Ġassum ing
Ġevol ve
ĠGener al
Ġvac c
Ġimmed iate
lay er
Ġconv ince
ĠOff ice
Ġveh icle
Ġpuzz les
Ġcin em
Ġexplicit ly
Ġcas ual
Ġcollap se
Ġdestru ction
xim ity
Ġpropri etary
ĠLond on
N s
b ered
d ist
h ist
h us
l ate
m al
s hip
Ġf etch
Ġb py
et ed
Ġfor ced
ĠR ich
ĠS ource
os ph
Ġch lor
ĠD iv
ĠF re
ĠF unction
Ġwor st
Ġr ational
Ġwas n
ĠN FT
Ġsc ar
Ġmod erate
Ġj avascript
con text
ub a
ne xt
Ġrel ation
ph abet
Ġra y
cre t
cur y
Ġmat plotlib
Ġtrans parent
Ġinf erence
ian ces
Ġcor rupt
Ġmin ute
Ġpol ice
Ġ7 77777777
ĠAn aly
Ġeng aged
Ġla un
Ġdi abetes
ĠCon clusion
ĠPro ject
ser vice
Ġgrow s
ĠSh ow
Ġwar fare
Ġhy dr
Ġvol can
istic ated
ĠMy SQL
Ġrece ives
Ġemot ion
Ġsmo ke
Ġbo at
ĠFe el
Ġreward ing
ĠChrist ian
Ġinstru ments
Ġattribut e
Ġine quality
ĠUnder standing
Ġsociet ies
Ġcontrovers ial
Ġcub ic
ĠWord Press
ĠEnc ourage
ĠEp ic
ĠInitial ize
Ġrenew able
Ġ777777777 777
3 1
A PI
g al
n ode
s al
Î ¹
Ġ Ñ
er ic
Ġh ref
Ġre aches
Ġst ead
od s
ĠS en
ĠS ing
Ġsu ng
ĠM al
Ġsh oes
og en
Ġsc rap
Ġj ug
Ġpart ial
Ġob vious
Ġreg ist
Ġ[ '
ob b
Ġcomput ations
Ġmed ication
Ġlarge ly
Ġconf used
Ġbl ind
Ġ19 5
Ġlo ck
Ġbelie ves
Ġdra wn
ug ust
Ġhead ers
ĠEn ergy
Ġcy cl
Ġfall s
ster oid
Ġpost s
Ġdeb t
Ġroll ing
Ġmotiv ations
Ġcrypt ography
Ġdrag on
Ġphenomen a
itution al
En ter
Ġ! =
Ġdepart ment
Ġadop ted
cra st
Ġhous ing
Ġdepict ed
Ġsoph isticated
ĠHit ler
Ġtroubles hoot
E M
b ucket
f ix
h ib
i ver
n atural
r d
Ġ ~
Ġs ql
er ce
er ved
Ġf av
Ġf ailed
se e
Ġre wards
Ġg ases
ĠT un
ĠT ask
Ġfor ums
ĠR ad
el on
ĠS l
op l
ĠP ark
ĠH ello
ĠH ung
ĠM et
Ġnot iced
Ġdo ors
ĠE duc
Ġ3 5
Ġun predict
ac ci
lo op
lect ric
Ġfind ings
Ġadv is
Ġperform s
Ġtyp ed
Ġext ensions
Ġredu ction
ĠOpen BSD
mm a
-------- ----
Ġgrow n
ĠCom ple
Ġsuc ceed
Ġge ometric
ĠIm port
Ġnorm ally
ĠPh ilos
Ġsens or
Ġdisplay ed
Ġauthor ities
Ġmagn et
ĠMar x
Ġcore s
Ġsil ver
Im age
ÃŃ a
Ġdeploy ment
ĠCy ber
Ġsupercon duct
Ġvolunt e
" ).
a ware
b ooks
Ġt ip
Ġt une
in ator
Ġthe rapy
Ġc el
it able
Ġin p
Ġin qu
ic orn
Ġth reshold
Ġh ierarch
Ġyou th
ce nding
ol k
Ġpro ximity
ĠS ave
ĠP op
ĠH elp
ĠW ars
ĠB ig
ĠB ase
Ġgo ogle
Ġany more
Ġar che
ip itation
ĠJ im
Ġdes ires
Ġsim plicity
Ġcur l
Ġcur v
Ġreg ulation
Ġ} )
Ġco ast
Ġco vers
Ġ20 19
Ġapplic able
Ġdisc ipl
Ġcalcul ates
Ġenc oding
Ġtransform ers
Ġconfig ure
ĠPer haps
ĠNe ural
Ð½ Ð¸
Ġmaxim ize
Ġcivil izations
Ġintegr ate
Ġshad ow
Ġshad ows
Ġmac ro
rest rial
Ġord ers
Ġtag s
Ġhom es
ĠEconom ic
Ġfasc inating
Ġreput ation
atur ally
Ġunnecess ary
> </
A ll
K ey
] :
c d
c at
m et
m ond
n ov
o vers
p et
Ġp ru
Ġd ut
Ġg onna
ĠT urn
ĠT HE
ce nd
ol ves
ut ure
ig ital
ĠA rab
Ġde ck
ĠB ra
ĠF ree
Ġwor se
ĠL ong
Ġres ized
ĠJ ane
lo bal
Ġem ails
Ġsim ult
Ġgener ator
Ġworld s
Ġdef ense
Ġdist ractions
Ġown ers
Ġpop ulations
Ġopen ed
ism ic
Ġent hus
vent ion
Ġsur prise
ven une
Ġexplain ed
Ġrecommend ation
ĠÐ ¼
Ġsit ting
Ġjo kes
che ck
Ġfac il
AM E
Ġload ing
Ġaccept able
ĠGree ce
Ġdou b
ĠTw o
wh ich
Ġbehavi our
ĠRuss ian
Ġalgebra ic
ingu ish
ĠLat in
Ġdial ogue
Ġocc up
ĠBay es
Ġfa ith
Ġenthus i
. [
0 2
E nt
P l
T rans
a j
l ad
m ary
m etic
u ct
u cl
on acci
Ġp itch
Ġf ats
ar g
ent ine
Ġst orm
am ps
ĠA D
ĠC ount
ĠC EO
ab lish
Ġv ote
ĠP et
ĠH ol
Ġle an
pp ers
Ġad equ
Ġwhe el
ak a
Ġem path
Ġbu gs
Ġgra b
Ġ20 18
Ġaut o
Ġoper ators
ĠÐ ¾
ĠAss uming
Ġgen e
sy stem
onal d
Ġpsych ological
ĠStud y
@@ @@
ĠOb ject
Ġpict ures
Ġinfl ation
Ġdoll ars
ĠiP h
Ġok ay
spec ific
4 1
O nce
a ul
p act
p any
r f
Ġa u
re w
ĠĠ ĉ
Ġw olf
Ġf ashion
Ġb icy
Ġin coming
ar ation
Ġg ro
ĠS und
ad ing
Ġha ck
pl it
ĠH and
ĠB ank
ĠD ynam
Ġcont est
Ġun int
Ġtra dition
Ġout l
ber ries
lo se
eth ical
Ġap ple
ĠSt rength
Ġgener ic
Ġgener ative
Ġinf o
Ġpol ar
Ġsupport ing
Ġ19 80
Ġredu ces
Ġbi ology
Ġmeas uring
St ack
ĠSc ott
ann ed
Ġgen res
Ġprotect ing
Ġobser ve
Ġcapt ured
Ġfund ing
Ð¾Ð ²
Ġnp m
ĠQu antum
Ġĉĉ ĉ
Ġassum ptions
Ġreflect s
Ġexpress ions
Ġkn ife
Ġban ana
Ġmother board
Ġep is
ĠIS O
ĠSimilar ly
Ġpret end
Ġcurv ature
9 5
I C
I Hw
N ew
T ype
W IDTH
g l
m ount
r as
r ary
s im
t ons
Î ±
Î ¿
Ġs ick
ou nce
Ġw rap
is hes
Ġf u
Ġl ift
ve led
id ential
ĠC ir
ĠW ild
Ġ( )
ĠB rain
ĠO ld
Ġres pir
Ġ3 1
Ġun ethical
ĠJ OIN
Ġ4 2
Ġcol our
cur l
Ġspecific ations
Ġcor rel
Ġeas iest
Ġent ers
ĠCon f
Ġkeep s
Ġ\ \
ĠÐ º
Ġlog s
Ġmeasure ment
"> </
Ġsequ ences
Ġprior ity
Ġut ility
Ġseem ed
Ġvulner ability
Ġgram s
Ġbound aries
Ġrender ing
Ġrom antic
Ġinh ab
Ġconve y
odynam ics
Ġanc est
3 000
7 8
> >
G o
J ohn
N D
d y
f i
f s
h al
p ers
s or
t une
w indow
Ġt ries
Ġa steroid
in ner
he im
Ġp iano
Ġto fu
ĠI M
Ġn ested
Ġst ake
Ġpro j
ĠS am
ĠC lear
ri ers
ĠM o
ĠF alse
ĠN on
Ġph ones
Ġinv ention
ĠV iet
yth ag
Ġsub sequ
Ġinf ections
Ġown ed
Ġpol ite
Ġext ent
Ġins ul
Ġsmall est
Ġcommun ism
ĠPro v
Ġfam ilies
pro ject
Ġhy brid
Ġpain t
Ġpain tings
Ġhead er
mb ly
Ġaffect s
Ġphot ography
Ġdark ness
Ġconvers ational
Ġconsum ed
ĠInd ust
Ġdemonstr ates
Ġindic ates
Ġinterf aces
Ġtail ored
ĠMore over
ĠAM D
Ġneck l
Ġthorough ly
# ,
' ],
P AD
R em
] ]
d oc
d epth
y me
Ġ ãģ
Ġs am
Ġc ute
is her
Ġh ang
ĠT em
id get
ul g
ur pose
ĠS earch
ad ata
ere r
out ube
ĠB o
ĠB ron
ĠD ou
ĠD ream
ĠF ile
ĠF ound
ĠF ood
Ġwor ried
Ġpl ates
Ġpl acing
Ġr ank
Ġres il
ĠN ULL
Ġhel lo
Ġfe as
Ġar my
ari ous
Ġsp ray
com put
ak ers
ĠĠĠĠĠĠĠĠĠĠĠĠĠĠĠĠ ĠĠĠĠĠĠĠĠ
Ġprogram med
Ġatt ach
Ġtrans parency
Ġadv ances
Ġche ap
ĠRe peat
Ġfin ite
Ġexplain s
Ġdirect ed
Ġscript s
ĠSo ftware
Ġdem ocracy
cle ar
Ġear n
ÑĤ ÑĮ
Ġdiv ine
Ġbo il
ĠSer ve
Ġassistant s
Ġreport s
Ġhol es
Ġintegr ity
ĠAut om
ĠRE ST
Ġfulf ill
Ġadvert ising
Ġcompil er
Ġali ens
Ġbrid ge
) /
8 6
O W
S A
S L
b lock
j ango
m icrosoft
r at
Ð ¹
Ġa cknow
in ity
Ġo re
ic ip
ĠI V
Ġth umb
Ġh ide
Ġl ux
ĠT er
ĠT ru
ĠR ain
Ġan omal
um an
Ġv ot
ĠP oint
Ġim aging
Ġ( -
ĠB ad
ĠF ore
ĠL ove
are st
ie val
ble ms
Ġsp elling
Ġ* /
Ġap plies
ĠV iew
Ġra cial
ĠK ong
Ġprogram mer
Ġact ing
Ġresult ed
Ġaut on
Ġelect ro
val uate
Ġrest ore
Ġpublic ly
St art
app ed
Ġsort s
Ġmar ine
att ered
Ġcapital ism
Ġobtain ed
object s
____ ____
Ġble nd
Ġdwar ves
Ġtal ent
Ġstim ul
Ġamaz ing
2 6
N umber
f ind
h ttp
s id
Ļ Ì
or ris
Ġp ir
Ġp ace
Ġf ate
Ġb in
al v
ion e
ar l
ro t
om es
om ething
Ġn aturally
id o
Ġpro crast
Ġex clusive
pl om
ĠH ong
ĠB er
ĠD og
ĠF act
Ġr an
Ġj ail
Ġro se
Ġdis ag
Ġper man
Ġ4 00
ove mber
ĠSt ru
olog ists
Ġpr ison
Ġ{ "
te x
ĠV er
Ġchar ges
Ġcor n
âĸ Ģ
Ġmean ings
ĠPro t
ĠPro per
ĠPro fess
Ġprot otype
Ġcomb ining
Ġfast est
Ġsqu ares
Ġprevent ing
load s
Ġinteract ing
Ġmis information
Ġchem istry
Ġtim ing
Ġmoment um
#### ####
ran ch
ĠCent er
Ġparticip ate
Ġdin osaur
ĠRep ublic
Col or
Cont ent
ĠMid dle
Ġmeth ane
ĠOpt im
bur g
effect ive
Ġagric ulture
Ġpromin ent
. âĢĿ
4 4
B inder
H z
I nd
O ut
S ince
s ides
Ġs rc
at en
er ation
Ġc ort
Ġc ourage
Ġf illing
Ġh orm
Ġl augh
et erm
Ġg ut
Ġg ym
Ġbe ach
Ġas leep
ĠC amp
Ġde lete
ĠH oly
Ġ" $
ĠM ess
ĠM arc
ĠB ur
ĠD id
ĠL ack
ag en
Ġqu ad
ĠN atural
ĠN umber
Ġj ack
ĠU K
ap es
Ġdis sol
Ġall ies
Ġunder ground
Ġhum orous
Ġadv oc
Ġret ail
Ġins ert
Ġent re
Ġdire ctions
ĠAl gorith
Ġorgan ism
Ġdeterm ines
val ues
Ġinc ident
Ġdra ft
Ġport s
ĠGo vern
Ġdel ay
Ġwar ming
Ġquant ity
Ġexplore d
Ġdefin ing
Ġadjust ing
Ġdeb ug
Ġfund s
Ġcirc uit
Ġsynt hetic
Ġdistribut e
bre aking
Ġsubst ance
Ġalign ment
ĠDiff erent
ĠSol ar
Ġsav ed
ĠIN T
amm ation
Ġasync io
Ġic onic
pad ding
Ġoverwhel ming
Ġpix el
Ġguarant ee
Ġinher it
Ġmic row
Ġencount ered
Ġsurf aces
Ġsimult aneously
8 7
M an
P M
l ig
n ight
o en
o is
Ã ±
Ġt ough
re q
Ġthe rap
or se
ou nder
Ġp our
Ġf ake
Ġf ails
Ġo x
al an
Ġn an
Ġn arr
ĠT im
Ġpro ceed
ur der
ĠH E
Ġ1 50
ĠM ars
ĠM aterial
Ġle gend
ĠB egin
Ġen abling
Ġab und
ĠG iven
ult ural
ie ce
ac er
Ġar bit
ĠJ oe
Ġover head
Ġinter ior
Ġpe ppers
Ġinst inct
Ġtrans mission
Ġco ck
Ġfl ash
Ġinf ring
Ġcor ruption
Ġexp enses
Ġoper ates
Ġdisc ord
Ġele ction
Ġmet ab
pro fit
pre ne
Ġcontext s
Ġmathemat ician
ĠSc ient
Ġappe al
Ġmaintain ed
Ġtre ated
Ġautom atic
Ġinit i
Ġrandom ly
Ġemploy ee
Ġlab eled
Ġtreat ments
AN T
Ġheav ier
Ġrecord ed
Ġhol iday
ĠSu pport
Ġprefer red
,,,, ,,,,
ĠEconom ics
Ġfro zen
Ġou ter
Gener ate
ĠDav id
there um
ĠInte g
B uild
D ef
h ard
i able
w ide
Ġ ^
or al
Ġw et
ing ly
Ġf ra
Ġin comple
ic ep
Ġn aming
ch a
ru it
ot ion
Ġst em
ĠA ugust
um ps
ore an
ĠP and
ĠP ythag
Ġch aos
ĠW atch
ĠB udd
ĠD ate
Ġsh ut
ĠF ort
Ġpl us
ĠO ct
ag ger
cl aim
Ġcomp ression
ĠN OT
Ġar rive
ĠJ ul
Ġhum idity
Ġcomple ting
Ġreg ister
Ġprom ise
ĠUn real
uc ch
Ġdri ves
Ġarg ued
Ð¾ ÑĢ
Ġconnect s
ÂłÂł Âł
Ġnorm s
Ġ& &
Ġop ens
Ġsynt hesis
Ġrot ate
Ġelectron ics
Ġcollabor ate
CT YPE
ĠAg ain
Ġcyber security
Ġphotos ynthesis
Ġprotocol s
Ġvict ory
fol der
Des cribe
ĠMag ic
Ġye ast
Ġexcess ive
Ġcryst al
Ġmoist ure
Ġmyst ery
ĠJu ly
ĠTes la
Ġunus ual
Ġsung lasses
Ġunpredict able
6 00
8 2
9 2
C ode
F A
N ot
_ {
j avascript
p ost
u h
Ã ¨
Ġ );
Ġt ast
Ġa pt
Ġa ward
ou ds
ic he
Ġn erv
et o
Ġst oring
Ġwh is
ad y
ant ine
pl ane
ĠH i
ĠH ope
Ġle mon
Ġdo ct
ĠF ast
ĠL aw
Ġk Wh
Ġimp ressive
ong o
av en
Ġpr one
Ġdifferent ly
ĠK en
Ġco ins
Ġrem inder
Ġref lection
ĠRe view
Ġfil ms
Ġher bs
ĠAl ien
Ġvis ually
Ġbi ased
amet ers
ĠBe ing
ĠOr gan
Ġbreak fast
Ġpresent ed
volution al
Ġdetect ed
IT ATE
Ġsurround ed
ĠSince rely
Ġchemical s
ibr ary
Ġunivers es
ĠVal ue
ĠMin ister
Ġcraft ing
Ġdivid ing
ret urn
inst ein
Ġprop ag
Ġign ore
Ġvict im
ĠTrain ing
dri ven
Ġperce ive
Ġpil ot
ĠiPh one
) `
O K
b and
c ar
g roup
l at
m i
Ġ ion
Ġs qrt
it zer
Ġf aces
Ġd iced
Ġh arsh
Ġe ast
et te
Ġfor k
ce ll
ot a
if ice
ĠA ction
Ġcon d
Ġde aling
ĠP ath
ain e
ĠH erm
ĠM il
ĠW H
ĠD en
ĠE vent
Ġman ually
Ġpr inter
Ġwork flow
ĠĠĠĠĠĠĠĠĠĠĠĠĠĠĠĠ ĠĠĠĠĠĠĠĠĠĠĠ
Ġsign aling
ĠHe ad
ĠAn sw
ĠAn alysis
Ġprom ising
ĠUn like
Ġcap ability
Ġrequest ed
Ġanim ations
Ġmathemat icians
oun ced
Ġtravel s
Ġaddress es
Ġtarget ed
Ġsort ing
Ġrece iving
ĠChe f
Ġdr inks
ÑĢ Ðµ
ĠRed dit
Ġsustain ability
Ġpair s
mod el
net es
Ġpen al
Ġstraight forward
Ġagre ement
Ġupgra de
Ġdiam ond
ĠCur rent
ĠTransform er
Ġsnipp et
Ġempath y
E G
d ings
e or
f m
n s
v ation
« Ì
es ar
it tle
Ġp ose
al con
Ġd ent
Ġd ice
se lect
ĠT ell
ĠR ight
Ġst ated
am ic
ad ian
Ġsu sp
ĠC ross
ĠP ip
ĠE thereum
ĠG DP
Ġk illing
form at
Ġfe ather
Ġtw e
Ġend point
ex p
eg a
Ġca ve
ĠCon jecture
Ġcap s
pro of
play er
ond a
oph y
Ġinflu ences
ĠSc al
ĠZ e
ĠAPI s
Ġcour t
che my
Ġadjust ments
Ġabs ence
Ġconsist ently
Ġemploy ers
Ġbed time
List ener
Ġmagn itude
AL F
Im agine
ĠCent ral
Ġmedic ations
Ġsus pect
Ġabsor b
yd ney
Ġhop ing
Ġrig orous
Ġsnack s
Ġpropos al
Ġmanufacture r
wik i
Ġnar row
ĠCAR ITATE
Ġnerv ous
4 6
9 3
L U
[ ]
b est
c ost
f ire
p us
t ered
u its
w ee
Ð ·
ï ¸
er ving
Ġw ars
is ible
Ġp ra
Ġf ridge
Ġto y
al og
Ġd os
Ġd ress
Ġd ash
Ġe c
Ġl ung
Ġl unch
as er
ce mber
ru p
ĠR ock
ĠS alt
Ġal phabet
ĠC arbon
Ġde com
Ġse am
ĠD utch
Ġr anging
Ġcomp ens
Ġcomp iled
Ġj ew
ap ed
Ġdis comfort
con sc
ĠV ari
ĠV erse
Ġcor ners
Ġmin ing
Ġpar se
Ġpar ry
Ġpat ience
Ġca ution
Ġvis iting
ote Exception
Ġmet adata
Ġmark down
Ġphys ic
Ġsent iment
ĠEn viron
Ġgen es
++ ,
ask ell
Ġoccur red
bs p
Ġpay ing
Ġstrugg les
bre ak
Ġexecut ive
ĠðŁ Ĵ
Ð» Ð¸
Ġengage ment
ĠStud io
def ined
Ġmanufact uring
Ġproced ure
she ll
Ġsold iers
Ġocc asion
writ er
ĠAN D
Ġcand idate
uber netes
Ġhi king
ĠEst ablish
Ġisol ation
Ġeleg ans
Ġuncertain ty
ĠPhot os
Ġslic ed
Ġstead y
Ġrespir atory
ĠMarc us
oen ix
* ,
4 00
7 6
A G
A h
B ased
B ob
I V
P ython
W ith
a us
n ames
p aced
p ira
r out
s qu
s igma
w atch
z one
or ian
Ġw ake
Ġf ault
Ġto ys
Ġd aughter
Ġy ield
ĠIn cor
ĠA GI
Ġcon j
ĠS ort
ĠS ydney
Ġcom plications
ĠP M
ĠP al
ĠP ay
pl ant
ĠH aving
ĠH ALF
os c
Ġse ctions
ĠD an
ĠF uture
ep r
Ġsc ra
clud ing
Ġshould er
Ġap pl
ĠSt ore
olog ist
Ġbu g
rit ing
ys ical
Ġpo ol
ib onacci
Ġsee ks
Ġdec rypt
âĸ Ħ
rain ed
Ġacc um
ĠDe b
ĠÐ ´
Ġappe aling
It em
Ġsal ary
Ġaud iences
Ġachieve ments
ĠIm agine
Ġcard io
Ġinitial ly
Ġsend ing
Ġfour th
Ġrot ating
agn etic
Ġfront end
Ġir rit
Ġinvent ed
Ġtables poons
ĠPlay ers
ĠWill iam
Ġinfl ammation
Ġjump ing
Ġpuzz le
ĠLim ited
Ġexhib it
DO CTYPE
oust ic
consc ious
F low
N AME
P ar
b ots
b uzz
f ront
j a
m ethod
t w
v als
y er
Î ¸
Ġo ct
Ġm urder
Ġh all
Ġh its
Ġst rive
ĠIn formation
el ry
ur istic
ate ful
ĠS ky
Ġ" <
Ġch rom
ĠB ridge
Ġma pping
ĠD umbbell
Ġsh ock
ĠL uc
ĠTh ough
Ġsome what
ĠN ovember
oo lean
Ġmod ification
Ġpre y
ĠJ une
Ġsim ulations
ĠĠĠĠĠĠĠĠĠĠĠĠĠĠĠĠ ĠĠĠĠĠĠĠĠĠĠĠĠ
Ġdist ract
Ġmed ieval
Ġtem por
ĠEx p
less ly
Ġlow est
Ġpref ix
ĠSc he
Ġgen et
Ġjo ined
ĠAmeric ans
Ġscen es
ites imals
Ġenjoy able
Ġfire wall
Ġbar rier
Ġsupp osed
Ġbring ing
Ġdream ing
Ġfru str
Ġimm ers
ĠFr iday
Ġur l
Ġsubst ances
Ġsubst itute
Ġbroad er
step s
Ġreact or
AS A
pack age
Ġhighlight s
TT TT
Ġgalax y
HE IGHT
Ġcompil ation
ĠPers onal
Ġyog a
ĠSn ack
Ġmush rooms
ĠCB DC
8 1
B I
D on
g it
m u
o ber
r ater
t arget
u ing
z ed
Î µ
Ġ ram
Ġ ..
es ides
Ġw ond
Ġm ine
Ġm amm
se ts
ed ing
Ġh oney
Ġh ung
Ġl ake
Ġn il
ot o
ut o
ut en
Ġst ere
ĠA cc
el ing
ĠS ie
ĠS now
Ġal pha
ant ial
op es
ĠH ar
Ġle p
un c
Ġsh ower
ĠE s
Ġres ize
form ed
Ġsc hed
Ġ3 7
Ġso y
Ġcl ouds
Ġtra veled
ap ing
Ġro oms
Ġpre gn
Ġdis orders
ual ity
Ġwork er
Ġrequ iring
Ġform ing
Ġdist ant
Ġsub scrib
Ġappro ached
Ġaut h
Ġdi plom
iss ance
Ġleg isl
Ġorig ins
Ġsqu ir
ann y
Ġgr an
Ġsuper ior
ĠOn line
Ġconsum ing
ĠLe ague
Ġopp osition
ĠMan agement
Ġsymbol ic
Ġscore s
Ġpad ding
Ġlif etime
Ġspeak ers
Ġill ness
Ġmanip ulating
ĠData Frame
ĠJust ice
Ġir re
Ġment ors
ĠCo ffee
Ġqual ities
ĠComp any
Ġparagraph s
ĠOff er
ĠComput e
Ġic on
ĠRegular ly
Ġmultip ly
Ġreput able
Inter face
Te X
ĠMart y
ĠSqu are
( $
. ]
X X
e ah
f ill
h am
p ay
v a
w rap
y es
Í İ
Î ½
Ġt sp
Ġa i
he red
re act
it an
it ting
Ġf ranch
Ġto ward
Ġl oud
ĠR at
ĠR om
Ġst ation
if est
Ġcon n
ĠThe ory
em ail
ĠD at
per or
ĠE instein
Ġint rig
and er
rou d
Ġmod ifications
Ġcl ot
00 000
ac c
ap or
ip se
ari o
ĠSt rong
Ġrel ies
ĠV ol
Ġcomple ment
Ġmat ters
Ġrem em
Ġweb page
Ġref resh
eng ine
Ġher self
ĠAn cient
ĠâĢ ĺ
uc cess
Ġscript ing
yn chron
Ġz ucch
Ġcell ular
Ġcr ash
Ġsleep ing
Ð¾Ð »
Ġspread ing
Ġeat en
su ited
Ġexecut able
Ġdev iation
Ġsatisf action
ĠChar acter
unge ons
Ġcert ific
ĠAustral ian
Ġacceler ation
Ġelim inate
Ġmemor able
Ġpenc ils
Ġstake holders
I X
K EY
O r
P er
S he
b ut
c ers
d alv
g i
k el
n ormal
p ng
p ush
Ð ³
â Ī
ī Ì
in x
in ch
Ġs ought
or gan
it ivity
an as
Ġp icking
Ġm as
Ġb low
le v
se en
st s
Ġh obb
om as
Ġg est
ĠT CP
ot y
ol der
if ting
ĠA im
ĠA ud
ver ty
ur ning
ĠS up
Ġal mond
ĠH ard
ĠW i
ĠB iden
ĠD I
ĠD ead
ĠD raw
Ġen ch
ĠL dalv
Ġr ings
Ġk ne
Ġad m
Ġqu ote
Ġwhe never
ast ers
Ġun ion
ĠIt em
end ing
Ġdis able
ient ation
con tainer
Ġind o
Ġbu ff
ys lex
Ġpo verty
Ġ6 9
Ġ$ (
ax is
br is
Ġvis a
Ġshow ed
Ġcomb ines
Ġserver less
Ġenc oded
Ġsimilar ities
Ġarg s
Ġdig est
Ġland ing
Ġregular ization
ĠChe m
Ġbrow sers
Ġlength s
Ġloss es
Ġessential ly
Ġcollect or
Ġcirc ular
Ġtransl ated
Ġimag ination
Ġbox es
Ġpurch asing
ĠII I
Ġtun ing
Ã¡ s
ĠDisc uss
Ġdiagn osis
Ġsettle ment
Ġsettle ments
Ġrepeated ly
gent ina
Ġaugment ed
Ġchron ic
Ġadopt ion
Ġaccident ally
appro priate
ĠNum Py
itzer land
ĠLdalv ik
O ver
O ps
O UR
V erse
e asy
f o
u ine
} :
Ï Ħ
Ġt ube
in ction
Ġc ure
ic an
st ation
ed ding
Ġre cy
ĠR ights
Ġst raw
ad ow
Ġal ter
pl ates
ĠF TP
ide an
ĠE ucl
ĠL ag
ĠL ittle
ĠN LP
ĠN ASA
ac on
Ġshould n
Ġdevelop ments
Ġinv al
Ġvari ation
gg ed
Ġfollow ers
Ġco efficient
Ġgra ce
Ġprovid ers
Ġcor re
Ġend urance
ĠPro duct
Ġcontain ed
Ġprint f
In st
In put
__ (
de v
Ġdri ed
Ġview ed
Ġsun set
Ġlast ing
Ġmor ally
ĠOn ly
Ġadjust ed
Ġste ak
Ġrock s
ĠCal led
Ġver tex
Ġrot ated
Ġperfect ly
Ġteach ings
Ġscal ability
ĠAut o
cos mos
Ġexcept ional
.... ....
Ġconv in
Ġconduct ed
Ġdiscover ies
Ġvert ices
Ġfulf illing
Ġproport ional
ĠLo op
Ġprepar ation
Ġincent ives
Ġwarri or
ĠSS H
Ġell i
Ġregul atory
Ġfeat uring
ĠDev Ops
Ġhydr ated
Ent ity
Ġinsul in
Ġanomal ies
Ġmicrow ave
B T
C hor
G C
P OST
Z E
c ir
d ocument
f ish
j i
p a
p ol
p unk
u pped
} ")
£ Ì
Ġt ack
Ġa qu
on i
es ome
nd array
Ġp ink
Ġp ump
Ġh am
Ġh obby
Ġl uc
Ġre plies
ĠT aking
ĠR TX
ig m
Ġst ab
ess ions
ĠP en
ĠH am
ort hern
Ġim plies
Ġle ver
ĠB lu
ĠD el
ud a
Ġres on
Ġte eth
ĠN ight
Ġbut tons
Ġ3 3
Ġcl icking
Ġun ity
Ġper cept
Ġadd ressed
Ġpr icing
Ġinv oke
ĠAs ian
Ġco at
Ġ6 2
ĠRe nder
Ġplan es
Ġdesign er
Ġstru ck
Ġbl ank
Ġread able
Ġfound ed
ĠDe cember
Ġexist ed
Ġcalcul ating
Ġz ip
Ġcir cles
Ġgen uine
Ġaddress ing
Ġfore cast
ĠCons ist
ĠDes cribe
Ġdam aged
IN G
Ġfrequ encies
Ġâ ī
Ġsimpl ified
Ġhor se
ĠSu pp
ĠSw itzerland
ĠMe an
Ġkn ock
ĠLa TeX
Ġrelax ing
Ġmicro controll
Ġvill agers
Ġrepl acing
Ġclos est
sm iles
Ġwild life
Ġep ic
Ġreve aled
Ġhoriz on
men u
Ġdiscrim ination
Ġtox ic
local host
Ġreform s
ĠMove ment
fil ename
Ġhorizont al
onym ous
author ized
ĠBle nder
ĠTensor Flow
Process or
Ġadequ ate
Ġbicy cle
pira cy
rater restrial
B M
E X
b b
f oot
k g
s is
Ġ ÏĢ
ĩ Ì
on ing
Ġp ill
Ġf ought
Ġm ild
Ġb er
Ġd ol
Ġg un
Ġg ently
as m
ĠT ele
ol ine
ĠA PL
ir y
ĠC ard
em ploy
ĠP R
ĠM all
ĠB an
ĠD jango
ĠF ibonacci
Ġus ual
Ġwe ird
ag ues
Ġres ist
Ġte en
Ġcomp act
Ġqu otes
Ġsc atter
Ġfe ars
Ġac oustic
ac eted
av y
ass istant
ram er
Ġinter mittent
ph ones
ĠV e
Ġinform ative
Ġoff set
ob j
Ġdist ur
ĠCh ile
Ġend ed
ty pes
ĠUn fortunately
Ġpat ients
comm un
Ġmet als
Ġeconom ies
po ol
oss al
oss il
Ġport fol
rodu ce
Ġgr ateful
Ðµ ÑĤ
Ġconvers ion
Ġflo ating
Ġrout es
ĠCol umn
Ġcollect ing
ym es
ĠInt el
ĠPr ime
Ġorigin ally
Ġsmooth ing
ĠPol and
Ar t
Ġcoord inate
Ġqual ified
Ġord inary
Ġobserv ation
she et
Ġcontract s
Ġalt itude
writ ten
Ġplugin s
Ġoverwhel med
Ġevalu ating
Ġastron om
ĠMa jor
Ġsod a
perform ance
Ġpyram ids
Ġcontem porary
ĠDown load
Ġsole ly
Ġpercent age
ocaly ptic
ĠSpec ifically
Ġfeather s
ynchron ous
cosmos db
) ]
- |
/ )
A F
E P
U sing
i ar
i elds
o op
Ġt ank
Ġa f
Ġs ed
Ġc ash
or ph
Ġb ish
ct uation
Ġe ight
Ġyou t
Ġl oose
Ġl inux
Ġn orth
et c
as ant
ĠT ower
ĠR L
Ġst uck
ĠS ud
ad os
ĠC all
out s
ĠP I
ĠP sych
ĠH app
Ġ( '
ĠB ible
ine gar
ĠD ocument
oc hem
Ġac cessed
Ġtra p
ĠJ our
Ġdis place
ens ing
lo ved
Ġover ly
Ġnew er
Ġworld wide
Ġatt ached
ink le
Ġref ine
Ġ$ {
Ġent ered
ex plain
ros y
Ġcount less
Ġvis its
Ġtest ed
Ġdifficult ies
Ġpass es
Ġcustom ization
Ġsimilar ity
ĠSh are
az ure
pr il
Ġneg atively
Ġabs urd
ĠMod ern
Ġwin ning
ĠAut hor
Ġindic ating
cor ner
Ġdial ect
Ġdu plic
ĠGre en
Ġearthqu akes
Ġterrit ory
ĠTur key
Ġsubt ract
Ġartifact s
Ġantibi otics
ĠDynam ic
Ġarbit rary
ĠIncor por
Ġhobb ies
) ):
0 4
9 4
C D
D epth
I e
L ab
d ays
g ood
m o
n c
n or
p i
r ating
r ane
v an
ð Ŀ
Ġs le
Ġs essions
ou l
it o
Ġp ed
Ġp od
Ġf ell
Ġb ool
Ġd ungeon
Ġin ject
st y
st atic
ra it
ot ed
ig er
ĠA zure
Ġcon current
ur ations
ĠS and
ĠC ore
her ic
th rough
op ol
ĠH ome
ĠM ix
Ġch ili
Ġ( $
ĠB ox
Ġpl ug
ĠL ive
ĠN ever
ost er
Ġun lock
Ġun cover
Ġman agers
ass word
ĠJ e
ĠJ avascript
ĠSt ream
Ġph osph
ys se
ov es
Ġcal or
Ġche aper
Ġgra y
Ġcount ing
comm and
Ġcar rier
ĠPro te
Ġcent ers
Ġbi ke
,, ,
Ġport ray
Ġinvest igate
Ġquant ities
Ġmanage able
Ġview ers
Ġess ence
Ġpres erve
Ġsuper natural
Ġeth n
ĠCol lect
ĠEl aine
Ġvisual ize
Ġplant ing
Ġdru ms
Ġcast le
Ġneur on
inst all
ĠAtt end
Ġrecip ient
Ġagre ed
Ġmultip lying
ELE CT
ĠHist ory
ĠCa esar
Ġfed eral
Ġfert il
Ġspo ken
Ġstom ach
Ġcinem a
Ġvolcan ic
olk ien
Ġentre prene
Ġfra ud
: \
D F
I O
S u
W ill
b ound
f ound
f irst
g on
j pg
l ie
m ask
o an
t x
u ced
z il
¥ Ì
Í ®
Ñ İ
ĉ ĠĠĠĠ
Ġs pon
ou ter
Ġw upped
is a
Ġp ets
ro ke
ro ad
Ġh us
Ġl ighter
ĠT olkien
Ġbe ll
ol lo
ur is
ĠS ym
Ġde ar
Ġhe al
Ġpl ain
ĠG lobal
ĠL ater
oc ated
ĠO ption
Ġte nder
Ġcomp ound
Ġqu arter
Ġcons ervation
ĠJ up
ens ors
Ġsp at
Ġsp ring
ord s
Ġ[ "
Ġret ire
Ġdist inguish
Ġplan ned
red ient
Ġeven ing
Ġent ering
Ġelect rom
Ġorgan izing
Ġer u
Ġlog in
Ġfur ry
Ġinvest igation
Ġprofess or
Ġjo ining
Ðµ Ð»
Ġvary ing
Ġfriends hip
sp ace
Ġcontinu ously
Ġreport ed
Ġcondition ing
Ġrespect ful
Ġrain bow
âķ ¢
Ġcitiz en
ĠID E
Ġtele vision
Ġvan illa
Ġcorpor ate
Ġyog urt
Ġloyal ty
Ġadminist r
Ġoutdo or
ĠOd ysse
ĠWolf ram
ĠOct ober
Ġremem bered
Chor us
Ġber ries
5 4
7 1
A Y
R T
d ess
p se
t aking
w ing
| ---
¤ Ì
¦ Ì
× Ļ
Ġc art
is ol
an el
Ġp roud
Ġf em
Ġf ool
Ġb oring
Ġb onds
Ġd urable
Ġin appropriate
Ġh osp
im port
ĠT H
ru b
ig ue
Ġpro hib
Ġas ynchronous
ul ative
ke eper
ĠS D
Ġsu its
ĠThe orem
Ġv amp
Ġv otes
ter y
ĠH askell
pt r
Ġ" /
Ġse ats
ĠB ake
ĠD igital
Ġsh ares
ĠF ro
Ġint im
Ġr iding
Ġk g
Ġli kes
ĠN a
Ġdat etime
ac ity
ĠJ oin
ll or
Ġap pend
ĠSt r
Ġpr imes
ĠK N
ĠK ramer
Ġinst ability
Ġ6 00
Ġfact orial
Ġmin ced
Ġ20 15
Ġart istic
mat rix
Ġ19 90
ĠCon nor
Ġfree zing
Ġproduct ive
Ġest ate
ĠCom mon
ĠIs l
ĠIs land
Ġcalcul ator
Ġbr ings
Ġz omb
Ð¾ ÑĤ
Ġaffect ing
Ġbreak down
Ġbig ger
Ġdraw backs
Ġsepar ation
Ġcollect ive
Ġmis under
Ð½ Ñĭ
Ġexc it
Ġsubst antial
Ġpromot ion
Ġscal es
?? ??
itiz er
Ġhar ass
off s
alax y
Ġasse mbly
ĠAc cess
Ġsyn chron
Ġconstruct ed
Ġstri ke
ĠExpl an
inf o
ĠIncre ased
Ġpix els
ĠProgram ming
Feed Processor
ĠStand ard
Ġdisappe ar
Ġdinosaur s
Ġtherap ist
Ġdoct rine
Ġjew elry
$ ,
) =
0 8
M O
T B
b orn
d ated
e z
e ffic
f erence
m ove
s ized
t rue
ļ Ì
Ġt or
Ġa th
re r
er ted
Ġc iv
Ġw ins
ing er
Ġm ere
Ġb ands
Ġd ow
ar ial
ic ense
ic ago
Ġth rive
Ġis t
ĠR ena
ig u
ĠS omething
Ġde bris
op ter
ase t
ĠD obby
per ature
ĠF all
ĠF red
ĠL ow
ĠL etter
Ġr iff
Ġsome where
Ġcomp rom
Ġ3 6
Ġcl osing
ĠY ear
Ġcons piracy
Ġexam ine
Ġru b
Ġrel ie
ĠV an
Ġtrans action
Ġag es
Ġtext ual
Ġbeh ave
Ġread ability
ec d
Ġprint ln
Ġprof ile
Ġsuggest ion
Ġris ing
Ġinvest ments
az z
aut h
Ġvol at
ãģ ¯
Ġaccount ability
Ġrespons ive
Ġenjoy ed
ĠOr der
ĠCl oud
we b
Ġsmo king
ĠSer vices
Ġdiscuss ing
Ġload ed
num bers
Ġopp osed
Ġdiet ary
Ġtax es
Ġtim estamp
Ġdecl ared
Ġemphas ize
Ġdemand s
Ġspir its
Ġstock s
Ġinterpret ations
part ial
Ġconver ting
Ġord ered
Ġpeace ful
Ġclim bing
Ġpotat o
Ġuns ure
ĠNetw orks
:::: ::::
Ġentertain ing
Ġexperim ental
Un fortunately
ĠCre ating
Ġneighb or
By Id
Pr ime
Ġecosystem s
build ing
Ġforg ot
Ġintent ions
Ġarrange ment
Ġcompass ion
Ġlaun ched
ĠRena issance
1 20
C O
G iven
O O
b el
h o
h y
l on
m elon
p ip
r ations
r atic
z ero
{ \
ł Ì
Ń Ì
re c
re qu
Ġc ros
or ious
Ġw estern
Ġm im
Ġb olt
Ġin ch
Ġh ook
Ġg ate
Ġbe ars
Ġpro xy
el ope
Ġcon e
Ġne ither
ill as
Ġ" ,
Ġim g
ĠM RI
Ġse at
ĠB ook
iz ers
ĠD J
ĠE valuate
our ite
og rap
Ġun authorized
Ġdis order
com pass
Ġinter connected
ĠV P
Ġform ats
ĠK ar
Ġco herent
Ġche f
Ġinf ection
Ġbuild s
ety l
Ġloc ate
Ġ20 10
Ġpoint ers
Ġla id
Ġshe ets
ĠWe ak
Ġbre eds
elf are
Ġstory t
Ġaff irmed
Ġleg it
Ġbus y
Ġsent ience
ĠX box
Ġupd ating
ĠPh oenix
Ġvi able
AT H
Ġsn ap
elt a
ĠCont inu
Ġreplace ment
Ġnav igation
Ġsil ly
Ġvac ation
ĠComm and
ĠBat ik
Ġcentral ized
Ġmicro bi
Ġutil izing
Ġconver ted
Ġparticip ants
Ġforest s
ĠâĪ ļ
Ġhighlight ing
ĠSat urn
Ġembed ding
Ġthous and
Ġproport ion
Ġjud ge
ĠThrough out
tun ed
Ġmerg ed
ĠSil ver
ĠDep art
Event Listener
ĠRub y
ĠBas ic
Ġincon ven
Ġconqu er
Ġpru ning
Rem oteException
ĠFound ation
ĠMess i
Ġcock t
ĠPhotos hop
Ġimmers ive
Ġclot hes
5 6
8 3
G P
J S
L S
V D
h ot
m ate
p urpose
r ical
s ist
z illa
Í į
Ġ ich
ħ Ì
Ī Ì
in ue
in sert
re ds
en sed
Ġp ent
Ġp us
Ġf ission
Ġf ossil
Ġb et
se mble
ĠI Q
Ġl au
Ġre nd
Ġre cept
Ġn ations
et ry
il ty
ĠT ogether
ut ter
ge nds
ĠC apt
ĠC rypt
um bled
ĠM atch
ĠW arm
Ġuse State
ĠF ou
ĠG a
ĠG alaxy
oc ado
rou s
Ġres istant
Ġun icorn
Ġsy nd
Ġtra ils
Ġtra dem
ac ific
Ġdis aster
ll a
Ġru led
Ġru ler
Ġplay list
Ġ0 3
Ġref rig
read ing
Ġgra de
Ġfact ual
Ġ$ $
ax os
Ġ20 13
Ġreal m
Ġconf using
Ġlearn s
Ġwrit ers
Ġsever ity
ĠEx erc
ĠEx press
=" #
Ġair flow
ĠDe cl
Ġ/ *
Ġdeterm ination
play ing
ĠAr gentina
Ġsaf er
Ġsl ide
Ġshort est
Ġweight ed
Ġstre ets
aut ions
Ġkind ness
Ġjo int
ze ch
ãģ Ļ
ik u
Ġaccount able
Ġharm on
Ġcolle ague
Ġcolle agues
Ġtransform ed
Ġcompet e
Ġcompet itors
Ġheart s
Ġadapt ations
Ġauthor ization
ĠEl on
add EventListener
Ġreport ing
Ġ-- >
Ġapprox imate
Ġdru g
su per
ĠðŁ ¤
Ġindepend ently
Ġpush ing
des cription
Ġutil ize
ĠChrist mas
Ġsou p
Ġlapt ops
Ġcarry ing
Ġtransition ing
Ġcontroll er
Ġbirth day
Ġpure ly
Ġprepar ing
Ġoverl ap
Ġpersist ence
Ġclub s
ĠMount ain
Ġhund red
Ġmig ration
ĠRegard ing
Ġrecursive ly
Ġsatell ite
Ġadj acent
dist ances
ĠRich ard
Ġprocrast ination
ĠPythag orean
Ġportfol io
ĠExplan ation
) }
8 00
D id
F alse
H H
R oom
U N
a verage
b ul
d ec
g un
h r
r ick
r ational
ĸ Ì
Ġt on
Ġt rop
er ator
Ġc tx
ou red
it age
en use
is p
Ġp se
Ġf r
Ġf isher
Ġb arb
al so
Ġd a
Ġin struct
ct ive
st e
il ant
Ġg am
ĠT erm
ĠA pril
ist an
ab c
ĠP erm
os h
ĠM ath
ĠB ash
Ġsh ield
ĠF ill
ĠE IN
ĠE ye
Ġab and
ĠG ather
ĠG ET
ĠL ess
ĠTh or
ĠTh ose
Ġad s
ile Entity
are a
ĠN et
ire ction
Ġj e
ac iÃ³n
Ġneed ing
Ġsp an
Ġap ples
The y
ne ction
vers arial
Ġfol ders
Ġra ces
Ġspecific s
ng inx
ien e
Ġext raterrestrial
** ,
Ġi OS
Ġsupport ive
Ġbl ur
ĠAl ways
Ġread s
Ġve ter
Ġcle ver
Ġprof ic
Ġsuggest ing
ins p
Ġhead s
Ġhead aches
ann a
Ġnon linear
Ġtarget s
Ġgraph ic
Ġdefin itions
Ġcapt uring
Ġemploy ment
Ð¾Ð ´
Ð¾Ð ¼
Ġprior ities
Ġdom ains
Ġmom ents
itud es
Ġimm ense
Ġprec autions
Ġlif es
run ning
Ġrein force
Ġresearc her
Ġshell s
Ġrev ised
hand le
ĠPri ze
SI ZE
Ġperce ived
Ġswim ming
Ġencourag es
ĠGal ois
ĠArray List
ĠMex ico
Ġcompl iance
Ġfluct uations
Ġgobl ins
ĠSund ay
ĠAnsw er
epr int
ĠCBDC s
6 2
9 1
; ->
D A
D is
D ocument
G ET
S pe
^ (
c ope
c ule
f ield
f ishing
m es
s ky
t ask
w olf
in ery
on ts
at ar
Ġc oun
an cer
Ġf ry
Ġf Ã¼r
al ign
ar se
se cut
Ġl id
Ġn ail
Ġn ails
ĠT itle
Ġbe loved
ĠR oom
Ġst aff
ith metic
Ġan throp
ĠS ant
ĠS ong
ĠC herry
ĠC lose
ab ase
Ġv ocal
ĠH at
ĠM X
ĠB lock
ĠD uke
ĠF il
and a
Ġ2 9
ĠL ead
ag u
Ġcomp os
Ġcomp ost
Ġcomp ounds
ĠN av
du ctor
Ġmod es
Ġem pir
Ġdifferent iate
ĠĠĠĠĠĠĠĠĠĠĠĠĠĠĠĠ ĠĠ
Ġunderstand able
Ġsol o
ĠCh icago
Ġgu ides
Ġeven ly
Ġcommun ications
Ġtop ological
air y
Ġprint ed
Ġdirect ories
pro blems
li ament
Ġfut uristic
ĠIs ab
Ġactiv ate
Ġz u
par ameters
Ġstre ng
Ġgovern ance
Ġpress ing
app oint
ãģ Ħ
light en
Ġformat ted
âĢĿ ,
Ġsens itivity
Ġobser ver
ĠDis play
Ġintrodu cing
Ġcru el
Ġwood en
Ġyoung er
Ġvisual ization
Ġdom inant
Ġmodify ing
ĠPC Ie
astic search
Ġtrust worth
Ġlic ensed
Ġauthent icity
nam on
IM P
Ġpros per
Ġparticip ating
she ets
Ġclim b
ĠSk ills
ĠHum ans
process ing
Ġcryptocur rencies
Ġcrack ing
Ġstir ring
Ġdiam onds
ĠAng ular
Ġscan ning
Ġevalu ated
Ġvirus es
ĠLast ly
ĠMathemat ics
Ġsacr ifice
Ġdut y
ĠBer lin
Ġinherit ance
Ġmetab ol
ĠPand as
Ġmicrobi ome
, âĢĿ
3 00
B C
L O
M I
R a
R OM
c ore
d m
f uck
h t
h og
m ode
m ade
s en
s qrt
w d
© Ì
Í ¬
Ð ¿
Ġc it
Ġc ipher
ĠI de
Ġe in
Ġl ens
Ġre ph
il arious
ĠR ings
ut ious
el a
Ġan arch
ul ator
ĠS L
ĠS elf
ĠC op
ri ka
ĠH aw
ĠM aster
ĠB oot
Ġma il
ect or
ĠD w
ĠF our
ĠE v
ĠE qu
Ġen cl
Ġen for
Ġen force
ĠG ray
ĠN i
ĠN ginx
Ġsc aling
Ġj et
Ġsy rup
Ġar c
end ment
Ġinter med
ĠSt ra
ĠSt ack
ĠK ubernetes
Ġdist ort
Ġopt ic
Ġmin i
Ġmin eral
ron ut
** .
Ġsur pr
Ġmem br
Ġca utious
ĠAl low
ĠCon duct
Ġconst it
Ġmulti verse
Ġmet eor
val id
Ġalgorithm ic
ĠSe ismic
Ġoptim izations
Ġpack ing
be at
let ter
Ġpredict ing
Ġoccur ring
ST M
go ogle
Ġpan ic
Ġsynt hes
Ġsche ma
ĠPer cy
Ġdownload ed
Ð½ Ð¾
ĠMar ley
ĠDevelop er
Ġexpand ed
Ġkn ight
ĠOther wise
ĠGener ally
ĠGu ide
Ġfilter ing
Ġroad s
Ġmole cule
Ġment or
ams ung
Ġtables poon
Ġdefe ated
Ð°Ð º
ĠAc cessed
ĠSm ith
Ġestim ates
Ġinterf ere
Ġtall est
Ġcop ies
ĠMer kel
ĠSch ool
Ġpun ish
ĠPri v
Ġadop ting
ĠTechn ology
âĸĳâĸĳ âĸĳâĸĳ
tun ing
gener ated
plan es
Ob ject
Ġbatt les
sal ary
Ġtroubleshoot ing
ĠTun is
ĠBayes ian
Ġcontest ant
IHw Binder
Ġlep rosy
Ġauth ors
Ġelli ptic
Ġstoryt elling
C a
E F
E m
L A
S um
b n
h ome
l ore
v ance
¯ Ì
Í Ħ
Ĩ Ì
ĭ Ì
ĺ Ì
ľ Ì
re ls
er get
ed iate
om ous
Ġn est
Ġn ick
Ġn ether
il ob
ĠT reat
ce ans
ol ar
Ġan ecd
Ġwith stand
ld er
ge ometry
ir s
ĠC zech
Ġhe aling
ere g
out hern
ĠP our
ĠP rompt
ĠM ale
ĠW ik
Ġma st
ĠD om
ĠD ie
Ġen erget
Ġab use
are r
Ġres id
ĠU N
ber g
Ġsp ices
Ġpart ition
Ġset t
Ġplay ful
Ġtr icks
() );
Ġ' ''
Ġreg ional
ten ess
Ġrep roduction
Ġret urning
Ġsign ed
Ġcor al
Ġdesign ers
Ġdi vers
Ġ8 00
Ġtem po
Ġz ones
Ġpolit icians
Ġdig estion
Ġrepresent ations
Ġmot or
Ġpres ents
ĠGod ot
Ġemploy ed
Ġbo iling
add ress
Ġmis sed
Ġsimpl est
Ġsecure ly
Ġsmart phone
Ġassum ption
SC ode
ĠSw iss
af ety
Ġpip elines
Ġpassword s
Ġlic enses
oe lectric
ĠMat rix
Com m
Ġmole cular
lay out
rol led
def ault
ira ble
Ġwilling ness
pad dle
Ġadvert is
ĠIncre ase
Ġstret ching
ĠSee k
Ġprem ium
ĠMult i
Ġtunnel ing
Ġlon el
ĠRo bert
ĠRat io
Ġdisplace ment
Ġretire ment
ĠKN IGHT
Ġinconven ience
lighten ment
P i
a id
i ov
m ind
r ang
} .
ª Ì
Í ĥ
á »
Ķ Ì
Ł Ì
Ġt ied
Ġt ensions
Ġa est
al ities
st op
st one
im eter
ĠR ot
if th
if iers
Ġor ientation
ĠC ong
th at
op her
ĠP arm
ĠP acific
ĠP axos
Ġne on
Ġ" \
ĠW alk
ĠB ol
ĠF ried
Ġen um
ĠL ab
ĠL isa
Ġat tain
Ġimp ress
Ġte nds
Ġqu ot
Ġsc ared
Ġsc attered
Ġj un
Ġar ts
ĠJ es
ĠJ ung
con suming
Ġru m
Ġ0 11
Ġopt ional
Ġgra ins
Ġclass ify
Ġdown sides
Ġeng lish
Ġequ ipped
Ġsoft ened
Ġpat ches
Ġ19 60
Ġnetw orking
Ġmet er
Ġcomb inations
par am
pre t
Ġstrong ly
Ġwar rant
ug s
ĠX ML
Ġgr ant
ĠBe at
Write Line
ĠFin ancial
Ġscre w
Ġgain s
Ġinterpre ter
Ġang ry
Ġcirc uits
ĠQu ery
lear ning
Ġnovel s
Ġfair ly
Ġdemonstr ated
Ġextract ed
ĠPol ish
Ġbur ning
ĠVal entine
Ġestablish ing
Ġserious ly
Ġhypot enuse
TH UR
ĠAR THUR
Ġabsor bed
ĠLL C
Ġcop per
Ġdescript ive
Ġperm its
ĠGr illed
Ġcampaign s
Ġshoot ing
Ġversat ility
ĠEth an
Ġlas er
Ġpursu it
ĠImpro ved
Ġhund reds
Ge ometry
Ġfo am
bu ilt
ĠDiv ide
Ġinhab it
Ġlux ury
Ġcoun sel
rang ian
% .
5 2
; )
B ox
L og
T itle
W indows
e lect
f ather
f ox
g rid
j u
l ings
s in
s udo
Í Į
Ġ ip
Ġa wards
Ġs ne
Ġc rown
an ian
Ġf ant
ar ms
ro py
Ġl es
Ġg in
as ks
ĠT otal
id ays
ĠR h
if ted
Ġas h
ĠP ublic
Ġne arest
ive red
ĠM S
ĠB C
ĠB ring
and om
Ġwe aken
ĠL ower
Ġk in
ĠO S
âĢ ľ
Ġsim ulating
Ġwant ing
ĠV SCode
reat he
ĠAd just
ĠRe al
Ġfi erce
Ġfil tered
ĠHe at
alth y
Ġgu ard
Ġgu ests
Ġwater melon
erest ing
ĠAl pha
Ġdisc overs
ĠCon vert
Th rows
20 21
Ġmulti plied
Ġvers us
ĠSc roll
Ð° ÑĤÑĮ
Ġgraph s
Ġpredict ion
Ġglo ves
âĢĿ .
Ġfeed ing
ĠJohn ny
Ġfund ament
ili ans
Ġalong side
ÑĢ Ð°Ð
Ġhost s
Ġinvolve ment
Ġprec ipitation
Ġtheore ms
Ġpip es
Ġexecut ing
Ġorigin ated
Ġexce l
amb ur
Ġatmosp heric
Ġclar ification
Ġfat igue
ĠMark et
Ġcoord ination
Ġconver ts
Ġupload ed
ĠElect ric
ĠNext cloud
Ġthick ness
Ġembed dings
Ġconvent ional
Ġterrit ories
Ġrect angle
Ġghost s
ĠReturn s
Ġspect rum
Ġunw anted
Ġhaz ard
Ġfeas ible
Ġmamm als
ĠLag rangian
Ġluc id
Ġelectrom agnetic
Ġexcit ement
Ġciv ilians
ereg rine
" ])
7 4
9 6
A E
A t
P ol
U ser
c arbon
d ig
e u
i em
j o
m eta
r ise
Í Ĭ
Í Ľ
Ġt ie
Ġt ire
Ġt ap
Ġs our
Ġs sh
Ġc rop
is ition
an View
Ġf ib
Ġo ceans
Ġm useum
le vant
Ġn iche
ĠT able
ut h
ĠIn s
am ine
el vin
Ġan at
ĠS I
ĠS uch
ad ed
Ġal arm
Ġhe ated
em ic
em ade
ĠW all
un ny
ĠB ell
Ġcont am
ag onal
Ġcomp ress
ac cess
Ġcons ent
Ġper pet
lo x
ener gy
au rus
cur rency
ov ing
Ġcur se
Ġ[ [
Ġco effic
Ġag encies
Ġrec all
Ġrem ark
ĠCh rome
Ġsub tle
Ġref eren
ĠAd ams
ex ist
Ġequ il
Ġredu nd
ĠWe ight
Ġmon key
Ġworks heet
Ġgre ens
Ġpass ive
Ġcheck ed
Ġchalleng ed
Ġdel ivered
(' /
Ġcir cul
Ġpres sed
Ġbal d
Ġwee kend
Ġglo b
bs olute
Ġgain ing
Ġpay ments
OS IX
Ġsche me
Ġhot el
ĠPre heat
Ġreflect ed
Ġnav igating
fact or
alle y
bre w
Ġly ing
ĠðŁ Į
can vas
Ġauthent ic
Ġri val
Ġcomprehen sion
ĠSm all
Ġhero es
ĠSat an
ĠSat ur
Ġdecre ased
Ġann oy
ĠMer cury
Se lect
Ġcorpor ations
Ġcin namon
Ġnucle us
Ġcritic ism
Ġwat ched
ĠProcess ing
ĠCap ital
Ġhun ger
ĠTre k
Ġtiss ues
Ġnegot i
Ġtoler ance
rf anView
Ġquad ratic
Ġcertific ate
Ġbish ops
ĠSym phony
Ġlifes pan
Ġempir ical
ĠDw ight
Ġlonel iness
! ("
1 000
6 1
> `
B S
C ons
E l
N ode
c ience
d c
e ven
f ord
h igh
m id
n p
p rompt
s n
s hips
t orch
} )
Ġt ro
re quest
Ġs outh
er ior
or ig
Ġw elfare
it ual
Ġp ued
Ġb one
Ġb ought
st ates
Ġh ur
Ġh ire
Ġg aps
as ive
as ures
ce ived
ĠR oll
el led
ay ek
Ġcon volutional
ir ls
ĠS y
ĠC ath
ĠC ON
Ġde ple
ĠP RO
ĠH en
ill ance
ĠM ass
ĠM ont
Ġle ts
ĠW ind
our se
Ġpl ag
ĠL ambda
ĠN ic
Ġun sol
ac onda
ap ocalyptic
Ġout dated
ĠJ ord
Ġdes ert
Ġem ulate
ĠSt ir
Ġind irect
rit er
Ġvari ant
Ġact or
Ġ' .
ob e
Ġche es
ĠCh ild
Ġav iation
Ġsk etch
Ġour selves
ern ames
ĠĠĠĠĠĠĠĠĠĠĠĠ ĠĠĠ
Ġequ als
Ġair plane
Ġstruct ural
Ġshow case
Ġimplement ations
ĠCom b
de velop
Ġcustom ized
Ġrepresent ative
omet er
Ġvol umes
ĠZ ack
Ġgr ass
Ġpres erving
ips um
Ġremain ed
Ġtarget ing
ĠDes cription
Ġage nd
Ġcapt iv
ĠEm peror
Ġ200 8
Ġadapt ation
Ð¾Ð ³
Ġbar riers
LL M
Ġliter ary
Ġfoot print
Ġfair ness
Ġviol ent
Ġfail ures
Ġmel ted
ĠPar is
train ing
Ġunivers ities
Ġmyth ical
fig ure
Ġwonder ing
Ġdestroy ed
Ġsand w
Ġcelebr ate
Ġdwar f
ĠDec ide
gre en
Ġcryst als
ĠÃ Ĺ
Ġwarri ors
Qu antum
Ġreplic ate
Ġwal ks
Ġhun ter
Ġappoint ment
ĠCour t
ĠLink ed
ĠLay er
ĠPortug al
Ġdiscipl ine
ĠIndust rial
Ġpir ate
Ġentreprene urs
Ġenerget ic
" ),
$ .
( \
2 64
5 8
5 9
H ave
L ife
M S
M e
N G
d el
e q
i y
k ed
k et
m ium
p her
r ance
v ia
Í ķ
Ġt ired
in is
re actions
or ce
or iz
ou is
en ess
Ġf et
Ġo z
Ġm dr
Ġb ark
ar ks
ar ative
Ġh ate
ch arge
ut ing
Ġst ones
ĠS ay
ĠC raft
ĠC over
Ġde h
Ġv oices
ĠH old
ĠM useum
ĠW ait
Ġ( (
Ġ( +
Ġnot ed
Ġma ze
ĠD war
ĠF inal
ĠF ROM
ĠE ND
pp ings
ud e
Ġqu een
ĠN BA
Ġ3 000
ĠJ ay
Ġdis s
Ġdis appoint
Ġall ocation
etw ork
lo v
com pat
Ġcode base
ph p
Ġpo le
gg ing
Ġ` -
Ġ` <
ĠAd der
Ġloc ally
rain ing
Ġ19 70
ĠPro ton
to kens
Ġmon sters
Ġenvironment ally
ĠDe ath
ĠIs ra
ĠAr th
Ġsl ot
Ġhy g
Ġgr at
Ðµ ÑĢ
ĠOr ig
ĠInst agram
ĠAp ollo
Ġconfig urations
sp an
Ġlat ter
Ġhistor ic
Ġstream s
ĠFr ank
ĠPre pare
Ġemerg ing
Ġmut ation
Ġhouse hold
Ġthreat ened
asc ular
Ġmit osis
Ġwalk ed
Ġshad ers
ĠGra du
Ġapart ments
ĠVal heim
Ġmal ware
Ar ray
Ġbright ness
De ath
Ġsus cept
Ġtab s
Ġwealth y
Ġdiagn ose
Ġattract ive
Ġreve al
Ġpig ments
Ġextend s
Ġworkout s
ĠĠĠĠĠĠĠĠĠĠĠĠĠĠĠĠĠĠĠĠĠĠĠĠĠĠĠĠĠĠĠĠĠĠĠĠĠĠĠĠĠĠĠĠĠĠĠĠĠĠĠĠĠĠĠĠĠĠĠĠĠĠĠĠ ĠĠĠĠĠĠĠĠĠĠĠĠĠĠĠĠĠĠĠĠĠĠĠĠĠĠĠĠĠĠĠĠĠĠĠĠĠĠĠĠĠĠĠĠĠĠĠĠĠĠĠĠĠĠĠĠĠĠĠĠĠĠĠĠ
pair wise
Ġjud g
ĠConst itution
Ġliber ty
ĠCommun ication
gre SQL
Ġtrib es
ĠExper iment
Sub ject
vo king
Ġshel ter
Ġfolk lore
Ġepis ode
Ġneckl ace
Ġstimul i
Ġperman ent
Ġcort isol
ĠAlgorith m
Ġphysic ist
Ġappl iances
Ġfranch ise
ĠEucl idean
Ġyout ube
ĠGa uss
ĠSatur day
) (
1 80
4 3
7 2
C ar
F C
P op
b olic
c opy
d eg
f lu
l oc
m em
n n
n ia
s cription
t ics
t ree
v id
w U
Ñ Ĩ
Ġt ou
Ġt bsp
he ro
re nd
re nce
er os
Ġc ough
Ġw ra
Ġw olves
Ġo m
Ġm int
Ġb oolean
ct l
Ġl ac
Ġl aughter
ent ry
il le
Ġfor th
id ad
id able
ot ton
Ġit iner
ĠA ff
od ge
ul ates
ge x
ĠS N
ĠS leep
ĠS pecial
Ġcom o
ĠC ast
Ġde le
Ġhe d
Ġv ivid
Ġv inegar
est ial
em on
ment ed
ĠH R
Ġch am
ĠW riting
ĠB ody
us r
Ġsh ake
ĠE le
ĠE sc
ĠG roup
oc a
Ġli b
ĠO cean
ang ular
ĠN VID
Ġcre w
Ġj og
Ġun re
Ġun clear
ace ae
Ġar th
Ġar ithmetic
ĠJ ose
Ġdis crete
Ġover s
Ġnew ly
ord e
Ġpe er
Ġpr ide
Ġrel at
ĠV ec
yth ing
tern oon
Ġag ents
ĠRe in
eng er
Ġlight ly
Ġmethod ology
Ġ20 17
Ġ19 30
Ġbre ast
Ġmet ap
Ġaff airs
Ġcustom izable
Ġachie vable
Ġben e
ĠDo e
port s
Ġcolor ful
Ġrele ases
Ġrele vance
)) )
Ġattack er
ĠPh ysics
Ġgraph ical
Ġbrain s
Ġpredict ed
che m
Ġlat ency
Ġbar ter
oad er
Ġbed room
ĠMon itor
Ġboard s
ĠPr ice
ĠGet ting
mar ks
Ġinfin itesimals
ĠSim ple
ĠLi am
ĠGra nd
ĠSystem s
Ġcamp ing
Ġmac OS
Ġalign ed
Ġutil ized
Ġrh yme
rad or
Ġattribut ed
ĠSol idity
ĠTra de
Ġpoor ly
ĠType Script
Ġann ual
Ġperm ission
Ġdistinct ive
Ġ198 5
//////// ////////
ĠLED s
Ã¤ t
Ġsubmit ted
Ġwat ers
Ġrepet itions
Ġsurve illance
Ġtk inter
ĠLine ar
Ser vice
ĠSum mary
ĠCro at
Ġcere al
Ġoscill ator
Ġscrap ing
opl an
ĠHung arian
ĠComple x
doc s
Ġsam pling
ĠBron ze
ï¸ ı
Ġoccasion ally
ĠDI Y
cir cle
rane an
Ġhus band
ĠIsab ella
iov ascular
Ġcoeffic ients
ĠNVID IA
% ;
7 3
A O
G ame
M on
S im
S ource
d ou
d est
m ates
p hen
v y
w o
w in
} "
} \
Ã °
Í §
Ï ĥ
Ĥ Ì
ķ ×
ŀ Ì
Ġt ilt
Ġt ones
Ġa we
re land
re aching
Ġs ink
er als
Ġf est
Ġo w
Ġb ould
Ġb ones
ar ly
ĠI ter
ĠI rfanView
Ġre lying
et ies
as hes
ĠT rib
if iable
Ġpro pose
ir al
ĠS oci
ĠS IM
ĠRes pon
Ġex agger
Ġv es
Ġv en
Ġha unt
ĠP ur
ĠP AD
ĠP OSIX
ĠH D
ĠH el
ĠH ash
ĠM ind
Ġse nder
un iform
ĠF oot
iv y
ĠTh omas
Ġres c
gh old
Ġhel l
Ġcl ues
Ġtra it
Ġro asted
au c
Ġunder water
Ġap i
ĠSt orm
Ġwork place
Ġinv asion
Ġvari ed
Ġvari ance
Ġact ors
Ġcur ly
hes es
ential ly
Ġtrans ist
Ġco in
Ġadv ise
.. ."
Ġsk ip
Ġdec ay
Ġincre mental
Ġlet ting
Ġdi agram
ĠWe ather
Ġlim iting
Ġair planes
ĠÐ ±
ĠÐ ·
Ġpass age
Ġes p
ĠDo ctor
Ġsing ular
ĠPl ot
Ġgl uten
Ġavoid ed
Ġprotect ive
Ġharm onic
Ġ12 8
Ġflow er
Ġver ified
Ġfire place
ĠSer ies
Ġter ror
ĠPr incess
script s
wh ite
rim p
Ġdemand ing
25 6
Ġexce ed
Ġtransport ed
ĠLa place
Ġclar ity
Ġmyth s
Ġbound ary
Ġconduct ing
Ġgather ing
Ġcorrespon ds
ĠMax im
Ġcop ied
Ġembed ded
Ġkid ney
Ġshoot er
Ġevolution ary
Ġpun ctuation
Ġtow el
Ġdiction aries
Ġpassion ate
Ġvit amin
sort ed
Ġstret ch
tem plate
wik ipedia
Ġft p
Ġkilogram s
Ġtiss ue
Ġcow ork
sign up
aware ness
Ġdos age
aus ible
Ġsquir rels
Ġtack le
Ġath let
. ",
1 10
A X
A tt
D ir
F ield
M at
O SS
R ec
S ystem
^ {
d et
e v
f izz
k m
k er
Í Ĺ
Ï ģ
à ®
Ĳ Ì
Ġt aught
he ast
Ġw and
Ġw ound
Ġw rest
it ative
Ġf ax
Ġf raction
Ġm und
Ġb ake
Ġb eta
Ġd ys
le ctions
ĠI reland
Ġre ign
il ly
il ch
ĠR ing
ĠR ow
ĠR NA
am ily
ir ds
ĠS ign
Ġex ch
Ġde pos
ĠP rom
ĠM iss
ĠM ongo
Ġch amp
Ġse es
Ġse al
ĠW ide
ĠB arb
us ers
ĠD ue
ĠD ub
ĠE mb
ĠE mma
ĠG B
ĠL y
ĠL iving
ĠTh urs
Ġk illed
Ġad apter
ĠO sc
Ġun iform
Ġdat ing
Ġtra il
ĠY eah
lo pe
pend ence
Ġprodu cers
Ġreg ression
Ġag ed
pect s
ĠAd ding
ĠRe qu
ron es
Ġpol es
Ġide ology
Ġgu ilty
Ġconf ront
Ġbl u
Ġ19 55
Ġhealth ier
Ġcar ried
ĠOpen Assistant
Ġfree ze
Ġaccess ibility
Ġmet aph
Ġrese t
ĠBut ton
Ġaff ection
ĠAr ist
Ġdel ight
Ġoptim izing
Ġgl ue
ĠSp read
To ken
Ġphot ograph
Ġfac ility
Ġfac ilities
Ġrout ing
Ġcat ast
Ġ200 5
Ġtreat s
AT FS
Ð¾Ð ¹
sp read
Ġmar ks
Ġdetect ing
Ġsupp ose
Ġsurv iv
55 5
ĠNe o
ĠStart ing
angle ment
ĠInd ia
Ġassum ed
ĠTw itch
Ġintegr ating
Ġdead lines
ĠGra dle
ĠOther s
ĠInter mittent
Ġcamer as
Com pany
Ġcos mic
Ġestablish ment
}{ \
Cl ass
Ġgirl friend
For ce
Ġsatisf y
Ġreb uild
ĠLat te
cal a
ĠAN Y
ĠLim it
Ġorbit als
ĠMus k
Ġaccomplish ments
ĠFire fox
ĠÐ½ Ðµ
Ġsen ior
vol ume
======== ========
ĠMem ory
Ġglow ing
Ġrating s
ĠNether lands
Ġpine apple
Ġexplos ive
Ġaccommod ate
ĠAdv anced
Hand le
Ġorg ans
ãĢ Ĥ
Ġintention ally
Ġlingu istics
ĠImm ediate
Ġsuperconduct ors
Ġcel estial
Ġinp aint
Ġfu els
ĠViet nam
Ġsusp icious
mind ed
ĠCath olic
ĠLinked In
Ġitiner ary
' ])
? :
D S
M W
M ail
R eg
b ind
c atch
d i
f oo
h line
m t
m ake
n ut
s sh
s leep
Í ¨
Í ĵ
Ġ ÑĤ
Ġ Â°
Ġ 00000
Ĵ Ì
he res
at hered
er a
Ġc unning
Ġf er
Ġf ried
Ġb on
Ġb io
al in
Ġd y
Ġd irt
Ġd ancing
Ġin clusive
Ġh ub
Ġh ills
Ġh iding
Ġe ars
Ġl unar
Ġn n
as hed
ĠR ay
ĠR ange
ĠR oss
ĠIn fin
Ġex ception
Ġcom ics
ĠC ube
Ġyour s
um en
Ġv ice
op les
ĠP S
ĠP ear
ĠH og
ĠH alf
Ġ- =
ĠM ID
Ġch im
Ġch ari
ĠW al
ĠW oooo
ĠB all
ĠB uff
ĠB CE
Ġsh y
ĠF ield
ĠF alcon
ĠE r
ĠE ffect
ĠE AV
ĠL in
Ġ= ==
ĠTh ings
ĠTh ird
ĠN ob
Ġcl oth
Ġun fortunately
ĠU s
ĠY A
Ġcomm od
Ġper se
ail h
ater al
Ġinter sect
ĠSt one
Ġapp et
Ġapp arent
vers al
Ġno od
ĠK ailh
ath on
Ġoff ic
Ġcomple tion
ob ile
Ġtrain s
Ġclass ifier
Ġhand les
Ġmin erals
Ġ20 14
Ġgu ys
Ġoper ational
Ġlo ans
ren ces
Ġtem plates
Ġmon arch
Ġmon etary
Ġer r
Ġbi ochem
sh aped
Ġz oo
Ġsl ices
Ġport rait
St atus
Ġrele asing
Ġstrong est
oph ag
pri ately
Ġfram es
Ġgr anted
Ġland s
ĠIm pact
Ġtrack s
Ġfall en
Ġop ponents
Ġtransform ing
Ġphot ograp
ĠInst itute
ĠDis ney
Ġbra ve
Ġbra nds
ĠAp ache
Ġdeb ated
Ġwood s
Ġcompan ion
Ġload er
LE D
Ġcut s
hel p
Ġbackground s
gra de
mar gin
Ġliter al
Ġexperiment ing
Ġexpand ing
Ġrepe ating
Ġenter prise
Ġpromot es
Ġresol ved
Ġhypot hesis
Ġsatisf ied
Ġsatisf ying
ĠApp ro
ĠApp ly
Ġble eding
Ġlandsc apes
clus ions
cel ona
ĠÂ ¬
Ġassign ed
Ġrevolution ary
Ġperm issions
print ln
Ġlik ed
Ġfro st
Ġdepart ments
Ġhyper parameters
Ġcolon ial
ĠDrag ons
Ġmask ed
Ñĩ Ðµ
mut ex
Ġhous es
Ġprem ise
Ġthrow ing
Element ById
ĠBar celona
Ġtransmit ted
ĠMex ican
ĠPost greSQL
Ġpublish ing
ĠBreak fast
Ġunint ended
Ġhorm one
Ġsched ul
Ġbuff er
Ġreph rase
ilob ites
Ġanat omy
Ġsuscept ible
Ġmetap hor
ĠThurs day
$ {
/ .
0 7
5 000
> "
A meric
C hat
F ull
P P
P oint
P assword
d iff
e pendent
f its
h uman
p aper
r ide
t im
v it
v ari
w ell
Ġs ir
Ġf ir
Ġm ate
Ġb its
Ġd oth
ar ct
st ra
ro d
ed es
Ġh ilarious
Ġh ambur
Ġe u
Ġe uros
Ġn ine
as ari
ĠT ay
Ġbe e
Ġbe aches
id ates
ĠR a
Ġst ats
ver b
Ġcan t
ir th
ĠS amsung
ĠS afety
Ġwh om
ĠC LI
ĠP ulg
pl atform
ĠH on
ĠH un
ĠH ell
ĠH ayek
Ġ" .
Ġle verage
Ġme ow
Ġ( "
ĠB ou
ect ed
ect ive
ĠD inner
ĠF ar
ĠF antasy
ĠF ishing
ĠF amiliar
iv a
Ġen forcement
Ġen compass
Ġpl ausible
res o
ĠG IMP
oc ent
Ġr anges
ag ull
ĠN ature
Ġsc ent
ĠU sers
ĠU wU
Ġac etyl
av ed
ĠY outube
Ġout fit
ram es
Ġpre ced
ĠJ oh
Ġdis pro
Ġdis asters
ens itive
Ġam et
com p
Ġinter vention
Ġpe ak
Ġpr incess
Ġwork force
row ing
ĠK eras
Ġinst itutional
Ġcur ved
Ġav alan
ĠAd vent
ĠHe brew
Ġevery where
ars er
Ġ10 24
ĠAn n
ĠAn ything
Ġmult if
Ġvis ibility
Ġmet am
Ġrespon ding
Ġimpact ed
In fo
de pendent
ĠSh ort
Ġblock ing
Ġold est
ĠPl ato
ĠUS D
the med
Ġscen ic
ĠPh il
ĠPh ysical
ER E
Ġoccur rences
Ġclean ed
Ġminim izing
Ġflow s
Ġfac ial
Ġbra h
Ġconfig ured
Ġreview ing
roll ing
zz le
AR T
Ġemb race
ĠQu ick
Ġfeature d
Ġinj ection
Ġrobot ic
ĠðŁ ĺ
war gs
ĠPol itical
Ġmac ros
ĠComm ission
Ġofficial s
fl ix
ĠAg re
Ġhom emade
Ġacqu ire
Ġassess ment
cm d
tr l
Ġcontrovers y
Ġou nces
Ġcolon ies
Ġillust ration
Ġdro pped
ĠEth ical
Ġdoll ar
ĠiP ad
ELE M
Ġimper ative
Ġod ds
Ġamb igu
Ġdram a
Ġpred ators
Ġhorizont ally
Ser ver
ĠRegard less
ĠBI OS
Ġreject ed
ĠRad io
Ġproj ection
Ġincomple te
Ġtast es
ĠSnow den
yslex ic
Ġneighbor hood
Ġlegit imate
Ġtradem ark
ĠExerc ise
Ġstreng then
ĠSL AM
Ca ffe
ĠJes us
ĠArist ot
ĠMID I
ĠPulg asari
) "
- %
0 9
= (
N ice
N one
O U
P e
U r
V I
W orld
b on
b or
b age
c v
c ap
d ep
i h
i ke
s plit
t rack
u pp
Î ¼
Ð ¶
Ġ ÂłÂłÂłÂłÂłÂłÂłÂł
re et
re ne
is y
Ġf uck
Ġm ad
Ġb ots
Ġb unch
ar gs
st able
st ory
ro g
ro gen
Ġre ds
Ġre nown
Ġn it
Ġn erve
Ġn erves
il a
Ġg rip
Ġg athered
ch oline
ol ith
ĠR ather
ĠR oad
Ġst umbled
ir gin
ĠS us
Ġex pon
ad or
ĠC H
ĠC up
ĠC ertain
ri ble
ter day
th al
igh th
ill es
ĠM L
ĠM ut
ĠF A
art ed
ĠG AN
ĠL ib
ĠL unch
Ġres idents
Ġwas p
Ġsc i
Ġcl oves
Ġtra pped
Ġover th
Ġover night
Ġsp awn
au nt
Ġpe ers
get ElementById
Ġtr im
Ġlist ener
ĠFor ce
Ġ` /
Ġche er
Ġart work
Ġins pect
Ġequ ator
Ġtru nc
Ġstory line
Ġprof its
pro duct
(" /
Ġplace ment
ĠIs a
ĠQ R
ĠPl us
Ġappe ared
aut iful
Ġjo ints
Ġbro ke
ãģ §
Ġbreak through
Ġtransform ations
Ġflo ors
Ġcapt ures
Ġlaw yer
gest ion
Ġimm ut
Ġimm ort
ĠFirst ly
ĠMod els
ino a
ĠStep hen
Ġinfin itely
Ġliter ally
Ġlic ensing
Ġsmooth ly
Ġcatch y
Ġadvance ment
Ġsuff ix
Ġir rational
Ġinvent ions
Ġri pe
Ġqual ifications
Ġenable d
ĠList en
ĠCO VID
Ġsold ier
Ġabsolute ly
Ġburn s
Ġhyper bolic
Ġunf amiliar
Ġpursu ing
Ġpersist ent
Ġcritic ized
Ġrepet ition
ĠLLM s
Ġali ke
Ġtrib e
Ġadminist ration
ĠFed ora
ĠHist or
aud io
Ġwavelength s
ĠPerform ance
ĠPack age
vector ized
eles cope
Ġregist ered
Ġinqu iry
ĠBra zil
Ġdoub t
Ġau f
Ġdissol ve
eto oth
ĠFast API
Ġhall uc
Ġhung ry
Ġzucch ini
Ġintermed iate
ĠStra uss
Ġfib ers
ĠArth ur
ĠCroat ia
! )
! /
A W
A cc
B el
B lock
C he
D yslexic
H F
N e
S an
S how
] `
f ry
f ont
i at
k u
l ocation
o ise
p ically
w arts
z ymes
ï ¼
Ģ Ì
Ġt ent
in ative
on ia
Ġthe sis
Ġw el
Ġf el
Ġf fm
Ġm ang
Ġm ph
Ġb are
Ġto ppings
al g
Ġd ies
Ġd rought
Ġin verse
Ġre n
il ation
ĠT imes
id ers
ut er
Ġst a
if a
el en
ul f
ke ys
ge red
ĠS in
ĠS end
Ġal lev
ist em
ist ically
ab il
ab lo
ure an
ĠP ast
ĠP ATH
Ġ1 20
ĠM it
ĠM aking
un ctions
ĠB ill
us able
ĠD onald
ĠF iles
ĠL and
og i
Ġad here
Ġimp ression
ĠO m
ag s
Ġte ar
Ġhel ium
du ction
Ġun comfort
Ġtra ditionally
Ġtra ged
Ġev apor
Ġfun gi
Ġdes cend
Ġspec ulation
ĠSt at
row ser
cre d
Ġoff ensive
.. ...
ues day
Ġ6 7
Ġfl ask
ax e
Ġimpro ves
Ġ7 5
ex ec
mat ic
Ġdisc ount
Ġdisc ourag
uc ino
Ġaccess ing
Ġlim bs
ĠCan adian
pro voking
Ġshow c
ee per
Ġcustom s
Ġarg ues
Ġdel ays
As suming
Ġoptim izer
Ġmechan ic
back ground
Ġpath ways
str ings
Ġsuper hero
Ġcrit er
Ġharm ony
Ġvalid ity
Ġprob abilities
Ġstop ping
Ġhost ed
Ġimag ery
gra dle
Ġhol idays
Ġded u
ĠSw ed
Ġrobot ics
Ġincorpor ates
Ġpurch ased
ĠGu y
Ġalign s
opt ional
Ġdefe ating
Int eg
Ġhero ic
ott a
ott om
ĠChar les
Ġcircum ference
Ġhabit at
Ġassign ments
ĠSpe ed
We ather
writ ing
Ġhon or
Ġacqu ired
umin osity
Ġflag s
Ġattend ing
mark et
yd ration
Ġtow ering
Ġextensive ly
Ġtherm al
dri ver
Ġrid dle
Ġcarro t
ĠÐ¿ ÑĢ
Ġfirm ware
Ġsurve ys
ĠGold en
Ġsod ium
Ġdram atic
Ġincon sist
Ġoutdo ors
Ġrecon c
Ġprev ents
Ġfav ourite
Ġadvis able
ĠCir c
Ġdisag ree
ĠProfess or
ĠPip eline
ĠEnviron mental
Ġcorre ction
Ġconvin cing
Ġcockt ail
bn b
Ġinhabit ants
bsolute ly
Ġunsol ved
Ġhyg iene
ĠOsc ar
Ġmultif aceted
Ġffm peg
Ġallev iate
/ *
A c
B O
B u
F e
F ET
H elp
P ort
S IM
T op
g pt
h ole
n k
p ine
p ub
Ŀ Ì
re nder
Ġthe ft
at in
at tle
Ġc ul
it a
Ġp unk
Ġm ansion
le ge
im a
im ents
ra v
ra ul
ĠR on
ĠR ails
Ġst ood
ĠA st
Ġas cending
Ġcon jecture
pon ge
ur st
ad s
Ġv on
ĠP d
ĠP in
ĠP eregrine
ĠH ab
Ġ- $
Ġim plements
ĠM is
ĠM ap
ĠM eta
iv i
Ġen zymes
ĠL ily
Ġr outer
Ġsome how
Ġsc oring
Ġ3 8
Ġmod ular
Ġun ified
Ġun seen
Ġac ids
Ġar ises
ĠJ ob
Ġall ocate
Ġdes cent
Ġsp ots
Ġshould ers
ĠSt orage
ĠSt alin
Ġ5 9
ĠV ide
Ġra ck
Ġvari eties
ĠK oj
cur ate
Ġcur ls
Ġperson ally
Ġjust ify
Ġag ing
Ġfl ame
Ġfl ights
iqu it
ĠRe b
Ġher itage
up date
ex as
Ġdisc us
ribut e
Ġbas ket
Ġplace holders
de vice
Ġspace craft
Ġmind s
pre c
ĠSe a
It ems
Ġmaintain able
me al
(' .
Ġgr ind
ik o
Ġmass es
ĠPh ant
ĠĠĠĠĠĠĠĠĠĠĠĠĠĠĠĠĠĠĠĠĠĠĠĠĠĠĠĠĠĠĠĠ ĠĠĠĠĠ
we et
Ġrecogn izing
Ġobser ving
Ġste al
Ġpost ed
Ġbra very
Ġbra ckets
Ġcat alog
Ġconsist ing
Ġcompan ions
AN D
Ñģ Ðº
Ġload s
Ġaccept ance
Ġchat bots
Ġopp osing
ĠNe ck
Ġnut rient
IT Y
Ġreflect ing
Ġconsult ing
wh y
Ġpoly mer
Ġiter ation
Ġfair y
ĠFe ed
ĠGener ation
ĠInter face
Ġofficial ly
Ġbur st
Con text
ĠMark ov
Ġaccom pan
Ġswitch ing
Ġreb ell
ĠMed iter
ĠÂ ·
!! !!
Ġbac on
Ġagg reg
ios ity
ĠEngine ering
enn is
Ġtherm odynamics
Ġspin ach
Ġneighb ors
Ġtox ins
Ġcontradict ion
ĠMus ic
Ġeleg ant
ĠSSD s
Ġinstant ly
ĠCT E
Ġ<! --
ĠKnow ing
Ġbath room
Ġsymmet ric
Ġcra zy
ĠEduc ation
Ġvolunte ers
ĠBrain fuck
Ġancest ors
Ġsubsequ ent
Ġacknow ledge
Ġran king
ĠProt ocol
ĠMaterial s
Ġlegend ary
Build ing
Ġaward ed
ĠScal iger
ĠRom ans
ĠMean while
ĠAuthor ity
ĠOdysse y
ĠWeak nesses
ĠDepart ment
Ġprosper ity
Ġmetabol ism
ĠWik ipedia
lov ak
Ġves sel
ĠImmediate Geometry
Ġschedul ing
Ġrenown ed
Ġcriter ion
% ,
0 6
A U
C re
C app
G O
I ng
M A
N N
R Y
R ed
R NA
S p
S ign
U M
_ ,
b ig
b iquit
h av
h older
i w
k wargs
l ene
m dr
p v
p iece
u rus
v oice
w est
} ^
× ķ×
á º
Ġt a
Ġt ang
Ġs ib
Ġc ig
Ġc ip
Ġc raw
or ia
Ġw aking
Ġw rist
is ation
Ġp c
Ġm es
Ġm issions
Ġb ab
Ġb ust
al us
Ġd oses
Ġin k
st orm
Ġe SIM
ĠT uesday
ch at
am ation
ur ally
ĠS it
ĠS ELECT
Ġex acer
Ġex oplan
Ġwh isk
ĠC ython
qu arter
Ġde ity
Ġde formed
Ġv ital
ĠP ow
os itive
os aurus
ĠB lo
Ġnot ifications
Ġma pped
ĠD O
Ġdo se
per t
ĠF P
ĠF ine
ĠF ish
ĠF emale
ĠF LC
ĠE ll
Ġen erg
ĠL os
ĠL ibrary
Ġk ra
ust ion
Ġcomp ly
Ġcomp ressed
Ġwas h
ĠN ative
Ġj uris
Ġtra um
ĠY og
Ġout let
Ġup coming
Ġpre val
Ġper mit
âĢ ¢
Ġsp am
Ġsp oke
Ġsp icy
Ġunder m
erm a
Ġdifferent ial
Ġrel ates
rit ious
ĠV it
ĠV AR
ĠV alley
---- -
ĠK hal
Ġsm iles
Ġass ass
Ġreg ulated
Ġ6 5
Ġwere wolf
Ġtext ures
Ġsub set
Ġsub scription
ĠAd obe
ian a
Ġdec ade
Ġdec ides
Ġcommun ic
Ġent anglement
Ġpat ents
Th read
oid s
Ġmet a
Ġcent ered
Ġmess aging
po ch
Ġbr ill
Ġsl ight
Ġsl og
par se
Ġmarket place
Ġtravel er
ãģ ¾
Ġneg lig
Ġinteract s
Ġdr one
arb les
ĠAp plication
Ġdeb ugging
Ġattempt ed
log ger
uff y
Ġing redient
Ġpow ered
aa a
ĠMan cala
Ġdownload ing
Ġmonth ly
Ġnut ritious
Ġmagn ets
ĠDevelop ing
Ġsil icon
ÂłÂłÂłÂł ÂłÂłÂł
Ġchain s
rest ed
Al right
Ġstable coin
Ġhyd raul
Ġspecify ing
Ġdev ast
Ġhit ting
Ġinterf erence
Ġcyber punk
Ġlov es
Ġign ored
Ġacqu isition
ĠJack son
Ġprofit able
Ġtact ile
Ġupgra ding
ĠLo Ra
Ġspin ning
Ġastron omy
Ġmanufacture rs
odynam ic
Ad apter
ĠFed eral
Ġdecor ations
ĠBro ther
Ġpyram id
Ġmindful ness
Ġhaz ards
Hand ler
Ġlingu istic
gal itarian
Ġcycl ing
Ġhack ers
Ġcorrel ation
ĠProv iding
ĠScient ists
ĠEvent ually
ĠDeb ian
Ġirrit ation
oty pes
Ġmicrocontroll er
ðĿ ĳ
Ġportray ed
Ġfem in
Spe ed
Ġmembr ane
ĠTunis ia
ĠJord an
Ġgrat itude
ĠJose ph
ĠMongo DB
ĠHog warts
Ġchari ot
ophag y
olith ic
Ġdiscus sed
ĠMediter ranean
pv Message
Ġexacer b
" "
2 55
9 8
: </
I AL
J IT
L inux
R US
W H
b ility
e ve
g age
h ops
i ost
n av
w hen
| --------------------------------
Ã º
Ġt iles
Ġs lope
Ġc akes
Ġc ables
en v
en viron
is co
Ġm erc
al er
Ġd ign
Ġd ens
Ġd amp
Ġy ields
Ġre ck
Ġg or
ot he
ĠR w
ĠR ade
ith reading
Ġpro ps
el ly
ur ous
ge nder
ĠS low
Ġex ter
ad ox
ĠC ox
ri um
ĠP aul
ĠM ic
ple ase
ĠB rand
Ġnot ion
iz ar
Ġsh it
ĠF M
ĠF und
ĠE SP
ĠE CS
ud ge
ĠL ion
ĠL STM
ĠL ouis
ĠO k
ĠN ormal
Ġ3 9
ach able
Ġro y
Ġcomm its
ĠJ o
Ġnew sp
Ġnew found
com pose
ak istan
ful ness
ub untu
Ġem p
Ġru ins
Ġpe oples
Ġind ices
Ġob sc
ĠV ue
ĠK elvin
Ġchar ging
ues e
Ġtext books
eng u
Ġcor pus
Ġfil ename
Ġdec iding
Ġappro priately
Ġ20 16
Ġexp ose
Ġterm in
Ġequ ally
Ġbl ades
Ġcar ries
ĠPro test
:: :
Ġsw ing
Ġfound ations
li est
Ġvers a
Ġbi omes
Ġpersonal ities
Ġfast api
Ġdem ons
Ġident ical
Ġsing er
the less
py plot
Ġspecial izes
apt ers
Ġsuper vised
++ .
pr ime
use package
ĠEm ail
Ġstop s
ĠSet ting
ĠSet tings
Ġposs ession
Ġmar athon
uff in
Ġbed s
Ġdom in
Ġdom estic
Ġroll er
Ġ% >
ĠRed uce
ĠSw ift
ĠGe nder
Ġbott les
Ġbott lene
Ġexperiment ation
Ġpick ed
uzz y
Ġdeli ber
Ġsup plement
Ġsup plements
Ġclick ed
Ġweak ness
Ġinfra red
Ġri ver
Ġri vers
ĠMark down
Ġlabor atory
Ġappreci ation
inst ance
Ġfarm er
Ġtall er
Ġcred ible
ĠAb out
Ġtrig gers
Ġhabit ats
ĠCalcul us
Ġtele port
Ġpig ment
Ġcert ified
Ġcand idates
Ġcelebr ated
Ġstrict ly
Ġdro ps
Ġrepet itive
JJ JJ
Ġinterview s
Sh ould
MMMM MMMM
%%%% %%%%
ĠCustom er
ĠEnt ities
roph ic
Ġduck s
Ġnu anced
ĠPortug uese
Ġhierarch y
Ġenthusi asts
Ġresil ient
icip ate
Ġauton omous
Ġinstinct s
Ġiniti atives
squ are
Íİ Ì
ĠIncorpor ate
ĠNever theless
Ġmim ic
ĠCapt ain
ĠFou rier
super vised
insp ired
ĠPriv acy
Ġuncomfort able
ĠNeck l
Ġcip hers
Ġjuris dict
Ġhydraul ic
RUS H
ĠRade on
. :
. _
C or
C ur
E B
E ng
F ailed
M us
N E
O D
P age
d ump
k ind
l ambda
q dm
r ank
t ic
z ier
} }
Ġt ect
he it
at omic
Ġc ord
it z
an es
Ġf ellow
Ġo at
Ġm ol
al ot
Ġd ess
se cond
ic hes
ro kes
ĠI ce
Ġh o
Ġh iring
Ġl ava
Ġn od
Ġn ons
ĠT her
ra k
ly mp
ch y
ol ts
ĠR ice
od or
Ġcon ditional
Ġcon clusions
Ġcon gestion
ur tle
Ġor acle
ĠS a
ĠS OL
Ġde ce
ist a
ĠP OST
ĠH V
pt ical
Ġle aks
Ġse ctor
un ks
ĠB b
ĠB ASE
Ġma nd
Ġsh ops
ĠF erm
ĠF ox
ĠE PS
ĠE rror
iv o
iv ia
Ġab road
Ġus ernames
Ġwe ed
og ui
ile mma
Ġcont ribution
ang les
ĠN G
ĠN ap
ĠN azi
Ġcre ator
Ġ3 4
Ġman ifest
Ġtra ce
ac curate
ap ers
Ġneed le
Ġout lines
clud ed
Ġdis pos
Ġinter vals
erm an
pen se
ĠSt ars
olog ically
Ġinv oices
ĠV en
Ġno ble
Ġsm ells
Ġ< %
ov ie
Ġcur rencies
ib us
ĠCh all
Ġhand led
Ġrequire ment
Ġpoint ed
Ġacc idents
Ġcount s
mat ch
ĠWe bs
Ġve gg
Ġmon op
Ġmach inery
Ġcharacter istic
pro v
pro blem
ĠDe ploy
__ ":
Ġgeneral ization
Ġworks hop
Ġsl ave
ug ate
Ġbehavior al
aut ogui
Ġear ning
struct ured
inter face
ĠCl ient
Ġsens ations
Ġstat ically
Ġste ep
Ġground s
Ġassoci ate
IN X
Ġdiv isible
Ġnormal ized
Ġcontinu ing
Ġcopy ing
ĠWar ri
min ute
Ġflu ids
ĠRed uced
Ġorganization al
Ġviol ate
Ġschedu led
Ġtransfer red
Ġdrag ons
ĠPar adox
Ġgram mat
Ġrelax ed
Ġswe ep
Ġgod dess
Ġtrig gered
Data Frame
Ġprecise ly
ĠSub ject
ĠMain tain
ĠConst ant
Res ult
Ġisol ated
Ġoverl apping
tem perature
Ġmonad s
ĠÐ½ Ð°
Ġsword s
Ġencourag ing
ĠExt ract
Le vel
Ġvent ure
Ġantibi otic
Ġsacr ific
ĠSen ate
Ġinp ain
Ġarche type
ĠCamp fire
Ġnarr ative
Ġdecom position
Ġscra pe
Ġlegisl ation
organ isms
ĠPI PE
Ġcalor ie
Ġtrop ical
Ġdeple tion
Ġplag iar
Array List
Ġhed ge
ĠYA ML
Ġhambur ger
ĠTay lor
Acc ount
lovak ia
! ")
8 4
> (
C K
D iff
F O
K U
L T
N av
N Ns
R S
U p
U se
] );
a way
a ired
c ould
c ale
c alled
f n
f ood
f etch
g ray
g ium
i om
k t
m other
p u
w urst
x x
y zen
} `
º Ì
¼ Ì
â ľ
Ġ verse
he x
he althy
Ġs ore
Ġs ourced
Ġs outhern
er ge
Ġc otton
es is
nd or
it ism
is o
an ch
an ium
Ġp ins
Ġf use
Ġm ism
Ġm Ã¡s
Ġm arbles
Ġb reathe
Ġto e
Ġin clusion
st ar
st ick
Ġl n
Ġl ady
Ġg au
as ury
Ġfor um
ol ve
ĠR oyal
am ins
Ġpro se
stru ctor
ad er
ĠC am
ĠC ats
ĠC RI
op ing
ĠP ig
ĠH ost
Ġ" +
Ġ" __
Ġim mer
ĠM un
ĠM int
ĠM aps
Ġch ip
ĠW omen
un a
ĠB and
ight ing
Ġsh ipping
ĠE C
ĠE asy
ĠL ac
ĠL iqu
ĠO lymp
ult ures
Ġres erved
Ġte aches
ĠN ations
Ġsc and
oo led
ance llor
Ġso ap
Ġhas n
Ġfe ver
ĠU AP
Ġro of
Ġev oke
Ġdis cl
Ġdis put
Ġdis gu
ener y
Ġsp ac
Ġsp oon
au er
ish op
Ġob sid
rit is
ĠV i
ĠV ict
ĠV ector
Ġform ations
Ġ# !/
ĠĠĠĠĠĠĠĠĠĠĠĠĠĠĠĠ ĠĠĠĠĠĠĠĠĠĠ
Ġ' /
Ġlist ens
Ġperson nel
hes ive
Ġadv ocate
Ġ6 6
Ġche at
Ġkey chain
ĠAd vant
ĠRe ach
Ġext inction
ĠAn imation
20 20
Ġphys i
Ġsimple x
pro p
Ġshow ers
Ġcomb ustion
Ġactiv ated
Ġdra ws
Ġcertain ty
Ġresearch ing
ats uba
Ġsing ing
Ġdel icate
ĠX T
ĠX SS
Ġhead ing
the y
the ta
Ġmusic ians
Ġtravel ers
ĠShe ets
ffic iency
Ġattack ing
Ġcard iovascular
col ors
Ġenjoy ing
head er
ĠCons ult
Ġput s
we ather
ĠEm ploy
Ġcompet ing
Ġemploy er
Ġ200 9
Ġconsequ ence
ai ju
Ġimag inative
Ġapprox imation
Ġur ine
amer a
su pport
wh o
Ġemphas ized
ĠMe chan
Ġiter ations
Ġiter ative
Ġshad es
Ġdead b
Ġfail ing
Ġtransfer ring
Ġcapac itor
ĠGu ix
Ġstra ws
Ġsuff er
Ġbur ger
Ġrestrict ed
Ð°Ð ¼
Ġtour ists
Ġcro che
ĠSm art
ĠList View
Ġobserv able
Ġtoken izer
ĠRep ort
Ġalt ogether
Ġvoc als
SP R
Ġsad ness
Ġproport ions
AB LE
Ġvit amins
Ġillust rate
Ġbrother s
ĠLight ning
Ġunf air
Ġastron aut
Ġnucle ation
ĠEd ison
ĠRob lox
ĠNP C
Ġcrow d
ĠExper ience
trans mit
ĠAB C
ĠAir bnb
ĠPat rick
******** ********
Ġarri ved
Ġexhaust ive
lad en
ĠGovern ment
Ġabund ance
Def ault
ĠBudd h
Ġseam less
rout e
Ġinval id
Ġaf ternoon
Ġeru ption
Ġharass ment
="# ">
Ġhazard ous
Ġremark able
dou ble
Ġavalan che
Ġtrunc ated
ĠIsa ac
biquit ous
iost ream
ĠCRI SPR
Ġobsid ian
( `
. *
. </
7 00
B ay
B oth
E mail
J ava
M P
O V
P resident
R ef
T ra
U s
W W
W all
\ _
c ube
c hers
d ial
f ic
f dc
h Pipe
k ins
k top
l ooking
m ol
m iss
n els
r ates
s ourced
¡ Ì
Í ĳ
Í ĩÌ
Ð ±
ã ĥ
Ġ ipsum
ģ Ì
ı Ì
Ġt il
he tt
it ize
it ives
en able
is c
Ġf izz
Ġf ifth
Ġm use
Ġm inecraft
Ġb ore
Ġd ump
Ġin cl
Ġin accurate
st age
ed nes
ĠI F
Ġh ip
Ġl ately
Ġg ithub
Ġg irls
ĠT exas
ol i
ĠR ol
Ġst ain
Ġst ew
am y
ĠA T
Ġor che
ge vity
ĠS cript
ĠC os
ĠC yn
ĠC ert
Ġv ague
Ġv iral
ĠP ra
ĠP age
ĠP DF
ĠH as
ĠH ops
Ġim pl
ĠM es
ĠM ary
Ġle af
Ġch ick
Ġse agull
Ġ( !
ĠB a
ĠB rian
iz ab
ĠD rive
Ġsh ade
Ġsh ips
Ġdo ctors
ĠL arry
orm ap
act ic
ĠN E
ĠN uke
Ġsc ans
oo of
du le
Ġany way
Ġcl in
Ġfe e
Ġac ron
Ġtra des
int erest
ĠY et
Ġout lets
Ġprov ing
end ers
Ġdis son
ft en
Ġser ial
ĠSt ill
Ġ5 8
Ġru sh
Ġpe as
ick ed
ĠV ul
ĠV ers
ĠAI GC
Ġlist ing
Ġcur iosity
cy cle
Ġrem orse
Ġsub project
Ġav ocado
Ġback wards
Ġdon t
Ġpol len
ex e
Ġacc used
Ġdi agonal
ĠAl ong
uc lear
ven ge
ger y
Ġer os
Ġexist ential
Ġworks hops
Ġrest art
Ġconc er
ĠSh ape
Ġsqu ats
Ġpack aging
ĠOver view
back up
mb s
Ġdep ressed
urope pt
ĠPh D
ĠFin ance
Ġrece iver
col i
Ġvalid ating
Ġclean er
ÑĤ Ð¾
Ġflow ing
Ġintrodu ces
Ġdest inations
Ġ200 1
Ġauthor ized
Ġhistor ically
aw ed
Ch ar
Ġimag inary
ĠFr anc
Ġseem ingly
Ġbow s
gra d
Ġwarm th
SC I
Ġtur p
Ġtur key
Ġlisten ers
Ġdeath s
Ġexpress ing
!" );
Ġkn ights
Ġcatch ing
ĠGener ate
ĠLa ws
OR T
Ġcover ing
Ġtruth s
Ġweak er
ĠTe am
que ue
Ġvisit ors
ĠStud ents
fl ies
ĠTra vel
ĠURL s
Ġgradu ate
Ġpand emic
Ġocc as
Ġcopyright ed
Ġcorpor ation
ĠPri or
Ġdiscrim inant
Pr int
Ġconven ience
ĠImpro ve
ĠRec ogn
Ġsen ators
Ġbelong s
Ġpars ing
fil ter
~~~~ ~~~~
ĠHy per
ĠInvest ing
Ġbind ing
ĠColl abor
He ight
PA K
Ġspr inkle
Ġcultiv ate
Ġvacc ines
Ġresil ience
Ġacknow led
orris o
ĠStru ct
ĠStru cture
ĠOptim ize
eterm ined
ĠGovern ments
Ġox id
Ġinfring ement
ĠDan iel
Ġirre levant
Ġdigest ive
ĠSupp ly
opol itical
Ġspat ial
Ġvamp ire
Ġpus hed
ĠDie go
pret ation
Ġwarrant y
Ġequil ib
Ġagend a
ĠGauss ian
Ġom n
ĠIter ate
ĠNob el
Ġfir ms
ĠPhant om
Capp ucino
ĠKhal ifa
engu in
âľ ¦
ĠBuddh ism
ĠHops alot
ĠNuke m
1 23
? )
? âĢĿ
A bsolutely
B ecause
E xt
F I
L a
M ax
Q t
R ad
R ange
R ew
T y
Y Y
a ic
g b
g ain
h our
h ift
i j
i ary
n ament
o a
p ublic
r r
z ip
Ï Ĥ
Ĥ ¬
in cluding
Ġs hed
Ġc ss
Ġw ww
it ated
Ġp on
Ġp ant
Ġf ounder
Ġm ature
Ġm elt
Ġb il
ic ism
st ore
Ġl akes
ent ed
Ġre usable
Ġn oc
Ġis ot
Ġg ay
Ġg room
Ġg asses
ow l
ĠT ik
id x
Ġst urd
ĠA C
ul um
ĠS ound
pe ction
ĠC old
ab out
ĠH all
Ġ" -
Ġch ose
Ġch ips
ĠW ednes
ĠB al
ĠB GP
ĠE b
ĠL en
ĠL ie
ag hett
cl one
Ġsome body
ĠN ov
ĠN othing
du e
Ġcl iff
Ġun employ
Ġdiff ers
ac hers
ap plication
Ġspec ulative
Ġ4 6
ful l
ub ble
Ġru de
Ġru ling
Ġset Time
Ġpe el
Ġinv ite
ĠV irgin
Ġform idable
Ġra b
Ġdef ic
ps y
Ġreg ener
Ġreg ret
Ġadv ised
Ġag ility
Ġdist rict
Ġsign ify
Ġperform ant
Ġfil ament
ĠTo ols
Ġ20 11
Ġins ulation
Ġincre ment
Ġmem e
Ġpat ch
Ġpat ties
comm on
Ġ19 40
Ġ. /
20 16
20 18
Ġlo an
ĠEx ception
crib ed
ĠAss ume
Ġsl ots
Ġcorrect ed
ĠSe ason
Ġcontin ent
Ġcontin ents
... )
Ð° Ð»
urope an
Ġrespons ibly
Ġpredict able
Ex ample
PU T
Ġdark er
Ġlimit ation
Ġdeb ates
Ġfit ting
Ã© s
Ġfix ing
ĠEl izab
Ġimm ig
Ġnames pace
Ġscore d
down load
Ġlif ting
Ġadvent urous
ĠInd ian
Ġpy autogui
Ġseas onal
Ġ25 6
Ġiter ates
Ġsil ence
ĠMat plotlib
bl ack
Ġban anas
Ġment ees
Int eresting
Ġbul b
ĠHigh light
Ġluck y
Ġindic ators
ĠFl or
Ġble nder
Ġproced ural
ĠChar lie
Ġcab bage
We b
Ġ199 7
Ġcert ifications
Ġaccompl ished
Ġcand y
Ġpap rika
ĠAng ela
Res ponse
Ġconve x
Ġdisadvant age
Ġaer os
Ġpul led
ĠEd ward
Ġ## ###
ĉĉ ĉĉ
Ġintu ition
}$ .
Ġce ase
Ġlon gevity
Ġdir ty
ĠUt ilize
ĠEdit or
ĠEpic urean
ĠSing le
ĠPop ular
Ġfacil itate
Ġhang over
ĠRain bows
Ġvot ing
Ind ex
Ġvictim s
ĠCurrent ly
Ġdent ist
ĠLuc ina
ĠSud den
ĠJour ney
sty les
Ġmere ly
ĠFred dy
Ġcomprom ise
Ġton ight
Ġaband oned
ĠCzech os
Ġtro ops
ĠIsra el
ĠGradu ally
vid ia
Ġovers ight
Ġacetyl choline
Ġmetam aterial
Ġbottlene cks
Rew rite
ĠElizab eth
" {
B as
C al
F unction
G G
L ast
P h
P re
P OS
Q R
R ect
T able
T wo
W ow
b f
c out
c pp
c coli
d x
d rop
d rive
f c
f ly
g a
g raph
g oto
i osis
j ar
j ud
m ac
n on
o ct
p aint
r ons
t ell
v or
w a
w ave
¢ Ì
Â ³
Ñ Ī
Ġ ####
Ġ Ñĩ
Ġt qdm
Ġs ail
Ġs arc
at oes
Ġp ione
Ġf les
al ism
Ġd iving
Ġin exp
se cret
ĠI o
Ġe ternal
Ġe lder
Ġl ime
il ian
ĠT or
Ġfor t
ĠR ocket
ĠR andom
Ġst ays
Ġst roke
ver sed
Ġcon clude
ke nds
ĠS as
ĠS ponge
Ġal iqu
Ġcom plain
ĠC ant
ĠC ooking
ĠC URL
est ine
Ġne c
Ġ1 10
Ġim bal
Ġle ak
Ġch art
Ġse cur
un ci
ĠB ugs
us al
ĠD rop
Ġsh uff
ĠF air
ĠF asting
ĠE V
ĠE arly
ĠG aming
ĠG MO
ĠL I
ĠL ooking
Ġimp osed
act ers
are lla
cl ing
cl ipse
Ġres ort
Ġwas hing
ĠN vidia
ast ics
cess ing
Ġ3 50
Ġcl ust
Ġun conscious
ĠU nt
Ġac ap
Ġsy s
ĠY am
Ġar rows
Ġpre process
ĠJ ac
lo qu
Ġsp her
ne ys
Ġem erge
ĠSt yle
Ġph arm
Ġ{ '
ĠV M
Ġra cing
Ġra ising
Ġtr illion
Ġprocess ors
Ġdist ro
Ġdist ros
Ġdepend ency
Ġyear ly
Ġtop ology
comm it
Ġbre ach
Ġwrit es
20 13
Ġcent aur
Ġtest ament
de lete
Ġpass port
Ġquant ify
Ġteam work
Ġtemper ate
Ġlocal host
co ins
Ġear ned
Ġgr ated
Ðµ Ð½
ĠBe autiful
ãģ Ĺ
Ġsuper comput
amed Pipe
âĸĪâĸĪ âĸĪ
ah a
Ġcolle ctions
Ġcolle ges
Ġstandard ized
Is Prime
Ġcoll ision
Ġfac ult
Ġver b
Ġeduc ate
---------------- ----
ÑĢ Ð°
ĠLe gends
Ġguid ed
ĠBrit ann
Ġter rible
Ġmis le
Pro ject
Ch ain
Ġspread sheet
ele ment
Ġtur b
Ġclaim ed
ĠMe asure
Ġcompre he
ĠPar agraph
dis c
Ġenh anced
Ġsou ls
Ġstri p
Ġderiv atives
Ġcompar able
Ġann ounced
rust ed
Ġtow er
ãĤ ĵ
Res ource
function al
ĠST RI
ĠPerson ality
rem ove
Ġdeliver ing
Ġemit ted
Ġtick et
Ġexplos ion
Ġshel f
ĠOper ating
Ġthr ill
Ġneuro transmit
Ġsatell ites
Ġgobl in
Ġpartial ly
ĠBur j
ĠHE AD
Ġabund ant
claim ed
Ġdash board
Ġsubscrib ers
Ġindo ors
Ġ69 00
ĠBlu etooth
Ġâī Ī
foot er
Ġpod cast
Su per
Ġrecept ors
ĠMatch cube
Ġpse ud
Ġconstit utes
ĠHen ry
Ġtransist ors
Ġcatast rophic
ĠFamiliar ize
ĠRadio head
ĠAristot le
Pe ople
Ġmang a
ĠOm ega
Ġtraged y
ivi rus
Ġroy al
ĠNG INX
Ġvegg ies
ĠMun ich
ĠAdvant ages
Ġequilib rium
Ġsturd y
ĠWednes day
aghett i
ĠsetTime out
Ġinexp ensive
( .
) $
) [
2 65
A fter
M et
M ost
N ER
S m
c up
c map
g el
j ection
k ai
l ar
l ined
s ql
x ml
y ter
Í īÌ
Í ļÌ
Î ¯
Ĳ ×
Ġp ork
Ġp sy
Ġf ries
Ġo h
Ġb ars
Ġb ooking
al i
Ġd as
Ġd umbb
Ġd airy
Ġin version
ro cessing
Ġh ired
Ġe poch
Ġl iv
Ġl ang
Ġl one
om ics
Ġre plied
Ġre current
Ġre nov
Ġre gex
Ġn om
et t
Ġg ifts
as a
ĠT rack
Ġbe es
ol ate
ĠR X
ĠR en
ig an
ĠA S
ver ance
od i
ul ous
Ġsu pre
Ġcom ic
ĠC D
ĠC reat
ĠC oca
Ġde cks
ri age
ĠP res
ĠP ush
ĠP ona
ĠP akistan
ĠH a
ĠM ast
Ġle cture
iz ards
ĠD u
ĠD ire
ĠD orian
ĠD anny
ĠD ungeons
Ġsh ifting
Ġsh rimp
ĠF riend
ĠF ung
Ġen orm
ĠG w
ĠG ames
oc y
ĠO l
ĠN uts
Ġ3 60
Ġmod er
Ġso vere
Ġun laden
ĠU DP
Ġpre cious
Ġexam ination
Ġall iances
ail able
Ġcol der
Ġcol ored
Ġunder g
ĠK ris
ĠAI s
ov en
Ġperson s
ĠFor um
Ġ6 3
Ġag ency
Ġfl uffy
Ġret val
ĠAd ditional
Ġsk i
Ġfact ory
ĠRe ality
Ġel ig
Ġpoint ing
Ġcomplex ities
Ġconf erences
Ġbeh alf
20 17
pro gram
lu gin
ee k
Ġsocial ly
ĠAr m
Ġmag az
Ġlog os
Ġpublic ations
St ep
Ġpain ful
Ġpack ed
ĠEng age
Ġview ing
co very
Ġrole play
app y
Ġge opolitical
light s
ĠCl imate
rypt ed
Ġsens es
Ġstop ped
ront ab
Ġ200 6
Ġmar king
list dir
Ġopp ression
Ġpad s
Ġpad y
ĠInd ex
Ġur g
ĠSu ggest
Ġrespect ed
Ġdecl arative
Ġincorpor ated
Ġnothing ness
ĠLi ber
amb ic
ĠMat ches
Ġmer ch
Ġmer cury
Ġobtain ing
lab els
Ġmac ronut
CT ION
Ġ80 80
Al ice
ĠMin nes
ocr ates
Ġconstruct ive
ĠPlay er
ĠRun ning
Ġprop he
Ġine fficient
Ġboot s
Ġcomment ary
ĠUni versal
ĠPot ential
Ġabsor ption
zer os
Ġ199 4
Ġtail or
Ġteas poons
Ġbru tal
sub mit
ĠAN Ns
ĠAnt arct
Ġrom ance
AC D
Ġsubmit ting
itarian ism
âĶĢâĶĢâĶĢâĶĢâĶĢâĶĢâĶĢâĶĢ âĶĢâĶĢâĶĢâĶĢâĶĢâĶĢâĶĢâĶĢ
Ġmerg ing
Ġbond ing
Ġod or
Ġbund ler
Ġtick ets
Ġpenc il
Ġaccommod ations
Ġdefinitive ly
Ġnu ances
Ġbill ions
IL ITY
Mod el
ĠStrength s
ĠScott ish
Ġproj ections
ĠTru mp
Ġdisag re
ĠProfess ional
icep s
ĠValue Error
Ġchrom os
Ġtempor arily
Ġgenet ics
Ġgenet ically
Ġpregn ant
Ġpregn ancy
ĠSup reme
Ġdol or
Ġastronom ical
Ġduplic ates
Ġsle ek
ĠJe ff
Ġethn ic
ĠJup iter
ĠStr ateg
Ġtrustworth y
Ġreferen cing
Ġglob ally
Ġjudg ment
Ġbould ering
ĠDub ai
tim estamp
ãģ§ ãģĻ
Ġdiscourag ed
ĠKoj eve
Ġaccompan ied
ĠYog a
vor ak
Ġdumbb ells
ĠMinnes ota
! </
% ?
, '
A mount
C V
E ach
F ind
L ength
L ift
M E
R U
U P
U nder
Z ow
c ache
f req
g res
h u
l b
l ins
o kes
p df
r ime
s hed
w alk
y outube
Ġ ::
re k
Ġthe e
Ġthe ater
Ġs ake
Ġs aves
er ant
nd ed
Ġw ages
Ġw ax
Ġw edding
it t
Ġp ist
Ġp ause
Ġp ray
Ġf onts
Ġm ile
Ġd b
Ġd ub
ar in
ar ity
ar ches
ĠI BM
Ġth irst
Ġy a
Ġh int
Ġh anging
Ġe nder
Ġl ion
Ġre un
Ġre load
Ġn th
Ġg ly
as is
ĠT alk
ot lin
ot eric
ol en
ĠR od
ĠR ab
ĠA TP
Ġan ch
Ġcan cel
ĠS orry
ĠS EO
Ġex otic
ad ers
ĠC S
Ġhe y
Ġv ig
Ġv ib
ri el
ter rain
em ption
ĠP epper
ĠP izza
pl ots
Ġne uros
ĠM K
ĠM en
ĠB ing
Ġma j
ĠD ry
ĠD AT
ĠD vorak
Ġsh ar
Ġsh red
ĠF ig
ĠF OR
Ġab c
and o
ud y
ĠG ot
ĠG ram
ĠG ats
ĠG ran
ĠG ithub
Ġr ated
Ġr itual
Ġk ivy
Ġimp ly
ĠO SI
ĠN eg
Ġsc enery
Ġj umps
Ġman ages
Ġsy ll
Ġup set
end erer
Ġdis ruption
Ġall erg
Ġdes pair
âĢ ¦
Ġover coming
Ġwork loads
Ġhum id
Ġind ist
Ġpers u
chn ology
Ġsm iled
ĠĠĠĠĠĠĠĠĠĠĠĠĠĠĠĠ ĠĠĠ
Ġ' __
Ġcur sor
Ġunderstand s
ob ic
.. ,
Ġ6 8
Ġref used
ĠRe quest
eng ers
Ġsoc cer
other mal
Ġins erted
Ġent ries
ex pr
Ġi Car
ĠUn ix
Ġdi ets
Ġshe ep
20 14
Ġve c
Ġve t
Ġindivid ually
Ġrespon ds
pro b
Ġafter life
Ġprot est
__ ':
Ġinstall er
Ġmind set
Ġanim ated
Ġport ions
Ġinvest ed
Ġview er
ĠSp ark
Ġear liest
Ġspecial s
ãģ ®
ĠPh aser
Ġcrit ics
Ġgoal keeper
Ġoffer ings
Ġmeet ings
Ġ200 7
log ical
AT ION
Ġones elf
Ġsn ake
Ġsn ails
Ġinsp iring
ĠLe vel
ĠQu estion
het ics
Ġpad x
ĠDef ense
ĠPr inci
Ġded uct
Ġmut ations
Ġpsych oan
ĠSw itch
Ġthread ing
na ive
ĠSim pl
ony ms
Ġpolicy holders
Ġque ue
Ġtruth ful
opt im
Ġbul bs
ĠMark eting
Ġcoord inated
Ġexcept ions
ĠDet ective
ĠâĪ Ĵ
ĠOb ser
ĠRead ing
Ġsem i
Ġagre ements
Ġobst acle
inf eld
Ġcabin et
Ġyes terday
Ġtal es
Ġlaunch ing
So ftware
Ġantib odies
Feed Options
Ġcollap sed
ĠLeg al
ĠRub ik
Ġmush room
Ġborrow ing
Ġnutrition al
Ġwing lets
Ġdict ator
lim ited
^^^^ ^^^^
ocaly pse
ĠFollow ing
next Int
ĠAnaly ze
Ġobvious ly
ĠHung ary
------------ --
Ġcoast al
Go ogle
ĠTru th
lat est
ophy ll
best os
wee k
AG E
ĠSort ino
Ġwond ers
Ġgest ures
Ġpercept ions
ĠConsist ency
Ġdistur b
Lab el
×Ļ ×
Ġdisappear ance
ĠVP N
ĠContinu ously
Ġfr iction
Ġprofic ient
ĠHaw king
Ġjun ior
elect ron
orce rer
Ġcham ber
ĠSoci ety
Americ an
Ġbrill iant
ĠFlor ida
ĠCzechos lovakia
Ġacap ella
ĠGats by
) *
. '
1 50
> ();
D ay
L AION
M in
N S
S k
S ounds
T S
T ileEntity
V ery
] ))
a ver
c op
c uts
f ing
h ash
o z
p resent
t urtle
w t
} /
Ġ rib
Ġt ub
in ition
Ġs its
Ġs ale
er ial
Ġc od
Ġc umin
Ġc herry
Ġw ield
Ġp H
Ġp ans
Ġf ighter
Ġm ock
ic ide
ĠI ll
Ġe galitarian
om nia
Ġre name
Ġn as
Ġn orthern
et he
et ers
Ġu biquitous
im s
ĠT TTTT
ĠT itan
ra cle
ot key
ĠR yzen
ĠIn struct
am i
ĠA ure
Ġan onymous
Ġcan cell
Ġcon structor
ul as
ir Ã©
ĠS W
ĠS afe
ĠRes et
ad as
ĠC V
qu er
Ġhe nce
ri ving
ure au
em ed
ĠP W
ĠP ix
ĠP rus
ĠP ony
ĠP aper
Ġne uropept
ĠH al
ĠM ot
Ġle ather
Ġch arts
Ġch unks
ĠW izard
ĠB ishop
Ġnot orious
ine ar
ĠD ru
Ġsh r
ĠF at
ĠF ront
ĠE X
ich t
Ġr ounds
Ġimp air
Ġimp ressed
Ġli ver
Ġli king
Ġli ability
Ġres ign
Ġte ars
Ġte achers
Ġwhe at
ĠN ix
Ġ3 65
iff in
Ġj ar
Ġun healthy
ĠU lt
int eg
Ġper f
Ġdes erve
Ġdes irable
ord inate
Ġ* **
ne g
Ġru t
Ġob s
Ġinv asive
Ġpo etry
Ġtr ilobites
Ġsm arter
Ġinform al
Ġdef ensive
ib i
ob ser
Ġchar ming
Ġrep rodu
Ġ` [
ĠCh anged
Ġav atar
Ġinf er
Ġend e
Ġgu ilt
ĠAn aconda
Ġmult ithreading
Ġcomplex es
Ġpar am
Ġpar ks
Ġstru m
Ġsure ly
Ġvis ions
." )
Ġiss ued
ĠEx ec
Ġbas il
Ġbas ically
icult y
less ness
Ġdeterm inant
Ġdem ocr
ĠQ uality
Ġident ifier
Ġconc aten
ĠAss ess
Ġscient ifically
alk y
Ġconnect or
Ġtre ating
Ġcontribut es
Ġcontribut ors
Ġtravel ling
Ðµ Ð½Ð¸
str ate
Ġ> >
Ġeth ically
Ð¸ ÑĤ
enc ode
Ġfig s
Ġpay load
rop ol
Ġanaly zed
Ġground breaking
Ġarch ae
Ġdest iny
ĠAt hen
Ġnormal ize
Ġlat ent
uff er
zz arella
Ġarchitect ures
Ġemb ra
ĠQu est
Ġhot els
Ġapprox im
Ġwarm er
Ġur gent
Ġill usion
Ġtur tle
Ġsym phony
Ġremov es
Ġdemonstr ating
Ġcollabor ative
adem y
Ġauthent icate
ĠTrans fer
Ġstar ter
US E
Ġretrie val
bi ased
Ġbroad ly
ĠCo ast
Ġunivers ally
Ġmal es
Ġaw esome
Ġdivid es
Ġast roph
ĠMed itation
Ġtouch ing
Ġdial og
Ġspaces hip
Ġassign ment
Ġdiagn osed
ĠÎ µ
UT F
ĠDi am
ĠDi ablo
ĠGraph ics
ĠEvery thing
Ġhi ke
Ġpull ing
Ġrid ic
ĠConst antine
Ġrhyth ms
Ġnotice able
Ġpoll ut
onna ise
Ġstret ches
Ġrect angular
Ġexhib its
Ġreform at
Ġpars er
Ġpron unci
Ġappoint ed
Ġce iling
Ġtort illa
ĠBu ilt
ĠNFT s
ĠÑ į
fix ed
Ġoutl ined
ĠDou ble
Ġthumb n
ĠVer ify
Ġpropag anda
Ġcompens ation
Ġconj ugate
ĠExp and
Ġscatter ing
ĠFro do
Ġsynchron ization
Ġsnap shot
Íį Ì
Ġpent ameter
Ġsynd rome
Comm un
ĠFried rich
ĠBeat les
Ġsne ak
Ġcircul ation
Ġdeh ydration
Ġjog ging
ĠRein forcement
Ġbene ath
Ġcowork ers
Mat ches
Ġwrest ling
San itizer
ĠNap ole
Ġgau ge
Ġacron ym
ĠVirgin ia
ĠSudden ly
Ġspher ical
Ġfacult y
ĠTTTTT TT
" }
( __
, ::
. ).
> .
A ust
B ack
B ook
C R
D rop
G lad
H igh
H mm
K e
M D
P F
P anel
Q U
W riter
Y OUR
b atch
b inary
c p
c ustom
f ers
g ine
k an
k ward
m d
m inecraft
m aster
o ons
p c
s ave
w orks
x is
° Ì
³ Ì
¹ Ì
Â ¬
Í ĪÌ
Ġt f
Ġt ar
Ġt ons
he on
Ġs ized
Ġc x
Ġc ite
or ity
or ney
nd ry
an za
Ġp unch
Ġp enguin
Ġm alf
Ġb ite
Ġb ounds
Ġb anned
Ġto ast
Ġto aster
Ġd izz
Ġin compat
ic opter
ĠI r
Ġth ro
Ġl int
Ġl amp
Ġl ush
om aly
ent es
Ġn ur
Ġu m
im m
id unt
ĠR N
Ġst arch
ĠIn nov
od ied
Ġan ger
Ġor al
ĠS H
ĠS i
ĠS ure
Ġcom ed
ĠC are
ĠC orn
ĠC uba
op us
ĠP LL
ĠH ig
ĠH LS
pt une
ĠM oney
Ġch urch
ĠB E
ĠB on
ĠB ot
ĠB ooking
ĠB ALL
ĠD B
ĠD E
ĠD a
Ġsh iny
per o
per ate
ĠF lo
ĠF ord
ĠF light
ĠF resh
Ġab bre
art ial
Ġwe ars
oc ide
oc ities
ell i
act or
ĠO ften
Ġqu is
Ġqu inoa
ĠN I
Ġgo ver
Ġcl icks
Ġtra ces
Ġthere by
ĠJ ed
Ġfun c
Ġnew ts
Ġcol ossal
Ġinter play
Ġvari ants
ĠK ant
ĠĠĠĠĠĠĠĠĠĠĠĠĠĠĠĠ ĠĠĠĠĠĠĠ
Ġcomput ed
Ġco al
Ġco pe
Ġdist ress
Ġopt ical
ĠAd am
ĠHe gel
Ġdown side
ien cies
Ġel astic
gan o
Ġansw ered
Ġmult ic
ric ks
Ġconf irmed
Ġi ambic
Ġacc ord
Ġca f
ĠAl bert
Ġlo cks
Ġconst itution
Ġhapp ily
ren heit
Ġmon oid
Ġmon ster
Ġair line
Ġair speed
not es
ci Ã³n
ĠIs n
10 24
][ '
ĠSh op
Ġport als
âĶĢâĶĢ âĶĢ
Ġinflu enc
ĠPl uto
Ġevent ual
me an
Ġtable t
Ġtre acher
of un
Ġland marks
Ġge ography
ah renheit
Ġrisk y
Ġbase ball
ont al
Ġdocument ed
Ġbit ter
Ġste aling
Ġelement ary
Ġprogress es
Ġprogress ions
Ã© e
ĠCol ossal
arc hed
Ġhost ile
Ġmis use
Ġweek ly
ĠPer lin
Ġder ive
Ġlack s
ĠNe ptune
Ġinnov ations
ĠDef inition
ĠPC s
Ġinj ured
SC s
Ġtim er
ĠMar ine
ĠMar ie
ament e
ok a
iny l
ĠSQL ite
Ġwin ner
Al chemy
Ġrein for
Con tainer
Ġaw kward
sm all
cor rect
lay ers
Ġbrief ly
Ġreb els
ĠHer oes
Ġmaster piece
ĠLat via
Ġdeploy ing
Ġalt ered
Ġrevolution ize
Ġcogn ition
ĠSub st
uber gine
Ġcm d
Ġfasc inated
Ġradio active
uk kit
Ġinh ib
Inter val
ĠCar l
ĠCommun ity
Ġguarant eed
Ġweigh ing
ĠTy pes
Ã¶ del
tra vel
Ġmic ros
Ġaugment ation
Ġsurve y
ipl ier
Ġcrow ds
Ġimper ial
ĠClass ical
Ġalert ness
ĠHy pot
igen ous
Ġrent al
ĠKnow ledge
ĠBu y
ĠKn ights
Ġadvis or
ĠComple te
Ġneckl aces
Ġore gano
Out put
Ġpenal ty
Ġcaps ules
wee kend
Ġpra ise
Ġstere otypes
Ġindo or
Ġstraw berry
ĠMall ory
ĠProte ction
Ġhosp ital
ĠIsl amic
Ġzomb ie
ĠDwar f
ĠProton Mail
Ġsurviv ors
Ġencompass es
Integ er
Ġbust ling
Ġkra aaaa
Ġdomin ance
ĠTher m
ĠWarri ors
Ġplagiar ism
Ġspac etime
ĠUnt il
Ġurg ency
' ),
2 000
: ",
A b
A v
A nt
A ng
D rag
D irect
F X
M ag
P H
P art
Y ear
b ug
b org
d p
d ot
f oc
f ighting
g ard
g ae
h s
h ou
m ess
u v
w ort
y h
{ {
Í ħ
Î ·
Ġ Ñı
Ĥ Í
on ly
on ghold
re place
Ġthe ological
Ġs ie
Ġc ached
Ġc map
it oring
Ġp it
Ġf uses
Ġf uzzy
Ġm asc
Ġb ib
Ġb ases
Ġb esides
al VM
Ġd ong
le ton
se ed
st ock
ro ck
ĠI h
Ġh olog
Ġe ine
Ġl oses
Ġre cess
Ġre charge
Ġn a
Ġn ost
il ated
Ġg ross
Ġbe ating
Ġst er
Ġst ations
Ġst up
Ġst olen
am l
am mat
Ġpro position
Ġpro long
Ġas bestos
Ġcon ce
Ġcon dem
Ġcon currency
ir ling
ĠS OP
ĠS VD
ĠC U
ĠC AM
Ġde pri
ist ers
ab s
ri pe
em bed
ĠP ill
ĠP ub
ment ion
ĠH op
ĠH arb
ĠM ent
ĠM icro
ĠW ay
ĠB ud
ĠB etter
us ions
Ġby tes
ĠD ALL
Ġsh ine
ĠE as
ĠE gg
iv ation
Ġint ros
Ġint rus
res olution
ĠL oss
ĠL ocal
ĠL icense
Ġr ic
Ġimp ul
ĠO K
ĠO ffic
ĠO UT
ag ation
ard ed
low er
Ġmod s
Ġmod eration
Ġun biased
ĠU V
Ġtra ps
ac count
ap ore
Ġro d
end l
Ġimport ing
Ġdis p
ail and
Ġ4 4
Ġ* "
The se
Ġem ission
Ġsim mer
Ġpr ank
Ġrel ational
Ġrel atives
Ġob lig
ear th
Ġpo ems
Ġno body
ever al
round ed
own ers
Ġatt orney
Ġco zy
Ġadv ancing
Ġhuman oid
Ġ20 12
Ġexp osing
ody mium
Ġend ofun
Ġ7 9
Can vas
eg u
Ġ8 5
comm erce
ĠAl an
20 19
20 22
Ġele ctions
io let
Ġtem pt
Ġmet agen
Ġsw ap
ĠDe vious
ci i
po ly
Ġelse if
Ġmaterial ism
Ġcheck out
Ġris es
Ġz oom
ĠSh ar
St r
St able
Ð¾ Ñģ
Ġsuccess es
board ing
Ġsun rise
Ġgovern ed
Ġspecial ist
by e
ik ov
Ġsuper position
Ġbal ancing
Ġsens ation
Ð¸ Ð¼
Ġperiod ic
ura bility
arb ohydrates
Ġant ivirus
Ġcru n
ĠAt l
Ġprogress ive
Ġbo iled
roll s
Ġinn ate
Ġmar ried
ĠLe on
ĠNo SQL
Pro gram
Ġveget arian
Ġmaxim izing
Ġsmart board
Ġmut ated
fact orial
mar ize
ĠGe Force
Ġpoly gon
ĠAm ong
ĠSim ply
Ġdecl aration
Ġpick axe
Ġremov able
ĠGra alVM
Ġund ers
Ġcapital ist
ĠInter view
part s
Com ponent
Ġsuff ered
ĠCo in
Ġaw ake
Ġden ied
Ġden oted
reg ation
Cl ick
Ġappreci ated
Ġtit led
ĠOb tain
Ġattract ed
Ġreve aling
Ġgrand father
Ġacqu iring
Ġwonder ful
pat tern
ĠGre gor
Ġfro g
Ġgall ons
Ġparadox es
dri ving
Ġupgra des
Des ign
Ġrig id
ĠAlex and
Ġminimal ist
âĸĵâĸĵ âĸĵâĸĵ
ĠLife Lift
fin ance
ĠMart in
ĠAddress Sanitizer
ĠLua JIT
Sub mit
Ġarri val
Ġwal let
âķ£ âķ£
Ġtu ple
Ġneuro logical
dat abase
ĠÑ Ħ
Ġsql ite
ĠPhilos ophy
cd ot
Ġstorm s
sim ilar
ĠViet names
ĠHE IGHT
Ġincomple teness
ĠGDP R
ĠPen elope
Ġlever aging
ĠVe get
Art ificial
Ġconcurrent ly
Ġvolat ility
Ġbet ray
Ġlau ndry
Ġrefrig erator
ĠDecl aration
ĠLess on
ĠBell amy
Ġmund ane
Ġnood les
ĠAdvent ure
ĠMut ant
ĠHab its
Ġjurisdict ion
ĠConstant in
Ġmuse ums
Ġbore dom
Ġnoc ice
ĠSW OT
ĠPrus a
Ġpronunci ation
ammat ory
ĠVietnames e
) ).
* :
. \
A m
B G
G L
G od
I F
M ed
N amedPipe
P layer
S E
S pecial
V E
V AL
c uss
d irection
e ighth
f g
f ruit
g ressive
m us
m issions
m peg
n odes
p in
s g
s ent
s pl
t asks
u ous
y r
Ã Ł
Í ĻÌ
Ġ Ñĥ
Ġt um
Ġs ights
Ġc rontab
es an
or ca
Ġw s
Ġw est
Ġw ines
Ġw itch
Ġw izards
an ut
Ġp ier
Ġf aint
Ġm urd
Ġb ump
Ġd rain
Ġd umb
ct ic
Ġl ore
ig nt
Ġst airs
Ġpro poses
ĠA bs
Ġwith draw
ĠS ic
ĠS ke
ĠS hip
ĠS ocrates
ad ies
Ġsu g
ĠC E
ĠC ain
ĠC ome
qu it
ant ing
th ank
ere s
em pl
Ġne odymium
ĠM ill
ĠM aria
Ġch air
Ġch apters
Ġse arches
ĠW orking
ĠB Y
ĠB ang
ĠB oy
ĠB order
ĠB esides
ĠD ungeon
Ġsh ifted
ĠF ault
ĠE E
Ġen im
res ize
ĠG i
ĠG uate
ĠL abor
ĠL java
oc ative
Ġat e
Ġad mit
ĠO pportun
ag an
ard o
ard ing
ĠN or
ĠN ar
Ġmay onnaise
int ensive
ip y
ber y
clud es
Ġev ac
Ġimport ed
Ġdis cre
Ġdes erts
Ġam endment
Ġsp arse
ĠSt ock
Ġpe eled
Ġph ases
Ġind ie
Ġstr angers
Ġstr onghold
ĠV alky
urn ame
Ġno isy
Ġra ys
ĠK aiju
gg ie
Ġtechn ically
Ġatt ractions
ĠFor ge
Ġsol der
Ġrep roduce
ef ined
ms g
Ġtrain er
Ġfl ies
ĠCh ancellor
Ġsub atomic
ĠAd apt
ĠAd minist
Ġmain stream
ĠTo ki
Ġgu ix
ivid ual
ex per
vent ory
ĠCon text
20 10
ec a
Ġmulti player
Ġprint ers
Ġdirect or
Ġrese mb
sc he
ĠÐ µ
Ġgre eting
Ġ9 6
Ġes oteric
Ġident ities
ĠAss oci
Ġsl ides
Ġinstall ations
Ġport able
ĠSe cret
Ġpain ter
ĠWith in
ĠEn h
Ġsun ny
Ġpriv ile
Ġsal mon
Ġmo zzarella
ĠShe Zow
Ġexerc ising
12 7
Ġscre ws
ĠEm phas
Ġpositive ly
Ġlower ing
Ġconfig uring
Ġant is
Ġsmo other
ĠCal end
Ġ200 4
Ġadapt ing
Ã© mon
Ġsepar ately
Ġver ifying
ĠCol lege
ðŁ ¤
Ð¾Ð ¶
ym akers
ĠLe an
Ġguid ing
AR Y
Ġdeg rad
Ġvisual s
Ġelectric ian
ĠPer l
elt ar
ĠGree ks
Ġmotiv ate
Ġĉĉ Ġĉ
ĠCont ent
Ġmount ed
Ġthreat ening
Ġcontact ing
99 9
ene z
bl ue
ĠSQL Alchemy
ĠLa unch
HT TP
ĠPar liament
Ġment ally
Al pha
Ġmob ility
Ġpros pects
sm iling
Ġtend ency
erv ative
Ġparad igm
ĠComp et
Ġcorrespon d
Ġfreed oms
Ġrev ise
cal cul
Ġ199 1
Ġshall ow
Ġ198 7
Ġrepair s
real istic
ĠLim its
Ġmultip rocessing
Ġcub es
Ġvit ro
Ġvit ae
Ġillust rations
ĠKore an
Ġguarant ees
ĠBack ground
Ġscratch ing
comple te
ĠSecond ly
Ap ologies
Ġpars ley
Ġarm ies
ĠMad ison
Ġbund le
Ġagric ultural
Aut h
Ġinherent ly
Ġvirt ually
Ġsight ings
Ġnegot iate
Ġorb its
Ġorb ital
hist ory
Ġchlor ide
Ġemotion ally
Ġjail break
âĸĢ âĸĢ
ĠHerm ione
Í® Ì
ĠYear s
Ġrelie ve
Ġveter in
LO OM
ĠParm esan
Ġenum erate
Íķ Ì
Ġdele ted
Ġrelat able
ĠSIM D
Ġresc ue
Ġdiagram s
ĠPear l
ĠHon kai
Ur l
Ġreds hift
Ġbreakthrough s
Ġimmort ality
ĠHistor ical
Ġsta ple
Ġcul inary
ĠFP V
Ġcommunic ating
Ġenorm ous
Ġprophe cy
mess ages
ĠGregor ian
ĠGuate mal
! ".
' ).
. |
4 32
5 3
= /
B re
F ly
F ree
L icense
M ark
R P
b ro
b its
b idden
c ence
c led
c ool
e ks
i ated
i ams
j an
k Wh
l ook
l arge
m ite
n en
n ish
t an
t ally
u y
u er
Í ĨÌ
Ï ħ
× ¨
Ġ ions
Ġ ,,
ģ Í
Ġt ours
in se
at on
er r
Ġc b
Ġc out
es ian
it ories
is ons
Ġp ale
Ġf ame
Ġf oster
Ġb aked
al ted
Ġd ungeons
Ġin vert
ar ith
se p
Ġth y
Ġy arn
Ġe get
Ġe co
Ġl act
Ġre cre
Ġre written
Ġre venge
Ġre versed
il ism
Ġg el
ĠT ort
Ġbe ats
ch illes
ĠR oy
ig g
ig on
Ġst ance
Ġst ove
am el
am oles
Ġpro verb
od ium
pe red
Ġex tern
ĠC ell
ĠThe o
ter ol
ĠP ant
ĠP ass
ĠP ositive
pl aces
ĠH arm
ĠM el
ĠM SCI
Ġse ismic
ĠW orks
ĠB aby
us ive
Ġby pass
ĠD ar
Ġsh ifts
ĠF usion
ĠF ahrenheit
Ġen zy
Ġint end
Ġint List
ĠG T
ĠG er
ĠG ard
oc key
ell ar
ĠTh ai
ĠTh aler
ag le
ult s
ep ad
ĠN AD
ĠN orthern
oo f
Ġj am
Ġcl ip
Ġun con
Ġtra ced
xt rin
int ensity
ĠY on
ode xtrin
Ġro l
Ġprov ed
Ġexam s
Ġdis pose
ens ical
Ġspec ulate
ount y
Ġsp are
Ġsp aghetti
Ġcol ony
ĠYou ng
Ġap ology
Ġru ral
Ġpos es
Ġind igenous
ĠV I
ĠV enez
ĠK im
ĠK EY
ause a
ĠĠĠĠĠĠĠĠĠĠĠĠĠĠĠĠ ĠĠĠĠĠ
Ġprogram m
Ġ< -
Ġtrans itions
Ġco hesive
Ġ` .
Ġfl oured
ĠCh ain
ĠCh ord
ĠCh ann
ĠCh anges
Ġref use
Ġback ed
ĠRe yn
Ġfi ery
Ġperform ances
Ġdec ent
Ġcommun ist
Ġsupport ers
Ġhard ening
20 11
Ġmon et
Ġmon keys
Ġmark ers
Ġafter math
Ġlay man
Ġgre et
Ġbr ighter
Ġenc ode
Ġinc idents
Ġz ine
cle an
Ġsl ur
Ġlog ging
ĠSh adow
ĠSe infeld
oph ical
ug ar
ĠSc ot
Ġhead phones
Ġess ays
Ġgr ill
Ġgr asp
app ly
str ong
ãģ ĭ
ik i
Ġcy cles
text bf
Ġautom ating
Ġneg lect
ML License
Ġbrow sing
Ġ12 7
enc rypted
Ġphot ons
ograph ical
Ġroot ed
Ġste amed
Ġdam aging
Ġlower case
Ġassoci ation
Ġsequ ential
Ġrock er
Ġdisplay ing
Ã© n
ðŁ Į
Ġbuy ers
Ġinn ocent
Ġâ Ĥ¬
Ġdetect ive
ĠEl asticsearch
Ġaccept s
Ġsurv iving
Ġemb ody
Ġgrav itation
mon ds
Ġemerg ence
Ġpsych ologist
Ġfoot age
Ġstress ful
Ġsty l
Ġrelig ions
Ġpromot ed
Ġfan cy
ok i
ok Ã©mon
Ġvast ly
ĠOut come
Ġhar ness
Ġment ee
Ġbroad cast
Ġhair s
IM IT
Ġesc al
Ġden ies
reg ular
Ġasse mble
Ġspl ine
Ã¡ n
ĠMed ia
ĠâĪ ¨
Ġseason ed
Ġlayout s
ĠAb el
Ġacid ic
ĠWill iams
Ġ... ,
Ġremote ly
count ry
Ġobjective ly
Ġ199 8
ĠRet rie
ĠGr iffin
Ġconvent ion
Ass ume
Ġstim ulation
Ġstim ulate
ĠAng eles
Ġwire less
aph thal
Ġmyster ies
Ġneighb oring
oles terol
ĠTy pically
ĠImpro ving
Ġincent iv
Ġarri ves
ĠDav is
Ġmyst ical
ĠRel ations
ĠCost a
ĠEgypt ians
Ġsymmet ry
ĠExplore r
Ġinterrupt ed
âĸĪâĸĪâĸĪâĸĪâĸĪâĸĪâĸĪâĸĪ âĸĪâĸĪâĸĪâĸĪâĸĪâĸĪâĸĪâĸĪ
query Select
Ġanalog y
Ġdut ies
system ctl
Ġhybrid ization
Ġboil er
Ġauton omy
Ġelectro des
ĠDog s
Ġperman ently
Ġdress ing
shell scripts
Ġfrustr ating
Ġintrig uing
She ll
ĠHam let
Ġspon s
ĠSD L
Ġintim id
Ġzomb ies
Ġdow nt
Ġvolat ile
Ġforgot ten
ĠNet flix
secut or
agu ar
ĠCop per
Ġresid ency
Ġaest hetic
Ġscrew driver
Ġfant astic
Ġfundament als
Pol icy
ĠJay den
ĠFoot ball
Ġappet ite
Ġbiochem istry
bor ne
ĠCirc uit
Ġbab ies
Ġpreval ent
ĠVit amin
ĠNeckl aces
Mus ic
Ġtect onic
ĠSOL ID
ĠFerm at
ĠVen us
Ġeros ion
Ġsupre me
ĠFung us
Ġneuros cience
ĠPrinci ple
Ġstup id
ignt y
eltar une
ĠVenez uel
aphthal ene
querySelect or
( ()
) +
) ),
- +
; ,
> ,
? ,
B uzz
C A
C o
C ount
E dit
H ead
M ach
M any
T ask
U sed
V G
] {
b en
c u
c ity
c ard
d ie
e b
e nder
f light
f rames
g ic
k k
m ilch
n is
s oup
t ically
t ensor
v ings
w al
y mmet
} ",
¬ Ì
® Ì
» Ì
Ĩ Í
Ġt s
Ġt orn
Ġa ver
in n
in paint
he arted
at aset
er oth
or ic
Ġw are
Ġw idget
is er
Ġp osed
Ġp icks
al ine
Ġd ive
Ġd ining
Ġd type
Ġd rones
le tt
ar us
Ġth rows
Ġh ides
Ġe Bay
Ġe clipse
Ġre vers
ve une
il er
Ġg olf
ĠT rust
ot ing
ĠR us
ĠR ica
ĠR SA
Ġst all
Ġst icks
am pling
ay a
ul sion
ur ious
Ġor anges
ĠS ite
ĠS oph
ĠRes ear
ĠRes ource
Ġwh ites
Ġsu ite
Ġv om
ri ya
ĠP an
ĠP resent
ĠP ole
ĠP osition
ĠM B
Ġch ill
Ġch uk
ĠW ine
ĠW elcome
ĠD irect
ĠF ac
ĠF ull
ĠE LE
ĠE ss
iv ate
Ġint ensive
Ġpl astics
art ers
Ġ2 50
ĠG in
ĠG host
ĠL ed
ĠTh ailand
ĠO ptions
cl er
Ġres idential
Ġcomp r
low n
Ġsc ram
Ġsc iences
ous es
Ġun used
ĠU nd
ip ot
Ġpre view
Ġpre jud
Ġcons ervative
end o
ĠJ IT
ĠJ ama
Ġdis connect
Ġper me
ose mite
Ġ4 3
Ġ4 8
The n
Ġind ent
ph an
Ġob l
te e
te chn
ĠV ultures
Ġform ulas
Ġdet on
cre ase
ĠK ind
ov sk
Ġcal ming
ĠFor Source
Ġsol ves
Ġtrans cend
Ġconsid ers
Ġrem ed
Ġsub sid
Ġsa us
Ġinf ant
ĠAd versarial
Ġback story
ĠRe ward
Ġdepend ence
Ġclass Name
Ġopen ai
Ġend uring
Ġstud io
Ġreal ities
Ġwater fall
br aten
Ġprom ises
ĠWh ole
Ġhard est
ribut es
uc ing
20 15
Ġconst ants
sc roll
sc ene
Ġpub l
Ġconcept ual
ci pl
ĠCom mit
ĠCom ponent
po inter
Ġcost ume
Ġpass ant
Ġaff ine
Ġcare ers
Ġdem ographic
Ġpublic ation
Ġinvest or
Ġknowledge able
ĠPl ant
oun s
Ġconnect ivity
ĠEn lightenment
Ġbusiness man
vious ly
Ġcontribut or
Ġmot if
Ġmot ive
Ġsal ute
Ġjo ins
Ġgr ants
ĠShe pher
Ð° ÑĢ
Ðµ Ð¼
Ġtask ed
++ ?
ane ous
ah oo
Ġaltern ating
Ġbrow se
Ġbrow ned
Ġexpect ing
Ġste alth
Ġfinancial ly
Ġanaly tical
Ġanaly tics
Ġthought ful
Ġassoci ations
Ġselect or
aps es
Ġred irect
Ð¾Ð ±
Ġinitial ize
Ġmar riage
Ġdiscuss es
Ġgot ten
ĠMon itoring
Ġoil s
Ġlack ing
ĠAre a
Ch ild
Ġaim ing
Ġstream lined
mon th
lear n
ĠInd ic
Ġforward ing
Ġshad er
Ġsil ent
Ġdead ly
EN D
Ġmembers hip
Ġdouble d
ĠOut ro
ĠDiff iculty
Ġmicro organisms
IM E
Ġchess board
Ġ] ;
Ġtour ist
Ġabst raction
Ġsyn onyms
Ġtit anium
âķ «
Ġclim ates
Ġvert ically
!! !
Ġreve als
Ġgard ens
ĠAtt ila
Ġassess ments
umin um
pat hetic
ĠEvery one
Col a
Ġdestroy ing
AC K
ÑģÑĤ Ð²
Ġbub bles
Ġpor osity
Ġweigh s
DO W
ĠWork er
math bb
brid ge
ĠDep ression
Ġharvest ing
Ġnull a
trans form
ĠAB AP
Ġminor ity
Ġexplo it
Ġexplo ited
Ġcomputation ally
Ġpron ounced
inc ip
Ġbrid ges
ĠEnter prise
ĠAdv ance
Ġfle w
ĠBel gium
ĠGl ass
Ġtrend y
Ġindu ction
Ġchlor opl
ĠSing apore
Ġlock ed
Ġhierarch ical
Ġarche types
ĠHol zer
Ġepis odes
gl as
Ġwrap per
Ġrank ed
Ġfulfill ment
ĠFore st
Ġtalent ed
Man ager
ĠFort ress
Par agraph
wrap per
ĠAud io
Ġkne es
Ġrecy cled
Inst ance
ĠHapp y
Ġduplic ate
Ġphosph orus
ĠProte in
Ġdivers ify
ĠCong ress
eu ver
Ġredund ant
Ġannoy ing
Ġchamp ions
Ġblu eprint
Ġperse verance
ĠCH ATFS
elen ium
ĠAst ron
Ġfemin ine
Ġobsc ure
Ġnons ensical
Ġimmer se
support ed
Ġdisson ant
Ġconcer ning
Ġbil inear
Ġmisle ading
ĠSTRI PAK
ĠGw yn
ĠInstruct GPT
Ġstrum ming
Ġcondem ned
ĠShar pe
ĠGuatemal a
" ],
* (
- $
. -
2 50
B at
D T
D raw
D istance
D onald
H otkey
I US
P o
R AM
R AD
T ry
V ari
Y Z
\ \
] ):
a fter
b a
b ac
b etween
b ottom
c ogen
d ensity
e pendence
f ia
h d
i as
i vers
j our
l augh
m aker
n ull
o king
p icking
s ch
t ab
t ri
t ry
t urn
t alk
w he
w er
w idget
z es
z antine
} ;
± Ì
Í ĶÌ
Î »
Ġt ill
Ġt inc
Ġa rom
in itial
in ja
Ġthe or
Ġs i
Ġc ows
Ġc ensors
or j
it ian
Ġp thread
Ġf ost
Ġf oooo
Ġm l
Ġm ant
Ġto ile
Ġto oth
al pha
al igned
al chemy
Ġd x
Ġd ual
Ġd urability
Ġth rown
Ġh orn
Ġh ockey
Ġe igen
Ġl enses
om i
Ġre use
et en
im show
im eters
Ġg ates
ĠT our
ĠT act
ĠT ax
Ġbe er
Ġfor cing
ly n
Ġst iff
ĠA i
od ore
od ox
Ġan not
Ġcan ned
ur face
ĠS M
ĠS plit
ĠC ultural
ĠC trl
th anks
ĠP ID
pl ib
ĠH ot
ĠH ad
Ġ" *
ĠM and
ĠM ental
ĠM ech
ĠM agn
ĠM osc
ĠW inter
ĠW SL
Ġ( `
Ġ( ...)
ĠB ird
ĠB ST
ĠB right
Ġby te
Ġsh ore
Ġsh ots
ĠF ont
ĠF OSS
ĠE T
pp in
Ġint estine
and an
ĠG ar
ĠG il
ĠG ene
ĠG mail
ĠG Ã¶del
ĠL umin
oc l
Ġr ats
Ġk eras
Ġli able
ĠO N
ĠO OP
ind ependent
Ġcomp osite
Ġsc ream
Ġcl utch
Ġun pre
int in
ip ient
Ġup beat
ĠJ aguar
Ġper ipher
Ġ4 50
ub ric
ree ze
Ġ5 5
Ġsim ulated
Ġset backs
Ġpr ince
Ġval ence
rit a
Ġpers ists
ĠV inci
Ġimportant ly
Ġra g
Ġra nd
Ġra iny
ĠK ernel
tain s
Ġwhere ver
ov o
ced es
Ġatt raction
ential ism
Ġfl aws
Ġgra p
Ġhand ler
Ġmin ister
sw ith
Ġmethod ologies
Ġel f
Ġgu ards
Ġ7 00
Ġent ropy
Ġprom ised
Ġpar as
Ġ8 000
Ġpat ri
mat ched
Ġca res
Ġcar ing
ĠCon figure
Th reshold
Ġpopular ized
Ġaccess ories
." *
Ġlo af
Ġtem ple
ĠEx c
Ġafter wards
ĠDe ck
verse ly
ee ee
Ġbi ography
Ġgeneral ize
Ġworks pace
Ġelse where
sh adow
10 1
Ġenc oder
Ġsimilar ly
Ġmag ma
][ ][
chan nel
Ġcorrect ing
St ud
Ġintellig ible
Ġinvest ig
ĠSe attle
Ġcontin ually
Ġtri als
ĠPl atform
Ġoptim istic
ĠSp ir
Ġmaintain s
ĠZ ara
Ġland ed
Ġattack ed
Ġattack ers
Ð° Ñı
ĠBe ach
ãģ Į
Ġsecond ary
ik er
Ġhome work
Ġachieve ment
Ġinit iate
Ġbal ances
ah l
col s
ĠCl ub
ĠDes ktop
Ġpresent ing
Ex p
Ġrecogn izes
Ġflo oring
Ġcompet itions
nds on
cc up
Ġfund ed
Ġdiv is
Ġver ification
Ġfire arms
Ð¾Ð º
Ġsupp ress
list en
Ġcool er
Ġmis chie
Ġemb arr
Ġlater al
Ġemerg encies
Ġsmart phones
Ġmen us
ĠCont act
ĠCont inue
Ġreli ance
Ġtim eless
att ention
Ġexpress ive
Ġwall paper
ĠWeb pack
Ġremov al
ĠLi ver
Ġbreath taking
Ġextra ction
Ġmer it
ĠGener ative
ĠInter pretation
OR D
Ġvalu ed
Ġtun nels
Ġmel ting
Ġmel odies
Ġbur den
Ġacadem y
Ġvill ains
Ġrestrict ive
oper ation
Ġconstruct s
Ġdiscover ing
ĠAg ency
ĠAust ria
ĠDet ection
ĠâĪ §
Ġfarm ers
ĠÂ ¿
ĠRep resent
Ġtrig on
Ġuns alted
ĠPart y
Ġagg ression
ategor ies
Ġfasc ism
Ġencounter ing
Ġcrack s
Ġround ed
Ġye ah
link ed
Ġsac red
Ġunf old
Ġterrit orial
mut ation
Ġaer odynamic
Ġinher ited
tra de
Ġencourag ed
ĠChange FeedProcessor
Ġsubt raction
Ġscholars hip
Ġencount ers
Ġvent ilation
Ġslic ing
column s
Ġsan itizer
conf lict
Ġtoler ate
Ġbatt ling
Ġvacc ine
Ġcorrupt ed
Ġsql alchemy
Image Data
IHw Interface
Ġsubsequ ently
Ġvot ers
ĠINT ER
Ġox ide
Ġdistract ed
Ġgest ure
Ġteen age
ĠSand y
ĠJup yter
ĠFil ter
Ġpunish ment
Ġbald ness
Ġnegoti ations
Ġsandw ich
Ġexagger ated
Ġphotograph s
Ġfel ting
Ġdescend ants
ĠVide o
hav ior
ĠSit uation
ĠRw andan
Ġdess ert
prov ided
auer braten
prop agation
Ġtil ted
ĠVul kan
ĠFranc isco
FI LE
Ġgroom ing
Ġaeros pace
Ġelder ly
Ġlone ly
Ġchromos omes
Ġnas al
ĠNapole on
Ġthro at
Ġgover ning
Ġaccord ance
ĠHypot hesis
Direct ory
mention ed
ĠCoin base
ĠConstantin ople
Ġnocice ption
Ġdegrad ation
Ġveterin arian
ĠELE M
RAD IUS
Ġtinc idunt
. **
4 20
A f
B b
B an
C I
C ool
C OL
C lose
D V
D r
D ou
D own
E A
E mb
G ra
G tk
H um
L oader
M ar
M em
M ain
N T
R enderer
S O
S ort
S oup
T YPE
U E
V P
V ec
W T
W u
Z A
[ \
] ?
b irds
c am
c all
d ered
d ied
g pg
j k
k le
m ult
m aterial
n etwork
o ys
o osing
s ite
s urname
t ract
w ed
x imately
Ì į
Ġ âĶ
Ĺ Ì
Ġt anks
Ġa ids
in als
in ement
er d
er ting
Ġc p
Ġc ouch
es sed
es ium
nd o
Ġw ipe
it as
en ia
is ch
is hers
an z
Ġp up
Ġf ract
Ġo vere
Ġm k
Ġm olds
al and
ion es
Ġd d
Ġd ull
Ġin se
Ġin ability
ed ience
Ġy finance
Ġh ull
Ġl ord
Ġl amps
Ġl pvMessage
ent ries
Ġre base
et ur
im um
Ġg enders
ĠT R
ĠT intin
ĠR am
ĠR iver
ig hed
ĠIn ca
ĠA L
ĠA h
ĠA z
ĠA round
ĠA chilles
od eling
Ġor iented
ĠS pend
ĠS aint
Ġal erts
Ġal gae
ĠC ry
ĠC rit
ĠC ool
um ph
um mer
ant e
Ġha cker
Ġha iku
ĠH ero
ĠH oriz
Ġ1 23
Ġ" )
ĠM E
Ġle nd
Ġch unk
Ġch olesterol
Ġse aled
Ġme ats
ĠW at
ĠB ooks
ĠB olt
ĠB MW
us ually
Ġsh ark
Ġsh ining
Ġwor m
Ġpl umb
art icles
ĠG O
ĠG am
ĠG ates
ĠL oki
ĠO p
ĠO x
ĠO wn
ĠO LED
Ġres erves
ep s
vel te
ĠN est
ĠN ull
low ers
ue go
Ġun e
Ġun limited
int ed
ip es
Ġcomm as
Ġup ward
ĠJ ump
Ġimport s
ors es
Ġsystem atic
Ġover flow
Ġ4 7
ne ws
ĠSt op
Ġru gged
ick er
Ġwork book
vers ation
Ġrel ied
ear ing
te in
Ġinv isible
ĠV im
Ġno zzle
ĠK it
ĠK il
oth ic
Ġmat ched
Ġ[ (
Ġ} }
Ġdist inction
Ġche ating
hen es
Ġrun ners
eng ing
Ġclass room
Ġ$ _
ade c
Ġext inct
Ġend points
Ġent rance
Ġpar alysis
Ġequ itable
Ġbl ess
ĠAl f
Ġfin ishing
ĠOpen Dyslexic
ĠCon sequ
Th ose
Ġmet all
Ġquestion ing
ĠEx pect
ĠDe pend
ĠDe ez
In valid
ĠÐ ³
Ġthink ers
Ġdeterm in
Ġlay ing
ĠCom mer
Ġpass ions
yn et
Ġbr ick
ĠAr c
Ġz eros
Ġspeed running
Ġleg ally
ĠQ Dir
Ġsl ang
Ġsl ip
Ġlog arith
Ġshort ly
ĠSh ogi
ĠSh rek
ĠSe an
Ġtri angles
Ġtri umph
Ġprevent ion
Ġgl im
ĠLet ters
co le
Ġgen ocide
Ġcr imes
Ġmo ons
Ġpress ures
Ġge ological
Ġremain der
Ġmass a
Ġcrit ically
Ġfall acy
ĠCl im
Ġwee kends
Ġexpect ancy
Ġball oon
Ġperiod ically
Ġshare holders
Ġanaly se
Ġrout ines
Ġreview ed
ĠAt ari
Ġang ular
Ġinitial izes
Ġamong st
cent ered
Ġtransl ating
Ġtransl ates
Ġ16 0
ĠMon ty
Pro v
Ġemb ark
Ġdownload s
ma j
Ġdru nk
ĠInd ependence
Ġcross bows
ĠTw in
Ġthreat en
Ġliter acy
Ġkn uck
Ġtalk ed
Ġund efined
Ġswe at
Ġwind s
Ġfactor ization
dis cipl
Con nect
Ġutil izes
ris k
Ġbound ed
Ġreact ors
Ġsatisf ies
inst alled
Ġsummar ization
CE S
Ġdim in
ĠAtt ack
Ġgrand mother
Ġvoc ation
ĠMer cedes
mark ed
Ġic ons
ĠPi ppin
Ġburn out
Ġrare ly
rand int
Ġliber ties
ĠAlex ander
ĠEth ics
Sc roll
Ġtox icity
Ġcontradict ions
Ġpul ses
ĠST EP
Ġdestru ctive
Ġtensor flow
Ġbag s
Ġexplo itation
Ġpoison ing
Ġremind ers
ĠPo or
ĠMor ning
ĠEgypt ian
Ġmort gage
Ġhal ves
Set tings
Ġindu ced
Ġorb iting
ĠPhilos ophical
Ġsuperconduct ivity
Ġvolunte er
ĠDou glas
Ġjack et
Ġadvoc ates
Ã± os
ĠTim my
ĠBudd hist
ĠJul ia
ĠOrgan ization
Ġtwe ets
Ġpra ised
Ġseam lessly
Ġaccum ulate
ĠSche dule
Ġsoy j
Ġdiplom atic
Ð¾Ð» ÑĮ
Ġalter ing
ĠBlu eprint
Ġknock ed
Ġteen ager
ĠRL HF
Ġhosp it
Ġprohib ited
requ ency
Ġnick el
Ġcough ing
det ails
Full screen
vari able
ĠHun ter
Ġexpon ential
aunt ing
Che ck
Ġdiscount s
ĠSwed en
Ġreconc ile
Ġrebell ion
Cre ating
Ġsib ling
ĠBrother s
Ġdign ity
Ġexter ior
Cur rent
Ġmonop son
ĠLiqu idity
Ġclin ical
Ġunemploy ment
Ġsecur ing
ĠBritann ia
Ġshred ded
-------------- +
ethe less
Ġdong le
Ġnost alg
Ġintrus ion
Ġendofun ctors
Ġantis em
Ġlact ose
Ġenzy me
ĠReyn olds
Ġchuk ar
ĠIndic ator
COL OR
! ",
( |
- )
0 33
: %
A ge
A ny
C red
C SS
D ark
E CT
F ood
G A
M s
N ET
O ur
R A
T C
T erm
W ait
X R
Y o
b rit
c ub
c ounter
d ocker
f el
h as
h ref
i ro
j et
m any
n l
n one
o os
p it
p res
r ins
t ar
u itive
v ial
² Ì
Ã Ĺ
Í Ļ
Í ħÌ
Í ĸÌ
Í ĭÌ
Ġ ÏĦ
Ĭ Ì
ľ ×
Ġt ennis
Ġc ater
Ġc aching
or i
Ġw anna
it uting
en h
is ure
Ġp iv
Ġp izz
Ġb ron
Ġd ying
ct ory
st rength
Ġth ou
Ġth yme
Ġl ubric
om ar
Ġn ap
Ġu pl
Ġg inger
as ma
Ġbe nd
ot ia
ol ly
ig s
ĠIn f
am az
ĠA LL
Ġcon form
ul s
ul er
ĠS U
ĠS ally
Ġex clude
Ġex pense
Ġwh it
ter ity
out heast
ĠP ent
ĠP ull
ĠP KU
pl aced
ĠH ats
ĠH eli
Ġ" [
ĠM ust
ĠM ade
Ġle isure
Ġch rome
Ġse af
ĠW ick
Ġuse less
ĠB rief
ĠB unny
per m
ĠF BI
Ġwor ms
ĠE ating
ĠE dition
ĠE volution
Ġen lightenment
Ġab ol
ĠG olf
ĠL ind
og g
og ens
Ġad versarial
ust ain
ag ne
cl ock
vel ope
Ġj azz
Ġcl ause
Ġun ch
Ġun supervised
Ġfe ared
ĠU r
ac ro
ĠY OU
Ġup s
Ġcons ol
ĠJ en
ĠJ ones
Ġdes cending
Ġmake up
âĢ ²
Ġover load
ari ans
ne ath
Ġbu zz
Ġrel ay
Ġdevelop s
ia vel
Ġinv oice
ĠV S
Ġpo pe
ĠK rita
cur ves
Ġtw itter
Ġact u
ced ented
Ġreg ime
Ġatt itude
Ġchar set
Ġfl ip
Ġgra des
tt es
Ġsk ies
Ġfi res
Ġcor related
ĠTo ol
Ġins omnia
ĠAn imals
Ġsur ge
Ġ19 50
Ġread ily
ĠCon v
ĠPro of
ĠPro duction
ribut ed
ote chnology
ec ue
ĠAnd re
Ġmark er
Ġimpact ing
Ġpract ition
li ers
ci as
ci um
Ġgre ased
Ġbr im
ĠAr my
Ġdra st
Ġsaf egu
Ġsl ider
ĠSe ction
ĠSe qu
amp het
Ġview points
ĠSc ene
Ġavoid s
Ġmot ors
Ġspecial ize
ĠBe havior
Ġpres erved
med ia
light ly
ah o
Ġharm less
Ġpolic ymakers
ĠDis p
ĠChat bots
Ġcompet itor
Ġdam ages
22 2
Ġ200 2
Ġlab our
Ġred dit
ids ummer
Ð¾Ð ½
Ñģ Ñı
Ġing ested
Ġscreen play
ĠInt roduce
cent ury
Ġaccept ing
aly st
ĠNe ed
ĠNe ut
ĠInd ividual
Ġcross ing
ĠPC B
Ġsustain ed
ĠAm endment
Ġmist aken
Ġnumer ic
ĠðŁ İ
Ġfair ies
Ġkn itting
Ġdead l
Ð» Ñı
Ġax ios
ĠGener ating
ĠTrans l
An imation
US D
ĠAv a
Ġvel ocities
Ġbur gers
Ġir regular
Ġment ions
Al though
Ġcos mos
Ġreward ed
Ġfresh ly
Ġrepl aces
Ġden o
Im pro
Ġrain fall
ĠComp ared
Ġple asant
Ġstri kes
ĠâĪ Ī
ĠIN S
Ġcred ited
ugg ed
Ġcontract or
Ġdiagn ost
count s
Ġrevolution ized
pow ers
En c
Ġpig e
Ġcris p
ĠMac OS
Ġliqu ids
Ġprofit ability
Ġneut ron
Ġtherm oelectric
Ġacceler ate
ĠArch itect
ĠPros pero
Ġlas ers
ĠHTTP S
ĠVR AM
By tes
Ġtrick y
Ġincent ive
vol ent
Ġdecor ative
Ġarrange ments
Ġfo il
ĠDem ocratic
ĠOper ations
Ġthr one
Ġtrigger ing
Ġhal ting
acent a
Ġoscill ations
ĠMethod s
Bl ack
Ġenthusi asm
ĠHand le
pers onal
Ġfeas ibility
Ġspray ers
rat ulations
Ġlux urious
ĠTer ra
Ġnan ow
Ġtast y
ĠEnviron ment
Ġoct aves
Ġstere otype
Ġmentors hip
Ġench il
Ġdisable d
Ġaqu atic
ĠMall orca
ĠJe an
Ġadministr ator
ĠWolfram Alpha
ĠIsl am
Ġrub ber
ĠSant a
ĠIde ally
ĠBoot s
Ġencl osed
Ġenfor cing
ĠTreat y
ĠChild ren
Ġfet us
ÑĨ Ð¸
Ġarth ritis
ĠComplex ity
Íĵ Ì
Ġphotograp hers
ĠSus ie
ĠGAN s
Ġoverth row
ĠPast a
Ġnewsp aper
Ġemp ires
Ġtermin ology
Ġdispos al
Ġgrammat ical
ĠEpicurean ism
Ġfles h
ĠIo T
Ġclust ers
Ġsovere ignty
Ġunderg one
Ġelig ible
ĠRN ase
Ġtreacher ous
ĠSic ilian
Ġrol led
ĠScot land
ĠResear chers
cler otia
ovsk ite
Ġcensors hip
ĠMosc ow
Ġunpre cedented
adec imal
amphet amine
/ (
/ >
5 7
< <
B ra
D I
F G
F ish
G raph
L arge
M T
N et
N ames
N LP
O ption
P al
R ep
W atch
` )
b as
b ie
g reat
h h
h ark
l ich
l ast
l iness
n ome
o ic
r ides
s ensitive
t f
t ag
v ations
v ens
w ear
w esome
y ard
y ml
Ã ª
Ã ł
Í ¤
Í «Ì
Í ŃÌ
Î º
Ġ ``
Ġ ÑĢÐ°Ð
Ħ Ì
Ķ ×
Ġt et
Ġt ense
in voice
he ated
on omy
Ġs ulf
or as
it ating
it ars
it iveness
en ames
is i
an ia
Ġf rench
Ġm ice
Ġb om
Ġb reeze
Ġto tally
al ous
Ġd rew
Ġd ilemma
Ġd aunting
st arch
Ġh ay
Ġh ill
Ġh ue
Ġe go
Ġl s
Ġl ob
Ġn aphthalene
Ġu mb
im pact
Ġg rie
ĠT own
Ġbe an
Ġbe ak
ĠR id
ĠR oses
Ġst ems
Ġst itch
ĠIn fra
am ina
Ġpro active
Ġan ten
Ġcon es
ir ies
ir ts
ĠS ith
ĠS ET
Ġex ponent
ĠC RT
Ġde emed
Ġv ow
Ġv ida
Ġv ivo
ant ilism
ĠP ure
ĠP ine
ĠP ages
ĠP enn
ĠP rador
pl er
ain ty
ĠH ive
Ġ1 40
Ġ" ))
ĠM ane
Ġch a
ĠW itch
ĠD in
Ġsh oe
ĠF unctions
ĠE at
Ġint rins
ĠG y
ĠG ate
ĠG round
ĠG Hz
ĠL E
ĠL u
ĠL EG
ĠL CD
oc om
ĠTh an
ĠO s
ĠO Auth
are ttes
Ġcomp iling
ĠN ort
ĠN orde
Ġhel icopter
Ġ3 23
Ġj ugg
Ġun le
Ġun for
ĠU FO
Ġtra gic
int endo
ip ed
Ġro ast
Ġdis abilities
Ġall ocated
âĢ ĺ
Ġsp heres
con vert
Ġcol ours
Ġinter cept
erm any
ree ching
ĠSt reet
Ġru th
Ġty r
ĠV W
ĠV ision
cre ens
Ġvari ational
oth s
reat s
cy cl
Ġchar ger
Ġcomput es
Ġtrans it
Ġhuman itarian
ĠCh aos
Ġrun ner
Ġref lections
read er
Ġgra ndson
Ġfact ories
Ġclass mates
Ġhand ful
Ġlong ing
Ġdesign ated
Ġfil ing
red dit
sw e
Ġher b
Ġel it
Ġext ru
Ġgu itars
Ġins pection
Ġreal ization
Ġconf ron
ex press
vent ional
Ġtool kit
Ġbl and
Ġshe er
ĠThese us
Ġfin est
Ġfin ances
Ġ19 45
Ġ19 38
Ġtru ck
ĠOpen MLLicense
ĠCon nection
Ġhist ones
Ġlo vers
to ols
Ġlim b
ĠCan aria
Ġprot ests
ellig ible
pos ure
ĠAr ctic
,, .
Ġprompt ed
ires hark
Ġsince re
ert ical
ĠSp am
Ġappe aring
Ġdoc s
Ġtable top
Ġmusic ian
Ġmil est
Ġspecial izing
Ðµ Ð¹
Ġbro ccoli
ĠBe yond
Ġpres cribed
let al
Ġlast ed
Ġ> >>
Ġrad ical
col l
Ġ& =
ĠDes ert
Ġoccur rence
Ġcountry side
Ġdefin ite
Ġtransform s
ST ATE
rag ma
Ġobser vers
ura cies
Ġbra ke
ðŁ ĳ
Ġbuy er
ÑĢ Ñĥ
Ġmar vel
Ġheav en
Ġhistor ians
aur ant
ĠNo ise
RE Q
Ġappear ances
Ġrot ates
Ġchem ist
Ġcomfort ably
ĠKeep ing
Ġlif etimes
Ġid le
ĠMay a
att ack
Ġcho king
Ġclaim ing
Ġflat ten
mor ph
part icle
Com put
Com pat
Ġretrie ves
Ġretrie ved
Ġdry ing
ĠVal ve
Con vert
Ġresol ving
Ġconver ges
Ġrepos itories
Ġstri ps
ĠPower Shell
Ġcred its
Ġtab oo
aby tes
ĠSk ynet
uts ch
Ġ198 2
Ġcommercial ly
ĠGr ant
uber cul
ĠGre yh
Ġanx ious
Ġunex plain
Ġcontrovers ies
ĠAltern ative
ĠEnc ourag
ĠEp is
ĠTechn ologies
Ġcream y
Ġevalu ates
ĠÐ² Ñĭ
Ġgrad ients
ĠRef erences
Ġpul se
RO OM
Ġbreed ing
Ġmerg er
Ġblog s
Ġforg ive
nes sed
ĠBi ology
Act ivity
Ġwizard ing
Ġpred etermined
Ġpal m
Ġft plib
OIN T
Ġsupercon ductor
|| ^
Ġcontem pl
ĠColl aborate
Ġmargin al
Aut o
Ġfert ility
ĠGen esis
Ġsan ctions
Ġske ptical
ĠServer less
Ġwit ness
Ġwise ly
ĠEpic urus
ĠSen eca
ĠPhilos opher
Ġcel ery
Ġoccup ation
rot ate
ĠDate Time
ĠJul ius
select ed
Ġsuspect s
Ġfault y
Ġwond rous
Ġsubscrib e
Ġdiplom acy
Ġgran ite
ĠDat abase
uccess ful
Ġzucch inis
ĠSupp ose
Ġmicrocontroll ers
ĠJour nal
Ġdialect ical
Ġmisunder stood
bel ief
Ġgate way
ĠKar atsuba
Ġje ans
Ġsurpr ising
Ġnest ing
Ġmast ery
Íĥ Ì
ÍĮ Ì
Ġweaken ed
ĠScroll bar
jo ys
Ġcaptiv ating
ĠCraft s
loc als
ĠCast le
ĠEle ments
cap acity
upp y
Ġimmut ability
ĠPow der
Ġtraum a
erma ids
Ġmerc antilism
ĠWebs ite
dial og
ĠLen ovo
Ġshuff le
Ġcentaur s
ĠBeautiful Soup
Ġcomprehe nd
Ġliv est
Ġpist on
ĠAure us
Ġresign ation
ropol is
ĠDiam ond
Ġtar iff
Ġmalf unction
Ġinfluenc ers
foc used
ĠEmphas ize
Ġinvert ible
ĠTort oise
ĠVenezuel a
Ġvom iting
Ġsaus age
Emb edding
ĠNorde a
, \
- [
8 000
: ',
= $
B H
B J
B ASE
C L
C ity
C ounter
F L
G en
G PIO
I ter
I ST
I IT
L oop
N etwork
P in
P ad
P lugin
Q ue
R F
T ree
T Item
b one
c row
c ross
c aster
d elta
e as
f illed
g ence
h an
h ls
k on
l ot
l uminosity
m esh
n pm
o X
p ages
t in
t ol
t ys
u able
v ival
w indows
y odor
½ Ì
Â Ń
Í ¯
Í Ķ
Ï ī
İ Ì
Ġt ies
Ġt ile
Ġt ac
Ġt ightly
Ġa y
Ġa ubergine
he a
he ld
Ġs ab
at y
er ness
Ġc i
Ġc ues
Ġc ited
es ter
Ġw ie
en ced
an aka
Ġp ile
Ġp wd
Ġf ps
Ġf ired
Ġm ug
Ġb ible
Ġb other
Ġto gg
ion age
Ġd il
Ġd ye
Ġd ude
le ments
se tt
st ed
Ġth inks
Ġh ood
Ġre ass
Ġre ef
Ġre plication
Ġn isl
Ġis lands
et ics
Ġg ast
Ġg uns
ĠT oy
ĠT ileEntity
ĠT ABLE
id ic
id ering
ot ive
ol utions
ĠR u
ĠR ig
Ġst ating
ĠIn v
ĠIn side
am as
am ous
am ination
Ġpro w
el le
Ġan te
ur rency
Ġor ci
Ġal gun
Ġsu ck
Ġv inyl
est e
ĠP iece
ĠP anel
Ġne ces
ment ation
ĠH om
ĠH DR
ill ions
ĠM A
ĠM as
ĠM ACD
Ġse arched
Ġme jor
Ġme cha
ĠW il
un i
ĠB ru
ĠB ab
ĠB rag
ĠB rowser
ĠB RUSH
ĠD er
ĠD iet
Ġsh aking
ĠF PS
ĠF oster
Ġwor ship
ĠE li
ĠE co
ĠE lement
ĠG ob
ĠL uke
ĠL ady
ĠL aser
oc aching
Ġk eto
Ġimp ed
ĠO tt
ĠO racle
cl ub
cl amation
ĠN orse
Ġsc iss
ces e
Ġmod ulating
Ġmod alities
ĠU pon
ĠU sed
ac cept
av ailable
ap shot
ĠY ahoo
Ġar sen
Ġcons erve
Ġper imeter
Ġcol ormap
Ġ* =
Ġinter ven
eth ane
ne x
ĠSt orj
Ġ5 2
Ġru in
Ġpr incip
ick ness
ound ing
ph i
get s
ĠV AL
Ġno vice
Ġno ises
---- --
ict ed
ict ure
ĠK otlin
Ġact ed
ib les
ob s
Ġfl awed
Ġret ention
ĠCh icken
Ġsub strate
ĠHe avy
Ġpot ent
Ġexp ed
Ġ7 2
Ġ7 6
Ġ7 7
Ġins ulating
Ġreal izes
Ġwater ing
Ġaut ophagy
Ġpar liament
Ġi o
ros h
Ġmem es
Ġconsider able
Ġ19 69
Ġcar bs
ser a
iss ive
Ġhist ogram
ĠAnd rew
Ġed ible
conom ic
Ġimpact ful
ĠEx ternal
=" /
pro file
Ġself ish
Ġrecommend s
Ġmust ard
Ġsocial ism
Ġbehav es
Ġgre ed
sh arp
Ġenc aps
Ġintern ships
Ġmeas urable
Ġsound stage
Ġsumm aries
Ġfiles ystem
ĠSc ale
Ġhope fully
ĠSp ring
ĠBy zantine
co ordinate
ĠZ omb
Ġcr ate
11 1
Ġpath way
Ġpress es
Ġpres idents
Ġcy borg
Ġge ographic
Ġcard board
Ġfore head
ER S
ĠFin land
pr ice
col n
ST ER
Ġminim izes
ĠEm erg
Ġcompet itiveness
Ġground ed
Ġvirtual ization
Ġ30 90
IN T
Ġeduc ated
Ġang els
ĠBl ake
ĠBl aze
AN G
Ġlat te
do or
Ġwa its
Ġdetect or
ĠEl im
ĠLe o
LE S
Ġtransl ations
ai ro
RE SS
Ġdom inate
16 0
Ġbow ler
Ġill um
apan ese
ole cular
Ġexc use
cer ies
fact ory
asc ar
att ributes
Ġcivil ian
Ġblood stream
Ġfavor able
Ġguitar ists
Ġcrypt ographic
ĠGra il
ĠPy game
ĠMat ter
ok lyn
Ġscal ar
US R
Ġarr anged
45 8
Ġwind ing
Con f
Ġutil ization
Ġenh ancing
ĠCent ury
iter bi
sm art
Ġindic ator
Ġtour ism
Re ceived
ref erence
ĠSol ve
Ġcraft ed
ĠAct ually
Ġsav ory
ĠTra iling
ĠAg ile
ĠâĪ «
ĠCPU s
Ġpet als
Ġ__ _
Ġalt ru
Ġdecre ases
ĠCalcul ator
Ġhom eless
Ġ199 5
cast le
Ġgrand child
ĠMer ge
Ġcris py
Open AI
ĠTest ing
Ġstick y
Ġvibr ate
Ġvibr ations
advant ages
Ġtow ers
Ġcelebr ation
AB ILITY
Ġtherm ometer
Ġsplit ting
Ġacceler ating
Ġrig or
Gener al
Ġdro pping
Ġelim inating
ĠCopy right
Ġaer obic
Ġfox es
ĠPers pective
fin ity
Ġmeth yl
Ġwis hes
Ġspiritual ity
ĠEns uring
Ġspark ed
Ġamb ient
Ġbelong ings
ĠMult ip
}$ $
controll ers
ĠTom atoes
ĠRPG s
ĠOd in
Ġpartners hips
ĠKn uth
Ġwarning s
Ġfle e
Ġdisappe ared
scrib e
Ġampl ify
Ġampl itude
Ġchlor ophyll
Ġscar ce
ĠChristian ity
ĠCyber security
ĠArab ia
ĠObject ive
ĠConf lict
Ġasteroid s
ĠIM AP
Ġspray er
Ġcheap est
ĠAutom ate
ĠFact ory
Ġretail ers
ĠInteg ration
fm t
ĠZe aland
Ġcompens ate
IV E
Ġsched ules
Ġlegisl ative
Ġcomplement ary
normal ized
ĠChem ical
........ ........
EX T
ĠTele gram
Ġcart oon
Ġdow ntime
ĠFall ing
ĠKar amaz
Ġunicorn s
Ġbarb arian
Ġgam ma
Ġprofic iency
Ġfry ing
Í¬ Ì
Ġcit ations
Ġencl osure
ÍĦ Ì
Ġadvertis ements
ÍĽ Ì
Ġtou ched
Ġwra pped
Ġarth ouse
ĠÐ± Ñĭ
ĠRoss um
ĠWal ter
ĠBuff ett
Ġoffic er
Ġambigu ity
Ġwel coming
Ġshowc ases
Ġdedu ction
FET s
prec ipitation
Ġexoplan ets
Ġslog ans
ĠSa igon
ĠHV LP
Ġscand al
Ġdisgu ised
Ġastronaut s
Ġfizz buzz
ĠSponge Bob
ĠAntarct ica
Under stood
Ġindist inguish
Ġpsychoan alysis
Ġpollut ants
custom er
Ġdepri vation
ĠAtl antic
ĠFault s
sep rite
ĠCell ular
Ġindent ation
ĠMech a
ĠLumin ari
Ġplumb ing
Ġantisem itism
ĠBrag a
ĠKaramaz ov
" },
) \
* ?
* }
+ \
, :
: /
B B
C ome
C opy
C LU
D K
D ER
D ING
E U
E nd
E st
E lements
H uman
H appy
J ust
K E
L ists
L ACK
P R
P erson
P osition
R un
R IGHT
S ty
T n
V ER
W idth
W elcome
W ERT
W riting
] "
b ling
b uster
c akes
d im
d og
d oms
f ine
f old
f iction
k n
k now
l it
l ibrary
n D
r b
s afe
t rim
t otal
u ated
v ise
v anced
v sky
Ã ´
Í ¯Ì
Ġ å
Ġ ðĿĳ
İ ]
Ļ ]
Ľ ×
Ł ï¸
he ll
re lu
Ġs ells
er usal
Ġc um
Ġc age
Ġc av
Ġc uc
Ġc ush
Ġc rows
Ġc ooled
Ġw ast
it cher
en o
is factory
Ġf ist
Ġf actions
Ġo ste
Ġm RNA
Ġb ounty
Ġto ss
al gorith
al oader
le q
Ġin just
st ein
st rokes
ĠI SP
ĠI RS
Ġh Pipe
Ġl ambda
ent ity
Ġre create
Ġre jection
ve ctors
Ġg az
ĠT i
ĠT ag
ĠT ech
ĠT cha
ra re
ot omy
ĠR ising
ut her
ig ious
Ġpro l
el ic
el and
Ġan ts
Ġcon sect
Ġor thogonal
ĠS ci
ĠS everal
ĠS VG
ĠS auerbraten
Ġex its
Ġwh ims
Ġal ly
Ġal right
Ġal ley
Ġal ibi
ĠC M
ĠC red
ĠC lock
ab a
ab lished
um ines
Ġhe ights
Ġv est
ant ly
Ġha st
ore station
est ablished
out ing
ĠP ic
ĠP ain
ĠP oke
pl ier
ĠH ence
ĠH unt
os ome
ĠM I
ĠM OS
ĠM esh
ĠM otion
ĠM aven
ĠM obile
ĠM idsummer
Ġle gends
Ġch asing
Ġch orus
Ġse w
Ġse ctors
ĠW ood
ĠW ave
ĠB et
ĠB ost
ĠB iff
ĠB ureau
Ġnot ification
Ġma sters
ĠD im
ĠD est
ĠD ial
ĠD ays
ĠD rain
ĠD istance
ĠF L
ĠF asc
ĠF yodor
Ġwor n
ĠE yes
ial s
Ġus able
art icle
ĠG irl
ĠL orem
ell es
Ġr anks
Ġk om
Ġk iss
are t
Ġother world
ang led
Ġqu i
Ġqu ir
ĠN intendo
ast y
hat tan
Ġcl ay
Ġtra ject
ap ples
ap oration
ass y
ĠY ellow
ĠY osemite
Ġout we
ram ew
Ġexam ining
Ġdis reg
Ġdis placed
ient o
âĢ į
ari um
Ġadd Button
Ġunder neath
Ġem its
ĠSt an
Ġwork load
rit ish
te ch
ĠV ery
ĠV II
ĠV iterbi
Ġpo ign
Ġra c
Ġdet erg
Ġtr an
ĠK un
tain ed
als a
Ġass ure
Ġcur ated
Ġcal c
Ġreg ulating
Ġmat t
Ġco ated
Ġspecific ation
ef its
Ġret ired
ĠCh art
Ġsub space
Ġref uge
tt ember
Ġsk ys
Ġhand lers
Ġplan ar
Ġmin s
Ġimpro vis
Ġide ologies
Ġ20 77
Ġreal ism
Ġaut ism
Ġla zy
vent h
Ġproject ed
Ġacc ent
Ġoper ant
ĠCon way
ĠCon struct
Ġbefore hand
Ġele ph
Ġconst ell
pro du
Ġfound ing
sc ape
Ġlay ered
ellig ent
Ġcheck er
Ġaff irm
Ġactiv ists
ĠAr ts
Ġdra gging
ĠAss ign
Ġshort cuts
port ed
St ar
St ream
for Each
Ġdel ve
Ġcontext ual
Ġblock ed
Ġsqu ee
Ġpolit ically
word s
Ġhead ache
Ġfre q
js oup
Ġspecial ly
oms ky
Ġbro th
ãģ ª
ãģ Ĩ
Ġmor ph
ĠPh one
ĠChe ese
Ġglo be
ĠCons um
Ġbase ment
Ð¸ Ñħ
Ġrecogn izable
15 3
Ġste pped
Ġpost ure
Ġdam per
Ġground hog
ĠAp plied
Ġnight life
Ġreview ers
ĠGod zilla
Ġprim itive
Ġelement al
Ġadapt ability
log in
Ġcollect ors
Ġauthor itarian
Ġbar gain
AR D
Ġut ilities
RE AD
Ġdom est
Ġsche mes
ĠMan hattan
ball s
Ġimm oral
Ġremember ing
Ġstream er
Ġspread s
ĠPre c
Ġhol der
Ġemerg ent
Ġill nesses
Ġnav ig
su fficient
Ġtheore tically
ĠSw ing
cont rol
Ġdecl are
Ġiter ating
Ġpick le
Ġsty lish
vide o
Ġrepe ats
Ġcollabor ating
Ġpromot ions
Ġfan fic
Ġax es
flow er
,,,, ,,
Ġsympt om
ĠTrans port
Ġscal ed
HT ML
?? ?
Ġdefe nder
off man
Ġstable coins
Ġnews letter
Ġchance llor
Ar r
ĠChrist opher
ĠStud ies
Ġqual ia
Ġrain fore
Ġspl its
Ġparticip ation
Re nder
ĠOff ers
Ġgradu al
ĠMed ic
ĠMed ium
Ġcred ibility
Ġlov ing
ĠPart ner
Ġpen et
ĠId aho
Ġvict orious
Un it
ĠRE PL
Ġliqu idity
ĠEngine er
Ġmir rors
Ġband width
AB ASE
Ġcub ed
Line ar
cra bs
sv g
Ġquiet er
ĠMus lim
Ġeleg ance
Ġcyl ind
Ġdisrupt ions
Ġdefend ing
Ġharvest ed
ĠOpt ional
ĠCor rect
Ġchron ology
({ '
ĠUk rain
seg ment
ii ii
ĠCat al
ĠCa ffeine
Ġpron ounce
Ġbund ling
Ġinsight ful
Ge nder
Ge orge
Ġreplic as
Ã¼r ttember
vi ol
âĸĴâĸĴâĸĴâĸĴ âĸĴâĸĴ
aud i
Ġbench mark
Ġtu ples
Ġvirt ue
Ġtort illas
ĠMc Donald
Ġhex adecimal
Ġstom a
ĠDist ribution
unar ity
ĠUt ah
ĠHealth care
sign al
Ġ[âĻ Ļ]
Ġ[âĻ Łï¸
ĠRad ar
Ġmagnet ism
Ġdiscipl ines
ĠNeural ink
check ing
@@@@ @@@@
ĠNon etheless
Ġjail breaking
Ġprison ers
Ġlaugh ing
Ġadvoc ating
ĠAgain st
ĠHope fully
ĠKen ya
ĠWH ERE
Ġec ological
Ġlung s
Ġphysic ists
watch ing
Ġfrustr ation
ĠPersonal ized
Ġintrig ue
ĠVol ume
yslex ia
Inst all
ĠAuto Hotkey
Ġpump kin
Ġstab ilize
ĠConsist ently
ĠPsych ology
ĠHapp iness
rub bery
Ġlau g
dec ode
Ġje alous
Ġanthrop ology
ht m
Ġcit rus
Ġanarch o
Ġanecd ote
Ġadvertis ement
Ġimpress ions
ĠJung ian
Ġfundament ally
ÍĬ Ì
orig inal
Ġow ning
Ġathlet es
Í¨ Ì
Ġchim ney
ĠLin coln
ĠUs ually
Chat GPT
Ġpreced ing
ĠAgre ements
rene es
Ġfuck ing
Block s
istem ology
Ġevapor ate
ĠGuy omar
Ġbasket ball
Ġvessel s
Ing redients
Ġta vern
Ġdevast ating
ĠMic hel
Ġdeliber ate
Eng ine
ĠStars hip
Ġinpain ted
Ġdiscl osure
ĠVict orian
Ġcroche t
Ġoccas ional
styles heet
Cal cul
Ġturb ines
ĠRab bi
Ġshar pen
Ġsyll ables
Ġthumbn ails
Ġna ive
ikov sky
ĠAdminist ration
ĠCalend ula
ðŁ¤ ĵ
Ġintimid ating
Ġremed ies
Ġchloropl asts
Ġtoile t
ccup ation
ĠLiver pool
call back
cole psy
ĠEncourag ing
Ġlivest ock
Ġprow ess
rosh ima
Ġindistinguish able
CLU DING
erusal em
ĠTcha ikovsky
Ġotherworld ly
Ã¼rttember g
Ġ[âĻŁï¸ İ]
! ')
" `
- \
6 000
B efore
C raft
D b
D ataset
E ffect
G old
H ist
H ood
I ES
L ow
L ocal
M id
M orris
N ext
P ri
P ants
Q I
S und
T est
W as
W eek
Y eah
[ ],
] |
a ft
b t
b x
b at
b ird
b log
b ably
c ru
c ia
c ery
d ws
e ach
f j
f r
f inder
f eed
f aceted
g ive
g ical
j oint
l inux
l anguage
m k
m nt
n ic
n als
r ants
s ome
u rom
u ble
v irtual
v ana
Ä ģ
Í ĩ
Í ī
Í Ĵ
Í £Ì
Í ¥Ì
Ï Į
Ñ ī
Ġ Ì
Ġ Ã©
Ġt ensors
Ġt elescope
Ġa in
Ġa ws
Ġa Ã±os
in ian
in ental
re li
Ġc am
Ġc act
Ġc ram
Ġc ron
Ġc amps
Ġc lown
Ġw ary
Ġw oke
is se
Ġp arch
Ġp ests
Ġf alcon
Ġm uffin
Ġb ull
Ġto pped
Ġd um
Ġd ich
Ġd ressed
le e
Ġin acc
ar on
ar ound
ct x
st all
st ract
ed a
Ġth under
Ġl in
Ġl umin
om a
om orph
ent ext
Ġre q
et tes
il du
im o
Ġg ig
as ian
ĠT ri
ĠT ree
ĠT ob
ĠT rin
ĠT elescope
id al
ĠR os
ig e
Ġst ressed
od ic
Ġan onym
ul pt
ld en
ir vana
ĠS ed
ĠS pl
ĠS av
ĠS ega
ĠS weet
struction s
ad in
ad ays
Ġal le
Ġsu sh
Ġsu icide
ĠC ause
ĠC ris
ĠC arbohydrates
Ġde x
Ġde let
Ġv aping
Ġv apor
ri ver
ant o
th odox
out ine
ĠP E
ĠP OP
pl iers
igh s
ĠH em
ĠH onda
Ġ1 30
Ġim plant
ĠM om
ĠM ode
ĠM ail
Ġch airs
Ġse als
Ġme g
ĠW is
ĠW as
un n
un wrap
ple asant
ĠB atch
ĠD am
ĠD ise
ĠD eltarune
Ġsh rubbery
ĠF F
ĠF ive
ĠF old
ĠF udd
ĠE uros
iv als
Ġen joys
Ġpl acenta
all ows
ĠG ear
ĠL ee
ĠL emon
ĠL IMIT
ell entes
og h
Ġk an
Ġk ann
Ġad orn
ep och
ĠN AT
Ġsc arc
Ġsc ulpt
Ġspe aks
Ġun h
Ġun ited
Ġun stable
Ġun pleasant
Ġdat aloader
ks w
ĠY OUR
Ġout standing
Ġpre defined
end point
Ġtime ly
Ġtime zone
ĠJ un
Ġam eric
Ġover use
com position
ord ered
ub ers
angu ages
Ġap ocalypse
ĠSt ation
Ġsim ulator
Ġbu ildu
ph oria
ise conds
Ġpo ckets
Ġdet erior
Ġplay book
ook ed
ĠAs semble
Ġ' <
Ġinst itution
plic it
tern ity
hes ion
Ġ[ ];
Ġatt ended
ract ice
Ġjust ified
Ġchar ism
Ġ0 7
Ġ0 110
Ġ` $
Ġfl ipping
Ġdist ingu
Ġrem odeling
ĠCh uck
ĠCh omsky
Ġinf ilt
Ġopen ings
Ġmin us
Ġloc als
Ġext rap
Ġ7 4
Ġreal izing
Ġlearn ers
Ġbl ame
ier ra
ĠAl t
Ġdisc ourage
Ġdisc ourse
ĠWe apon
ĠCon volutional
Ġwrit ings
Ġlim er
Ġx orriso
Ġmess y
Ġorder Status
ci pe
Ġbi odi
view s
Ġcost ly
Ġgre ase
Ġgre entext
sh are
Ġcheck list
Ġident ifies
Ġsl aves
Ġquant itative
Ġpolit ician
Ġgl itch
Ġhead line
Ġhead lines
ĠOver flow
board s
the ning
me let
To k
Ġkind a
Ġsal ty
ĠZ oo
ĠZ one
ĠZ ero
Ġgr illed
Ġmo irÃ©
Ðµ Ðº
str ated
ãģ Ł
Ġlast s
++ ;
ĠCl ash
Ġaction able
Ġglo ve
âĢĿ )
ont ology
Ġcoll isions
ograph ics
ĠDis advantages
Ġcapt ions
cious ness
Ġnight s
Ġcru shed
Ġessential s
IN E
log o
ðŁ ı
ĠBl oc
ym pt
Ġpow dered
gest as
Ġvisual izations
RE S
Ġchat ting
ĠNe il
elt ic
Ð½ Ð°
ĠPre fer
IT E
Ġill umin
Ġfine ly
Ġthreat ens
Ġstrugg led
att a
host ed
ĠData Loader
Ġadvantage ous
Ġsubst itution
Ġemphas izing
Ġrespond ed
Ġpurch ases
Ġsty ling
ĠGra d
Ġviol ations
Ġund es
Ġhands ome
ĠPy Qt
ĠPy renees
Ġtun a
Ġmac d
part icles
ĠComm odore
Ġmeant ime
Ġseg regation
ĠTe ams
ĠPe ace
Ġcos m
Ġcos ines
work ers
Ġenh ances
Ġrh ymes
Int roduction
Ġden im
utorial s
Ġfat ty
Ġdepth s
Ġreact s
Ġinstru mental
ĠCent re
Ġaccom pany
iter ate
Ġtend encies
Ġpriorit izes
Ġexternal ities
ĠAct ive
ĠComp at
Ġadventure r
ĠDr ink
ĠDr inking
Ġmill iseconds
Ġclim ax
Ġguess ing
ĠÎ ¼
Ġnational ism
Ġperm issive
Ġgard ening
Ġ! ==
ĠBlack wood
ĠText Field
year ly
ĠForm at
ĠAnt wort
ĠImplement ing
Ġmonit ors
Ġmonit ored
open ai
ĠCre ative
ĠIncre asing
Ġcategor ical
ĠArch im
Ġliber al
Ġjson ify
Ġaer ial
ĠCar ol
Ġupper case
ES R
ĠSte am
ĠPlan ning
Ġdisrupt ed
Ġpropos als
ĠSur round
ĠBen efits
Add ress
Ap ple
Ġchron ological
ĠRec ord
gener ate
Ġpawn s
Ġbelong ing
ĠPat tern
ĠExt ension
const expr
Ġsudo ers
Ġmold y
ĠSir i
ĠChurch ill
Ġmort al
sell ing
sell ator
och astic
Ġtwist ed
Ġfluct uate
ĠMySQL i
gal i
Ġblind ness
ĠJim my
Ġoccup ied
arg on
ĠCount y
ĠPet erson
ĠÐ¾ ÑĤ
Ġinhab ited
ĠMo zilla
Ġattach ment
ĠRepublic ans
Ġhorm ones
Ġdissol ved
ĠAlgorith ms
Ġinstinct ual
ĠScient ific
Ġpenal ties
âĸĦ âĸĦ
ĠAcc u
Ġsquir rel
ĠChem istry
Ġrecy cling
Ġstraw berries
Ġham mer
Ġstab il
van ia
Ġinject ed
Ġspat ula
Ġvamp ires
Ġintim acy
Ð½Ñĭ Ñħ
Ġpse udo
ĠTerm inator
Ġcompost ing
Ġcruel ty
Ġtrustworth iness
MI LES
Ġdistort ed
Ġsurpr ised
ĠWalk er
Ġcounsel or
Ġcontam inated
ĠOrig inal
phen idate
Ġfest ival
ĠTrib al
Ġhaunt ed
Ġhub ris
Ġcommod ity
Ġfrost ing
ĠAgre ement
uter onomy
exec ute
Ġpolymer ization
Ġenerg ies
aaa ark
Ġexacerb ate
ĠJo ining
Ġroller bl
ĠPra ger
ĠStruct ured
Ġpon ens
Ġ#### ##
Ġsarc astic
Sm iles
ĠCreat or
Ġmacronut rient
Ġrib bon
Ġende av
Ġincompat ible
Ġabbre vi
ĠHarb or
ĠNar uto
×¨ ×
ĠRoy ale
ĠRus sell
Ġscram bled
ĠSpir it
ĠHoriz ons
Ġmetall ic
Ġknuck les
ĠDisp ater
Ġruth less
morph ism
Ġtogg le
Ġinterven e
Sty le
ĠPoke mon
Ġlaug hed
Ġparch ment
Ġsush i
ellentes que
! ');
( ['
) -
+ ;
+ ),
. ?
: ;
: ")
< >();
? ".
A H
A LE
B er
B ot
D M
D eterm
E arth
F W
J ump
O ther
O UT
P ret
S earch
T em
T ake
V is
[ :,
a que
b es
b ital
c ategory
e an
f alse
f amily
g ly
g ian
h alf
h olds
i op
j q
k o
l ord
m ith
p ac
p arser
y ms
¾ Ì
Í ª
Í «
Í Ī
Í ĸ
Í ªÌ
à ¯
á ŀ
Ġt an
Ġt asting
Ġa us
in em
he avy
re present
Ġs age
Ġs orcerer
Ġs perm
Ġs alsa
at isf
Ġc aches
Ġw asted
it ant
it ance
it ates
en os
is en
an se
Ġp ants
Ġp orn
ing ing
Ġf ue
Ġf oes
Ġf right
Ġo l
Ġb ent
Ġb ay
Ġb ills
Ġb ait
Ġb orders
Ġb icep
Ġd t
Ġd if
Ġd ome
Ġd umbbell
Ġd uality
Ġd ancer
ar oni
ĠI A
Ġh ind
Ġh ints
Ġl b
Ġl ith
Ġre vel
Ġn ano
Ġn unc
Ġn icht
il ight
Ġg ru
ĠT I
ĠT r
ĠT ric
Ġbe am
Ġbe gun
ch ord
ĠR ole
ut ed
Ġst akes
Ġst eeper
if ter
ĠIn ner
ĠA ugment
ĠA ria
ĠA seprite
ĠA QI
ver ting
ver ted
od us
ur ated
ke ep
ĠS ide
ĠS ys
ĠS ources
ĠS olution
ĠS audi
Ġex pend
Ġal monds
ĠC A
ĠC ab
ĠC elebr
ĠC IA
ist ence
ere nd
ere au
ĠP redict
ĠP LC
ĠH ut
ĠH ind
ĠH und
ĠH ugging
ĠH odge
ĠH offman
Ġ- --------
ĠM uch
ĠM IT
ĠM ario
Ġle ct
Ġle ague
ĠW a
ĠW ake
Ġ( âĢľ
ple x
ĠB ound
ĠB owl
ĠB ukkit
Ġnot ify
ĠD ost
ĠD arth
ĠD ora
Ġsh ag
Ġsh ines
ĠF er
ĠF lex
ĠF amily
Ġwor ries
ĠE uro
Ġen v
Ġab dom
ical ism
art e
ĠG C
ĠG D
ĠG reg
ĠG Ã¼
ĠL unar
og y
Ġimp aired
act ly
ĠO at
ag ascar
Ġres izing
ang l
ang Chain
form er
ep hy
Ġqu o
Ġqu it
Ġwas her
ie ndo
vel t
ĠN ut
ĠN QR
ost henes
Ġsc oop
Ġspe nds
Ġmod ems
Ġany body
Ġun even
Ġun realistic
ĠU mi
Ġac orn
Ġtra ction
Ġtra ded
ass ium
int age
Ġout perform
Ġout liers
Ġcomm a
Ġprov ision
Ġthem ed
ĠJ r
Ġall iance
ari os
Ġsp y
con v
ak i
Ġinter change
Ġinter pol
Ġinter personal
Ġunder t
ree k
ĠSt ret
Ġset Interval
Ġph p
Ġrel ating
Ġstr anger
Ġpo cket
Ġra z
Ġdet achable
ĠK an
ĠĠĠĠĠĠĠĠĠĠĠĠĠĠĠĠ ĠĠĠĠĠĠĠĠĠĠĠĠĠ
Ġ' @
Ġlist View
Ġcur ry
Ġcur ric
Ġatt itudes
Ġco ach
Ġco ating
Ġ` "
Ġret ro
Ġfile dialog
Ġsub process
Ġsub mission
Ġref ract
Ġref ined
Ġref ining
Ġinf lict
Ġinf ected
ĠRe x
Ġdec oration
Ġ20 50
Ġ10 1
Ġincre ments
hed ral
rain er
ĠUn it
Ġ19 41
Ġoper ated
ĠCon c
20 1
Ġfree ing
Ġtem ples
Ġindividual ism
Ġsw elling
Ġsw apped
Ġair port
Ġpract iced
Ġ/ \
Ġanal ys
Ġconcept ion
ĠCom par
ĠCom pose
Ġpass enger
oot er
oose velt
Ġz oning
ĠQ WERT
Ġsl a
Ġsl udge
Ġinstall s
ĠSh or
for ge
Ġinvest igating
az a
Ġmarket places
Ġmathemat ically
Ġnote book
ĠSc iences
ĠSp in
Ġworking s
Ġtre asury
19 99
Ġcr ashes
apt ic
ĠShe et
ãģ ¦
Ġfore ach
++ :
Ġaccount ing
Ġrad i
over flow
col lection
Ġenjoy ment
Ġfar ther
Ġfar ms
Ġstay ed
Ġexec utes
Ġprob able
Ġcaus al
Ġ18 00
Ġpost ing
Ġarch ive
Ġbra nding
ĠAp plications
ĠGod dess
go vern
ĠCal vin
Ġ200 3
Ġadapt able
Ġver a
ĠCol omb
ðŁ ĺ
---------------- -|
Ġâ Ļ
ĠEl mer
ĠLe ave
ĠInt erest
add y
Ġtransl ator
Ġmis inter
Pro cessed
Ġemb odies
RE T
Ch oose
Ġcook ware
Ġimag ined
17 3
17 89
Ġflu x
ĠPre m
Ġur ge
ele ments
Ġmut ually
ĠRed ucing
ĠCont ro
ĠCont inental
ĠAll ied
Ġmention ing
ĠGet tys
Ġparent heses
Ġmode led
ĠFe atures
100 000
Ġdead line
Ġviol ates
oe ing
des cript
ched elic
~~ ~
Ġcamp us
OR M
vas ive
ĠVis a
Ġstra nded
IM ARY
work er
ĠMin i
Ġri pen
Ð°Ð ¿
Ġdepth Map
Ġreact ive
Ġmother s
Ġbutter flies
Ġhypot heses
Re quest
PE G
Ġabst ractions
De bug
De uteronomy
rol ley
Ġconduct ive
Ġconstruct ing
def ine
ĠPract icing
mod ern
ĠUp gra
ĠRun ner
Ġbank rupt
Ġupload s
Ġupload ing
CE SS
pir ation
ĠComput ing
ĠUni verse
gu ereau
)^ (
ĠÎ ±
Ġflavor ful
Ġpen is
Ġ198 9
Ġtown s
equ ation
Ġcert ification
Ġconcise ly
Ġgrid dle
Se ems
Ġpull s
ãĤ Ĭ
ãĤ Ĵ
ĠTechn iques
Ġsell er
Ġbact erial
ĠRef lect
Ġcalm ly
Sc ore
Ġspell caster
Ġpursu ed
direct ories
And alus
Pr att
vis or
Ġ× Ķ×
ĠRob otics
Ġfirm ly
Ġforg iveness
ĠNP R
Ġinstrument ation
ĠLeg o
Ġsufficient ly
Ġpal ette
ĠNether ite
sl ice
ĠMad agascar
ĠBro oklyn
Ġsexual ity
config uration
ĠDem on
Read er
(((((((( ((((
Ġscroll ing
Ġinterrupt ing
ĠCro che
ĠCour sera
ĠInc as
IL ON
Ġcinem atic
ĠFunction al
ĠÑ Ĩ
ĠMarx ist
ĠCyber punk
Ġinqu iries
Ġcorrel ations
ĠIndust ry
comput er
ĠBad en
Ġmetab olic
ĠInteg rated
ĠHi roshima
ĠMil ky
ĠMil itary
Ġec umen
Ġalphabet ical
ĠVari ables
Ġparry ing
Ġoct ave
ĠExp ansion
Ð³ ÑĢ
Ġinval uable
ĠPR D
ĠPR IMARY
Ġsubtract ing
sty rene
Ġfertil izer
Ġadministr ative
Ð¾ÑĤ Ð¾ÑĢ
Ġmisunder standing
Ġcros sed
isp here
secut ive
ronut rients
Ġsett led
ĠKNIGHT S
dig it
ĠComb ine
develop ed
fizz buzz
Ġdepos its
ĠInfin itesimals
Ġphotograp her
Ġambigu ous
Ġnit rogen
ĠCertain ty
Ġbare ly
cred entials
Ġaggreg ate
Ġranking s
Ġunderm ine
Ġassass ination
Ġneglig ible
Ġdens er
Ġmand ate
Ġearning s
}` );
ĠCollabor ation
mac d
ĠSas anian
Ġsupercomput ers
ĠArm strong
lins pace
neg ative
Ġreprodu ctive
Ġarchae ological
Ġcomed ic
ĠCorn ell
ĠHig her
correct ing
Ġkraaaaa aaaa
Ġmetagen omic
ĠAlexand re
Ġresemb les
Ġrecre ational
Ġuncon ventional
ĠChann els
Ġbron ze
ĠHeli os
Ġseaf ood
ĠLind y
Ġanten na
Ġcha otic
Ġmilest ones
ubercul oid
Ġconsect etur
ðŁ¤ĵ ðŁ¤ĵ
Ġinacc uracies
ksw agen
Ġbuildu p
Ġbiodi versity
ĠAccu Weather
Pret end
ĠGettys burg
# .
' ?
) }{
* ;
, -
, ...
: "
= -
> )
A Q
A WS
B D
B V
B atch
C y
C hem
F all
F ound
F EM
G n
K ing
M ay
O C
O PT
O rient
O USE
P Y
P lay
Q N
R ow
R OR
S ize
T k
T ests
T otal
W F
W orks
W Ã¼rttemberg
a ways
a uses
c pay
d les
d ark
e er
e valuate
e conomic
f en
f ried
g all
g ames
h ub
h iker
l ian
m ag
m ovie
n as
n est
o ft
p ick
p ragma
s ame
s ync
s rc
s lightly
t rusted
u ity
v oid
w as
z le
{ "
} '
Í £
Í ¦Ì
Í ľÌ
Í ĤÌ
Í ĢÌ
Í ¡Ì
Í ¢Ì
Ġ Ę
Ġ ÂłÂłÂł
Ġ ÂłÂłÂłÂłÂłÂłÂł
Ġt ame
in ned
in fl
re y
re action
Ġthe olog
Ġs ighed
at ows
Ġc er
Ġc her
Ġc ue
Ġc ob
Ġc elsius
Ġw er
Ġw id
an ol
ing o
Ġf s
Ġf oo
Ġm g
Ġb unk
Ġb ounce
Ġd ad
Ġd op
Ġd ass
st ud
ro c
ed om
ĠI TP
ĠI Base
Ġth rust
Ġth riving
Ġe gestas
Ġl ent
om ing
ent a
Ġn ausea
ve rest
il st
Ġu Wu
ow att
ĠT oo
ĠT arget
ĠT uts
ĠT ierra
ra pe
ra ster
ly s
ch illing
id body
ĠR ever
ĠR ules
ig eria
Ġst al
Ġst ole
Ġst amina
ĠIn sert
ĠIn ventory
ĠA id
Ġas p
Ġas ympt
ul ia
ul ators
ur ons
ĠS ent
ĠS ep
ĠS ynt
ĠS creen
Ġex empl
ad ence
ĠC F
ĠC el
ĠC ase
ĠC ult
qu es
Ġde all
ist ed
Ġhe m
th ree
ĠP or
ĠP ier
ĠP oly
ĠP OD
ĠH yd
ĠM ock
ĠM oving
ĠW OR
ple ndor
ĠB ir
ĠB os
ĠB ark
ĠB io
ĠB ott
ight y
Ġma uris
Ġma fia
ĠD W
ĠD ust
ĠD OM
ĠF ix
ĠF uego
Ġwor sen
ĠE sk
Ġab used
Ġint act
Ġint ens
res ource
res co
ĠG ins
ĠL ost
oc ode
Ġr aspberry
Ġk et
Ġk ale
cl icking
Ġcomp ose
ĠN ick
ĠN SA
ĠN orris
ĠN irvana
Ġcre ep
ans om
ans hip
Ġ3 75
Ġmod ulation
Ġun cle
Ġun rest
Ġun matched
Ġman euver
Ġtra cing
ap se
ap sed
ass idic
Ġar med
ip ation
Ġro am
end ant
ĠJ erusalem
Ġdis par
Ġall oc
Ġdes olate
ail ing
âĢ ³
Ġover se
Ġover fit
Ġsp i
Ġsp inal
com ponent
ord on
ord inates
ft p
con n
Ġ4 1
Ġ4 000
Ġem pathetic
ĠSt ick
Ġ5 12
Ġpe ar
Ġget Service
Ġrel uct
ĠV ill
ĠV ite
ĠV ader
ĠK id
ĠK ne
Ġtw ists
ov ies
Ġass erts
Ġperson a
Ġreg istry
Ġgood ness
Ġ0 1
Ġrep ublic
.. ,,
Ġtext book
Ġrun ny
Ġgra ys
Ġsk ate
Ġback ward
eng es
Ġclass mate
Ġfil enames
Ġdon ations
ron ic
Ġpol ished
Ġtyp o
ade qu
ric a
Ġterm inate
Ġproject ile
Ġsur pass
Ġ8 8
Ġ19 64
Ġcar riers
Ġhard ly
Ġdisc ern
ext end
ĠWe ek
Ġbre aches
ĠCon versely
ec ake
ĠAnd y
Ġmon opol
Ġed gy
pro t
ĠDe composition
Ġprot ons
Ġest e
ĠCom pare
Ġgre eted
Ġpersonal ize
ĠIs lands
Ġinc ap
ĠAr den
Ġconc ert
ĠDo ing
par ameter
Ġcorrect ness
St ay
pre trained
Ġpa ws
Ġwar ping
Ġhy p
ool s
Ġgl ands
ĠSc an
pri v
ĠSp an
Ġappe ase
hor iz
Ġtre m
AI D
Ġapproach ing
Ġpast ry
Ġ: ,
Ġgr ids
Ġcr Ãª
Ġpath ogens
Ð° Ñģ
Ðµ Ð´
Ġsuper vision
Ġmass age
Ġexplore r
ĠPh aul
Ġcrit ique
ON T
col m
col ored
12 8
Ġbrain storm
Ġpredict s
Ġ12 00
Ġfig ured
itch hiker
ung lasses
Ġroom mate
Ġanaly sts
Ġassoci ative
Ġsequ el
Ġdeb ts
IN PUT
Ġconsequ entialism
Ġexplan atory
ðŁ Ĵ
Ġcollect s
sp ring
Ġheav ens
ym ph
Ġdream ed
ĠBrit ons
aa S
Ġchat GPT
elling ton
Ġ% }
Ġworth y
âĸĴ âķ¢
Ġinnov ate
rupt ed
Ġbud dy
Ġmut able
Ġmut ex
ĠMod ulation
Ġpsych ologists
Ġparent hesis
Ġpoly styrene
hent ication
Ġexecut ives
Ġdemonstr ators
Ġsil k
Ð» Ð¾
Ġviol ation
oe vsky
rack s
ĠInter active
'] .
Ġkil owatt
que z
Ġinfluen za
Ġvill ain
Ġmal t
--- +
Ġden y
Ð°Ð ·
sm ile
Ġwild erness
200 7
Ġhyd ration
Ġcro pped
De cl
ĠAct ix
ĠComp an
Ġreb oot
Ġestim ating
Ġfamiliar ity
coin base
Ġble nding
Ġstri king
ĠChar acters
Ġclim bed
ĠTV s
ĠID s
Ġdeploy ed
cal c
Ġuns afe
ĠPart icipate
section al
ĠFind ing
print f
ĠAtt ach
Ġtele commun
ĠUnder stand
equ al
Ġdu ct
Ġkid neys
ĠForm al
PL I
Ġsem antic
Ġvan ity
={ {
Ġhop es
Ġcategor ize
ĠTechn ical
Ġisol ate
Sc ene
Ġcontradict s
Ġcontradict ory
âĶĢâĶĢâĶĢâĶĢâĶĢâĶĢâĶĢâĶĢ âĶĢâĶĢâĶĢâĶĢ
ĠCommun ism
ĠBre aking
Ġuna ware
vis ible
Ġwat ts
ĠSte el
Ġinterview er
ĠDep ot
ses sed
ĠSal es
ĠCor por
Ġsen ator
Qu ery
Ġphr asing
Ġspect ral
DE ST
ĠMad rid
Ġscreens hot
ĠGen etic
Ġmort ality
ãĢ ģ
Ġretain ing
std io
ĠInte ger
ĠLog ic
Ġcultiv ation
ĠFre qu
ĠMal colm
Ġtyped ef
ĠHelp ful
Trans late
Ġgro ceries
Ġgro cery
New Int
Ġnarr ator
,,,,,,,, ,,,,,,,,
Ã¨ s
Ġeast ern
Ġconj unction
Ġprefix es
ĠSche iner
Ġfirewall s
Ġrefresh ing
Ġcorre ctions
Ġforecast s
ĠSud eten
ĠOdysse us
:::::::: ::::::::
Ġrend ers
Ġrend ered
)} _
HH HH
UN CTION
Ġfisher ies
ilant ro
Ġspan ning
Ġveter inary
Ġmineral ization
Comm and
Ġcontam ination
Ġpued e
ĠCON T
Ð¾Ð³ Ð¾
iy ama
ĠOrig in
chem ical
Ã¤t zle
win ning
Ġfest ivals
Ġwand ering
spread sheet
Ġoffic ers
ĠAppro ach
Ġsuffix es
Ne oX
rav iolet
ĠFeed back
pert ure
ãģ¾ ãģĻ
Ġgor illas
Ġsweep ing
Ġphysi ological
Ġdeadb olt
ĠCert ified
Ġturp entine
ĠRecogn ition
Ġisot opes
ĠTik Tok
Ġimmig ration
Ġdub step
Ġmaj estic
prob ability
Ġperf ection
ĠAthen s
Ġembra cing
ĠInnov ation
ĠJed i
Ġcolossal ai
Ġrecess ion
Special Renderer
Ġpier cing
ĠOpportun ities
ĠValky ries
ĠAssoci ation
ĠCompet ition
Ġdownt urn
Ġware house
Ġwhites pace
techn ical
Hum ans
ĠAlf red
ĠCommer cial
Ġpizz as
Ġdeno ising
Ġintrins ic
cycl op
Ġunexplain ed
Ġmethyl phenidate
ĠBost on
Ġbargain ing
Ġrainfore st
viol ent
Ġdex terity
ĠDise ase
ĠFF mpeg
Ġscarc ity
ĠBloc cpay
ĠArchim edes
ĠHut u
ĠHind u
ĠDost oevsky
ĠGÃ¼ ven
ephy r
ĠPhaul kon
" ].
# /
# :
# ?
) **
+ ?
/ \
/ {
? !
A wesome
B N
B it
B en
B est
B ron
B arb
E very
E uropean
F l
F rak
G AN
H as
L AR
M B
N F
O pt
O ff
P arser
R o
R est
R ight
R ank
S heet
S ELECT
T OK
U RE
W R
b c
b our
b ank
b ula
b ecause
c n
c old
c ulture
f a
g iving
h arm
i ago
j e
j amin
k ers
l lo
l inking
m erg
m ann
m aze
m oving
n bsp
o oth
p he
r ative
s av
s ided
t it
t ight
t ens
t own
u ating
u fficient
v ard
w ind
y y
| \
} ')
} }:
¨ Ì
Â ķ
Ä Ļ
Í ©
Í ĭ
Í ¤Ì
Í ŀÌ
Ï Ĩ
â ģ
Ġ ÑĢÐµ
ļ âľ¦
Ġt ut
Ġt ails
in ite
re verse
Ġs orrow
Ġc d
Ġc Ã³
Ġc ilantro
or able
ou b
Ġw r
Ġw ool
Ġw att
it in
en ic
en ides
is cing
Ġp int
Ġp orous
Ġm age
Ġm all
Ġm artial
Ġb es
Ġb id
Ġb uns
al d
Ġd awn
Ġd odge
le igh
se x
st ellar
ĠI ch
Ġth icken
Ġh ats
Ġl ymph
Ġre plicated
Ġn i
Ġn ets
ve c
Ġis o
im ental
ĠT EXT
Ġfor tune
ce llent
id el
ru bs
ol ation
ol ini
ation ally
ĠR ect
ĠR iding
ĠR SV
ĠR oosevelt
ig ms
Ġon click
ĠIn ns
ĠA A
ĠA ce
ĠA ges
od ily
ĠS ize
ĠS aur
ĠS VM
ĠRes ources
ĠC ape
ĠC raw
ĠC hess
ĠC eltic
ĠThe m
ers onal
Ġde eds
ist ication
ess ori
Ġv ines
Ġv intage
ri ke
ant ern
th an
th ood
est hetic
op ods
em ia
ĠP a
ĠP ew
ĠP erc
ĠP NG
pl oys
ĠH z
ĠH ug
ĠH oust
ĠM other
ĠM uss
ĠM AT
ĠM iam
Ġle ap
Ġme iosis
ĠW es
ĠW ax
ĠW alking
ĠW AR
ĠW EF
ĠB ry
ĠB ard
ĠB read
ĠB Ã©
ĠB aaaa
ĠB illy
us da
rom eg
iz oph
ĠD Ã¼
ĠD urs
ĠF abric
ĠF ruit
ĠE sp
iv ar
iv ism
Ġab normal
Ġint ro
and y
Ġus ability
Ġ2 40
ĠG ian
ĠG arc
ĠL ate
ĠL ake
ĠL elli
ĠTh read
Ġr m
Ġk ings
Ġad verse
ĠO w
ind ices
ff ff
form ity
Ġcomp ares
ĠN ich
ĠN ik
ĠN uclear
ans w
Ġj ung
Ġj argon
Ġany time
Ġcl og
Ġcl oned
Ġun help
Ġun common
Ġtra ct
ac r
ac us
ap ital
Ġout break
ip iscing
Ġcomm ission
Ġprov isions
Ġdis m
Ġdis connected
Ġdis miss
Ġper ovskite
Ġsystem atically
Ġover ride
Ġsp ans
Ġsp elled
au g
Ġunder go
ne ctions
ĠSt ory
Ġnum bered
Ġpart itions
Ġpe anut
Ġval ve
Ġdifferent iation
Ġbu oy
rit ory
ia cese
Ġinv ading
ĠV ien
ĠV EX
Ġform ulated
Ġra ge
ĠK y
ĠK od
ĠK riya
tain ing
Ġworld view
gg er
Ġstart ups
Ġass ault
Ġquest s
Ġchar ity
Ġchar gers
Ġ0 9
Ġwell ness
Ġtrans fers
ays ia
Ġhigh way
Ġag itation
Ġche fs
Ġrec ruit
ĠCh assidic
Ġsub directories
Ġref uses
Ġref inement
Ġref erend
Ġsign atures
Ġgra dle
Ġsk ipping
Ġback ing
Ġback ups
fore seen
Ġpop up
Ġpop ulated
Ġcor ros
Ġloc om
Ġdown ward
Ġimpro per
Ġmed ian
Ġexp oses
Ġext rem
Ġgu est
Ġins ufficient
ĠAn at
Ġmult im
Ġmult itude
Ġaut umn
Ġconf use
Ġconf idential
ex it
ex ists
Ġsur gery
ĠUn ique
ĠUn less
mat hemat
Ġca vern
Ġca ffe
ier t
cul us
Ġ19 00
Ġ19 20
Ġ19 39
Ġele v
Ġcle ans
." ""
Ġgreat ness
Ġhapp ier
Ġmet ropolis
Ġed ition
Ġprof iles
ĠEx it
ĠEx ar
Ġsw ay
Ġsw ear
Ġblo ated
pro cessed
(" #
(" %
li pping
ger ia
ĠBut ter
Ġbi ome
ash i
ins um
sh ift
Ġ9 5
Ġsaf est
ĠQ ual
Ġintern ship
Ġsl it
ĠSh ift
ĠGo als
pre hen
Ġpa w
Ġpa ired
Ġwar n
Ġtri ple
Ġtri ps
ĠPl ants
ĠX P
ĠX TX
ĠX VI
Ġhead set
erc ard
ĠSp r
Ġrepresent atives
co at
back ward
Ġsal iva
ĠZ ip
Ġcr ashed
Ġaud it
ĠBe ef
Ġpres idential
ãģ «
Ġhome owners
bal anced
Ġcard stock
Ġĉ Ġ
Ġfore x
ĠFin ish
col lect
umn av
Ġeth ic
Ġvalid ated
Ð¸ Ð²
enc oded
Ġassist ing
Ġcoll ateral
Ġphot on
Ġdr ill
Ġfig uring
empt s
15 9
Ġadjust ment
Ġbit coin
Ġpay ee
Ġintrodu ctory
ĠAp hex
ĠNew ell
Ġant icipate
Ġselect s
ĠAt om
ĠAt omic
IN DOW
') (
Ġsepar ates
Ġtreat ies
Ġred emption
Ġsn ail
Ġlat itude
Ġmar ble
Ġwa ist
Ġbar ista
Ġdetect s
Ġhistor ian
add les
Ġut ens
ĠNo ble
Ġter restrial
ĠMon k
Pro xy
Ġvisual izing
ĠPer cept
Ġdistribut ive
ĠPre vent
gra vity
Ġcross linked
Ġcross linking
Ġded uce
Ġlisten ed
ĠSw allow
ĠDevelop ed
ĠMe et
Ġcrypt o
EN N
ĠGra vity
amb oo
Ġspir al
ET H
Ġking doms
ĠSQL CO
ĠSQL STATE
ĠTrans late
Ġstar vation
top ic
ĠPol icy
Ġtun ed
ĠGu ard
ĠOut line
Ġdry er
Ġbur sts
Ġcos ine
off set
Con st
Ð°Ð ²
Ġbul lets
ĠStud ent
Ġqual ify
ĠAc ademy
ĠGerman ic
ĠEU R
Ġtour nament
OM E
main tenance
Ġcraft sm
Ġparad igms
Ġsyn ops
TH ER
Ġple ased
ĠCO L
Ġcompar isons
Ġsummar izing
Ġine qu
Ġboot able
Ġcommer ce
no ise
Ġcontract ors
Ġthick er
Ġdecre asing
En viron
ĠAtt ention
Ġentertain ed
Ġconstra int
Ġconcent rate
ĠRE AL
proper ties
erse y
enn ium
ca ption
Ġparadox ical
Ġcelebr ity
yl um
ĠWhe never
under stood
bru ck
Ġrecur sion
ĠEst imate
aph son
Ġelim inates
Ġworry ing
Val id
Ġcrim inals
Ġ× Ĳ×
ĠMart ian
math cal
ĠAddress ing
Ġtrib al
ĠSn ake
ĠSur ve
ĠNP M
CH ATFS
ĠAB I
Event Handler
Ġspark ling
Ġdot ted
Ġexplo iting
Ġcocon uts
Ġnar colepsy
Ġsoph istication
ĠMount ains
vo Frak
Ġtick er
ĠCap ac
Ġamaz ed
ĠRel ax
ĠRel ativity
Ġshel ves
Ġmargin s
ĠElectron ic
Aut hor
Ġhonest ly
Ġell ipse
Ġvirt ues
ĠOper ation
Ġpartners hip
Ġjournal ist
Ġconfirm ation
Ġfle eting
ĠCour se
Ġcere mon
Ġbomb ing
Ġtwist ing
Ġbrush ing
Ġanalog ies
Ġkick ed
ĠSl ack
Ġpictures que
sim ple
ĠAutom ated
Ġpir ates
Ġdraft ed
Ġproceed ing
ĠJoe y
FA CE
Ã¨ re
ĠPath finder
Ġdent ists
Ġlung es
Ġpool ing
ĠSky rim
ĠSky walk
Ġtempor al
âĪ Ĵ
ĠHard ware
Ġreson ance
ĠMean ing
Ġdistur bing
ĠStream ing
IO Exception
RT C
Ġfem ales
Ġpus hes
ĠðŁ¤ ļâľ¦
ĠSant iago
ĠNav igate
Ġsynthes ize
Ġpunish ments
Ġnick name
ĠParm enides
Ġcounsel ing
orig in
Ġhur ric
Ġlac unarity
Ġdele ting
Í§ Ì
Ġhaunt ing
Ġesp ionage
Ġathlet ic
Ġdys phoria
Ġconfront ation
Token izer
nut rients
ĠWoooo oooo
ĠBou guereau
ĠJoh ann
ĠJoh anna
ĠPhil ip
Ġimmut able
ĠBrazil ian
ï¼ Ł
cred ited
Ġshowc asing
Ġinconsist ent
Ġinconsist encies
pine apple
Ing redient
Ġpyramid al
ĠLac anian
colors cale
Ġdeadb olts
Íĳ Ì
enable d
ĠNE ED
ĠPrior itize
ĠNov a
Ġimbal ances
ĠGMO s
Ġpseud ocode
Ġpsy chedelic
ĠMast ercard
ĠDire ctions
Ġmagaz ine
Ġreun ion
Ġritual s
ĠNeg ative
Ġcancell ation
Ġneuropept ides
Ġdemocr at
ĠTherm odynamics
ĠCU DA
ĠPill ow
Ġintros pective
Ġdisp atch
ĠInterview er
similar ity
ĠSecret ary
ĠPant heon
ĠNAD PH
Mach ine
ipot ent
jour ney
laugh ing
Ġannot ations
Ġembarr ass
ĠINTER FACE
ĠOx ford
Ġsoyj ak
Cred entials
Ġpiv ot
iavel lian
Ġdrast ically
Enc oder
ĠArchitect ure
ĠÑĢÐ°Ð ·
Ġbom bs
ĠThan os
Iter ator
Ġillum ination
Ġtran qu
ĠUkrain ian
ĠCris is
ĠCelebr ate
ĠColomb ia
Ġecumen ical
ĠGins burg
TOK EN
ĠInns bruck
ĠSaur on
ĠHoust on
ĠMuss olini
ĠMiam i
romeg aly
Ġunhelp ful
ĠSQLCO DE
ĠSkywalk er
" ))
" />
+ )
+ ,
/ ).
9 00
= ['
B R
B o
B ar
B ah
C LI
D ist
F riend
F rench
H ash
L inks
M a
O ware
O RE
R aphson
T L
T ensor
T oday
U F
V C
V im
V ol
W ar
Z ZA
b id
b oy
b ases
c art
c orn
d n
d am
e pt
f requency
g lobal
g Dou
h ig
h int
h ave
h idden
i per
i eren
j ack
l oss
l vania
m olecular
p d
r anging
s ay
s ample
t n
u ates
u ples
v c
v itable
w ait
w orking
y label
z o
} );
© ×
Í Ń
Ñ Ħ
Ñ ĳ
Ġt i
Ġt am
Ġt amed
Ġa fore
in itely
he ng
on ies
re ction
re pos
Ġthe ology
er in
Ġc ous
Ġc aves
Ġc ele
Ġc ada
es ity
or p
Ġw re
Ġw ired
Ġw ires
Ġw itches
Ġp as
Ġf ines
Ġf ade
Ġf ills
Ġf auc
Ġm v
Ġm ul
Ġm uc
Ġm uff
Ġm sg
Ġb izar
le ys
Ġin cur
se a
se m
ic us
st ime
ed u
Ġy er
Ġy ard
Ġh ues
Ġh over
Ġe X
Ġl ur
Ġl uminosity
Ġre ar
et ism
il k
il ia
im p
im mer
im press
Ġg a
Ġg ist
as ions
as ons
ĠT ests
Ġbe verage
Ġfor ge
ot ism
ot ional
ĠR O
ĠR aven
Ġon Drag
Ġst ern
Ġst ray
if er
ĠIn ternal
ĠA qu
ĠA ble
ĠA RE
Ġan ew
Ġcon cluded
Ġcon secutive
ur b
ge ist
ir ates
ĠS ou
ĠS pect
ĠS ER
ĠS ession
ĠS outheast
pe as
ĠRes olution
ĠRes erve
ad der
Ġal s
Ġal uminum
Ġsu ms
ĠC ra
ĠC ub
ĠC ler
Ġde ez
ist ing
ab i
ab riel
em os
ĠP ru
ĠP ul
ĠP ope
ĠP df
ĠP aint
ĠP assword
ĠP okÃ©mon
ĠP uppy
pl us
pl anned
ment e
ĠH ack
ĠH av
ĠH orn
ĠH arr
ill ation
ill ary
Ġim itate
ĠM ond
ĠM ah
ĠM illion
ĠM ission
ĠM essage
ĠM elon
ĠM BT
ĠM AX
ĠW E
ĠW in
ĠW ere
ĠW right
ĠW ireshark
ĠW itcher
ĠW ellington
un es
un ned
ĠB ed
ĠB ert
ĠB oolean
ĠB voFrak
rom at
Ġma ple
ĠD C
ĠD FA
ĠD nD
ĠD ENN
Ġdo e
ĠF onts
ĠE ase
ĠE fficiency
our gu
Ġpl ugged
ĠG tk
ĠG nome
ĠG ordon
ĠL es
ĠL ions
ĠL iter
ĠL ocation
ĠL anc
ĠL ocated
oc co
ĠTh ought
Ġr b
Ġk not
Ġad versity
Ġad ipiscing
Ġimp osing
Ġli ps
ĠO culus
Ġcont ours
ag a
Ġres izes
form s
-- |
so ver
ie ves
vel ocity
ĠN f
ĠN OW
gh an
Ġsc are
Ġsc ary
du ate
Ġmod em
Ġmod ulated
Ġcl auses
Ġun related
Ġun structured
Ġhas hes
ac s
int uitive
Ġar throp
Ġar rested
ip edes
Ġro pe
Ġev aporation
Ġpre dis
Ġpre processing
Ġtime frame
ĠJ oan
ĠJ ersey
Ġexam ines
Ġdis ks
Ġper o
Ġfun g
Ġdes perate
ail ability
Ġam ple
Ġsp acing
com ment
com ings
Ġinter tw
Ġadd r
eth oven
Ġem power
Ġem ploys
Ġapp rent
Ġ{ \
Ġob sessed
te en
get Service
row th
Ġinv asions
Ġfol ks
Ġno on
Ġtr ash
What s
Ġvari ability
ĠK at
ĠK ings
ĠK iana
Ġsm iling
Ġwhere in
cur sor
Ġtw ister
Ġdef ect
Ġtechn ician
Ġcomple teness
Ġreg ain
Ġ[ ...
ĠFor ward
Ġchar m
Ġtrans cript
Ġfirst Name
Ġ6 1
Ġfl ick
Ġfl oral
Ġwere n
Ġsa ut
Ġbuild er
Ġfact ored
ĠRe commend
ĠRe ason
Ġclass ifiers
Ġlight bul
Ġdon ating
ien ced
Ġexp iration
** *
Ġwater y
Ġconf ection
ex c
vent Default
ĠUn its
Ġacc ents
Ġbl ast
ĠAl i
Ġfin ishes
Ġ19 75
Ġ19 78
Ġcar n
Ġhard ships
Ġday time
ĠPro du
ĠPro blems
uc ent
Ġlo ver
Ġtem p
Ġbelie ving
Ġrese mble
ĠEx cess
ĠEx posure
Ġpri ze
ock s
ock ets
here nce
__ _
Ġorder ing
ĠCom ponents
de b
Ġgeneral ized
Ġcost umes
Ġdem ean
Ġz e
Ġz op
ĠQ File
Ġident ification
Ġshort en
Ġshort age
Ġrequest ing
Ġlit ter
ĠSh ang
ances co
pre ventDefault
ember t
ĠSe ed
Ġtri vial
oun cing
Ġpack ets
ĠEng aging
Ġview point
Ġsun s
aut o
Ġdeep f
the ir
To kyo
Ġtable ts
Ġtre asures
... </
Ġnon profit
Ġmot ives
Ġsubject ed
ĠZ or
ĠZ ephyr
Ġgen ius
Ġchild hood
Ġcr ises
Ġcr ashing
set opt
ĠShe ll
11 11
Ġsecond Name
Ġsuper market
bal ance
Ġautom otive
ER ROR
SS W
craft ed
Ġloop ing
sy lvania
Ġexpect ation
Ð¸ Ð½
Ð¸ Ð»
Ð¸ Ðº
we ed
Ġprote ctions
enc oder
che er
Ġstat istically
Ġ18 85
ĠDis able
ĠDis connect
Ġcapt ain
Ġpay roll
ĠKe yn
ung en
Ġbra ces
Ġrock ets
iment ary
ĠAt atur
Ġprogress ively
Ġdraw ings
Ġver ifies
ĠCol umb
Ġcontinu ity
Ġjour nals
Ġscreen plays
Ġcirc umnav
ĠLe ft
ĠLe Bron
Ġguid eline
RE CT
Ġdom inated
num eric
hel or
aw ning
ĠMan age
Ġsat isfactory
Ġrecord ings
ech o
ĠTry ing
het ically
Ġdru mm
Ġconflict ing
Ġhol low
Ġcross es
Ġill usions
Do or
ĠCont ra
ĠCont ribut
ĠSw im
Ġmanip ulated
cont rolled
Ġmit igation
Ġmit igating
Ġbranch ing
ĠFe ature
100 00
Ġsmooth ie
des igned
Ġbreath s
ĠGit Lab
Ġextract s
Ġvector ized
ok ed
ae a
ĠTrans parency
ĠPol ice
Ġmel anch
ĠPar se
Ġmac aroni
Ġclick able
ĠHis oka
45 67
PS W
Ġrein stall
Ġbul k
Ġbound ing
Ġsou ps
Ġsou ven
ĠAc cept
200 1
De velop
ĠComp ile
Ġgar age
Ġreb el
ĠTra ce
ĠTra ditional
Ġestim ation
ĠPlay ing
mod ule
Ġstack s
ira cle
Ġprop ell
Ġprop ulsion
Ġine vitable
Ġmedic inal
ĠMach ines
ĠWill is
ĠAR M
Ġign oring
ĠBit wise
ĠType Error
ĠSk ill
Ġattract ing
Ġ198 4
Ġextend ing
ĠSub way
olt aic
ĠForm ula
Ġbeat en
Ġcelebr ations
Ġdwar ven
Get ting
ptic ism
Ġrid dles
ĠArch ae
Line String
Ġnucle i
Ġnucle osome
Ġaer odynamics
Te chn
Ġpursu its
ĠÃ º
Ġmeth amphetamine
Ġrenew ed
([ [
Message Text
ĠMa iden
Ġod ors
ĠBar racks
Ġtransmit ter
Ġdram atically
ĠGal ile
ĠMult iplier
Be arer
Ġunw aver
ĠShakespeare an
ĠPo inter
ĠPo ints
ĠDem ocr
Read y
Ġcompl iant
ĠRest aurant
Ġske pticism
Ġretain ed
ĠLog in
dat aset
Bl ue
ĠFre edom
ĠTun ing
Ġhierarch ies
ĠArab ic
Ġdoub ts
arg v
Ġadequ ately
Ġoutl ining
sim pl
ĠTem perature
ĠBo ost
ĠDou gDou
ĠRain bow
ĠFore ver
________ ________
ĠProper ty
Ġdelay ed
ĠPythag oras
ĠKen y
ĠCross bows
ĠZe us
ĠEstablish ing
Ġscra ps
Ġchrom atin
Ġram ifications
Ġirre vers
Or der
Ġench anted
pol icy
Ġreson ate
commun ism
ĠPI ZZA
ĠDocument ation
Ġabsurd ity
ĠSand w
ÐµÐ» ÑĮ
ĠTH IS
Ġsynd icalism
Ġbarb ecue
Ġaband on
ĠDisplay Link
Sum marize
Ġmast ering
ĠMulti ple
Ġrum ors
Ġles ions
ĠRh ine
Ġkin etic
Ġcompress or
Ġredund ancy
ĠWeight ed
ĠðŁĮ Ł
ĠCapital ism
ĠMont essori
Ġindirect ly
Ġtou ches
ĠRespon d
Ġsingular ity
Ġexceed ed
Rec ipient
Ġchamp ion
ĠLy ra
Ġaffection ate
ĠPS U
Ġnit rate
ĠJob s
iw i
Ġcig arettes
Ġcraw l
Ġneglig ence
ĠSlow ly
Ġmol ten
ĠChall enges
ĠCam bridge
ĠMechan ical
\_ |
ĠRol ling
ĠCos mic
Char acter
Ġturp is
jar o
Ġfort ress
ĠCURL OPT
ĠYam anaka
Ġneurotransmit ter
Ġneurotransmit ters
Ġpray er
ĠFig ure
cop ic
Ġtub es
Ġmultic urrency
ĠTypes cript
Ġholog ram
Ġprolong ed
ĠBud get
ĠOffic er
VAL UE
Ġdiscre pan
clean up
Ġstyl ized
Ġarom a
ĠTact ics
ĠGar lic
Ġlogarith m
Ġglim pse
discipl inary
brit ies
enh ancing
Ġpige on
Ġnanow ire
Ġego ism
eas ible
Ġprincip al
algorith m
âĢį âĻ
Ġdeterg ent
ĠWis dom
ĠNAT O
melet te
Ġsla very
FEM ALE
ĠTuts i
Ġasympt otic
Ġtrem end
Ġtelecommun ications
ĠDÃ¼ rer
ĠGian nis
Ġjung le
Ġreferend um
cart es
Ġcele brities
Ġbizar re
impress ions
ĠDENN IS
ĠAtatur k
Ġunwaver ing
ĠDougDou g
! '
% ########
' ))
) |
* \
/ <
0 25
8 80
> '
A xis
B E
B ody
B ST
B ERT
B ridge
B RUSH
B ritish
C UR
D U
D ec
F izz
G UI
G ermany
H R
K S
L ong
L ets
M ale
M ENT
N C
R d
S X
S l
S w
S ch
S ym
T or
T ube
T rack
T race
U C
V AR
V ertical
W he
W AN
] '
] ])
b ad
b ell
b mm
b olt
b uffer
b odied
c rit
c amp
c ourse
c amera
c sharp
f ork
f icial
g z
g ro
g as
g ust
h z
h is
h ire
h ai
j wt
j ulia
l ived
m ys
m eter
m ighty
n ets
p ent
p ul
r ically
r ator
s olution
t i
t v
t imes
t ags
u u
u gh
v ous
v ille
w y
w ow
w ab
w kt
y les
y aml
{ (
¡ n
µ Ì
¶ Ì
Í łÌ
Í ĺÌ
Î Ń
â Ĥ
ä ¸
Ģ Ģ
ĵ Ì
Ġa uch
in atory
on ation
Ġs clerotia
at re
es c
nd e
Ġw ird
Ġw ss
en es
en ities
is que
is cal
Ġp estic
Ġm ich
Ġm ating
Ġb oo
Ġb rib
Ġb ored
Ġb áº
Ġb ricks
Ġto d
al istic
le m
Ġin duct
Ġin clus
se mbly
st ats
ro ots
Ġh orses
Ġe j
Ġe uro
Ġre h
Ġre pt
Ġre arr
Ġn ouns
et ta
Ġu gly
im ov
Ġg pt
Ġg erman
as cii
ĠT on
ĠT od
ĠT oc
ĠT ale
ĠT ouch
ĠT rip
ĠT ARD
Ġbe nding
ot on
ot osaurus
ol as
ol ver
ol ving
ol umines
ĠR ap
ĠR une
ĠR ogue
ĠR isk
ut an
ut ation
Ġst if
Ġst ochastic
if i
ĠIn her
ĠIn fl
ĠIn version
ĠIn flu
am ents
am azon
ĠA bra
el ve
ver ter
ay an
od io
Ġan s
Ġan kle
Ġcon g
Ġcon quest
ul us
ĠS on
ĠS auce
ĠS acro
ĠS MILES
ĠS unglasses
pe m
Ġex ert
ad ding
Ġal k
Ġal man
ĠC e
ĠC ategories
qu ire
qu arters
ab outs
um ble
um wal
ri ved
Ġha irst
ore gressive
ere ne
out e
out ed
out line
em an
ĠP ap
ĠP ink
ĠP ossible
ĠP urpose
ĠP oni
ck y
ĠH ither
ĠH itchhiker
ill ery
ĠM D
ĠM ari
ĠM ention
Ġse iz
ĠW indow
ĠB ong
ĠB ac
ĠB UT
ĠB LOOM
ĠB oeing
ĠD uch
ĠD EC
ĠD elta
Ġsh attered
per iod
ĠF ather
ĠF ounder
ĠF resco
ĠE rat
Ġen vision
Ġen semble
Ġpl um
art ificial
ĠG N
ĠG P
ĠG ap
ĠG rap
ĠG otta
ĠL ives
ĠL uther
ich ai
og er
orm s
Ġr d
Ġr ides
Ġli p
ag ain
ard ly
Ġres idence
Ġqu bits
Ġsc av
ast ical
Ġj s
Ġj ets
Ġcl ips
Ġcl utter
Ġfe ud
Ġfe ast
ĠU BI
Ġac romegaly
int ers
int elligent
Ġro ds
Ġup front
Ġpre st
ĠJ udy
Ġdis pers
ail ers
Ġam bit
Ġam ino
ount ain
Ġover see
Ġsp a
Ġsp ins
com b
Ġcol ds
Ġinter stellar
Ġinter disciplinary
Ġunder world
Ġke en
ne a
ne ut
ĠSt ones
Ġ5 000
Ġpos itives
Ġph ishing
Ġgener ous
Ġhum ble
Ġ{ %
Ġob esity
Ġstr ife
Ġinv aded
ĠV atic
Ġfol d
Ġdet er
Ġtr iceps
Ġsm ut
tain ment
Ġwhere abouts
cur ric
ĠAs gard
Ġdef orestation
Ġ' -
Ġass ists
Ġlist ings
Ġcur ds
Ġcur sed
Ġreg imes
Ġsol itary
Ġ0 8
Ġtrans cription
Ġco il
Ġco inc
Ġrep ay
Ġfl are
Ġche dd
ĠCh amp
Ġweb cam
Ġsub plots
Ġav g
Ġgra der
ĠAd olf
Ġback propagation
ĠRe van
Ġopen ly
Ġfil mm
Ġdon uts
sw itch
ron ghold
ĠHe art
Ġappro ved
Ġide als
Ġexp anse
Ġ7 3
Ġproble matic
ĠâĢ ŀ
Ġconf ined
Ġsom bre
Ġ8 3
Ġ8 28
ĠAl gebra
ank a
ĠWe ir
ĠPro log
Ġcle ared
Ġpur ity
ĠAnd alus
ren ae
Ġed ited
Ġcap it
Ġstory lines
Ġelect oral
Ġsuggest ive
Ġsw an
Ġsw ift
Ġblo ody
=" -
Ġpri est
sc an
ĠDe cre
ĠDe utsch
Ġless er
In tern
In sert
Ġplace holder
__ )
Ġorder ID
ĠÐ °
view port
ins ula
sh ine
sh ots
Ġ9 9
Ġsl opes
Ġlog ged
Ġshort comings
Ġtri ad
Ġtri ath
ĠX en
ogn itive
Ġdig ging
ĠSp ra
ĠEn able
Ġappe als
ĠUS S
Ġmaintain ability
ĠZ eroth
Ġsong writer
Ġstring List
ĠShe ep
Ð° Ð½
Ġbro ker
ĠBe ethoven
Ġsuper ficial
Ġge ographical
Ġgroup ed
inter cept
Ġgraph ql
Ġaccount Number
Ġtrack er
SS S
col a
Ġcour ts
head s
head ers
ĠOr ange
ĠCons ciousness
ĠDes cartes
Ġfeed s
Ġfeed forward
Ġphot ore
Ġphot oelectric
Ġfig ur
file Path
empt y
15 1
Ġbit wise
ĠKe vin
Ġcompet ent
Ġpaper work
ĠNew castle
Ġcru mbs
my Canvas
Ġadapt ive
Ġbo ys
AT IVE
Ġinitial ized
dom ain
Ġsn akes
Ġbar king
Ġhost name
Ġing est
aur i
ĠEl rod
Ġsurv ived
Ġarchitect ural
sole te
ĠMon o
RE E
ĠPer fect
Ġsimpl ifying
Ġsat urated
ĠNe olithic
Ch anges
Ġid i
Ġmaxim izes
ĠPre par
ĠPre vention
IT H
Ġmagn a
Ġmagn ific
gra duate
ĠPr im
Ġemerg es
Ġmut ant
ĠMod ule
ĠMod erate
Ġreflect ive
ĠAll ies
Ġpsych othe
ĠMar g
14 7
cont amination
Ġinfin ities
Ġfamous ly
Ġpoly morphism
ĠSim on
Ġlinear ly
Ġbott oms
ĠMe ow
ĠWeb RTC
Ġdemonstr ation
Ġdeli vers
Ġsup ers
Certain ty
Ġund ead
dir name
Ġmedium s
spe aking
ĠPol it
ĠPol ar
Ġmel odic
ĠAv ailability
plot ly
run s
Ġretrie ving
Ġment oring
ĠVal idate
Ġvill ager
ĠMin or
Ġden ote
Ġclos ure
Ġmyth ological
Ġbattle field
Ġcounter parts
iter rows
De ep
ĠSol itude
Ġsyn c
ĠAust rian
Ġmanufact ured
Ġple asing
ĠMed ical
Ġsauce pan
Ġhighlight ed
ĠÂ ±
ĠÂ ½
Ġrat ios
Ġsus pected
Ġcomment ed
Ġult raviolet
Ġabsor bs
Ġann ounce
bed room
Ġhon ors
Ġtele v
Ġilleg ally
Ġbru te
sk inned
Ġconcent rations
Ġcontroll ers
Ġsem icon
={ "
Ġadvert ised
ĠCre ed
Ġcrack ed
Ġflav our
Get Last
Get Axis
Ġtal ks
Des cription
rin th
Ġcolon ization
Ġcolon ists
Ġdro ve
ĠDec ree
Ġrobust ness
ĠEth iop
Ġlas agne
Ġelim inated
Ġdiscrim inator
ĠRef erence
Ġpor ogen
ĠMid journey
ipp ers
ĠSte ve
tem p
ĠRob in
rab ble
ĠBi as
char acter
ĠOh io
ĠLeg s
Act ually
ĠTur k
Ġkill er
ĠPhot o
Ġsegment ation
ĠMem orial
'' '
controll er
ĠCustom ers
Be ast
Ġunw ind
Ġdecor ate
ĠMad onna
ĠArray Adapter
ĠHuman ity
Ġreplic ants
ĠSpace X
oj is
ĠPo ison
ĠMor ris
ĠEnt ity
ĠTre asure
Ġborrow ed
ĠRaspberry Pi
ĠNum bers
with out
Ġhonest y
;; ;;
Would n
Ġtort or
Ġsalad s
edge hog
Ġ{} ;
Ġfrag rant
dat etime
ĠUt il
AV E
ĠCB T
ĠRich ter
ĠFre ud
ĠAnaly st
ĠAnaly tics
Ġvolcan o
Ġscrap ed
Ġ195 2
Ġsucceed ed
Ġvolunte ering
ucl idean
ĠCount ries
Ġunint elligible
Ġfu ze
Ġancest or
Ġancest ry
ĠBron sted
Ġelectro ly
Ġexclusive ly
ĠFact ors
Ġjack s
Ġflash light
ĠFort unately
Ġwhis pers
Ġpropag ation
ĠMil k
Ġtwe et
ĠPal est
osc aling
conscious ness
Ġ"< _
Ġfrustr ated
ĠAcc ount
ĠVol kswagen
Ġcertific ates
Ġkne e
ĠEucl id
Ġconvin ced
Ġreson ates
Ġpill ows
ĠBan ach
ĠBan ana
ĠVe gan
Ġastronom ers
Ġdialect ics
ĠNa N
???? ?
ĠVP C
ĠDecl are
Ġfisher man
ilant h
Ġgam ers
Ġblur ry
insp iring
Ġnonlinear ity
Document Client
ĠRoom MessageText
Ġanthrop omorph
ĠFil m
ĠLead er
ĠEqu ip
Ġdistort ion
Ġconstit u
Em ploy
ĠDom ain
ĠBol ivar
ĠLower ing
ĠMarket place
exist ing
Ġrival ry
El aborate
mid dle
Ġentrepreneurs hip
Ġdisappoint ment
ĠEsc amoles
dest ination
ÍĹ Ì
ĠRow ling
Ġexch anges
Ġmetaph ors
Ġmetaph ysics
ĠSpread sheets
ĠRay leigh
ĠEffect s
ĠðŁĺ Ĭ
ĠÂłÂłÂłÂłÂłÂłÂłÂł ÂłÂłÂłÂłÂłÂłÂł
Ġexpon entially
ĠLib re
ĠLib rem
ĠStat istical
ĠSwed ish
Ġcig ar
Ġmeta verse
Ġdens ities
Ġreck less
Ġdeliber ately
Cor rect
Ġoat meal
Ġdece it
Ġsacrific ing
Ġinpain ting
Ġdisput es
ĠCos mos
Ġchick ens
Ġdiagonal ization
Rad ius
Ġaliqu am
Ġpodcast s
Ġrenov ations
igan otosaurus
Ġski ing
Ġdisagre ements
Ġgly cogen
Ġvig ilant
Ġvib ration
ĠPW M
Ġobs ession
obser vations
Ġparam iko
ĠExec ut
ĠHegel ian
ĠEas ier
Ġric her
Ġoblig ations
Ġevac uate
ĠGard en
ĠGlass Fish
Vari able
sch ool
Ġfost ering
Ġperipher al
Stud ent
Ġmischie vous
ĠRepresent atives
Ġmk dir
Ġdimin ished
Scroll View
Ġnostalg ia
Ġunch anged
Ġdeadl ifts
ĠINS ERT
Ġsulf ur
[...]
