{
  "version": "1.0",
  "truncation": null,
  "padding": null,
  "added_tokens": [
    {
      "id": 0,
      "content": "<s>",
      "single_word": false,
      "lstrip": false,
      "rstrip": false,
      "normalized": false,
      "special": true
    },
    {
      "id": 1,
      "content": "<pad>",
      "single_word": false,
      "lstrip": false,
      "rstrip": false,
      "normalized": false,
      "special": true
    },
    {
      "id": 2,
      "content": "</s>",
      "single_word": false,
      "lstrip": false,
      "rstrip": false,
      "normalized": false,
      "special": true
    },
    {
      "id": 3,
      "content": "<unk>",
      "single_word": false,
      "lstrip": false,
      "rstrip": false,
      "normalized": false,
      "special": true
    },
    {
      "id": 4,
      "content": "<mask>",
      "single_word": false,
      "lstrip": false,
      "rstrip": false,
      "normalized": false,
      "special": true
    }
  ],
  "normalizer": null,
  "pre_tokenizer": {
    "type": "ByteLevel",
    "add_prefix_space": false,
    "trim_offsets": true,
    "use_regex": true
  },
  "post_processor": {
    "type": "ByteLevel",
    "add_prefix_space": true,
    "trim_offsets": false,
    "use_regex": true
  },
  "decoder": {
    "type": "ByteLevel",
    "add_prefix_space": true,
    "trim_offsets": true,
    "use_regex": true
  },
  "model": {
    "type": "BPE",
    "dropout": null,
    "unk_token": null,
    "continuing_subword_prefix": null,
    "end_of_word_suffix": null,
    "fuse_unk": false,
    "byte_fallback": false,
    "ignore_merges": false,
    "vocab": {
      "<s>": 0,
      "<pad>": 1,
      "</s>": 2,
      "<unk>": 3,
      "<mask>": 4,
      "!": 5,
      "\"": 6,
      "#": 7,
      "$": 8,
      "%": 9,
      "&": 10,
      "'": 11,
      "(": 12,
      ")": 13,
      "*": 14,
      "+": 15,
      ",": 16,
      "-": 17,
      ".": 18,
      "/": 19,
      "0": 20,
      "1": 21,
      "2": 22,
      "3": 23,
      "4": 24,
      "5": 25,
      "6": 26,
      "7": 27,
      "8": 28,
      "9": 29,
      ":": 30,
      ";": 31,
      "<": 32,
      "=": 33,
      ">": 34,
      "?": 35,
      "@": 36,
      "A": 37,
      "B": 38,
      "C": 39,
      "D": 40,
      "E": 41,
      "F": 42,
      "G": 43,
      "H": 44,
      "I": 45,
      "J": 46,
      "K": 47,
      "L": 48,
      "M": 49,
      "N": 50,
      "O": 51,
      "P": 52,
      "Q": 53,
      "R": 54,
      "S": 55,
      "T": 56,
      "U": 57,
      "V": 58,
      "W": 59,
      "X": 60,
      "Y": 61,
      "Z": 62,
      "[": 63,
      "\\": 64,
      "]": 65,
      "^": 66,
      "_": 67,
      "`": 68,
      "a": 69,
      "b": 70,
      "c": 71,
      "d": 72,
      "e": 73,
      "f": 74,
      "g": 75,
      "h": 76,
      "i": 77,
      "j": 78,
      "k": 79,
      "l": 80,
      "m": 81,
      "n": 82,
      "o": 83,
      "p": 84,
      "q": 85,
      "r": 86,
      "s": 87,
      "t": 88,
      "u": 89,
      "v": 90,
      "w": 91,
      "x": 92,
      "y": 93,
      "z": 94,
      "{": 95,
      "|": 96,
      "}": 97,
      "~": 98,
      "¡": 99,
      "¢": 100,
      "£": 101,
      "¤": 102,
      "¥": 103,
      "¦": 104,
      "§": 105,
      "¨": 106,
      "©": 107,
      "ª": 108,
      "«": 109,
      "¬": 110,
      "®": 111,
      "¯": 112,
      "°": 113,
      "±": 114,
      "²": 115,
      "³": 116,
      "´": 117,
      "µ": 118,
      "¶": 119,
      "·": 120,
      "¸": 121,
      "¹": 122,
      "º": 123,
      "»": 124,
      "¼": 125,
      "½": 126,
      "¾": 127,
      "¿": 128,
      "À": 129,
      "Á": 130,
      "Â": 131,
      "Ã": 132,
      "Ä": 133,
      "Å": 134,
      "Æ": 135,
      "Ç": 136,
      "È": 137,
      "É": 138,
      "Ê": 139,
      "Ë": 140,
      "Ì": 141,
      "Í": 142,
      "Î": 143,
      "Ï": 144,
      "Ð": 145,
      "Ñ": 146,
      "Ò": 147,
      "Ó": 148,
      "Ô": 149,
      "Õ": 150,
      "Ö": 151,
      "×": 152,
      "Ø": 153,
      "Ù": 154,
      "Ú": 155,
      "Û": 156,
      "Ü": 157,
      "Ý": 158,
      "Þ": 159,
      "ß": 160,
      "à": 161,
      "á": 162,
      "â": 163,
      "ã": 164,
      "ä": 165,
      "å": 166,
      "æ": 167,
      "ç": 168,
      "è": 169,
      "é": 170,
      "ê": 171,
      "ë": 172,
      "ì": 173,
      "í": 174,
      "î": 175,
      "ï": 176,
      "ð": 177,
      "ñ": 178,
      "ò": 179,
      "ó": 180,
      "ô": 181,
      "õ": 182,
      "ö": 183,
      "÷": 184,
      "ø": 185,
      "ù": 186,
      "ú": 187,
      "û": 188,
      "ü": 189,
      "ý": 190,
      "þ": 191,
      "ÿ": 192,
      "Ā": 193,
      "ā": 194,
      "Ă": 195,
      "ă": 196,
      "Ą": 197,
      "ą": 198,
      "Ć": 199,
      "ć": 200,
      "Ĉ": 201,
      "ĉ": 202,
      "Ċ": 203,
      "ċ": 204,
      "Č": 205,
      "č": 206,
      "Ď": 207,
      "ď": 208,
      "Đ": 209,
      "đ": 210,
      "Ē": 211,
      "ē": 212,
      "Ĕ": 213,
      "ĕ": 214,
      "Ė": 215,
      "ė": 216,
      "Ę": 217,
      "ę": 218,
      "Ě": 219,
      "ě": 220,
      "Ĝ": 221,
      "ĝ": 222,
      "Ğ": 223,
      "ğ": 224,
      "Ġ": 225,
      "ġ": 226,
      "Ģ": 227,
      "ģ": 228,
      "Ĥ": 229,
      "ĥ": 230,
      "Ħ": 231,
      "ħ": 232,
      "Ĩ": 233,
      "ĩ": 234,
      "Ī": 235,
      "ī": 236,
      "Ĭ": 237,
      "ĭ": 238,
      "Į": 239,
      "į": 240,
      "İ": 241,
      "ı": 242,
      "Ĳ": 243,
      "ĳ": 244,
      "Ĵ": 245,
      "ĵ": 246,
      "Ķ": 247,
      "ķ": 248,
      "ĸ": 249,
      "Ĺ": 250,
      "ĺ": 251,
      "Ļ": 252,
      "ļ": 253,
      "Ľ": 254,
      "ľ": 255,
      "Ŀ": 256,
      "ŀ": 257,
      "Ł": 258,
      "ł": 259,
      "Ń": 260,
      "Ġt": 261,
      "Ġa": 262,
      "in": 263,
      "he": 264,
      "on": 265,
      "re": 266,
      "Ġthe": 267,
      "Ġs": 268,
      "at": 269,
      "er": 270,
      "Ġc": 271,
      "ĠĠ": 272,
      "es": 273,
      "or": 274,
      "nd": 275,
      "ou": 276,
      "Ġw": 277,
      "it": 278,
      "en": 279,
      "is": 280,
      "an": 281,
      "Ġp": 282,
      "ing": 283,
      "Ġf": 284,
      "Ġo": 285,
      "Ġm": 286,
      "Ġb": 287,
      "Ġto": 288,
      "al": 289,
      "Ġand": 290,
      "ion": 291,
      "Ġd": 292,
      "le": 293,
      "Ġin": 294,
      "##": 295,
      "ar": 296,
      "Ġof": 297,
      "se": 298,
      "ic": 299,
      "ct": 300,
      "st": 301,
      "ro": 302,
      "ed": 303,
      "ĠI": 304,
      "ĠĠĠĠ": 305,
      "Ġth": 306,
      "Ġy": 307,
      "Ġh": 308,
      "Ġe": 309,
      "Ġyou": 310,
      "Ġl": 311,
      "om": 312,
      "ent": 313,
      "Ġre": 314,
      "Ġn": 315,
      "ve": 316,
      "Ġis": 317,
      "et": 318,
      "il": 319,
      "Ġu": 320,
      "###": 321,
      "im": 322,
      "Ġg": 323,
      "as": 324,
      "ow": 325,
      "ĠT": 326,
      "Ġbe": 327,
      "ra": 328,
      "Ġfor": 329,
      "ly": 330,
      "ce": 331,
      "ch": 332,
      "id": 333,
      "Ġthat": 334,
      "ru": 335,
      "ot": 336,
      "ction": 337,
      "ol": 338,
      "ation": 339,
      "ĠR": 340,
      "ut": 341,
      "ig": 342,
      "Ġon": 343,
      "Ġst": 344,
      "if": 345,
      "ĠIn": 346,
      "am": 347,
      "Ġit": 348,
      "ith": 349,
      "Ġpro": 350,
      "ĠA": 351,
      "el": 352,
      "Ġas": 353,
      "ver": 354,
      "ay": 355,
      "od": 356,
      "Ġan": 357,
      "Ġcan": 358,
      "Ġcon": 359,
      "pon": 360,
      "ul": 361,
      "Ġwith": 362,
      "ur": 363,
      "Ġor": 364,
      "Ġare": 365,
      "ld": 366,
      "ke": 367,
      "ate": 368,
      "stru": 369,
      "ge": 370,
      "ir": 371,
      "ĠS": 372,
      "ponse": 373,
      "pe": 374,
      "struction": 375,
      "ĠRes": 376,
      "Ġex": 377,
      "ĠInstruction": 378,
      "ĠResponse": 379,
      "Ġwh": 380,
      "ad": 381,
      "Ġal": 382,
      "Ġsu": 383,
      "Ġcom": 384,
      "ĠC": 385,
      "qu": 386,
      "her": 387,
      "ĠThe": 388,
      "ers": 389,
      "Ġde": 390,
      "ist": 391,
      "Ġyour": 392,
      "ab": 393,
      "um": 394,
      "ould": 395,
      "ess": 396,
      "Ġhe": 397,
      "Ġv": 398,
      "ri": 399,
      "ant": 400,
      "Ġha": 401,
      "ĠĠĠĠĠĠĠĠ": 402,
      "ter": 403,
      "ure": 404,
      "ore": 405,
      "th": 406,
      "ere": 407,
      "est": 408,
      "op": 409,
      "out": 410,
      "em": 411,
      "ity": 412,
      "'s": 413,
      "ĠP": 414,
      "pl": 415,
      "ck": 416,
      "Ġne": 417,
      "ment": 418,
      "ain": 419,
      "igh": 420,
      "nt": 421,
      "ĠH": 422,
      "pt": 423,
      "ive": 424,
      "Ġ1": 425,
      "Ġ-": 426,
      "ort": 427,
      "ill": 428,
      "Ġ\"": 429,
      "Ġim": 430,
      "os": 431,
      "ĠM": 432,
      "ies": 433,
      "Ġle": 434,
      "Ġch": 435,
      "Ġse": 436,
      "Ġme": 437,
      "ĠW": 438,
      "un": 439,
      "Ġuse": 440,
      "Ġ(": 441,
      "ple": 442,
      "Ġhave": 443,
      "ĠB": 444,
      "ome": 445,
      "Ġnot": 446,
      "us": 447,
      "Ġby": 448,
      "rom": 449,
      "ase": 450,
      "age": 451,
      "ight": 452,
      "ine": 453,
      "Ġma": 454,
      "ect": 455,
      "iz": 456,
      "ĠD": 457,
      "Ġsh": 458,
      "Ġdo": 459,
      "per": 460,
      "ĠF": 461,
      "ide": 462,
      "Ġwor": 463,
      "ĠE": 464,
      "ial": 465,
      "iv": 466,
      "our": 467,
      "Ġen": 468,
      "Ġab": 469,
      "pp": 470,
      "Ġfrom": 471,
      "Ġint": 472,
      "ical": 473,
      "and": 474,
      "Ġus": 475,
      "Ġpl": 476,
      "res": 477,
      "ther": 478,
      "ud": 479,
      "art": 480,
      "Ġ2": 481,
      "all": 482,
      "ĠG": 483,
      "Ġwe": 484,
      "ĠL": 485,
      "Ġthis": 486,
      "oc": 487,
      "ell": 488,
      "Ġ=": 489,
      "Ġat": 490,
      "ich": 491,
      "og": 492,
      "orm": 493,
      "ame": 494,
      "ĠTh": 495,
      "Ġr": 496,
      "Ġk": 497,
      "Ġad": 498,
      "able": 499,
      "Ġimp": 500,
      "act": 501,
      "ile": 502,
      "Ġli": 503,
      "ĠO": 504,
      "are": 505,
      "ions": 506,
      "Ġmore": 507,
      "ust": 508,
      "Ġcont": 509,
      "ry": 510,
      "ag": 511,
      "ard": 512,
      "cl": 513,
      "ind": 514,
      "``": 515,
      "Ġother": 516,
      "ult": 517,
      "rou": 518,
      "Ġres": 519,
      "ations": 520,
      "ang": 521,
      "Ġwhich": 522,
      "ff": 523,
      "Ġte": 524,
      "form": 525,
      "king": 526,
      "--": 527,
      "Ġsome": 528,
      "Ġcomp": 529,
      "Ġtheir": 530,
      "ep": 531,
      "Ġwill": 532,
      "Ġqu": 533,
      "so": 534,
      "Ġwas": 535,
      "ie": 536,
      "vel": 537,
      "Ġwhe": 538,
      "ĠN": 539,
      "ack": 540,
      "low": 541,
      "gh": 542,
      "ĠThis": 543,
      "ost": 544,
      "ire": 545,
      "Ġhel": 546,
      "ime": 547,
      "ite": 548,
      "Ġgo": 549,
      "Ġsc": 550,
      "ble": 551,
      "ces": 552,
      "ast": 553,
      "ence": 554,
      "Ġwould": 555,
      "cess": 556,
      "Ġcre": 557,
      "Ġif": 558,
      "Ġbut": 559,
      "ans": 560,
      "Ġhelp": 561,
      "Ġspe": 562,
      "oo": 563,
      "ance": 564,
      "Ġlike": 565,
      "Ġ3": 566,
      "Ġsuch": 567,
      "du": 568,
      "Ġmod": 569,
      "iff": 570,
      "Ġj": 571,
      "ue": 572,
      "hat": 573,
      "Ġany": 574,
      "Ġso": 575,
      "Ġcl": 576,
      "ous": 577,
      "ated": 578,
      "Ġun": 579,
      "ach": 580,
      "Ġdat": 581,
      "Ġhas": 582,
      "Ġfe": 583,
      "ks": 584,
      "ĠIt": 585,
      "Ġman": 586,
      "ice": 587,
      "ĠU": 588,
      "00": 589,
      "Ġabout": 590,
      "Ġac": 591,
      "Ġsy": 592,
      "ory": 593,
      "Ġtra": 594,
      "Ġdiff": 595,
      "Ġthey": 596,
      "ong": 597,
      "ign": 598,
      "xt": 599,
      "Ġmy": 600,
      "ac": 601,
      "av": 602,
      "now": 603,
      "ific": 604,
      "ap": 605,
      "Ġalso": 606,
      "ary": 607,
      "Ġmay": 608,
      "ally": 609,
      "ass": 610,
      "int": 611,
      "ace": 612,
      "ĠY": 613,
      "Ġar": 614,
      "Ġneed": 615,
      "Ġout": 616,
      "ition": 617,
      "nder": 618,
      "ram": 619,
      "ip": 620,
      "Ġhow": 621,
      "ode": 622,
      "one": 623,
      "ber": 624,
      "clud": 625,
      "ject": 626,
      "Ġthere": 627,
      "Ġro": 628,
      "Ġcomm": 629,
      "Ġprov": 630,
      "Ġev": 631,
      "Ġcould": 632,
      "Ġup": 633,
      "Ġknow": 634,
      "Ġpre": 635,
      "Ġcons": 636,
      "Ġthem": 637,
      "Ġdata": 638,
      "end": 639,
      "stem": 640,
      "Ġtime": 641,
      "ĠJ": 642,
      "Ġexam": 643,
      "Ġimport": 644,
      "Ġdis": 645,
      "Ġall": 646,
      "Ġone": 647,
      "ient": 648,
      "Ġinclud": 649,
      "Ġusing": 650,
      "Ġused": 651,
      "etw": 652,
      "Ġper": 653,
      "ens": 654,
      "ors": 655,
      "lo": 656,
      "Ġfun": 657,
      "Ġdes": 658,
      "ail": 659,
      "Ġspec": 660,
      "ning": 661,
      "Ġwhat": 662,
      "Ġdiffere": 663,
      "Ġmake": 664,
      "ake": 665,
      "Ġam": 666,
      "Ġinto": 667,
      "âĢ": 668,
      "Ġits": 669,
      "ress": 670,
      "ating": 671,
      "Ġsystem": 672,
      "ount": 673,
      "'t": 674,
      "ose": 675,
      "ener": 676,
      "ics": 677,
      "Ġover": 678,
      "ari": 679,
      "Ġsp": 680,
      "Ġnew": 681,
      "au": 682,
      "com": 683,
      "ater": 684,
      "ord": 685,
      "ft": 686,
      "con": 687,
      "Ġser": 688,
      "Ġ4": 689,
      "ak": 690,
      "ual": 691,
      "led": 692,
      "Ġcol": 693,
      "Ġway": 694,
      "put": 695,
      "ĠYou": 696,
      "Ġshould": 697,
      "ful": 698,
      "Ġmodel": 699,
      "Ġcode": 700,
      "ize": 701,
      "Ġ*": 702,
      "Ġinter": 703,
      "Ġadd": 704,
      "ings": 705,
      "```": 706,
      "Ġunder": 707,
      "ll": 708,
      "ature": 709,
      "Ġke": 710,
      "very": 711,
      "ub": 712,
      "erm": 713,
      "ild": 714,
      "ree": 715,
      "ular": 716,
      "angu": 717,
      "Ġfunction": 718,
      "eth": 719,
      "Ġap": 720,
      "The": 721,
      "ible": 722,
      "pen": 723,
      "ove": 724,
      "ne": 725,
      "Ġem": 726,
      "les": 727,
      "ĠSt": 728,
      "Ġapp": 729,
      "Ġthese": 730,
      "Ġ5": 731,
      "ments": 732,
      "Ġru": 733,
      "Ġsim": 734,
      "Ġnum": 735,
      "Ġ```": 736,
      "olog": 737,
      "Ġpart": 738,
      "Ġlangu": 739,
      "velop": 740,
      "ĠIf": 741,
      "Ġset": 742,
      "Ġpos": 743,
      "Ġpe": 744,
      "Ġpr": 745,
      "ĠHow": 746,
      "Ġhis": 747,
      "Ġwho": 748,
      "ates": 749,
      "Ġty": 750,
      "Ġexample": 751,
      "Ġph": 752,
      "Ġprog": 753,
      "Ġval": 754,
      "ick": 755,
      "Ġget": 756,
      "Ġgener": 757,
      "Ġwork": 758,
      "Ġhum": 759,
      "Ġdifferent": 760,
      "Ġind": 761,
      "Ġbu": 762,
      "ased": 763,
      "vers": 764,
      "ish": 765,
      "Ġrequ": 766,
      "ility": 767,
      "Ġwant": 768,
      "ange": 769,
      "ound": 770,
      "Ġ{": 771,
      "Ġrel": 772,
      "ph": 773,
      "ĠĠĠĠĠ": 774,
      "Ġ|": 775,
      "Ġob": 776,
      "Ġlear": 777,
      "lect": 778,
      "Ġthan": 779,
      "rit": 780,
      "ents": 781,
      "Ġeff": 782,
      "ear": 783,
      "te": 784,
      "Ġpers": 785,
      "rib": 786,
      "Ġwhen": 787,
      "Ġeach": 788,
      "ough": 789,
      "Ġmany": 790,
      "Ġdevelop": 791,
      "get": 792,
      "ys": 793,
      "ia": 794,
      "ower": 795,
      "row": 796,
      "Ġstr": 797,
      "//": 798,
      "rough": 799,
      "Ġinv": 800,
      "ise": 801,
      "ĠV": 802,
      "ities": 803,
      "Ġform": 804,
      "urn": 805,
      "Ġpo": 806,
      "Ġimportant": 807,
      "Ġfol": 808,
      "Ġ#": 809,
      "ople": 810,
      "Ġno": 811,
      "Ġexpl": 812,
      "----": 813,
      "Ġra": 814,
      "ative": 815,
      "Ġdet": 816,
      "Ġplay": 817,
      "een": 818,
      "ict": 819,
      "Ġtr": 820,
      "ever": 821,
      "cre": 822,
      "ood": 823,
      "Ġmost": 824,
      "What": 825,
      "chn": 826,
      "round": 827,
      "Ġvari": 828,
      "pend": 829,
      "ĠK": 830,
      "Ġsm": 831,
      "tain": 832,
      "ause": 833,
      "ĠAI": 834,
      "ark": 835,
      "ĠĠĠĠĠĠĠĠĠĠĠĠĠĠĠĠ": 836,
      "ath": 837,
      "etween": 838,
      "ript": 839,
      "irst": 840,
      "Ġinform": 841,
      "Ġcreate": 842,
      "Ġworld": 843,
      "ook": 844,
      "Ġexper": 845,
      "ages": 846,
      "Ġwhere": 847,
      "Ġbetween": 848,
      "Ġprogram": 849,
      "Ġ<": 850,
      "()": 851,
      "Ġprocess": 852,
      "Ġprovide": 853,
      "cur": 854,
      "ience": 855,
      "Ġpeople": 856,
      "Ġthen": 857,
      "stand": 858,
      "Ġtw": 859,
      "als": 860,
      "Ġlanguage": 861,
      "ĠAs": 862,
      "Ġdef": 863,
      "gg": 864,
      "Ġoff": 865,
      "yth": 866,
      "lease": 867,
      "Ġtechn": 868,
      "Ġbec": 869,
      "oth": 870,
      "Ġact": 871,
      "ov": 872,
      "Ġthrough": 873,
      "Ġfind": 874,
      "own": 875,
      "ps": 876,
      "Ġstart": 877,
      "Ġ'": 878,
      "Ġass": 879,
      "rite": 880,
      "Ġfollow": 881,
      "ware": 882,
      "Ġcomple": 883,
      "Ġinst": 884,
      "plic": 885,
      "sel": 886,
      "Ġlist": 887,
      "Ġcur": 888,
      "tern": 889,
      "ting": 890,
      "Ġbeen": 891,
      "Ġquest": 892,
      "Ġprodu": 893,
      "reat": 894,
      "Ġperson": 895,
      "Ġcal": 896,
      "ious": 897,
      "ced": 898,
      "Ġreg": 899,
      "wn": 900,
      "its": 901,
      "Ġunderstand": 902,
      "Ġinformation": 903,
      "ib": 904,
      "ices": 905,
      "ten": 906,
      "Ġgood": 907,
      "hes": 908,
      "Ġmat": 909,
      "Ġ[": 910,
      "ob": 911,
      "ife": 912,
      "Ġwhile": 913,
      "Ġ}": 914,
      "Ġatt": 915,
      "ract": 916,
      "ĠHowever": 917,
      "Ġjust": 918,
      "ython": 919,
      "ĠFor": 920,
      "cy": 921,
      "Ġchar": 922,
      "Ġsol": 923,
      "ential": 924,
      "Ġcomput": 925,
      "Ġ0": 926,
      "Ġtwo": 927,
      "\",": 928,
      "Ġwell": 929,
      "ds": 930,
      "Ġtrans": 931,
      "ink": 932,
      "Ġlar": 933,
      "ays": 934,
      "Ġco": 935,
      "Ġadv": 936,
      "ons": 937,
      "Ġrep": 938,
      "erg": 939,
      "Ġspecific": 940,
      "cept": 941,
      "Ġconsid": 942,
      "..": 943,
      "ues": 944,
      "Ġfirst": 945,
      "ĠHere": 946,
      "ng": 947,
      "ality": 948,
      "Ġ6": 949,
      "arch": 950,
      "ef": 951,
      "Ġdoes": 952,
      "sible": 953,
      "ms": 954,
      "Ġgame": 955,
      "Ġhigh": 956,
      "Ġag": 957,
      "pect": 958,
      "Ġtrain": 959,
      "Ġ`": 960,
      "Ġfl": 961,
      "Ġwere": 962,
      "Ġhuman": 963,
      "Ġret": 964,
      "Ġfile": 965,
      "Ġdist": 966,
      "Ġche": 967,
      "Ġrec": 968,
      "Ġrem": 969,
      "ork": 970,
      "ĠCh": 971,
      "ving": 972,
      "Ġopt": 973,
      "hen": 974,
      "ized": 975,
      "pport": 976,
      "Ġweb": 977,
      "Ġonly": 978,
      "Ġtext": 979,
      "Ġallow": 980,
      "Ġpower": 981,
      "Ġincluding": 982,
      "Ġsub": 983,
      "der": 984,
      "ĠĠĠ": 985,
      "oy": 986,
      "Ġkey": 987,
      "Ġnumber": 988,
      "ically": 989,
      "ution": 990,
      "Ġav": 991,
      "Ġsa": 992,
      "iqu": 993,
      "ify": 994,
      "Ġrun": 995,
      "Ġref": 996,
      "Ġ+": 997,
      "Ġinf": 998,
      "self": 999,
      "ness": 1000,
      "read": 1001,
      "Ġsign": 1002,
      "ural": 1003,
      "Ġbest": 1004,
      ");": 1005,
      "Ġgra": 1006,
      "ĠAd": 1007,
      "tt": 1008,
      "Ġtake": 1009,
      "iew": 1010,
      "Ġown": 1011,
      "Ġtry": 1012,
      "uring": 1013,
      "Ġsk": 1014,
      "Ġbuild": 1015,
      "Ġback": 1016,
      "Ġmain": 1017,
      "nce": 1018,
      "Ġfact": 1019,
      "'m": 1020,
      "rent": 1021,
      "ĠRe": 1022,
      "fore": 1023,
      "ves": 1024,
      "ethod": 1025,
      "ines": 1026,
      "Ġdepend": 1027,
      "Ġbeing": 1028,
      "ered": 1029,
      "ian": 1030,
      "ved": 1031,
      "eng": 1032,
      "Ġclass": 1033,
      "ts": 1034,
      "Ġhand": 1035,
      "Ġour": 1036,
      "Ġlight": 1037,
      "Ġlong": 1038,
      "Ġplan": 1039,
      "Ġfi": 1040,
      "Ġpop": 1041,
      "Ġopen": 1042,
      "ety": 1043,
      "Ġprovid": 1044,
      "Ġcor": 1045,
      "Ġmin": 1046,
      "Ġperform": 1047,
      "dition": 1048,
      "ern": 1049,
      "Ġresult": 1050,
      "Ġ$": 1051,
      "Ġsee": 1052,
      "Ġdesign": 1053,
      "Ġlife": 1054,
      "Ġstep": 1055,
      "Ġfil": 1056,
      "red": 1057,
      "Ġdon": 1058,
      "sw": 1059,
      "ĠTo": 1060,
      "ource": 1061,
      ").": 1062,
      "ron": 1063,
      "Ġdec": 1064,
      "ĠHe": 1065,
      "Ġcharact": 1066,
      "uch": 1067,
      "Ġloc": 1068,
      "Ġhad": 1069,
      "ax": 1070,
      "Ġdown": 1071,
      "),": 1072,
      "ied": 1073,
      "Ġappro": 1074,
      "Ġimpro": 1075,
      "Ġmethod": 1076,
      "gor": 1077,
      "Ġobject": 1078,
      "ĠĠĠĠĠĠĠĠĠĠĠĠ": 1079,
      "ĠWhat": 1080,
      "Ġpol": 1081,
      "sed": 1082,
      "ctions": 1083,
      "Ġide": 1084,
      "Ġsoc": 1085,
      "Ġher": 1086,
      "alth": 1087,
      "Ġ20": 1088,
      "Ġtyp": 1089,
      "How": 1090,
      "ade": 1091,
      "ien": 1092,
      "Ġmed": 1093,
      "Ġrequire": 1094,
      "old": 1095,
      "ology": 1096,
      "Ġart": 1097,
      "Ġel": 1098,
      "line": 1099,
      "ples": 1100,
      "Ġpoint": 1101,
      "Ġpot": 1102,
      "Ġexp": 1103,
      "cript": 1104,
      "Ġyear": 1105,
      "Ġevery": 1106,
      "Ġinclude": 1107,
      "Ġbased": 1108,
      "ited": 1109,
      "iron": 1110,
      "Ġext": 1111,
      "other": 1112,
      "Ġpossible": 1113,
      "ism": 1114,
      "ars": 1115,
      "ody": 1116,
      "'re": 1117,
      "Ġlead": 1118,
      "Ġeas": 1119,
      "Ġend": 1120,
      "Ġboth": 1121,
      "gan": 1122,
      "ures": 1123,
      "Ġgu": 1124,
      "Ġeven": 1125,
      "ather": 1126,
      "Ġstud": 1127,
      "Ġ7": 1128,
      "Ġgive": 1129,
      "Ġ10": 1130,
      "ming": 1131,
      "Ġins": 1132,
      "ĠAn": 1133,
      "Ġansw": 1134,
      "**": 1135,
      "Ġsmall": 1136,
      "Ġlarge": 1137,
      "ty": 1138,
      "Ġcommun": 1139,
      "Ġeng": 1140,
      "Ġreal": 1141,
      "Ġname": 1142,
      "Ġproble": 1143,
      "Ġeffect": 1144,
      "Ġent": 1145,
      "ily": 1146,
      "ward": 1147,
      "etter": 1148,
      "any": 1149,
      "Ġwater": 1150,
      "Ġincre": 1151,
      "Ġapplic": 1152,
      "Ġmight": 1153,
      "br": 1154,
      "Ġmult": 1155,
      "Ġinput": 1156,
      "Ġcomplex": 1157,
      "ources": 1158,
      "Ġaut": 1159,
      "ization": 1160,
      "ric": 1161,
      "hed": 1162,
      "Ġlet": 1163,
      "ĠâĢ": 1164,
      "Ġla": 1165,
      "gorith": 1166,
      "Ġprom": 1167,
      "fter": 1168,
      "Ġvalue": 1169,
      "Ġlearning": 1170,
      "Ġconf": 1171,
      "âĸ": 1172,
      "cial": 1173,
      "Ġterm": 1174,
      "up": 1175,
      "Ġfeel": 1176,
      "Ġtas": 1177,
      "ivid": 1178,
      "ex": 1179,
      "Can": 1180,
      "Ġdire": 1181,
      "Ġreturn": 1182,
      "Ġpar": 1183,
      "ergy": 1184,
      "rain": 1185,
      "imate": 1186,
      "Ġstru": 1187,
      "Ġi": 1188,
      "vent": 1189,
      "Ġlearn": 1190,
      "Ġproject": 1191,
      "ional": 1192,
      "Ġequ": 1193,
      "Ġsur": 1194,
      "Ġsom": 1195,
      "Ġmuch": 1196,
      "atures": 1197,
      "Ġtool": 1198,
      "viron": 1199,
      "Ġsupport": 1200,
      "ĠUn": 1201,
      "Ġacc": 1202,
      "ring": 1203,
      "Ġbetter": 1204,
      "Ġbl": 1205,
      "Ġdi": 1206,
      "Ġproper": 1207,
      "Ġsoft": 1208,
      "Ġtype": 1209,
      "ĠThey": 1210,
      "Ġmean": 1211,
      "Ġtop": 1212,
      "Ġcontro": 1213,
      "hip": 1214,
      "ros": 1215,
      "ident": 1216,
      "Ġalgorith": 1217,
      "eg": 1218,
      "Ġ8": 1219,
      "Ġoften": 1220,
      "ertain": 1221,
      "Ġhere": 1222,
      "ives": 1223,
      "aking": 1224,
      "Ġright": 1225,
      "Ġbeh": 1226,
      "erest": 1227,
      "Ġcount": 1228,
      "Ġshe": 1229,
      "Ġmem": 1230,
      "Ġfew": 1231,
      "Ġcurrent": 1232,
      "Ġpat": 1233,
      "comm": 1234,
      "mat": 1235,
      "Ġconsider": 1236,
      "ĠThese": 1237,
      "Ġca": 1238,
      "Ġenergy": 1239,
      "ier": 1240,
      "âĢĻ": 1241,
      "cul": 1242,
      "ĠAl": 1243,
      "Ġknown": 1244,
      "ually": 1245,
      "Ġfin": 1246,
      "ank": 1247,
      "Ġaround": 1248,
      "ĠWh": 1249,
      "Ġ19": 1250,
      "Ġsame": 1251,
      "Ġuser": 1252,
      "Ġhealth": 1253,
      "Ġcar": 1254,
      "ability": 1255,
      "Ġpartic": 1256,
      "Ġinvol": 1257,
      "riend": 1258,
      "Ġtru": 1259,
      "Ġnetw": 1260,
      "Ġbecause": 1261,
      "):": 1262,
      "Ġ.": 1263,
      "Ġhard": 1264,
      "Ġoper": 1265,
      "Ġread": 1266,
      "Ġdisc": 1267,
      "Ġenviron": 1268,
      "Ġredu": 1269,
      "ĠOpen": 1270,
      "ext": 1271,
      "Ġanswer": 1272,
      "ational": 1273,
      "Ġfollowing": 1274,
      "istant": 1275,
      "Ġbel": 1276,
      "ĠWe": 1277,
      "Ġsure": 1278,
      "ĠThere": 1279,
      "Ġbre": 1280,
      "ases": 1281,
      "ĠCon": 1282,
      "Th": 1283,
      "Ġday": 1284,
      "Ġpopular": 1285,
      "Ġbefore": 1286,
      "Ġwrit": 1287,
      "ix": 1288,
      "ĠPro": 1289,
      "ner": 1290,
      "Ġpotential": 1291,
      "arm": 1292,
      "ribut": 1293,
      "Ġvis": 1294,
      "Ġinterest": 1295,
      "ew": 1296,
      "ĠĠĠĠĠĠ": 1297,
      "Ġwithout": 1298,
      "oid": 1299,
      "Sure": 1300,
      "resent": 1301,
      "vice": 1302,
      "Ġvery": 1303,
      "ox": 1304,
      "uc": 1305,
      "lic": 1306,
      "Ġmade": 1307,
      "ser": 1308,
      "Ġstill": 1309,
      "Ġable": 1310,
      "iss": 1311,
      "20": 1312,
      "Ġele": 1313,
      "Ġve": 1314,
      "Ġmaking": 1315,
      "ames": 1316,
      "Ġwrite": 1317,
      "ote": 1318,
      "arth": 1319,
      "Ġhist": 1320,
      "Ġfree": 1321,
      "Ġens": 1322,
      "ec": 1323,
      "Ġcle": 1324,
      "Ġsoftware": 1325,
      "ĠPython": 1326,
      "Ġaccess": 1327,
      "Ġimprove": 1328,
      "Ġcommon": 1329,
      ".\"": 1330,
      "ince": 1331,
      "io": 1332,
      "Ġpur": 1333,
      "ven": 1334,
      "ething": 1335,
      "Ġlo": 1336,
      "Ġconst": 1337,
      "Ġgreat": 1338,
      "tle": 1339,
      "Ġkeep": 1340,
      "to": 1341,
      "ĠAnd": 1342,
      "thing": 1343,
      "Ġchang": 1344,
      "Ġmulti": 1345,
      "Ġindivid": 1346,
      "Ġhapp": 1347,
      "Ġagain": 1348,
      "air": 1349,
      "ren": 1350,
      "inu": 1351,
      "vices": 1352,
      "Ġtem": 1353,
      "elf": 1354,
      "Ġsever": 1355,
      "Ġsystems": 1356,
      "Ġmon": 1357,
      "Ġmach": 1358,
      "gin": 1359,
      "mm": 1360,
      "Ġdevelopment": 1361,
      "Ġ\\": 1362,
      "Ġtoo": 1363,
      "Ġbelie": 1364,
      "Ġmet": 1365,
      "plement": 1366,
      "Ġed": 1367,
      "Ġcomputer": 1368,
      "Ġcontain": 1369,
      "Ġrespon": 1370,
      "Ġindividual": 1371,
      "day": 1372,
      "Ġcent": 1373,
      "Ġlim": 1374,
      "ale": 1375,
      "Ġlevel": 1376,
      "Ġexplain": 1377,
      "Ġcap": 1378,
      "conom": 1379,
      "ists": 1380,
      "Ġenvironment": 1381,
      "Ġprint": 1382,
      "Ġsomething": 1383,
      "Ġcontrol": 1384,
      "itive": 1385,
      "Ġtraining": 1386,
      "Ġcommand": 1387,
      "ead": 1388,
      "Ġquestion": 1389,
      "Ġmus": 1390,
      "--------": 1391,
      "Ġstate": 1392,
      "Ġdirect": 1393,
      "ways": 1394,
      "ggest": 1395,
      "Ġseveral": 1396,
      "Wh": 1397,
      "ave": 1398,
      "Ġmark": 1399,
      "Ġstory": 1400,
      "iness": 1401,
      "Ġquestions": 1402,
      "ique": 1403,
      "ense": 1404,
      "Ġcharacter": 1405,
      "Ġfood": 1406,
      "Ġphys": 1407,
      "Ġexperience": 1408,
      "Ġelect": 1409,
      "Ġiss": 1410,
      "Ġprof": 1411,
      "eld": 1412,
      "Ġfam": 1413,
      "Ġthings": 1414,
      "Ġrese": 1415,
      "ĠCan": 1416,
      "Ġrange": 1417,
      "::": 1418,
      "Ġimpact": 1419,
      "Ġproduct": 1420,
      "ĠEx": 1421,
      "imes": 1422,
      "Ġsuggest": 1423,
      "akes": 1424,
      "Ġfoc": 1425,
      "Ġsw": 1426,
      "Ġmove": 1427,
      "Ġblo": 1428,
      "bers": 1429,
      "ĠSome": 1430,
      "=\"": 1431,
      "000": 1432,
      "Ġwebs": 1433,
      "Ġsimple": 1434,
      "Ġtest": 1435,
      "Ġx": 1436,
      "pro": 1437,
      "(\"": 1438,
      "Ġair": 1439,
      "Ġstruct": 1440,
      "Ġfound": 1441,
      "lu": 1442,
      "not": 1443,
      "commend": 1444,
      "Ġpri": 1445,
      "atch": 1446,
      "aterial": 1447,
      "Ġthose": 1448,
      "Ġsteps": 1449,
      "ream": 1450,
      "ope": 1451,
      "sc": 1452,
      "Ġself": 1453,
      "Ġpub": 1454,
      "Ġchall": 1455,
      "Ġafter": 1456,
      "Ġpract": 1457,
      "Ġavail": 1458,
      "ĠDe": 1459,
      "Ġsignific": 1460,
      "'ll": 1461,
      "ray": 1462,
      "://": 1463,
      "Ġless": 1464,
      "oard": 1465,
      "Ġrecommend": 1466,
      "Ġbas": 1467,
      "Ġthough": 1468,
      "Ġmess": 1469,
      "ets": 1470,
      "indow": 1471,
      "dit": 1472,
      "Ġcult": 1473,
      "ooking": 1474,
      "yle": 1475,
      "ock": 1476,
      "Ġgrow": 1477,
      "Ġprogramming": 1478,
      "Ġdid": 1479,
      "mer": 1480,
      "ared": 1481,
      "verse": 1482,
      "ries": 1483,
      "li": 1484,
      "Ġcause": 1485,
      "ior": 1486,
      "ted": 1487,
      "Ġ/": 1488,
      "rect": 1489,
      "ata": 1490,
      "',": 1491,
      "Ġvers": 1492,
      "Ġprot": 1493,
      "Ġtell": 1494,
      "Ġyears": 1495,
      "Ġchange": 1496,
      "ustom": 1497,
      "Ġshow": 1498,
      "Ġfriend": 1499,
      "Ġplease": 1500,
      "iven": 1501,
      "Ġmust": 1502,
      "Ġduring": 1503,
      "icult": 1504,
      "In": 1505,
      "Ġplace": 1506,
      "Ġline": 1507,
      "here": 1508,
      "ention": 1509,
      "nect": 1510,
      "Ġest": 1511,
      "Ġorgan": 1512,
      "Ġscript": 1513,
      "Ġ//": 1514,
      "Ġoutput": 1515,
      "ape": 1516,
      "Ġanal": 1517,
      "Ġimage": 1518,
      "Ġmov": 1519,
      "Ġeconom": 1520,
      "ilar": 1521,
      "ror": 1522,
      "__": 1523,
      "Ġorder": 1524,
      "Ġeffic": 1525,
      "cing": 1526,
      "ĠÐ": 1527,
      "Ġthink": 1528,
      "Ġlibr": 1529,
      "Ġlook": 1530,
      "Ġamount": 1531,
      "ton": 1532,
      "ined": 1533,
      "Ġalways": 1534,
      "Ġconcept": 1535,
      "Ġexamples": 1536,
      "less": 1537,
      "Ġimplement": 1538,
      "ull": 1539,
      "ci": 1540,
      "ger": 1541,
      "Ġhim": 1542,
      "Ġothers": 1543,
      "Ġdeterm": 1544,
      "Ġensure": 1545,
      "Ġer": 1546,
      "ĠBut": 1547,
      "ables": 1548,
      "ems": 1549,
      "inal": 1550,
      "ator": 1551,
      "ee": 1552,
      "Ġfeatures": 1553,
      "Ġdifficult": 1554,
      "Ġfactors": 1555,
      "Ġexist": 1556,
      "Ġlay": 1557,
      "Ġask": 1558,
      "Ġbi": 1559,
      "ĠCom": 1560,
      "ills": 1561,
      "Ġsocial": 1562,
      "de": 1563,
      "Ġcalled": 1564,
      "Ġnetwork": 1565,
      "Ġresources": 1566,
      "Ġmeans": 1567,
      "ava": 1568,
      "Ġwide": 1569,
      "ellig": 1570,
      "view": 1571,
      "val": 1572,
      "ilities": 1573,
      "ash": 1574,
      "ins": 1575,
      "Ġaddition": 1576,
      "Ġgeneral": 1577,
      "usion": 1578,
      "ument": 1579,
      "Ġvide": 1580,
      "oh": 1581,
      "Ġsignificant": 1582,
      "Ġnow": 1583,
      "Ġfut": 1584,
      "Ġavailable": 1585,
      "po": 1586,
      "Ġcost": 1587,
      "Ġsit": 1588,
      "Ġworks": 1589,
      "Ġelse": 1590,
      "Ġbehav": 1591,
      "raph": 1592,
      "Ġgre": 1593,
      "Ġpersonal": 1594,
      "chie": 1595,
      "Ġmaterial": 1596,
      "Ġunt": 1597,
      "Ġcomb": 1598,
      "Ġunderstanding": 1599,
      "ĠUse": 1600,
      "âĶ": 1601,
      "Ġfast": 1602,
      "ĠIs": 1603,
      "kes": 1604,
      "You": 1605,
      "sh": 1606,
      "Ġsource": 1607,
      "ĠSo": 1608,
      "ttps": 1609,
      "crib": 1610,
      "Ġsize": 1611,
      "Ġpass": 1612,
      "yn": 1613,
      "Ġbody": 1614,
      "Ġmodels": 1615,
      "Ġvarious": 1616,
      "10": 1617,
      "Ġcheck": 1618,
      "77": 1619,
      "Ġcalcul": 1620,
      "Ġbr": 1621,
      "els": 1622,
      "Ġmachine": 1623,
      "Ġaff": 1624,
      "Ġris": 1625,
      "âĶĢ": 1626,
      "ination": 1627,
      "nces": 1628,
      "Ġrest": 1629,
      "Ġanother": 1630,
      "Ġcontent": 1631,
      "Ġserver": 1632,
      "Ġenc": 1633,
      "Ġcase": 1634,
      "Ġproblem": 1635,
      "Ġways": 1636,
      "play": 1637,
      "Ġtechnology": 1638,
      "Ġcustom": 1639,
      "Ġinc": 1640,
      "oot": 1641,
      "Ġwhy": 1642,
      "Ġneeds": 1643,
      "Ġcare": 1644,
      "lish": 1645,
      "ering": 1646,
      "Ġdem": 1647,
      "Ġachie": 1648,
      "Ġresponse": 1649,
      "Ġactiv": 1650,
      "ified": 1651,
      "oice": 1652,
      "Ġuses": 1653,
      "pos": 1654,
      "Ġgrou": 1655,
      "oose": 1656,
      "Ġspace": 1657,
      "Ġalgorithm": 1658,
      "Ġfocus": 1659,
      "Ġtasks": 1660,
      "ross": 1661,
      "orld": 1662,
      "ling": 1663,
      "Ġben": 1664,
      "ĠAr": 1665,
      "Here": 1666,
      "Ġdra": 1667,
      "Ġ9": 1668,
      "curity": 1669,
      "face": 1670,
      "und": 1671,
      "Ġz": 1672,
      "ateg": 1673,
      "Ġfuture": 1674,
      "\":": 1675,
      "Ġdri": 1676,
      "hemat": 1677,
      "Ġes": 1678,
      "Ġspeed": 1679,
      "Ġreas": 1680,
      "Ġleg": 1681,
      "Ġsay": 1682,
      "ital": 1683,
      "Ġperformance": 1684,
      "cle": 1685,
      "Ġ**": 1686,
      "Ġsaf": 1687,
      "Ġusers": 1688,
      "Ġsimilar": 1689,
      "ĠQ": 1690,
      "Ġuntil": 1691,
      "Ġident": 1692,
      "Ġcertain": 1693,
      "ails": 1694,
      "\".": 1695,
      "Ġwebsite": 1696,
      "Ġchalleng": 1697,
      "ral": 1698,
      "uck": 1699,
      "ants": 1700,
      "Ġarg": 1701,
      "Ġintern": 1702,
      "ledge": 1703,
      "Ġconc": 1704,
      "Ġmag": 1705,
      "ĠAss": 1706,
      "][": 1707,
      "ĠDo": 1708,
      "Ġsl": 1709,
      "ories": 1710,
      "Ġstand": 1711,
      "Ġinstall": 1712,
      "Ġmeas": 1713,
      "Ġmind": 1714,
      "Ġlog": 1715,
      "Ġanything": 1716,
      "Ġengine": 1717,
      "Ġshort": 1718,
      "chan": 1719,
      "way": 1720,
      "Âł": 1721,
      ",,": 1722,
      "Ġallows": 1723,
      "Ġsearch": 1724,
      "Ġpattern": 1725,
      "Ġmultiple": 1726,
      "Ġcompany": 1727,
      "Ġbecome": 1728,
      "Ġidea": 1729,
      "oss": 1730,
      "Ġrequest": 1731,
      "Ġresearch": 1732,
      "Ġanim": 1733,
      "Ġunique": 1734,
      "Yes": 1735,
      "ats": 1736,
      "ond": 1737,
      "Ġbus": 1738,
      "Ġuni": 1739,
      "ision": 1740,
      "Ġlit": 1741,
      "par": 1742,
      "ĠSh": 1743,
      "raft": 1744,
      "Ġport": 1745,
      "atform": 1746,
      "Ġchanges": 1747,
      "name": 1748,
      "Ġlikely": 1749,
      "atural": 1750,
      "Ġstore": 1751,
      "ĠWhen": 1752,
      "uss": 1753,
      "Ġtools": 1754,
      "Ġpublic": 1755,
      "Ġcorrect": 1756,
      "ired": 1757,
      "port": 1758,
      "ditionally": 1759,
      "Ġyourself": 1760,
      "Ġsuc": 1761,
      "Ġscient": 1762,
      "vern": 1763,
      "ery": 1764,
      "Ġcolor": 1765,
      "ances": 1766,
      "Ġhistory": 1767,
      "PI": 1768,
      "ume": 1769,
      "pose": 1770,
      "ĠGo": 1771,
      "cond": 1772,
      "âĶĢâĶĢ": 1773,
      "St": 1774,
      "Ġnecess": 1775,
      "Ġintellig": 1776,
      "ĠOne": 1777,
      "Ġsound": 1778,
      "Ġcell": 1779,
      "Ġfur": 1780,
      "for": 1781,
      "Ġdue": 1782,
      "Ġrele": 1783,
      "Ġvalues": 1784,
      "Ġtypes": 1785,
      "ww": 1786,
      "ulation": 1787,
      "Ġfield": 1788,
      "Ġsing": 1789,
      "Ġinvest": 1790,
      "pre": 1791,
      "Ġstrong": 1792,
      "Ġsent": 1793,
      "ication": 1794,
      "iving": 1795,
      "Ð¾": 1796,
      "Ġinteg": 1797,
      "ember": 1798,
      "Ġability": 1799,
      "ĠSe": 1800,
      "Ġapplications": 1801,
      "Ġcontin": 1802,
      "Ġpa": 1803,
      "Ġweight": 1804,
      "az": 1805,
      "Ġdel": 1806,
      "Ġcontext": 1807,
      "Ġmeaning": 1808,
      "Ġparticular": 1809,
      "oph": 1810,
      "ĠEarth": 1811,
      "Ġmarket": 1812,
      "23": 1813,
      "Ġwar": 1814,
      "ĠPlease": 1815,
      "Ġquant": 1816,
      "Ġskills": 1817,
      "Ġmathemat": 1818,
      "ding": 1819,
      "ium": 1820,
      "Ġteam": 1821,
      "ute": 1822,
      "Ġinflu": 1823,
      "Ġknowledge": 1824,
      "Ġconsidered": 1825,
      "Ġorig": 1826,
      "Ġprompt": 1827,
      "Ġhy": 1828,
      "ires": 1829,
      "Ġblock": 1830,
      "ides": 1831,
      "Ġold": 1832,
      "inux": 1833,
      "Ġhumans": 1834,
      "ĠAdditionally": 1835,
      "Ġterms": 1836,
      "Ġdescrib": 1837,
      "reate": 1838,
      "Ġsince": 1839,
      "Ġwords": 1840,
      "Ġsqu": 1841,
      "Ġplatform": 1842,
      "ug": 1843,
      "ws": 1844,
      "Ġnote": 1845,
      "Ġsumm": 1846,
      "Ġtri": 1847,
      "atic": 1848,
      "Ġfiles": 1849,
      "ches": 1850,
      "Ġtheory": 1851,
      "Ġpain": 1852,
      "Ġpolit": 1853,
      "Ġbenef": 1854,
      "ool": 1855,
      "Ġlow": 1856,
      "Ġwithin": 1857,
      "Ġcreating": 1858,
      "As": 1859,
      "Ġonline": 1860,
      "Ġprevent": 1861,
      "ert": 1862,
      "alk": 1863,
      "ength": 1864,
      "Ġprovides": 1865,
      "anced": 1866,
      "Ġprofess": 1867,
      "Ġnext": 1868,
      "dict": 1869,
      "Ġtemper": 1870,
      "ĠPl": 1871,
      "oun": 1872,
      "ctor": 1873,
      "Ġmanage": 1874,
      "Ġoptim": 1875,
      "uro": 1876,
      "aces": 1877,
      "Ġpack": 1878,
      "Ġconnect": 1879,
      "Ġenough": 1880,
      "Ġrelations": 1881,
      "rodu": 1882,
      "Ġpref": 1883,
      "Ġstructure": 1884,
      "Ġgiven": 1885,
      "Ġcannot": 1886,
      "Ġstudy": 1887,
      "ploy": 1888,
      "Ġevent": 1889,
      "ĠX": 1890,
      "ilos": 1891,
      "Ġlocal": 1892,
      "ĠWhile": 1893,
      "be": 1894,
      "Ġbehavior": 1895,
      "amp": 1896,
      "word": 1897,
      "Ġgl": 1898,
      "ression": 1899,
      "Ġnumbers": 1900,
      "vert": 1901,
      "load": 1902,
      "utes": 1903,
      "ĠEng": 1904,
      "Ġreduce": 1905,
      "Ġissues": 1906,
      "Ġview": 1907,
      "Ġtoget": 1908,
      "irt": 1909,
      "Ġtogether": 1910,
      "ĠSc": 1911,
      "ĠWith": 1912,
      "Ġmessage": 1913,
      "ogn": 1914,
      "Ġhead": 1915,
      "Ġhope": 1916,
      "Ġsuccess": 1917,
      "PT": 1918,
      "abor": 1919,
      "Ġbuilding": 1920,
      "por": 1921,
      "Ġoc": 1922,
      "olution": 1923,
      "pri": 1924,
      "erc": 1925,
      "ĠOver": 1926,
      "Ġturn": 1927,
      "Ġdig": 1928,
      "ĠSp": 1929,
      "ĠEn": 1930,
      "Ġbegin": 1931,
      "Ġmechan": 1932,
      "Ġstrateg": 1933,
      "Ġquick": 1934,
      "Ġgenerate": 1935,
      "Ġrepresent": 1936,
      "âĸĪ": 1937,
      "Ġappe": 1938,
      "Ġthree": 1939,
      "Ġstre": 1940,
      "Ġsoci": 1941,
      "board": 1942,
      "Ġversion": 1943,
      "vant": 1944,
      "Ġupd": 1945,
      "</": 1946,
      "Ġess": 1947,
      "Ġlanguages": 1948,
      "amet": 1949,
      "Ġsun": 1950,
      "aut": 1951,
      "omet": 1952,
      "Ġavoid": 1953,
      "hor": 1954,
      "ĠBy": 1955,
      "ours": 1956,
      "iques": 1957,
      "dle": 1958,
      "Ġdog": 1959,
      "Ġsomeone": 1960,
      "leep": 1961,
      "Ġstyle": 1962,
      "It": 1963,
      "Ġbusiness": 1964,
      "Ġlooking": 1965,
      "ency": 1966,
      "Ġquality": 1967,
      "ĠUS": 1968,
      "Ġmaintain": 1969,
      "Ġrelationship": 1970,
      "Ġlove": 1971,
      "Ġdoc": 1972,
      "Ġgovern": 1973,
      "Ġdeep": 1974,
      "Ġworking": 1975,
      "the": 1976,
      "Ġside": 1977,
      "meric": 1978,
      "vious": 1979,
      "py": 1980,
      "Ġcome": 1981,
      "Ġmakes": 1982,
      "me": 1983,
      "To": 1984,
      "Ġtable": 1985,
      "ption": 1986,
      "Ġagainst": 1987,
      "Ġtre": 1988,
      "Ġcompon": 1989,
      "Ġgoals": 1990,
      "Ġwriting": 1991,
      "))": 1992,
      "Ġnatural": 1993,
      "ello": 1994,
      "Ġjob": 1995,
      "Ġeasy": 1996,
      "Ġfre": 1997,
      "Ġcontribut": 1998,
      "ĠâĢ¢": 1999,
      "('": 2000,
      "Ġbat": 2001,
      "...": 2002,
      "come": 2003,
      "place": 2004,
      "ĠJava": 2005,
      "Ġmusic": 2006,
      "ann": 2007,
      "Ġsecurity": 2008,
      "Ġtravel": 2009,
      "Ġapplication": 2010,
      "Ġeffective": 2011,
      "ots": 2012,
      "ĠLet": 2013,
      "ooks": 2014,
      "Ġcir": 2015,
      "ouse": 2016,
      "Ġnon": 2017,
      "Ġvariety": 2018,
      "co": 2019,
      "Ġmil": 2020,
      "ÂłÂł": 2021,
      "Ġtakes": 2022,
      "Ġmemory": 2023,
      "Ġkind": 2024,
      "AI": 2025,
      "Ġfram": 2026,
      "Ġapproach": 2027,
      "Ġpriv": 2028,
      "Ġlibrary": 2029,
      "arget": 2030,
      "Ġoptions": 2031,
      "back": 2032,
      "Ġear": 2033,
      "izing": 2034,
      "ĠLinux": 2035,
      "Ġnecessary": 2036,
      "19": 2037,
      "js": 2038,
      "iting": 2039,
      "Ġdesigned": 2040,
      "Ġmot": 2041,
      "joy": 2042,
      "Ġservices": 2043,
      "mb": 2044,
      "Ġtechniques": 2045,
      "Ġvideo": 2046,
      "Ġpast": 2047,
      "Ġexperien": 2048,
      "Ġintelligence": 2049,
      "idence": 2050,
      "Ġfurther": 2051,
      "Ġarea": 2052,
      "Ġrole": 2053,
      "Ġdepending": 2054,
      "lt": 2055,
      "aries": 2056,
      "Ġsubject": 2057,
      "Ġvol": 2058,
      "unt": 2059,
      "Ġspecial": 2060,
      "Ġsal": 2061,
      "ĠZ": 2062,
      "Ġincrease": 2063,
      "imately": 2064,
      "Ġ:": 2065,
      "Ġgen": 2066,
      "Ġhig": 2067,
      "Ġclear": 2068,
      "Ġjo": 2069,
      "ences": 2070,
      "ĠAmeric": 2071,
      "Ġhaving": 2072,
      "Ġphilos": 2073,
      "Ġinstead": 2074,
      "Ġminutes": 2075,
      "Ġgr": 2076,
      "There": 2077,
      "ĠAssistant": 2078,
      "Ġindust": 2079,
      "ditions": 2080,
      "iled": 2081,
      "oney": 2082,
      "oms": 2083,
      "ording": 2084,
      "of": 2085,
      "oring": 2086,
      "Ġchild": 2087,
      "Ġpoints": 2088,
      "\")": 2089,
      "Ġproblems": 2090,
      "Ġland": 2091,
      "Ġsingle": 2092,
      "((": 2093,
      "],": 2094,
      "Ġsong": 2095,
      "Ġcr": 2096,
      "set": 2097,
      "Ġmo": 2098,
      "Ġregular": 2099,
      "verage": 2100,
      "'ve": 2101,
      "ately": 2102,
      "Ġstring": 2103,
      "Ġobjects": 2104,
      "ury": 2105,
      "apt": 2106,
      "Ġaud": 2107,
      "ĠShe": 2108,
      "Ġmethods": 2109,
      "Ġprotect": 2110,
      "ffic": 2111,
      "acy": 2112,
      "orn": 2113,
      "Ġnever": 2114,
      "Ġefficient": 2115,
      "11": 2116,
      "Ġattack": 2117,
      "Ġpath": 2118,
      "ological": 2119,
      "Ð°": 2120,
      "Ġcreated": 2121,
      "istic": 2122,
      "Ðµ": 2123,
      "ental": 2124,
      "Ġpress": 2125,
      "Ġbro": 2126,
      "Ġmodern": 2127,
      "Ġclose": 2128,
      "Ġideas": 2129,
      "Ġphysical": 2130,
      "ĠBe": 2131,
      "app": 2132,
      "uation": 2133,
      "str": 2134,
      "ished": 2135,
      "fort": 2136,
      "ties": 2137,
      "orry": 2138,
      "Ġcommunity": 2139,
      "ze": 2140,
      "Ġpres": 2141,
      "ients": 2142,
      "Ġhelps": 2143,
      "by": 2144,
      "ãģ": 2145,
      "ird": 2146,
      "Ġbasic": 2147,
      "ĠMy": 2148,
      "Ġsecond": 2149,
      "Ġtask": 2150,
      "ik": 2151,
      "Ġcharacters": 2152,
      "erence": 2153,
      "Ġrunning": 2154,
      "med": 2155,
      "Ġdone": 2156,
      "Ġsuper": 2157,
      "ube": 2158,
      "amed": 2159,
      "let": 2160,
      "ips": 2161,
      "ler": 2162,
      "like": 2163,
      "Hello": 2164,
      "man": 2165,
      "Ġscen": 2166,
      "Ġdep": 2167,
      "Ġcomplete": 2168,
      "Ġcy": 2169,
      "Ġhome": 2170,
      "orks": 2171,
      "Ġtimes": 2172,
      "Ġtoday": 2173,
      "Ġachieve": 2174,
      "Ġinvolves": 2175,
      "bal": 2176,
      "Ġcall": 2177,
      "icro": 2178,
      "Ġge": 2179,
      "ibility": 2180,
      "Ġremain": 2181,
      "urope": 2182,
      "Write": 2183,
      "ml": 2184,
      "ĠIm": 2185,
      "Ġelements": 2186,
      "Ġnature": 2187,
      "Ġservice": 2188,
      "Ġaddress": 2189,
      "Ġresults": 2190,
      "Ġword": 2191,
      "Ġmass": 2192,
      "text": 2193,
      "Ġgroup": 2194,
      "Ġcard": 2195,
      "Ġet": 2196,
      "Ġtrue": 2197,
      "Ġexplore": 2198,
      "Ġĉ": 2199,
      "land": 2200,
      "light": 2201,
      "Ġsch": 2202,
      "Ġlast": 2203,
      "just": 2204,
      "Ġey": 2205,
      "Ġadditional": 2206,
      "ĠCreate": 2207,
      "Ġmor": 2208,
      "Ġ>": 2209,
      "aging": 2210,
      "ently": 2211,
      "Ġtarget": 2212,
      "anks": 2213,
      "Ġeconomic": 2214,
      "Ġnorm": 2215,
      "ĠPh": 2216,
      "ogle": 2217,
      "wards": 2218,
      "Ġfamily": 2219,
      "Ġfore": 2220,
      "struct": 2221,
      "Ġleft": 2222,
      "Ġcrit": 2223,
      "Ġbook": 2224,
      "ived": 2225,
      "Ġaffect": 2226,
      "++": 2227,
      "inter": 2228,
      "ane": 2229,
      "Ġscience": 2230,
      "Ġlot": 2231,
      "ample": 2232,
      "Ġgraph": 2233,
      "ĠMake": 2234,
      "Ġchoice": 2235,
      "ysis": 2236,
      "Ġautom": 2237,
      "Ġaccount": 2238,
      "Ġquantum": 2239,
      "ER": 2240,
      "ken": 2241,
      "Ġinit": 2242,
      "Ġchoose": 2243,
      "jor": 2244,
      "Ġsense": 2245,
      "ilt": 2246,
      "ĠFin": 2247,
      "pr": 2248,
      "Ġbal": 2249,
      "Ġhttps": 2250,
      "Ġtrack": 2251,
      "Ġrad": 2252,
      "Ġsort": 2253,
      "Ġgames": 2254,
      "Ġrespons": 2255,
      "âĸĪâĸĪ": 2256,
      "ah": 2257,
      "Ġpowerful": 2258,
      "ĠUnited": 2259,
      "SS": 2260,
      "ĠAPI": 2261,
      "ĠWorld": 2262,
      "ivity": 2263,
      "craft": 2264,
      "Ġdistance": 2265,
      "Ġreason": 2266,
      ",\"": 2267,
      "ney": 2268,
      "Ġaltern": 2269,
      "opy": 2270,
      "illion": 2271,
      "based": 2272,
      "ĠAdd": 2273,
      "lying": 2274,
      "Ġfunctions": 2275,
      "irtual": 2276,
      "ON": 2277,
      "over": 2278,
      "ites": 2279,
      "Ġpython": 2280,
      "Ġexerc": 2281,
      "Ġsets": 2282,
      "Ġrisk": 2283,
      "Ġrece": 2284,
      "Ġareas": 2285,
      "ndom": 2286,
      "col": 2287,
      "ditional": 2288,
      "path": 2289,
      "umn": 2290,
      "Ġenjoy": 2291,
      "Ġtypically": 2292,
      "Ġcour": 2293,
      "Ġfall": 2294,
      "ask": 2295,
      "Ġwhether": 2296,
      "Ġdetermine": 2297,
      "12": 2298,
      "den": 2299,
      "Ġrather": 2300,
      "ĠOn": 2301,
      "head": 2302,
      "Ġgoing": 2303,
      "side": 2304,
      "Ġ&": 2305,
      "Ġseries": 2306,
      "Ġneg": 2307,
      "Ġdepends": 2308,
      "If": 2309,
      "ĠOr": 2310,
      "Ġfar": 2311,
      "ĠCl": 2312,
      "ĠChe": 2313,
      "Ġwee": 2314,
      "Ġscre": 2315,
      "Ġalgorithms": 2316,
      "Ġpolitical": 2317,
      "use": 2318,
      "Ġaction": 2319,
      "Ġbrain": 2320,
      "asing": 2321,
      "pecial": 2322,
      "mit": 2323,
      "Ġreally": 2324,
      "Ġconditions": 2325,
      "oci": 2326,
      "Ġneeded": 2327,
      "Ġprofessional": 2328,
      "Ġsleep": 2329,
      "Ġcity": 2330,
      "Ġformat": 2331,
      "Ġpie": 2332,
      "Ġabove": 2333,
      "Ġpredict": 2334,
      "Ġbreak": 2335,
      "indows": 2336,
      "Ġharm": 2337,
      "Ġglo": 2338,
      "ML": 2339,
      "Ġcolle": 2340,
      "Ġprevious": 2341,
      "ĠCons": 2342,
      "Ġimages": 2343,
      "Ġrelated": 2344,
      "Ġeasier": 2345,
      "Ġloop": 2346,
      "iod": 2347,
      "Ġbot": 2348,
      "Ġop": 2349,
      "aring": 2350,
      "sequ": 2351,
      "Ġsociety": 2352,
      "Ġadvant": 2353,
      "sy": 2354,
      "Ġuseful": 2355,
      "Ġplayers": 2356,
      "ipe": 2357,
      "Ġbrow": 2358,
      "Ġtemperature": 2359,
      "Ġsources": 2360,
      "lex": 2361,
      "Ġeth": 2362,
      "Ġleast": 2363,
      "ĠDes": 2364,
      "rypt": 2365,
      "Ġ</": 2366,
      "roid": 2367,
      "ĠEurope": 2368,
      "Ġgoal": 2369,
      "ohn": 2370,
      "ither": 2371,
      "ĠĠĠĠĠĠĠĠĠĠĠĠĠĠĠĠĠĠĠĠĠĠĠĠĠĠĠĠĠĠĠĠ": 2372,
      "Ġoccur": 2373,
      "Ġ12": 2374,
      "Ġevents": 2375,
      "Ġrequires": 2376,
      "Ġtrying": 2377,
      "ration": 2378,
      "Ġstay": 2379,
      "ift": 2380,
      "Ġcountry": 2381,
      "Ġput": 2382,
      "Ġaway": 2383,
      "Ġpresent": 2384,
      "âĢĿ": 2385,
      "Ġposition": 2386,
      "Ġbig": 2387,
      "Ġmoney": 2388,
      "Ġvary": 2389,
      "Ġfriends": 2390,
      "ster": 2391,
      "ĠHT": 2392,
      "ready": 2393,
      "Ġdefin": 2394,
      "Ġmedia": 2395,
      "Ġsens": 2396,
      "Ġrob": 2397,
      "==": 2398,
      "ancial": 2399,
      "ĠOnce": 2400,
      "Ġevidence": 2401,
      "Ġexpect": 2402,
      "Ġvalid": 2403,
      "Ġuniverse": 2404,
      "50": 2405,
      "Ġball": 2406,
      "Ġdifference": 2407,
      "Ġstandard": 2408,
      "time": 2409,
      "aste": 2410,
      "ologies": 2411,
      "Ġdoing": 2412,
      "Ġdatab": 2413,
      "Is": 2414,
      "Ġbase": 2415,
      "Ġindividuals": 2416,
      "Ð¸": 2417,
      "Ġemot": 2418,
      "Ġtrained": 2419,
      "oes": 2420,
      "ĠĠĠĠĠĠĠĠĠ": 2421,
      "Ġclean": 2422,
      "Ġlive": 2423,
      "we": 2424,
      "ont": 2425,
      "Ġquickly": 2426,
      "Ġprote": 2427,
      "Ġrequirements": 2428,
      "Ġtransform": 2429,
      "priate": 2430,
      "ST": 2431,
      "enc": 2432,
      "Ġexec": 2433,
      "Ġassist": 2434,
      "bs": 2435,
      "new": 2436,
      "Ġplayer": 2437,
      "Ġstarted": 2438,
      "Ġprob": 2439,
      "Ġfeed": 2440,
      "Ġmaterials": 2441,
      "Ġscientific": 2442,
      "Ġchallenges": 2443,
      "Ġmeasure": 2444,
      "Ġinteract": 2445,
      "ÑĤ": 2446,
      "Ġgain": 2447,
      "une": 2448,
      "Ġidentify": 2449,
      "Ex": 2450,
      "Please": 2451,
      "Ġaccur": 2452,
      "Ġcoll": 2453,
      "Ġsaid": 2454,
      "Ġexact": 2455,
      "Ġtaking": 2456,
      "Ġhelpful": 2457,
      "ĠâĢľ": 2458,
      "used": 2459,
      "Ġincludes": 2460,
      "ngth": 2461,
      "tml": 2462,
      "ises": 2463,
      "erences": 2464,
      "che": 2465,
      "ider": 2466,
      "Ġcountries": 2467,
      "PU": 2468,
      "actions": 2469,
      "Ġalready": 2470,
      "Ġphot": 2471,
      "ulate": 2472,
      "izes": 2473,
      "Ġdetails": 2474,
      "Ġoffer": 2475,
      "Ġdr": 2476,
      "Ġperiod": 2477,
      "Ġpolic": 2478,
      "Thank": 2479,
      "Ġhappen": 2480,
      "ension": 2481,
      "Ġcaus": 2482,
      "ground": 2483,
      "Ġmax": 2484,
      "ograph": 2485,
      "Ġregard": 2486,
      "Ġrecogn": 2487,
      "Ġreach": 2488,
      "Ġstat": 2489,
      "Ġminim": 2490,
      "QL": 2491,
      "ese": 2492,
      "Ġshare": 2493,
      "Ġdark": 2494,
      "rag": 2495,
      "Ġoption": 2496,
      "Ġemail": 2497,
      "Ġprovided": 2498,
      "Ġfig": 2499,
      "Ġneural": 2500,
      "Ġobser": 2501,
      "inci": 2502,
      "Ġlength": 2503,
      "Ġmajor": 2504,
      "itch": 2505,
      "file": 2506,
      "Ġ18": 2507,
      "Ġlittle": 2508,
      "Ġhighly": 2509,
      "empt": 2510,
      "aves": 2511,
      "Ġdocument": 2512,
      "Ġage": 2513,
      "ised": 2514,
      "Ġflow": 2515,
      "key": 2516,
      "Ġattention": 2517,
      "Ġhigher": 2518,
      "ura": 2519,
      "Ġegg": 2520,
      "Ġfac": 2521,
      "ĠInst": 2522,
      "ĠDis": 2523,
      "Ġgovernment": 2524,
      "15": 2525,
      "Ġconvers": 2526,
      "Ġparamet": 2527,
      "Ġflo": 2528,
      "Ġadjust": 2529,
      "Ġroot": 2530,
      "Ġbit": 2531,
      "Ġcapt": 2532,
      "ius": 2533,
      "etic": 2534,
      "ĠEm": 2535,
      "cious": 2536,
      "Ġpay": 2537,
      "ush": 2538,
      "ensive": 2539,
      "ĠOverall": 2540,
      "ators": 2541,
      "Ġste": 2542,
      "Ġdevices": 2543,
      "Ġlimit": 2544,
      "itor": 2545,
      "rop": 2546,
      "Ġproperties": 2547,
      "\">": 2548,
      "ificial": 2549,
      "Ġstarting": 2550,
      "Ġerror": 2551,
      "Ġphilosoph": 2552,
      "Ġfull": 2553,
      "Ġdays": 2554,
      "ĠKe": 2555,
      "Ġdirectory": 2556,
      "data": 2557,
      "ĠChat": 2558,
      "Ġmatter": 2559,
      "Ġpost": 2560,
      "ung": 2561,
      "Ġ==": 2562,
      "Ġfinancial": 2563,
      "Ġcontinue": 2564,
      "pecially": 2565,
      "Ġitems": 2566,
      "Ġroom": 2567,
      "Ġpositive": 2568,
      "Ġpractice": 2569,
      "Ġnamed": 2570,
      "Ġconne": 2571,
      "Ġcourse": 2572,
      "Ġcompet": 2573,
      "ailed": 2574,
      "ula": 2575,
      "ĠYour": 2576,
      "Ġlevels": 2577,
      "Ġanaly": 2578,
      "ĠRem": 2579,
      "Ġtraditional": 2580,
      "Ġdam": 2581,
      "avor": 2582,
      "Ġconsum": 2583,
      "Ġlocation": 2584,
      "Ġblack": 2585,
      "arent": 2586,
      "Ġpaper": 2587,
      "ĠStates": 2588,
      "Ġgetting": 2589,
      "Ġdoesn": 2590,
      "ones": 2591,
      "nds": 2592,
      "utions": 2593,
      "Ġrandom": 2594,
      "Ġthought": 2595,
      "Ġstop": 2596,
      "Ġintrodu": 2597,
      "pportun": 2598,
      "That": 2599,
      "Ġadvanced": 2600,
      "Ġconcern": 2601,
      "Ġpatterns": 2602,
      "Ġground": 2603,
      "Ġrelevant": 2604,
      "ĠSet": 2605,
      "arb": 2606,
      "Ġarch": 2607,
      "Script": 2608,
      "Ġlower": 2609,
      "Ġbra": 2610,
      "Ġwhite": 2611,
      "Ġassoci": 2612,
      "Ġlaw": 2613,
      "uild": 2614,
      "ĠAp": 2615,
      "Ġsequ": 2616,
      "ĠNew": 2617,
      "Ġrock": 2618,
      "oud": 2619,
      "Ġdeb": 2620,
      "Ġshape": 2621,
      "Ġhardware": 2622,
      "Ġthing": 2623,
      "Ġloss": 2624,
      "Ġarray": 2625,
      "Ġwidely": 2626,
      "Ġespecially": 2627,
      "Ġvi": 2628,
      "Ġvirtual": 2629,
      "Ġmeet": 2630,
      "Ġnight": 2631,
      "Ġappropriate": 2632,
      "Why": 2633,
      "Ġful": 2634,
      "ront": 2635,
      "iency": 2636,
      "Ġconfig": 2637,
      "Ġdisplay": 2638,
      "Ġestab": 2639,
      "Ġdatase": 2640,
      "iment": 2641,
      "Ġabs": 2642,
      "Ġusually": 2643,
      "ĠGerm": 2644,
      "Ġacross": 2645,
      "Ġbenefits": 2646,
      "Ġwon": 2647,
      "alking": 2648,
      "Ġearth": 2649,
      "ification": 2650,
      "ault": 2651,
      "Ġanalysis": 2652,
      "ynam": 2653,
      "Ġmix": 2654,
      "icate": 2655,
      "Ġant": 2656,
      "Ġcru": 2657,
      "cc": 2658,
      "Ġrout": 2659,
      "oman": 2660,
      "Ġonce": 2661,
      "Ġsafe": 2662,
      "Ġsquare": 2663,
      "Ġreview": 2664,
      "idth": 2665,
      "ĠGod": 2666,
      "Ġproduction": 2667,
      "Ġaverage": 2668,
      "Ġsorry": 2669,
      "Ġcat": 2670,
      "Ġcases": 2671,
      "ĠThat": 2672,
      "ints": 2673,
      "Ġproduce": 2674,
      "Ġcells": 2675,
      "go": 2676,
      "rap": 2677,
      "anger": 2678,
      "Ġ30": 2679,
      "Ġconsist": 2680,
      "ĠJohn": 2681,
      "Ġsmo": 2682,
      "Ġframew": 2683,
      "22": 2684,
      "my": 2685,
      "Ġseen": 2686,
      "Ġprim": 2687,
      "Ġbelieve": 2688,
      "ĠEnglish": 2689,
      "Ġetc": 2690,
      "Ġselect": 2691,
      "Ġwritten": 2692,
      "Ġelement": 2693,
      "Ġessential": 2694,
      "cient": 2695,
      "inking": 2696,
      "Ġpurpose": 2697,
      "ĠGoogle": 2698,
      "Ġschool": 2699,
      "Ġslow": 2700,
      "ĠCal": 2701,
      "duct": 2702,
      "'d": 2703,
      "Ġface": 2704,
      "Ġfish": 2705,
      "Ġvariable": 2706,
      "Ġ?": 2707,
      "Ġdest": 2708,
      "ĠAt": 2709,
      "Ġparts": 2710,
      "ystem": 2711,
      "GPT": 2712,
      "ining": 2713,
      "Ġposs": 2714,
      "Ġgrowth": 2715,
      "Ġprogress": 2716,
      "Ġeffects": 2717,
      "onal": 2718,
      "Ġeffort": 2719,
      "Ġrequired": 2720,
      "Ġdraw": 2721,
      "Ġoriginal": 2722,
      "IN": 2723,
      "Ġhours": 2724,
      "')": 2725,
      "Ġopportun": 2726,
      "Ġeither": 2727,
      "resh": 2728,
      "Ġattempt": 2729,
      "cription": 2730,
      "Ġemploy": 2731,
      "Ġactions": 2732,
      "pective": 2733,
      "Ġfrequ": 2734,
      "Ġheart": 2735,
      "plain": 2736,
      "aches": 2737,
      "Ġinternet": 2738,
      "Ġfit": 2739,
      "Ġfund": 2740,
      "Ġ200": 2741,
      "Ġinterpre": 2742,
      "Ġrules": 2743,
      "isions": 2744,
      "ĠRust": 2745,
      "Ġadapt": 2746,
      "Ġplanet": 2747,
      "Ġprojects": 2748,
      "Ġblue": 2749,
      "Ġdiv": 2750,
      "Ġlab": 2751,
      "ili": 2752,
      "Ġprocessing": 2753,
      "Ġsolution": 2754,
      "right": 2755,
      "Ã©": 2756,
      "Ġsepar": 2757,
      "aps": 2758,
      "Ġconcepts": 2759,
      "Ġbo": 2760,
      "ĠNote": 2761,
      "Ġbelief": 2762,
      "Ġver": 2763,
      "Ġ100": 2764,
      "Ġprinci": 2765,
      "Ġsmaller": 2766,
      "log": 2767,
      "ĠCol": 2768,
      "ĠFinally": 2769,
      "itle": 2770,
      "abilities": 2771,
      "Ġconscious": 2772,
      "Ġeduc": 2773,
      "Ġconsequ": 2774,
      "Ġbran": 2775,
      "rans": 2776,
      "Ġexplan": 2777,
      "atively": 2778,
      "Ġtreat": 2779,
      "Ġfire": 2780,
      "arc": 2781,
      "ribution": 2782,
      "ðŁ": 2783,
      "Could": 2784,
      "Ġred": 2785,
      "Ġalong": 2786,
      "Ġcollect": 2787,
      "AT": 2788,
      "Ġforce": 2789,
      "ids": 2790,
      "Ġang": 2791,
      "ably": 2792,
      "Ġauthor": 2793,
      "roll": 2794,
      "elds": 2795,
      "Ġbuy": 2796,
      "aling": 2797,
      "Ġoperating": 2798,
      "Ġdatabase": 2799,
      "Ġdeveloped": 2800,
      "Ġfix": 2801,
      "ission": 2802,
      "Ġwood": 2803,
      "Ġones": 2804,
      "ply": 2805,
      "uration": 2806,
      "Ð¾Ð": 2807,
      "Ġnormal": 2808,
      "Ġinitial": 2809,
      "Ġglobal": 2810,
      "Ġnear": 2811,
      "ĠBl": 2812,
      "ĠAmerican": 2813,
      "Ġpage": 2814,
      "Ġcompan": 2815,
      "Ġoffers": 2816,
      "Ġleading": 2817,
      "Ġsummary": 2818,
      "source": 2819,
      "dom": 2820,
      "Ġproviding": 2821,
      "Ġmanagement": 2822,
      "AM": 2823,
      "Ġsn": 2824,
      "Ġpan": 2825,
      "Ġlonger": 2826,
      "----------------": 2827,
      "AN": 2828,
      "sp": 2829,
      "aken": 2830,
      "Ġinn": 2831,
      "Ġdevice": 2832,
      "clusion": 2833,
      "();": 2834,
      "Ġsolve": 2835,
      "ager": 2836,
      "Ġbad": 2837,
      "Ġlat": 2838,
      "Ġstates": 2839,
      "Ġindustry": 2840,
      "python": 2841,
      "ump": 2842,
      "Ġgenerally": 2843,
      "Ġincor": 2844,
      "do": 2845,
      "volution": 2846,
      "Ġdescribe": 2847,
      "ÑĢ": 2848,
      "Ġdate": 2849,
      "Ġyoung": 2850,
      "Ġitself": 2851,
      "Ġmedical": 2852,
      "Ġstrength": 2853,
      "Ġâ": 2854,
      "fully": 2855,
      "Ġproperty": 2856,
      "action": 2857,
      "Ġmar": 2858,
      "Ġlarger": 2859,
      "Ġhandle": 2860,
      "Ġamong": 2861,
      "Ġinteresting": 2862,
      "Ġlimited": 2863,
      "Ġproducts": 2864,
      "ĠHTML": 2865,
      "Ġwa": 2866,
      "ison": 2867,
      "ĠSer": 2868,
      "Ġcomes": 2869,
      "Ġ11": 2870,
      "Ġcontinu": 2871,
      "Ġjour": 2872,
      "itect": 2873,
      "Ġbar": 2874,
      "alse": 2875,
      "Ñģ": 2876,
      "inary": 2877,
      "alf": 2878,
      "Ġdetect": 2879,
      "Ġassistant": 2880,
      "Ġheav": 2881,
      "Ġdecision": 2882,
      "html": 2883,
      "ym": 2884,
      "ulations": 2885,
      "Ġsuit": 2886,
      "hers": 2887,
      "Ġhistor": 2888,
      "Ġconstant": 2889,
      "ounter": 2890,
      "lict": 2891,
      "Ġcomponents": 2892,
      "Ġsupp": 2893,
      "Ġhost": 2894,
      "ights": 2895,
      "Ġhappy": 2896,
      "ltimately": 2897,
      "lished": 2898,
      "Ġhold": 2899,
      "osed": 2900,
      "Ġsurface": 2901,
      "Ġprior": 2902,
      "son": 2903,
      "orth": 2904,
      "ĠAfter": 2905,
      "Ġspecies": 2906,
      "Ġoverall": 2907,
      "Ġsituation": 2908,
      "Ġanimals": 2909,
      "80": 2910,
      "fect": 2911,
      "itation": 2912,
      "ĠJavaScript": 2913,
      "list": 2914,
      "uff": 2915,
      "Ġing": 2916,
      "Ġpow": 2917,
      "ection": 2918,
      "Ġbecom": 2919,
      "Ġinsp": 2920,
      "Ġdiscuss": 2921,
      "Ġbring": 2922,
      "Ġload": 2923,
      "Ġscreen": 2924,
      "ID": 2925,
      "Ġweather": 2926,
      "Ġinside": 2927,
      "Ġcirc": 2928,
      "Ġdream": 2929,
      "igate": 2930,
      "Ġbehind": 2931,
      "aur": 2932,
      "Ġletter": 2933,
      "zz": 2934,
      "Ġmid": 2935,
      "izations": 2936,
      "ĠEl": 2937,
      "ĠLe": 2938,
      "ny": 2939,
      "augh": 2940,
      "Ġguid": 2941,
      "Ġmathematical": 2942,
      "AR": 2943,
      "oad": 2944,
      "ĠInt": 2945,
      "Ġrefer": 2946,
      "omen": 2947,
      "add": 2948,
      "Ġcommunication": 2949,
      "Ġissue": 2950,
      "cent": 2951,
      "Ġbed": 2952,
      "Ġaccept": 2953,
      "www": 2954,
      "https": 2955,
      "Ġtips": 2956,
      "ivil": 2957,
      "Ġeval": 2958,
      "Ġbuilt": 2959,
      "OS": 2960,
      "Ġut": 2961,
      "Ġcompared": 2962,
      "Ġdifferences": 2963,
      "LE": 2964,
      "Ġcopy": 2965,
      "Ġdeg": 2966,
      "ival": 2967,
      "Ġdevelopers": 2968,
      "Ġactivities": 2969,
      "icial": 2970,
      "ĠWindows": 2971,
      "Ġactive": 2972,
      "Ġtransl": 2973,
      "Ġlayer": 2974,
      "rong": 2975,
      "Ġmatch": 2976,
      "Ġcool": 2977,
      "Ġsurv": 2978,
      "Ġcurrently": 2979,
      "List": 2980,
      "ĠAnother": 2981,
      "Ġ16": 2982,
      "ĠBrit": 2983,
      "Ġarchitect": 2984,
      "Ġheat": 2985,
      "Ġsend": 2986,
      "sole": 2987,
      "Ġkeyboard": 2988,
      "ai": 2989,
      "Ġaspect": 2990,
      "Ġsimply": 2991,
      "Ġefficiency": 2992,
      "Ġexperiences": 2993,
      "Ġfour": 2994,
      "ĠNo": 2995,
      "Ġcarb": 2996,
      "Ġculture": 2997,
      "gest": 2998,
      "tal": 2999,
      "osing": 3000,
      "redients": 3001,
      "Ġter": 3002,
      "Ġmis": 3003,
      "aa": 3004,
      "cs": 3005,
      "what": 3006,
      "Ġgot": 3007,
      "ĠMon": 3008,
      "Ġrate": 3009,
      "Ġcultural": 3010,
      "Ġdigital": 3011,
      "Pro": 3012,
      "pped": 3013,
      "Ġemb": 3014,
      "Ġprocesses": 3015,
      "Ġvisual": 3016,
      "Ġlegal": 3017,
      "RE": 3018,
      "Ġdom": 3019,
      "Ġgrav": 3020,
      "Ġelectric": 3021,
      "mbol": 3022,
      "Â°": 3023,
      "ina": 3024,
      "Ġsynt": 3025,
      "Ġthroughout": 3026,
      "mos": 3027,
      "Ġwindow": 3028,
      "aving": 3029,
      "Ġinde": 3030,
      "selves": 3031,
      "Ġveget": 3032,
      "Ġnp": 3033,
      "Ġpackage": 3034,
      "Ġweek": 3035,
      "aim": 3036,
      "ls": 3037,
      "soft": 3038,
      "itions": 3039,
      "Ġdynam": 3040,
      "ĠWar": 3041,
      "date": 3042,
      "Ġmom": 3043,
      "rus": 3044,
      "sing": 3045,
      "Ġroll": 3046,
      "Ġplaying": 3047,
      "Ġparticularly": 3048,
      "Ġaudience": 3049,
      "Ġoil": 3050,
      "Ġsche": 3051,
      "iction": 3052,
      "Ġsolar": 3053,
      "Ġcomputing": 3054,
      "sych": 3055,
      "Ġcut": 3056,
      "iles": 3057,
      "ĠPer": 3058,
      "Ġder": 3059,
      "Ġheight": 3060,
      "num": 3061,
      "hel": 3062,
      "unch": 3063,
      "Ġcolumn": 3064,
      "Ġentire": 3065,
      "Ġsimpl": 3066,
      "Ġtopic": 3067,
      "55": 3068,
      "Ġchat": 3069,
      "elling": 3070,
      "Ġnetworks": 3071,
      "Ġaccurate": 3072,
      "ĠChatGPT": 3073,
      "aw": 3074,
      "min": 3075,
      "Ġ%": 3076,
      "uments": 3077,
      "Ġworth": 3078,
      "Ġdistribution": 3079,
      "Ġinterested": 3080,
      "ges": 3081,
      "Ġopp": 3082,
      "Ġlack": 3083,
      "ĠMan": 3084,
      "This": 3085,
      "Ġearly": 3086,
      "arily": 3087,
      "Ġlives": 3088,
      "Ġliving": 3089,
      "Ġconsequences": 3090,
      "No": 3091,
      "Ġsat": 3092,
      "Ġrecord": 3093,
      "Ġfields": 3094,
      "Ġdownload": 3095,
      "64": 3096,
      "Ġsafety": 3097,
      "Ġtowards": 3098,
      "odes": 3099,
      "Ġancient": 3100,
      "istics": 3101,
      "Ġplant": 3102,
      "Ġcolors": 3103,
      "Ġoperations": 3104,
      "Ġgreen": 3105,
      "Ġappear": 3106,
      "rics": 3107,
      "aly": 3108,
      "ĠAre": 3109,
      "Ġsum": 3110,
      "plies": 3111,
      "Ġallowing": 3112,
      "Ġhealthy": 3113,
      "Ġfaster": 3114,
      "Ġaware": 3115,
      "ĠNe": 3116,
      "Ġreport": 3117,
      "tings": 3118,
      "Ġfru": 3119,
      "Ġreality": 3120,
      "elt": 3121,
      "Ġ15": 3122,
      "Ġspecif": 3123,
      "ĠStart": 3124,
      "Ġeverything": 3125,
      "Ġinvolved": 3126,
      "ĠQu": 3127,
      "force": 3128,
      "Ch": 3129,
      "orial": 3130,
      "Ġ=>": 3131,
      "Ġdecisions": 3132,
      "Ġartificial": 3133,
      "Ġdirectly": 3134,
      "cure": 3135,
      "Ġactually": 3136,
      "30": 3137,
      "Ġhab": 3138,
      "Ġ--": 3139,
      "ffee": 3140,
      "Ġsymbol": 3141,
      "Ġrot": 3142,
      "Ġfeedback": 3143,
      "Ġassociated": 3144,
      "16": 3145,
      "ball": 3146,
      "Ð½": 3147,
      "itud": 3148,
      "Ġimm": 3149,
      "Ġrelationships": 3150,
      "imens": 3151,
      "aced": 3152,
      "Ġdistribut": 3153,
      "ising": 3154,
      "angle": 3155,
      "Ġdesired": 3156,
      "Ġmonth": 3157,
      "write": 3158,
      "Ġyet": 3159,
      "Ġnut": 3160,
      "ĠThen": 3161,
      "Ġcontra": 3162,
      "Ġchem": 3163,
      "Ġstudents": 3164,
      "icrosoft": 3165,
      "ma": 3166,
      "Ġcook": 3167,
      "Ġdanger": 3168,
      "Ġnames": 3169,
      "izz": 3170,
      "ĠAlso": 3171,
      "body": 3172,
      "Ġaim": 3173,
      "Ġlater": 3174,
      "Ġscore": 3175,
      "Ġdiet": 3176,
      "Ġcentury": 3177,
      "':": 3178,
      "Ġbecame": 3179,
      "âĸĴ": 3180,
      "Ġdrive": 3181,
      "ĠCould": 3182,
      "ister": 3183,
      "ĠNow": 3184,
      "ception": 3185,
      "Ġremember": 3186,
      "Ġinvolve": 3187,
      "Ġphysics": 3188,
      "Ġlibraries": 3189,
      "rage": 3190,
      "Ġeveryone": 3191,
      "ype": 3192,
      "Ġcomfort": 3193,
      "rie": 3194,
      "Ġimag": 3195,
      "versity": 3196,
      "Ġbatter": 3197,
      "down": 3198,
      "ech": 3199,
      "Ġtree": 3200,
      "Ġhot": 3201,
      "ĠGree": 3202,
      "Ġvariables": 3203,
      "Ġactivity": 3204,
      "])": 3205,
      "gen": 3206,
      "Ġeasily": 3207,
      "LL": 3208,
      "Ġ_": 3209,
      "Ġstream": 3210,
      "Ġapprox": 3211,
      "Ġcompanies": 3212,
      "Ġdou": 3213,
      "ĠTry": 3214,
      "Ġled": 3215,
      "ĠFr": 3216,
      "Ġcommit": 3217,
      "Ġcomplexity": 3218,
      "Ġcommonly": 3219,
      "value": 3220,
      "mon": 3221,
      "Ġever": 3222,
      "Ġprec": 3223,
      "Ġspread": 3224,
      "Ġbackground": 3225,
      "âĶĢâĶĢâĶĢâĶĢ": 3226,
      "Ġeyes": 3227,
      "17": 3228,
      "Ġseem": 3229,
      "Ġdetailed": 3230,
      "Ġcontains": 3231,
      "lear": 3232,
      "Ġfeature": 3233,
      "Ġsave": 3234,
      "Ġcenter": 3235,
      "Ġdemon": 3236,
      "Ġinfluence": 3237,
      "het": 3238,
      "ĠFirst": 3239,
      "Ġnoise": 3240,
      "ĠKeep": 3241,
      "Ġpad": 3242,
      "Ġeat": 3243,
      "ians": 3244,
      "Ġlif": 3245,
      "cles": 3246,
      "ĠCheck": 3247,
      "Ġframework": 3248,
      "Ġboard": 3249,
      "Ġdru": 3250,
      "Ġspeak": 3251,
      "pite": 3252,
      "Ġid": 3253,
      "ocol": 3254,
      "Ġtechnologies": 3255,
      "dr": 3256,
      "org": 3257,
      "Ġlink": 3258,
      "care": 3259,
      "Ġbeaut": 3260,
      "ended": 3261,
      "Ġfeeling": 3262,
      "Ġmotiv": 3263,
      "Ġsequence": 3264,
      "Ġinnov": 3265,
      "fra": 3266,
      "ule": 3267,
      "Ġadvent": 3268,
      "Ġadvice": 3269,
      "Ġalternative": 3270,
      "iet": 3271,
      "Ġtotal": 3272,
      "Ġupon": 3273,
      "raw": 3274,
      "rupt": 3275,
      "ĠDef": 3276,
      "Ġprice": 3277,
      "Ġflu": 3278,
      "ĠReg": 3279,
      "Ġconflict": 3280,
      "Ġbalance": 3281,
      "Ġethical": 3282,
      "Ġmaxim": 3283,
      "iate": 3284,
      "Ġsuggestions": 3285,
      "Ġrecommended": 3286,
      "Ġdamage": 3287,
      "13": 3288,
      "ĠPre": 3289,
      "Ġclimate": 3290,
      "Ġdise": 3291,
      "Ġsetting": 3292,
      "////": 3293,
      "Ġformula": 3294,
      "Ġcalculate": 3295,
      "Ġdataset": 3296,
      "18": 3297,
      "My": 3298,
      "Ġperfect": 3299,
      "Ġinterface": 3300,
      "Ġchallenging": 3301,
      "Ġbow": 3302,
      "Ġsecure": 3303,
      "Ġshap": 3304,
      "Ġoutside": 3305,
      "Ġcombination": 3306,
      "IT": 3307,
      "fer": 3308,
      "Ġtax": 3309,
      "Ġhor": 3310,
      "Ġmagn": 3311,
      "Ġprivate": 3312,
      "Ġĉĉ": 3313,
      "Ġnegative": 3314,
      "gra": 3315,
      "ĠPr": 3316,
      "Ġrequests": 3317,
      "ners": 3318,
      "Ġbooks": 3319,
      "ĠInd": 3320,
      "Ġhol": 3321,
      "Ġemerg": 3322,
      "Ġreasons": 3323,
      "gs": 3324,
      "Ġbud": 3325,
      "Ġtopics": 3326,
      "Ġwarm": 3327,
      "Ġmodify": 3328,
      "clude": 3329,
      "32": 3330,
      "Ġcross": 3331,
      "Ġded": 3332,
      "Ġquite": 3333,
      "Ġnovel": 3334,
      "Ġdefine": 3335,
      "Ġpy": 3336,
      "Ġsmart": 3337,
      "Ġequal": 3338,
      "outh": 3339,
      "Ġur": 3340,
      "Ġsust": 3341,
      "Ġthemselves": 3342,
      "Ġfinal": 3343,
      "ele": 3344,
      "ky": 3345,
      "Ġill": 3346,
      "elcome": 3347,
      "ĠTherefore": 3348,
      "Ġimplementation": 3349,
      "Do": 3350,
      "hing": 3351,
      "erson": 3352,
      "Ġplants": 3353,
      "Ġcreates": 3354,
      "Ġparameters": 3355,
      "Ġconnection": 3356,
      "Ġfine": 3357,
      "Ġmen": 3358,
      "Ġmut": 3359,
      "ĠRed": 3360,
      "ops": 3361,
      "cket": 3362,
      "Ġforms": 3363,
      "Ġprograms": 3364,
      "ĠCont": 3365,
      "ourage": 3366,
      "aming": 3367,
      "apan": 3368,
      "Ġrecipe": 3369,
      "Ġbox": 3370,
      "Ġforward": 3371,
      "Ġmovie": 3372,
      "Ġchildren": 3373,
      "Ġresponses": 3374,
      "ole": 3375,
      "ĠMod": 3376,
      "phas": 3377,
      "Ġrefers": 3378,
      "Ġequation": 3379,
      "Ġproperly": 3380,
      "Ġmovement": 3381,
      "Are": 3382,
      "Ġcondition": 3383,
      "ĠPC": 3384,
      "Ġmillion": 3385,
      "Ġinstruction": 3386,
      "ensity": 3387,
      "7777": 3388,
      "ured": 3389,
      "astic": 3390,
      "overed": 3391,
      "Ġassum": 3392,
      "bit": 3393,
      "Ġhouse": 3394,
      "rench": 3395,
      "Ġgroups": 3396,
      "Ġsustain": 3397,
      "Ġhowever": 3398,
      "Ġmechanics": 3399,
      "Ġbutton": 3400,
      "Ġreflect": 3401,
      "pare": 3402,
      "Ġinj": 3403,
      "amer": 3404,
      "ĠMay": 3405,
      "uate": 3406,
      "Ġexc": 3407,
      "Ġseas": 3408,
      "ĠRemember": 3409,
      "40": 3410,
      "Ġlines": 3411,
      "Ġgold": 3412,
      "ĠAll": 3413,
      "ĠName": 3414,
      "RL": 3415,
      "rist": 3416,
      "Ġtaken": 3417,
      "Ġwrong": 3418,
      "Ġreplace": 3419,
      "Ġnav": 3420,
      "Ġfully": 3421,
      "ino": 3422,
      "Ġasking": 3423,
      "Ġevol": 3424,
      "Ġwhole": 3425,
      "Ġstrategy": 3426,
      "Ġexercise": 3427,
      "cer": 3428,
      "pire": 3429,
      "Ġ][": 3430,
      "ĠTw": 3431,
      "agn": 3432,
      "Ġreli": 3433,
      "Ġremove": 3434,
      "Ġeggs": 3435,
      "Ġpsych": 3436,
      "Ġflex": 3437,
      "oding": 3438,
      "plied": 3439,
      "Ġapply": 3440,
      "SC": 3441,
      "reme": 3442,
      "Ġmount": 3443,
      "Ġmention": 3444,
      "Ġscale": 3445,
      "Ġlaws": 3446,
      "Ġreturns": 3447,
      "Ġprivacy": 3448,
      "su": 3449,
      "Ġtheore": 3450,
      "ĠSu": 3451,
      "ĠGet": 3452,
      "Ġtrust": 3453,
      "Ġgraphics": 3454,
      "Ġbeliefs": 3455,
      "base": 3456,
      "Ġtaste": 3457,
      "Ġfight": 3458,
      "icle": 3459,
      "Ġthreat": 3460,
      "rix": 3461,
      "Ġfollows": 3462,
      "Ġstrugg": 3463,
      "world": 3464,
      "Ġtur": 3465,
      "ero": 3466,
      "Ġstrategies": 3467,
      "AD": 3468,
      "fact": 3469,
      "Ġchord": 3470,
      "Ġprinciples": 3471,
      "yond": 3472,
      "Ġtim": 3473,
      "ĠMar": 3474,
      "ressed": 3475,
      "ĠStep": 3476,
      "icken": 3477,
      "Thanks": 3478,
      "Ġplatforms": 3479,
      "ography": 3480,
      "ged": 3481,
      "asc": 3482,
      "ĠĠĠĠĠĠĠĠĠĠ": 3483,
      "Ġsurround": 3484,
      "Ġgreater": 3485,
      "Ġpreferences": 3486,
      "script": 3487,
      "att": 3488,
      "ĠTake": 3489,
      "Ġrespect": 3490,
      "Ġlisten": 3491,
      "Ġmagic": 3492,
      "Ġpressure": 3493,
      "itude": 3494,
      ".,": 3495,
      "uel": 3496,
      "Ġcast": 3497,
      "nding": 3498,
      "Ġdeath": 3499,
      "ĠFrom": 3500,
      "itar": 3501,
      "itary": 3502,
      "nown": 3503,
      "Ġarchitecture": 3504,
      "14": 3505,
      "friend": 3506,
      "Ġcivil": 3507,
      "Ġvideos": 3508,
      "inecraft": 3509,
      "Ġconsult": 3510,
      "Ġresponsible": 3511,
      "Ġcomponent": 3512,
      "ield": 3513,
      "wh": 3514,
      "asy": 3515,
      "ows": 3516,
      "ĠSw": 3517,
      "aily": 3518,
      "Ġargument": 3519,
      "Ġmoment": 3520,
      "host": 3521,
      "Ġparent": 3522,
      "Ġfront": 3523,
      "quality": 3524,
      "illing": 3525,
      "Ġseems": 3526,
      "inder": 3527,
      "Ġconsciousness": 3528,
      "?\"": 3529,
      "af": 3530,
      "mar": 3531,
      "alle": 3532,
      "Ġchann": 3533,
      "Ġmanip": 3534,
      "fit": 3535,
      "Ġthread": 3536,
      "Ġsym": 3537,
      "Ġincreasing": 3538,
      "Ġintegr": 3539,
      "orage": 3540,
      "Ġwatch": 3541,
      "cont": 3542,
      "Ġpractices": 3543,
      "ĠData": 3544,
      "Ġreference": 3545,
      "Ġblood": 3546,
      "Ġbir": 3547,
      "Ġabilities": 3548,
      "Ġsolutions": 3549,
      "Ġcoffee": 3550,
      "Ġinfin": 3551,
      "Ġaccording": 3552,
      "Ġfamous": 3553,
      "Ġopin": 3554,
      "ED": 3555,
      "gar": 3556,
      "ored": 3557,
      "Ġimportance": 3558,
      "Ġcheese": 3559,
      "Ġsalt": 3560,
      "Ġadvantage": 3561,
      "bre": 3562,
      "Ġclient": 3563,
      "arian": 3564,
      "Ġpiece": 3565,
      "Ġrobot": 3566,
      "uracy": 3567,
      "Ġcore": 3568,
      "ĠGe": 3569,
      "ĠYouT": 3570,
      "Ġphone": 3571,
      "Ġexpress": 3572,
      "ĠDevelop": 3573,
      "Ġjourney": 3574,
      "na": 3575,
      "wise": 3576,
      "Ġfive": 3577,
      "ĠSince": 3578,
      "Ġvul": 3579,
      "ĠEach": 3580,
      "Ġmode": 3581,
      "Ġliter": 3582,
      "fficient": 3583,
      "size": 3584,
      "Ġwall": 3585,
      "Ġpip": 3586,
      "pping": 3587,
      "Ġpoly": 3588,
      "Ġexpert": 3589,
      "Ġupdate": 3590,
      "Ġexplanation": 3591,
      "sive": 3592,
      "ĠAm": 3593,
      "ĠJapan": 3594,
      "Ġtesting": 3595,
      "atives": 3596,
      "Ġfoot": 3597,
      "ĠSim": 3598,
      "though": 3599,
      "Ġcho": 3600,
      "Ġsubst": 3601,
      "Ġsky": 3602,
      "Ġlinear": 3603,
      "Ġmist": 3604,
      "Ġquery": 3605,
      "Ġclaim": 3606,
      "Ġbudget": 3607,
      "Ġmit": 3608,
      "Ġelectron": 3609,
      "Ġstructures": 3610,
      "60": 3611,
      "hent": 3612,
      "Ġthird": 3613,
      "Ġdecl": 3614,
      "Ġmap": 3615,
      "rame": 3616,
      "ometry": 3617,
      "apon": 3618,
      "icious": 3619,
      "ached": 3620,
      "Ġindex": 3621,
      "Ġconcerns": 3622,
      "Ġbranch": 3623,
      "book": 3624,
      "Ġcu": 3625,
      "Ġnuc": 3626,
      "olf": 3627,
      "Ġconsole": 3628,
      "type": 3629,
      "Ġbott": 3630,
      "Ġhistorical": 3631,
      "ony": 3632,
      "Ġcontact": 3633,
      "Ġemphas": 3634,
      "Ġdetail": 3635,
      "Ġexperiment": 3636,
      "oint": 3637,
      "Ġgas": 3638,
      "ĠLear": 3639,
      "Ġcreative": 3640,
      "Ġnumer": 3641,
      "ternal": 3642,
      "rors": 3643,
      "rict": 3644,
      "Ġenem": 3645,
      "Ġactual": 3646,
      "Ġinstance": 3647,
      "Ġinterests": 3648,
      "ĠEuropean": 3649,
      "Ġexecut": 3650,
      "Ġly": 3651,
      "ĠMe": 3652,
      "unction": 3653,
      "ĠJust": 3654,
      "lock": 3655,
      "Ġaccuracy": 3656,
      "Ġexisting": 3657,
      "how": 3658,
      "rel": 3659,
      "ĠĠĠĠĠĠĠ": 3660,
      "etimes": 3661,
      "Ġbeyond": 3662,
      "Ġconclusion": 3663,
      "Ġ14": 3664,
      "Ġ25": 3665,
      "Ġteach": 3666,
      "Ġpassword": 3667,
      "Ġorigin": 3668,
      "Ġincorpor": 3669,
      "!\"": 3670,
      "Ġiter": 3671,
      "istance": 3672,
      "umb": 3673,
      "Ġrespond": 3674,
      "Ġsuitable": 3675,
      "Name": 3676,
      "alled": 3677,
      "Ġnothing": 3678,
      "Ġcreation": 3679,
      "Ġadding": 3680,
      "Ġ2023": 3681,
      "div": 3682,
      "xy": 3683,
      "ĠðŁ": 3684,
      "Ġcup": 3685,
      "Ġwalk": 3686,
      "aged": 3687,
      "Ġlocated": 3688,
      "Ġexpand": 3689,
      "Ġeducation": 3690,
      "rim": 3691,
      "uations": 3692,
      "inks": 3693,
      "Ġwelcome": 3694,
      "Ġfair": 3695,
      "Ġfavor": 3696,
      "Ġdaily": 3697,
      "Ġstress": 3698,
      "Ġkn": 3699,
      "Ġcaused": 3700,
      "Ġorganization": 3701,
      "MM": 3702,
      "eria": 3703,
      "isms": 3704,
      "Ġpick": 3705,
      "rue": 3706,
      "plications": 3707,
      "Ġpotentially": 3708,
      "Ġpurch": 3709,
      "Ġcustomer": 3710,
      "Ġvulner": 3711,
      "Your": 3712,
      "pass": 3713,
      "Ġtalk": 3714,
      "inct": 3715,
      "Ġmental": 3716,
      "Ġlic": 3717,
      "Ġsty": 3718,
      "Ġdeveloping": 3719,
      "Ġparticles": 3720,
      "ĠWeb": 3721,
      "Ġindepend": 3722,
      "99": 3723,
      "ament": 3724,
      "Ġrow": 3725,
      "Ġguitar": 3726,
      "%%": 3727,
      "vide": 3728,
      "ĠRoman": 3729,
      "Ġremov": 3730,
      "Ġrisks": 3731,
      "Ġdemand": 3732,
      "Ġdemonstr": 3733,
      "25": 3734,
      "uzz": 3735,
      "Ġrepe": 3736,
      "Ġneur": 3737,
      "Ġshad": 3738,
      "ĠLi": 3739,
      "Ġcreatures": 3740,
      "Ġenter": 3741,
      "Ġdeli": 3742,
      "Ġvolume": 3743,
      "Ġsil": 3744,
      "ĠFe": 3745,
      "Ġflat": 3746,
      "Ġincreased": 3747,
      "100": 3748,
      "icles": 3749,
      "Ġterminal": 3750,
      "Ġingredients": 3751,
      "ping": 3752,
      "room": 3753,
      "Ġhalf": 3754,
      "Ġexce": 3755,
      "rial": 3756,
      "ounds": 3757,
      "Ġexistence": 3758,
      "illed": 3759,
      "Ġdead": 3760,
      "Ġgeneration": 3761,
      "Ġscene": 3762,
      "Ġconversation": 3763,
      "Ġopportunities": 3764,
      "oon": 3765,
      "Ġcrypt": 3766,
      "Ġsup": 3767,
      "term": 3768,
      "ĠMicrosoft": 3769,
      "Ġreducing": 3770,
      "issions": 3771,
      "Ġcarbon": 3772,
      "EN": 3773,
      "ĠGra": 3774,
      "Ġrise": 3775,
      "Ġrelig": 3776,
      "Ġdirection": 3777,
      "Ġhealthcare": 3778,
      "Ġsounds": 3779,
      "ÂłÂłÂłÂł": 3780,
      "Ġcollabor": 3781,
      "Ġdangerous": 3782,
      "Ð»": 3783,
      "Ġfalse": 3784,
      "amb": 3785,
      "ried": 3786,
      "Ġgoes": 3787,
      "Ġmembers": 3788,
      "Ġviol": 3789,
      "Certain": 3790,
      "oe": 3791,
      "Ġnode": 3792,
      "Ġund": 3793,
      "Ġhands": 3794,
      "Ġcapable": 3795,
      "Ġsmooth": 3796,
      "iliar": 3797,
      "atory": 3798,
      "Ġpush": 3799,
      "Ġbegan": 3800,
      "ĠPy": 3801,
      "Ġsecre": 3802,
      "Ġspecifically": 3803,
      "ters": 3804,
      "omic": 3805,
      "Ġextreme": 3806,
      "Ġelectr": 3807,
      "ĠYouTube": 3808,
      "dir": 3809,
      "},": 3810,
      "Ġfail": 3811,
      "Ġadded": 3812,
      "Ġmeasures": 3813,
      "âĸĴâĸĴ": 3814,
      "Ġmedium": 3815,
      "Ġpromot": 3816,
      "Ġprefer": 3817,
      ":**": 3818,
      "iation": 3819,
      "Ġ->": 3820,
      "ĠMat": 3821,
      "Ġinstructions": 3822,
      "des": 3823,
      "adem": 3824,
      "ĠOther": 3825,
      "Ġtransport": 3826,
      "Ġbreath": 3827,
      "Ġcapital": 3828,
      "Ġstatement": 3829,
      "Ġtheories": 3830,
      "Ġdescription": 3831,
      "Ġspir": 3832,
      "order": 3833,
      "Ġwanted": 3834,
      "encies": 3835,
      "Ġpolicy": 3836,
      "can": 3837,
      "Ġ17": 3838,
      "Ġmessages": 3839,
      "Ġsuccessful": 3840,
      "Ġattacks": 3841,
      "TP": 3842,
      "['": 3843,
      "where": 3844,
      "Ġ13": 3845,
      "Ġperspective": 3846,
      "Ġmoving": 3847,
      "Ġcollection": 3848,
      "Ġdouble": 3849,
      "`.": 3850,
      "Ġcatch": 3851,
      "Ġfan": 3852,
      "ctors": 3853,
      "ĠSystem": 3854,
      "Ġvoice": 3855,
      "ĠFrench": 3856,
      "ĠGit": 3857,
      "Ġcold": 3858,
      "Ġcomputers": 3859,
      "Ġhumanity": 3860,
      "Ġextra": 3861,
      "Ġmathematics": 3862,
      "ccording": 3863,
      "ched": 3864,
      "game": 3865,
      "Ġtalking": 3866,
      "Ġmer": 3867,
      "Ġstock": 3868,
      "Ġobtain": 3869,
      "ET": 3870,
      "war": 3871,
      "~~": 3872,
      "ene": 3873,
      "level": 3874,
      "ĠII": 3875,
      "Ġweapon": 3876,
      "apter": 3877,
      "Ġextract": 3878,
      "Ġvector": 3879,
      "ĠConsider": 3880,
      "Ġinterpret": 3881,
      "mosp": 3882,
      "bra": 3883,
      "rid": 3884,
      "Ġax": 3885,
      "lection": 3886,
      "irm": 3887,
      "ĠKing": 3888,
      "Ġfinding": 3889,
      "Ġadvantages": 3890,
      "flow": 3891,
      "ok": 3892,
      "utton": 3893,
      "eline": 3894,
      "Ġchicken": 3895,
      "Ġking": 3896,
      "Ġsentence": 3897,
      "enge": 3898,
      "ĠGener": 3899,
      "Ġsoon": 3900,
      "Ġapart": 3901,
      "ned": 3902,
      "Ġcamp": 3903,
      "irl": 3904,
      "ement": 3905,
      "Ġque": 3906,
      "Ġauthent": 3907,
      "Ġsometimes": 3908,
      "Ġchanging": 3909,
      ",,,,": 3910,
      "When": 3911,
      "bl": 3912,
      "iny": 3913,
      "chain": 3914,
      "Ġstorage": 3915,
      "Ġeffectively": 3916,
      "Ġmilitary": 3917,
      "Ġsympt": 3918,
      "pot": 3919,
      "spe": 3920,
      "Ġthinking": 3921,
      "rack": 3922,
      "ĠSQL": 3923,
      "Ġplot": 3924,
      "ĠLa": 3925,
      "Ġguide": 3926,
      "Ġconfiguration": 3927,
      "ae": 3928,
      "ĠTrans": 3929,
      "rive": 3930,
      "unk": 3931,
      "ĠBuild": 3932,
      "ĠGPU": 3933,
      "Ġscal": 3934,
      "ache": 3935,
      "Ġdidn": 3936,
      "Ġcosts": 3937,
      "Ġconnected": 3938,
      "Ġchemical": 3939,
      "Certainly": 3940,
      "ativity": 3941,
      "Ġmi": 3942,
      "Ġstar": 3943,
      "ĠInter": 3944,
      "Ġatmosp": 3945,
      "Ġplayed": 3946,
      "Ġpopulation": 3947,
      "Ġengage": 3948,
      "Ġwebsites": 3949,
      "Ġemotions": 3950,
      "OR": 3951,
      "top": 3952,
      "Ġlett": 3953,
      "ĠUltimately": 3954,
      "Ġtechnical": 3955,
      "Ġreply": 3956,
      "Ġcapabilities": 3957,
      "Ġschedu": 3958,
      "Ġpair": 3959,
      "ffe": 3960,
      "Ġdefined": 3961,
      "Ġregion": 3962,
      "rency": 3963,
      "Ġeconomy": 3964,
      "Ġscenari": 3965,
      "ellow": 3966,
      "Ġtransfer": 3967,
      "ĠOpenAI": 3968,
      "arr": 3969,
      "ĠUsing": 3970,
      "Ġvalu": 3971,
      "Ġcapac": 3972,
      "Ġeye": 3973,
      "sol": 3974,
      "Ġwin": 3975,
      "essage": 3976,
      "Ġchain": 3977,
      "agraph": 3978,
      "epper": 3979,
      "An": 3980,
      "HT": 3981,
      "ees": 3982,
      "vas": 3983,
      "Ġcame": 3984,
      "Ġcloud": 3985,
      "Ġgenerated": 3986,
      "hesis": 3987,
      "object": 3988,
      "Ġcover": 3989,
      "Ġresulting": 3990,
      "dd": 3991,
      "Ġstars": 3992,
      "ĠPol": 3993,
      "ĠMany": 3994,
      "aster": 3995,
      "ipment": 3996,
      "earch": 3997,
      "Ġfilm": 3998,
      "??": 3999,
      "US": 4000,
      "known": 4001,
      "Ġtun": 4002,
      "leg": 4003,
      "Ġitem": 4004,
      "Ġconvert": 4005,
      "Ġvac": 4006,
      "Ġapolog": 4007,
      "Ġadvance": 4008,
      "Ġflour": 4009,
      "Ġ+=": 4010,
      "Who": 4011,
      "Ġsupply": 4012,
      "ĠGreek": 4013,
      "ey": 4014,
      "Ġmel": 4015,
      "ightly": 4016,
      "Ġanyone": 4017,
      "Ġpromote": 4018,
      "Ġmachines": 4019,
      "Ġbelieved": 4020,
      "Ġcompre": 4021,
      "Ġcontainer": 4022,
      "Which": 4023,
      "Ġdrag": 4024,
      "Ġcauses": 4025,
      "ĠAv": 4026,
      "rief": 4027,
      "ĠPar": 4028,
      "ĠGu": 4029,
      "hess": 4030,
      "plot": 4031,
      "irect": 4032,
      "ĠVis": 4033,
      "Ġflight": 4034,
      "Ġallowed": 4035,
      "Ġtruth": 4036,
      "Ġcommands": 4037,
      "poses": 4038,
      "lab": 4039,
      "Ġvel": 4040,
      "inate": 4041,
      "itiz": 4042,
      "Ġban": 4043,
      "Ġlost": 4044,
      "Ġgram": 4045,
      "iful": 4046,
      "Ġvast": 4047,
      "Ġmac": 4048,
      "Ġclick": 4049,
      "Ġrace": 4050,
      "ibr": 4051,
      "Ġamounts": 4052,
      "Ġphilosophy": 4053,
      "Ġseparate": 4054,
      "Ġalign": 4055,
      "Ġhear": 4056,
      "opt": 4057,
      "ensor": 4058,
      "Ġfilter": 4059,
      "21": 4060,
      "CT": 4061,
      "ouch": 4062,
      "ether": 4063,
      "Ġweak": 4064,
      "asses": 4065,
      "Ġrecent": 4066,
      "2023": 4067,
      "Ġerrors": 4068,
      "Ġexactly": 4069,
      ".)": 4070,
      "ait": 4071,
      "mor": 4072,
      "Ġcamer": 4073,
      "ĠAut": 4074,
      "ĠOut": 4075,
      "Ġspeech": 4076,
      "Ġfeet": 4077,
      "Ġengineering": 4078,
      "part": 4079,
      "run": 4080,
      "Ġnotes": 4081,
      "Ġrelax": 4082,
      "ĠComm": 4083,
      "Ġregularly": 4084,
      "Ġaspects": 4085,
      "Com": 4086,
      "sum": 4087,
      "input": 4088,
      "orch": 4089,
      "string": 4090,
      "ĠDiff": 4091,
      "resents": 4092,
      "Ġswe": 4093,
      "Ġlayers": 4094,
      "point": 4095,
      "Ġanimal": 4096,
      "ĠGermany": 4097,
      "Ġbecomes": 4098,
      "ells": 4099,
      "Ġ80": 4100,
      "rest": 4101,
      "Ġfing": 4102,
      "####": 4103,
      "Ġimmed": 4104,
      "ĠBat": 4105,
      "Ġmyself": 4106,
      "Ġseek": 4107,
      "****": 4108,
      "Ġconsistent": 4109,
      "train": 4110,
      "Ġstra": 4111,
      "Ġserve": 4112,
      "atically": 4113,
      "ĠIntern": 4114,
      "Ġmeant": 4115,
      "user": 4116,
      "Ġplaces": 4117,
      "Ġretrie": 4118,
      "Ġenvironmental": 4119,
      "Ġcontribute": 4120,
      "ĠDefine": 4121,
      "Ġsymptoms": 4122,
      "estern": 4123,
      "Ġgod": 4124,
      "ided": 4125,
      "urance": 4126,
      "Ġthoughts": 4127,
      "Ġapproximately": 4128,
      "most": 4129,
      "Ġdry": 4130,
      "Ġrule": 4131,
      "Ġlargest": 4132,
      "Ġinfra": 4133,
      "Ġhar": 4134,
      "idden": 4135,
      "uries": 4136,
      "Ġsuff": 4137,
      "Ġresource": 4138,
      "Ġcompare": 4139,
      "Ġroad": 4140,
      "Ġofficial": 4141,
      "bi": 4142,
      "iring": 4143,
      "ĠHis": 4144,
      "Ġunit": 4145,
      "Ġtrade": 4146,
      "Ġrepresents": 4147,
      "ĠWhy": 4148,
      "Ġgravity": 4149,
      "Ġbur": 4150,
      "ĠMinecraft": 4151,
      "Ġseg": 4152,
      "ĠDon": 4153,
      "Ġtechnique": 4154,
      "Ġmole": 4155,
      "Ġexercises": 4156,
      "Ġcausing": 4157,
      "ging": 4158,
      "Ġir": 4159,
      "Ġvegetables": 4160,
      "AL": 4161,
      "Ġment": 4162,
      "plate": 4163,
      "ĠChoose": 4164,
      "Ġbrowser": 4165,
      "']": 4166,
      "Ġphen": 4167,
      "cessed": 4168,
      "Ġarr": 4169,
      "Ġmilk": 4170,
      "Ġbroad": 4171,
      "45": 4172,
      "Al": 4173,
      "aks": 4174,
      "nam": 4175,
      "step": 4176,
      "Ġrelease": 4177,
      "ĠTe": 4178,
      "ĠCSS": 4179,
      "android": 4180,
      "Ġinvent": 4181,
      "Ġextension": 4182,
      "Ġfigure": 4183,
      "Ġcapture": 4184,
      "Ġestablished": 4185,
      "eper": 4186,
      "Ã³": 4187,
      "Ġsides": 4188,
      "Ġtomat": 4189,
      "Ġbelow": 4190,
      "ership": 4191,
      "ĠGood": 4192,
      "ifications": 4193,
      "Ġequipment": 4194,
      "Ġcentral": 4195,
      "Ġpieces": 4196,
      "90": 4197,
      "hold": 4198,
      "Ġsample": 4199,
      "Ġlate": 4200,
      "Ġlooks": 4201,
      "ams": 4202,
      "Ġclar": 4203,
      "Ġrelatively": 4204,
      "Ġcritical": 4205,
      "Ġroutine": 4206,
      "Ġlatest": 4207,
      "Ġtables": 4208,
      "ils": 4209,
      "iling": 4210,
      "ĠCo": 4211,
      "ocal": 4212,
      "ously": 4213,
      "Ġsettings": 4214,
      "Ġremains": 4215,
      "Ġanalyze": 4216,
      "ĠPe": 4217,
      "Ġkil": 4218,
      "Ġdefe": 4219,
      "Ġdefault": 4220,
      "Ġprompts": 4221,
      "Ġmoon": 4222,
      "Ġexpected": 4223,
      "Ġwind": 4224,
      "Ġmicro": 4225,
      "Ġhair": 4226,
      "Ġfactor": 4227,
      "Ġstudent": 4228,
      "Ġpolicies": 4229,
      "NA": 4230,
      "Ġmiss": 4231,
      "ley": 4232,
      "Ġgives": 4233,
      "Ġevil": 4234,
      "Ġrights": 4235,
      "Ġunivers": 4236,
      "IM": 4237,
      "PS": 4238,
      "`,": 4239,
      "dis": 4240,
      "Ġcos": 4241,
      "ĠAf": 4242,
      "que": 4243,
      "ĠVal": 4244,
      "Ġimproving": 4245,
      "Ġmetal": 4246,
      "Ġreleased": 4247,
      "Ġinfluen": 4248,
      "Ġeventually": 4249,
      "((((": 4250,
      "Ġphilosophical": 4251,
      "Ġprimary": 4252,
      "Ġmiddle": 4253,
      "Ok": 4254,
      "off": 4255,
      "work": 4256,
      "Ġchess": 4257,
      "Ġrein": 4258,
      "Ġreward": 4259,
      "Ġstable": 4260,
      "Ġusage": 4261,
      "Ġnews": 4262,
      "Ġ50": 4263,
      "plication": 4264,
      "Ġvisit": 4265,
      "Ġfocused": 4266,
      "Ġchallenge": 4267,
      "Ġcontinues": 4268,
      "Ġmoral": 4269,
      "âĸĪâĸĪâĸĪâĸĪ": 4270,
      "====": 4271,
      "Ġmentioned": 4272,
      "Ġlyrics": 4273,
      "Ġvaluable": 4274,
      "Con": 4275,
      "SD": 4276,
      "vest": 4277,
      "iding": 4278,
      "oll": 4279,
      "Ġheard": 4280,
      "Ġestablish": 4281,
      "Ġutil": 4282,
      "IG": 4283,
      "width": 4284,
      "Ġpepper": 4285,
      "Ġmob": 4286,
      "Ġacadem": 4287,
      "Ġcultures": 4288,
      "Ġestimate": 4289,
      "Ġorganizations": 4290,
      "position": 4291,
      "Ġprotein": 4292,
      "Ġsite": 4293,
      "Ġvill": 4294,
      "Ġsea": 4295,
      "Ġenh": 4296,
      "Ġfeelings": 4297,
      "Ġinternational": 4298,
      "Ġcompletely": 4299,
      "Ġpowers": 4300,
      "Hi": 4301,
      "box": 4302,
      "isf": 4303,
      "Ġeating": 4304,
      "asure": 4305,
      "change": 4306,
      "Ġexh": 4307,
      "osition": 4308,
      "Ġchance": 4309,
      "Ġrh": 4310,
      "Ġasked": 4311,
      "Ġsituations": 4312,
      "structure": 4313,
      "Ġangle": 4314,
      "Ġbattery": 4315,
      "Ġschedule": 4316,
      "Ġmal": 4317,
      "ĠMin": 4318,
      "---": 4319,
      "acing": 4320,
      "Ġstrings": 4321,
      "Ġexpression": 4322,
      "Ġinvestment": 4323,
      "Ġdrink": 4324,
      "ĠApple": 4325,
      "Int": 4326,
      "cos": 4327,
      "Ġaw": 4328,
      "ana": 4329,
      "Ġfresh": 4330,
      "Ġrepl": 4331,
      "Ġvar": 4332,
      "Ġfilled": 4333,
      "Ġrestrict": 4334,
      "Ġesc": 4335,
      "Ġlimitations": 4336,
      "Ġri": 4337,
      "Ġden": 4338,
      "vere": 4339,
      "utorial": 4340,
      "respon": 4341,
      "ĠThank": 4342,
      "ĠNot": 4343,
      "Ġclos": 4344,
      "Ġmyth": 4345,
      "Ġoutline": 4346,
      "ibly": 4347,
      "ync": 4348,
      "Ġlogic": 4349,
      "Ġbattle": 4350,
      "Ð°Ð": 4351,
      "reg": 4352,
      "Ġbul": 4353,
      "Ġsupports": 4354,
      "Ġdogs": 4355,
      "Ġphenomen": 4356,
      "Ar": 4357,
      "gram": 4358,
      "rror": 4359,
      "Ġtrou": 4360,
      "onic": 4361,
      "rees": 4362,
      "Ġfat": 4363,
      "alax": 4364,
      "Ġstd": 4365,
      "Ġanswers": 4366,
      "Ġprobability": 4367,
      "Ġice": 4368,
      "itory": 4369,
      "Ġasse": 4370,
      "Ġvia": 4371,
      "ĠMark": 4372,
      "Ġresol": 4373,
      "ĠChrist": 4374,
      "Ġskill": 4375,
      "Ġdepth": 4376,
      "ris": 4377,
      "Ġbound": 4378,
      "Ġreact": 4379,
      "ĠHigh": 4380,
      "ĠGPT": 4381,
      "Ġknew": 4382,
      "Ġinstalled": 4383,
      "Ġmember": 4384,
      "Ġready": 4385,
      "Ġbright": 4386,
      "Ġprobably": 4387,
      "allel": 4388,
      "->": 4389,
      "Im": 4390,
      "ran": 4391,
      "Ġ]": 4392,
      "Ġsou": 4393,
      "Ġinstru": 4394,
      "oper": 4395,
      "ĠStud": 4396,
      "Ġvision": 4397,
      "Ġapologize": 4398,
      "70": 4399,
      "^^": 4400,
      "hood": 4401,
      "more": 4402,
      "Ã¼": 4403,
      "ÃŃ": 4404,
      "Ġcounter": 4405,
      "anish": 4406,
      "Ġlabor": 4407,
      "elines": 4408,
      "Ġsugar": 4409,
      "ĠCent": 4410,
      "ains": 4411,
      "Ġtraffic": 4412,
      "Ġserious": 4413,
      "Ġregulations": 4414,
      "Ġcoord": 4415,
      "Ġclasses": 4416,
      "Ġcommunities": 4417,
      "Ġtook": 4418,
      "ĠDespite": 4419,
      "Ġdefinition": 4420,
      "='": 4421,
      "}{": 4422,
      "Ġmother": 4423,
      "assed": 4424,
      "Ġpros": 4425,
      "Ġqual": 4426,
      "Ġaccom": 4427,
      "auce": 4428,
      "Ġ40": 4429,
      "Ġappre": 4430,
      "Ġrain": 4431,
      "Ġsaw": 4432,
      "Ġresearc": 4433,
      "Ġbiases": 4434,
      "Ġcomprehen": 4435,
      "oke": 4436,
      "Ġspl": 4437,
      "iter": 4438,
      "kend": 4439,
      "gebra": 4440,
      "Explain": 4441,
      "Ġcomfortable": 4442,
      "Cl": 4443,
      "icy": 4444,
      "eds": 4445,
      "Ġstories": 4446,
      "Ġconver": 4447,
      "ands": 4448,
      "**:": 4449,
      "Ġcustomers": 4450,
      "csv": 4451,
      "Ġneurons": 4452,
      "Ã¡": 4453,
      "ĠWrite": 4454,
      "Ġcompat": 4455,
      "].": 4456,
      "sm": 4457,
      "Ġdough": 4458,
      "Ġluck": 4459,
      "ulating": 4460,
      "Ġcurve": 4461,
      "Ġpurposes": 4462,
      "Ġcrucial": 4463,
      "Ġbowl": 4464,
      "zing": 4465,
      "Ġwild": 4466,
      "Ġgirl": 4467,
      "ĠAc": 4468,
      "Ġtend": 4469,
      "Ġ});": 4470,
      "Ġbehavi": 4471,
      "Ġstatus": 4472,
      "For": 4473,
      "Ġmath": 4474,
      "omb": 4475,
      "Ġdoctor": 4476,
      "ocr": 4477,
      "Ġrich": 4478,
      "Ġbutter": 4479,
      "Ġopening": 4480,
      "Ġstudies": 4481,
      "âĸĵ": 4482,
      "Ġbias": 4483,
      "Ġreceive": 4484,
      "ĠBritish": 4485,
      "Ġdynamic": 4486,
      "Ġstyles": 4487,
      "200": 4488,
      "ua": 4489,
      "erv": 4490,
      "Ġos": 4491,
      "Ġmanner": 4492,
      "Ġlearned": 4493,
      "ĠArt": 4494,
      "Ġslightly": 4495,
      "Ġhyd": 4496,
      "ĠGerman": 4497,
      "Ġpriorit": 4498,
      "ufact": 4499,
      "rad": 4500,
      "Ġstatic": 4501,
      "ĠEU": 4502,
      "Ġunlike": 4503,
      "Ġkeys": 4504,
      "Ġindic": 4505,
      "Ġparticip": 4506,
      "Ġreading": 4507,
      "String": 4508,
      "Ġweights": 4509,
      "Ġupdated": 4510,
      "Ġmaximum": 4511,
      "Ġatmosphere": 4512,
      "Ġtour": 4513,
      "arry": 4514,
      "rase": 4515,
      "Ġexternal": 4516,
      "pload": 4517,
      "Ġleave": 4518,
      "Ġdoor": 4519,
      "ĠNorth": 4520,
      "Ġcredit": 4521,
      "Ġthemes": 4522,
      "Ġfunctional": 4523,
      "Ġparty": 4524,
      "ibilities": 4525,
      "Ġcommunicate": 4526,
      "Ġdetermined": 4527,
      "Ġcro": 4528,
      "itution": 4529,
      "ponent": 4530,
      "Ġmodule": 4531,
      "Ġspecify": 4532,
      "ressive": 4533,
      "Ġattribut": 4534,
      "Ġsubjective": 4535,
      "untu": 4536,
      "Ġheavy": 4537,
      "friendly": 4538,
      "65": 4539,
      "OM": 4540,
      "fl": 4541,
      "haps": 4542,
      "itter": 4543,
      "ĠFl": 4544,
      "Ġunderlying": 4545,
      "Ġhypot": 4546,
      "Ġbeautiful": 4547,
      "Ġbread": 4548,
      "ĠSun": 4549,
      "Ġexcept": 4550,
      "....": 4551,
      "Ġruns": 4552,
      "Ġlapt": 4553,
      "Ġblocks": 4554,
      "Ġjobs": 4555,
      "AS": 4556,
      "Re": 4557,
      "odies": 4558,
      "Ġplanning": 4559,
      "notation": 4560,
      "Ġgrowing": 4561,
      "Ġshows": 4562,
      "Ġdisease": 4563,
      "Ġappreci": 4564,
      "PE": 4565,
      "cor": 4566,
      "Ñĥ": 4567,
      "Ġwidth": 4568,
      "amples": 4569,
      "Ġord": 4570,
      "Ġdev": 4571,
      "Ġabst": 4572,
      "rows": 4573,
      "Ġoffice": 4574,
      "Ġrecommendations": 4575,
      "Ġrestaur": 4576,
      "Ġfavorite": 4577,
      "Ġcamera": 4578,
      "De": 4579,
      "Ġcooking": 4580,
      "Ġwent": 4581,
      "item": 4582,
      "Ġspecified": 4583,
      "Ġrepos": 4584,
      "Ġshell": 4585,
      "____": 4586,
      "weight": 4587,
      "Ġcontrast": 4588,
      "gy": 4589,
      "main": 4590,
      "ued": 4591,
      "hest": 4592,
      "antasy": 4593,
      "Ġpeace": 4594,
      "Ġskin": 4595,
      "Ġarguments": 4596,
      "Ġtrees": 4597,
      "ĠEmpire": 4598,
      "Ġsatisf": 4599,
      "24": 4600,
      "lay": 4601,
      "rices": 4602,
      "ref": 4603,
      "Ġbrief": 4604,
      "Ġdie": 4605,
      "arge": 4606,
      "idity": 4607,
      "olute": 4608,
      "ĠSol": 4609,
      "ĠPort": 4610,
      "ĠOur": 4611,
      "Ġfunctionality": 4612,
      "Ġcorrectly": 4613,
      "ĠInstead": 4614,
      "Ġbottom": 4615,
      "df": 4616,
      "Ġcraft": 4617,
      "Ġdivid": 4618,
      "iced": 4619,
      "ĠRuss": 4620,
      "ades": 4621,
      "Ġcoming": 4622,
      "ĠDuring": 4623,
      "Ġclassic": 4624,
      "Ġmuscle": 4625,
      "Ġstored": 4626,
      "CP": 4627,
      "overy": 4628,
      "icking": 4629,
      "ascript": 4630,
      "ĠAct": 4631,
      "ĠApp": 4632,
      "eli": 4633,
      "Ġconv": 4634,
      "ada": 4635,
      "avascript": 4636,
      "rown": 4637,
      "Ġassume": 4638,
      "Ġparad": 4639,
      "ĠComp": 4640,
      "ĠDisc": 4641,
      "Ġadventure": 4642,
      "Ñĭ": 4643,
      "Ġsav": 4644,
      "rol": 4645,
      "Ġep": 4646,
      "Ġgar": 4647,
      "Ġconduct": 4648,
      "ĠSm": 4649,
      "Ġsyn": 4650,
      "xture": 4651,
      "Ġdeveloper": 4652,
      "Ġswitch": 4653,
      "Ġrepresentation": 4654,
      "Ġassistance": 4655,
      "eries": 4656,
      "Ġconstruct": 4657,
      "Ġalien": 4658,
      "Ġshown": 4659,
      "Ġshared": 4660,
      "Ġenable": 4661,
      "Ġclassical": 4662,
      "Ġexpensive": 4663,
      "Ġdiscover": 4664,
      "Ġcircle": 4665,
      "Ġforest": 4666,
      "Ġgiving": 4667,
      "Ġhero": 4668,
      "emale": 4669,
      "ĠWould": 4670,
      "Ġunits": 4671,
      "Ġapplied": 4672,
      "Ġimproved": 4673,
      "Ġmotion": 4674,
      "Ġprotection": 4675,
      "ĠAfric": 4676,
      "Ġinfluenced": 4677,
      "Ġreb": 4678,
      "ĠTra": 4679,
      "ulated": 4680,
      "ocity": 4681,
      "ĠURL": 4682,
      "Ġedge": 4683,
      "ĠSpanish": 4684,
      "Ġharmful": 4685,
      "Ġsyntax": 4686,
      "forcement": 4687,
      "Give": 4688,
      "ares": 4689,
      "def": 4690,
      "Ġast": 4691,
      "Ġonto": 4692,
      "amental": 4693,
      "ĠAg": 4694,
      "Ġdiverse": 4695,
      "Ġcapacity": 4696,
      "Ġinfrastructure": 4697,
      "aper": 4698,
      "ret": 4699,
      "Ġnice": 4700,
      "etch": 4701,
      "Ġgather": 4702,
      "ĠAust": 4703,
      "Ġalgebra": 4704,
      "Ġvoid": 4705,
      "Ġleaves": 4706,
      "ĠList": 4707,
      "formation": 4708,
      "Ġparagraph": 4709,
      "Ġessay": 4710,
      "Ġradius": 4711,
      "\");": 4712,
      "ĠDr": 4713,
      "ĠOff": 4714,
      "Ġstarts": 4715,
      "Ġgradu": 4716,
      "Ġcorrespon": 4717,
      "ername": 4718,
      "Ġartists": 4719,
      "Ġestim": 4720,
      "Ġspirit": 4721,
      "rig": 4722,
      "inst": 4723,
      "ott": 4724,
      "ĠHer": 4725,
      "ptions": 4726,
      "Ġsection": 4727,
      "ĠDet": 4728,
      "ĠOf": 4729,
      "Ġmatrix": 4730,
      "Ġengaging": 4731,
      "Ġdiscovered": 4732,
      "ĠPlay": 4733,
      "Ġbeginning": 4734,
      "Ġexperienced": 4735,
      "Ġautomatically": 4736,
      "TH": 4737,
      "lib": 4738,
      "ingu": 4739,
      "Ġdf": 4740,
      "ĠPract": 4741,
      "Ġunable": 4742,
      "Ġmanufact": 4743,
      "Ġreduced": 4744,
      "ecause": 4745,
      "Ġfamiliar": 4746,
      "points": 4747,
      "coin": 4748,
      "mod": 4749,
      "pack": 4750,
      "Ġple": 4751,
      "Ġble": 4752,
      "style": 4753,
      "Ġhat": 4754,
      "Ġmaster": 4755,
      "ought": 4756,
      "Ġsolid": 4757,
      "ĠReact": 4758,
      "Ġcarry": 4759,
      "Ġpractical": 4760,
      "Ġlandsc": 4761,
      "Ġreceived": 4762,
      "');": 4763,
      "@@": 4764,
      "II": 4765,
      "Ġfelt": 4766,
      "sect": 4767,
      "Ġstri": 4768,
      "clus": 4769,
      "nesses": 4770,
      "Ġlights": 4771,
      "Ġparallel": 4772,
      "Ġdescribed": 4773,
      "Ġcontributions": 4774,
      "Ġchannel": 4775,
      "life": 4776,
      "ped": 4777,
      "Ġiron": 4778,
      "Ġtutorial": 4779,
      "oration": 4780,
      "Ġproced": 4781,
      "ĠCO": 4782,
      "ĠUp": 4783,
      "Ġargue": 4784,
      "Ġemotional": 4785,
      "Ġobserv": 4786,
      "icing": 4787,
      "ĠMed": 4788,
      "Ġrap": 4789,
      "ĠChar": 4790,
      "Ġkeyword": 4791,
      "Ġenvironments": 4792,
      "Ġfloat": 4793,
      "Ġfundamental": 4794,
      "ĠâĪ": 4795,
      "Ġcircum": 4796,
      "coh": 4797,
      "lin": 4798,
      "she": 4799,
      "Ġtit": 4800,
      "include": 4801,
      "erve": 4802,
      "Ġcab": 4803,
      "Ġdin": 4804,
      "Ġhit": 4805,
      "ĠCPU": 4806,
      "ards": 4807,
      "connect": 4808,
      "Ġinteractions": 4809,
      "Ġfreed": 4810,
      "Ġpresence": 4811,
      "Ġacademic": 4812,
      "Ġpet": 4813,
      "Ġpassed": 4814,
      "Ġmill": 4815,
      "Ġbillion": 4816,
      "Ġisn": 4817,
      "ĠRun": 4818,
      "Ġstack": 4819,
      "ossible": 4820,
      "ttp": 4821,
      "Ġideal": 4822,
      "Ġinputs": 4823,
      "Ġaccessible": 4824,
      "Ġmixture": 4825,
      "ira": 4826,
      "pm": 4827,
      "âķ": 4828,
      "Ġsauce": 4829,
      "Ġpand": 4830,
      "Ġbinary": 4831,
      "ĠTime": 4832,
      "istry": 4833,
      "ĠPower": 4834,
      "Ġmeat": 4835,
      "Ġsignal": 4836,
      "Ġlimits": 4837,
      "Ġfoods": 4838,
      "iveness": 4839,
      "Ġscientists": 4840,
      "Ġbrown": 4841,
      "\";": 4842,
      "Create": 4843,
      "];": 4844,
      "Ġcitiz": 4845,
      "Ġbank": 4846,
      "Ġgaming": 4847,
      "cel": 4848,
      "Ġclim": 4849,
      "Ġmanager": 4850,
      "Ġsport": 4851,
      "anguage": 4852,
      "Ġ},": 4853,
      "Ġhighlight": 4854,
      "ĠInstall": 4855,
      "IGHT": 4856,
      "cohol": 4857,
      "UR": 4858,
      "Ġmeal": 4859,
      "ĠEast": 4860,
      "Ġinterf": 4861,
      "Ġapps": 4862,
      "Ġmagical": 4863,
      "Ġjoin": 4864,
      "Ġfixed": 4865,
      "Ġderiv": 4866,
      "Ġseason": 4867,
      "Ġnavigate": 4868,
      "Ġreliable": 4869,
      "px": 4870,
      "Ġfarm": 4871,
      "Ġtoken": 4872,
      "Ġhidden": 4873,
      "Ġimplications": 4874,
      "osis": 4875,
      "osure": 4876,
      "izer": 4877,
      "Ġcompar": 4878,
      "Ġmatrices": 4879,
      "Ġguidance": 4880,
      "SV": 4881,
      "TT": 4882,
      "ĠÂ": 4883,
      "Ġvert": 4884,
      "Ġtall": 4885,
      "ĠIN": 4886,
      "Ġrev": 4887,
      "Ġprop": 4888,
      "ests": 4889,
      "Ġwear": 4890,
      "Ġcred": 4891,
      "Ġhelped": 4892,
      "ishing": 4893,
      "current": 4894,
      "Ġpotat": 4895,
      "Ġlayout": 4896,
      "Ġframe": 4897,
      "orous": 4898,
      "Ġhunt": 4899,
      "Ġreps": 4900,
      "ĠTV": 4901,
      "ĠLat": 4902,
      "poon": 4903,
      "Ġsummar": 4904,
      "Ġupdates": 4905,
      "Ġcyber": 4906,
      "Ġ;": 4907,
      "Ġine": 4908,
      "ĠĠĠĠĠĠĠĠĠĠĠĠĠ": 4909,
      "ĠUnion": 4910,
      "Ġmoves": 4911,
      "Ġcontinued": 4912,
      "ĠFrance": 4913,
      "button": 4914,
      "map": 4915,
      "ugg": 4916,
      "Ñı": 4917,
      "Ġtone": 4918,
      "Ġtouch": 4919,
      "Ġboot": 4920,
      "Ġlived": 4921,
      "Ġupload": 4922,
      "Ġforces": 4923,
      "ĠBob": 4924,
      "Ġgets": 4925,
      "Ġfollowed": 4926,
      "Ġmedic": 4927,
      "imensions": 4928,
      "Error": 4929,
      "cies": 4930,
      "eed": 4931,
      "ĠAccording": 4932,
      "ession": 4933,
      "illa": 4934,
      "osen": 4935,
      "ĠMach": 4936,
      "Ġshop": 4937,
      "ĠElect": 4938,
      "Ġrat": 4939,
      "ĠOb": 4940,
      "ĠNext": 4941,
      "Ġovercome": 4942,
      "Ġmonitor": 4943,
      "ounc": 4944,
      "aborate": 4945,
      "orge": 4946,
      "Ġpict": 4947,
      "Ġoven": 4948,
      "stood": 4949,
      "roy": 4950,
      "ĠID": 4951,
      "conds": 4952,
      "Ġsolving": 4953,
      "Ġzero": 4954,
      "Ġminimum": 4955,
      "Ġtreatment": 4956,
      "Ġdegree": 4957,
      "frac": 4958,
      "Ġshapes": 4959,
      "Ġrepository": 4960,
      "!!": 4961,
      "CE": 4962,
      "pes": 4963,
      "alt": 4964,
      "Ġdial": 4965,
      "icks": 4966,
      "ĠAb": 4967,
      "Ġmodified": 4968,
      "0000": 4969,
      "Ġcommer": 4970,
      "Ġsold": 4971,
      "Ġveh": 4972,
      "scale": 4973,
      "Ġcareer": 4974,
      "Ġocc": 4975,
      "Ġphilosop": 4976,
      "Ġsustainable": 4977,
      "Ġ,": 4978,
      "Ġ__": 4979,
      "Ġpin": 4980,
      "Ġfuel": 4981,
      "Ġbird": 4982,
      "eter": 4983,
      "ĠRep": 4984,
      "Ġsus": 4985,
      "Ġdeploy": 4986,
      "Ġacid": 4987,
      "Ġspaces": 4988,
      "Ġformal": 4989,
      "Ġtrig": 4990,
      "():": 4991,
      "efore": 4992,
      "Ġtruly": 4993,
      "Ġhimself": 4994,
      "ĠAmerica": 4995,
      "Ġprimarily": 4996,
      "Ġhabit": 4997,
      "fig": 4998,
      "ened": 4999,
      "Ġlov": 5000,
      "Ġdeeper": 5001,
      "ĠWill": 5002,
      "Ġrough": 5003,
      "ĠJS": 5004,
      "Ġprime": 5005,
      "Ġassign": 5006,
      "Ġmovies": 5007,
      "Ġrecognition": 5008,
      "Ġconsumption": 5009,
      "Ġbrand": 5010,
      "cal": 5011,
      "pir": 5012,
      "Ġ...": 5013,
      "array": 5014,
      "cean": 5015,
      "Ġanime": 5016,
      "rier": 5017,
      "ĠWestern": 5018,
      "Ġadult": 5019,
      "Ġwilling": 5020,
      "Ġuns": 5021,
      "othing": 5022,
      "Ġpersonality": 5023,
      "Ġprinting": 5024,
      "ĠComput": 5025,
      "Ġincome": 5026,
      "Ġinternal": 5027,
      "iant": 5028,
      "nel": 5029,
      "Ġtab": 5030,
      "Ġtag": 5031,
      "Ġborn": 5032,
      "image": 5033,
      "Ġcomment": 5034,
      "aby": 5035,
      "ague": 5036,
      "Ġtherefore": 5037,
      "coming": 5038,
      "().": 5039,
      "Ġguess": 5040,
      "ĠUni": 5041,
      "ĠExpl": 5042,
      "Ġlegs": 5043,
      "Ġtriangle": 5044,
      "roduction": 5045,
      "Ġmeeting": 5046,
      "Ġinnovation": 5047,
      "event": 5048,
      "gu": 5049,
      "no": 5050,
      "net": 5051,
      "title": 5052,
      "ÑĮ": 5053,
      "Ġcars": 5054,
      "Ġwave": 5055,
      "Ġdim": 5056,
      "ĠAR": 5057,
      "unge": 5058,
      "Ġpoem": 5059,
      "Ġfolder": 5060,
      "tenance": 5061,
      "Data": 5062,
      "One": 5063,
      "free": 5064,
      "ĠMax": 5065,
      "Ġsex": 5066,
      "Ġwealth": 5067,
      "Ġkit": 5068,
      "Ġcontract": 5069,
      "Ġpoor": 5070,
      "Ġexploring": 5071,
      "Ġbenefit": 5072,
      "Ġefficiently": 5073,
      ")^": 5074,
      "oin": 5075,
      "rate": 5076,
      "Ġign": 5077,
      "Ġdensity": 5078,
      "Ġyellow": 5079,
      "ĠPart": 5080,
      "Ġ\"\"": 5081,
      "Ġplt": 5082,
      "ĠGame": 5083,
      "Ġworked": 5084,
      "Ġraise": 5085,
      "Ġdiagn": 5086,
      "json": 5087,
      "Ġregarding": 5088,
      "Ġdocumentation": 5089,
      "Ġelectricity": 5090,
      "ĠLearning": 5091,
      "Ġvelocity": 5092,
      "Of": 5093,
      "View": 5094,
      "buntu": 5095,
      "ĠÎ": 5096,
      "Ġcou": 5097,
      "Ġdimensions": 5098,
      "stream": 5099,
      "Ġhour": 5100,
      "urt": 5101,
      "ĠSat": 5102,
      "Ġalt": 5103,
      "ĠLook": 5104,
      "Ġimpossible": 5105,
      "ffect": 5106,
      "Ġsoil": 5107,
      "Ġoperation": 5108,
      "ĠProvide": 5109,
      "Ġopportunity": 5110,
      "Ġdegrees": 5111,
      "imensional": 5112,
      "Ġmonths": 5113,
      "ouncil": 5114,
      "Ġil": 5115,
      "Ġthick": 5116,
      "omy": 5117,
      "ĠSpe": 5118,
      "Ġdecre": 5119,
      "osite": 5120,
      "ĠBit": 5121,
      "Ġsimulation": 5122,
      "Ġremote": 5123,
      "Ġpatient": 5124,
      "Ġhappiness": 5125,
      "Ġcarefully": 5126,
      "Ġinteger": 5127,
      "Ġoptimization": 5128,
      "ĠCalcul": 5129,
      "esh": 5130,
      "Ġfill": 5131,
      "Ġnational": 5132,
      "Ġult": 5133,
      "amm": 5134,
      "Ġproof": 5135,
      "enses": 5136,
      "Ġtransition": 5137,
      "Ġflavor": 5138,
      "Ġapproaches": 5139,
      "Ġhighest": 5140,
      "Ġphotos": 5141,
      "count": 5142,
      "lines": 5143,
      "Ġbac": 5144,
      "ĠPot": 5145,
      "ĠNetw": 5146,
      "ublic": 5147,
      "rought": 5148,
      "Ġfacts": 5149,
      "::::": 5150,
      "Ġachieved": 5151,
      "Ġabsor": 5152,
      "Ġcopyright": 5153,
      "ffeine": 5154,
      "We": 5155,
      "iers": 5156,
      "Ġ)": 5157,
      "Ġcoding": 5158,
      "Ġrevolution": 5159,
      "celer": 5160,
      "ules": 5161,
      "ĠLL": 5162,
      "berry": 5163,
      "Ġidentity": 5164,
      "Ġjoke": 5165,
      "going": 5166,
      "Ġnuclear": 5167,
      "Ġpurchase": 5168,
      "Ġsecret": 5169,
      "label": 5170,
      "mp": 5171,
      "pow": 5172,
      "ancing": 5173,
      "Ġpen": 5174,
      "Ġrender": 5175,
      "etime": 5176,
      "ĠType": 5177,
      "ĠSk": 5178,
      "Ġexchange": 5179,
      "ĠHum": 5180,
      "ĠBoth": 5181,
      "itely": 5182,
      "Ġhash": 5183,
      "Ġgoods": 5184,
      "Ġattract": 5185,
      "Ġfinally": 5186,
      "Ġspecialized": 5187,
      "Ġgender": 5188,
      "Ġgeometry": 5189,
      "Ġenemies": 5190,
      "Ġmobile": 5191,
      "[\"": 5192,
      "len": 5193,
      "Ġtitle": 5194,
      "Ġagg": 5195,
      "Ġcop": 5196,
      "Ġcogn": 5197,
      "section": 5198,
      "Ġhom": 5199,
      "enty": 5200,
      "Ġann": 5201,
      "umber": 5202,
      "Ġdescript": 5203,
      "Ġthanks": 5204,
      "inese": 5205,
      "Ġobjective": 5206,
      "ĠâĢĵ": 5207,
      "Ġconsidering": 5208,
      "ocket": 5209,
      "Ġcombined": 5210,
      "Ġinspired": 5211,
      "aught": 5212,
      "Ġsurvive": 5213,
      "En": 5214,
      "writ": 5215,
      "zer": 5216,
      "ourag": 5217,
      "Ġfict": 5218,
      "icated": 5219,
      "Ġstage": 5220,
      "Ġstability": 5221,
      "cker": 5222,
      "Ġ24": 5223,
      "Ġperm": 5224,
      "Ġoverview": 5225,
      "crete": 5226,
      "ĠRead": 5227,
      "Ġseeking": 5228,
      "Ġ199": 5229,
      "Ġprotocol": 5230,
      "Ġbusinesses": 5231,
      "bed": 5232,
      "cast": 5233,
      "your": 5234,
      "Ġwish": 5235,
      "Ġwaste": 5236,
      "asp": 5237,
      "abet": 5238,
      "Ġshall": 5239,
      "ĠFind": 5240,
      "Ġdistinct": 5241,
      "Ġplane": 5242,
      "Ġtemperatures": 5243,
      "Ġmorning": 5244,
      "Ġpaddle": 5245,
      "uce": 5246,
      "Ðº": 5247,
      "ening": 5248,
      "ĠId": 5249,
      "Ġhon": 5250,
      "Ġreve": 5251,
      "ĠRet": 5252,
      "uts": 5253,
      "index": 5254,
      "anging": 5255,
      "Ġservers": 5256,
      "Ġarticle": 5257,
      "Ġincred": 5258,
      "Ġ198": 5259,
      "ĠDoes": 5260,
      "azon": 5261,
      "Ġsongs": 5262,
      "print": 5263,
      "Ġfrequency": 5264,
      "Ġletters": 5265,
      "frame": 5266,
      "iately": 5267,
      "pan": 5268,
      "Ġtail": 5269,
      "Ġgard": 5270,
      "ĠAtt": 5271,
      "Ġalcohol": 5272,
      "Ġtele": 5273,
      "Ġincluded": 5274,
      "Ġensuring": 5275,
      "Ġediting": 5276,
      "Ġdistributed": 5277,
      "aign": 5278,
      "Ġpig": 5279,
      "ategor": 5280,
      "ĠDay": 5281,
      "âĢĵ": 5282,
      "llent": 5283,
      "ĠStar": 5284,
      "Ġinfl": 5285,
      "Ġgrand": 5286,
      "ashing": 5287,
      "Ġsaying": 5288,
      "Ġtried": 5289,
      "ĠMaybe": 5290,
      "Ġexpertise": 5291,
      "xygen": 5292,
      "Ġstraight": 5293,
      "Ġilleg": 5294,
      "code": 5295,
      "la": 5296,
      "Ġ!": 5297,
      "Ġ@": 5298,
      "Ġson": 5299,
      "Ġvoc": 5300,
      "ĠHave": 5301,
      "unately": 5302,
      "Ġintended": 5303,
      "ĠGreat": 5304,
      "Ġfear": 5305,
      "Ġdish": 5306,
      "Ġprices": 5307,
      "Ġrecip": 5308,
      "ifying": 5309,
      "Ġrecognize": 5310,
      "ĠBlack": 5311,
      "Ġbecoming": 5312,
      "izza": 5313,
      "Ġweapons": 5314,
      "Ġcomprehensive": 5315,
      "SP": 5316,
      "SQL": 5317,
      "rm": 5318,
      "Ġtold": 5319,
      "Ġdeal": 5320,
      "ums": 5321,
      "ĠEnd": 5322,
      "Ġjump": 5323,
      "ĠUnder": 5324,
      "Ġacqu": 5325,
      "append": 5326,
      "Ġdesk": 5327,
      "Ġthank": 5328,
      "pending": 5329,
      "Ġproduced": 5330,
      "pectives": 5331,
      "Ġchanged": 5332,
      "Ġoutputs": 5333,
      "Ġencourage": 5334,
      "Ġblockchain": 5335,
      "Ġmaintaining": 5336,
      "Ġmiles": 5337,
      "AION": 5338,
      "Ġparameter": 5339,
      "Ġcompetition": 5340,
      "Ġevaluate": 5341,
      "hetic": 5342,
      "Ġmenu": 5343,
      "Ġcommercial": 5344,
      "imal": 5345,
      "ĠText": 5346,
      "Ġalmost": 5347,
      "ĠTheir": 5348,
      "pty": 5349,
      "ĠMer": 5350,
      "ocument": 5351,
      "ĠĠĠĠĠĠĠĠĠĠĠĠĠĠĠĠĠĠĠĠ": 5352,
      "Ġassess": 5353,
      "Ġdecide": 5354,
      "Ġentertain": 5355,
      "Ġsuggests": 5356,
      "Ġaircraft": 5357,
      "Ġwait": 5358,
      "ĠPractice": 5359,
      "Ġrapid": 5360,
      "hand": 5361,
      "Ġaid": 5362,
      "start": 5363,
      "Ġvict": 5364,
      "ĠMore": 5365,
      "Ġleaving": 5366,
      "ĠUbuntu": 5367,
      "ĠJames": 5368,
      "Ġexperts": 5369,
      "Ġmatches": 5370,
      "Ġrepair": 5371,
      "Ġextend": 5372,
      "Ġleads": 5373,
      "Ġcareful": 5374,
      "Ġcycle": 5375,
      "Ġimmediately": 5376,
      "tes": 5377,
      "orus": 5378,
      "otes": 5379,
      "igation": 5380,
      "Ġteas": 5381,
      "ief": 5382,
      "example": 5383,
      "egin": 5384,
      "Ġstudying": 5385,
      "Ġcris": 5386,
      "Ġconnections": 5387,
      "UT": 5388,
      "Ġtown": 5389,
      "Ġgalax": 5390,
      "Ġchosen": 5391,
      "âĢĶ": 5392,
      "Ġstrange": 5393,
      "Ġexperim": 5394,
      "tty": 5395,
      "Ġbasis": 5396,
      "Ġdriving": 5397,
      "Ġolder": 5398,
      "Ġtrip": 5399,
      "Ġvalidation": 5400,
      "Ġemployees": 5401,
      "Ġfruit": 5402,
      "chen": 5403,
      "da": 5404,
      "eral": 5405,
      "Ġwalking": 5406,
      "itate": 5407,
      "Ġexists": 5408,
      "umin": 5409,
      "ĠDi": 5410,
      "ĠLanguage": 5411,
      "Ġ60": 5412,
      "Ġsignals": 5413,
      "âĸĳ": 5414,
      "ameter": 5415,
      "Ġmassive": 5416,
      "elebr": 5417,
      "Ġflexible": 5418,
      "Ġprioritize": 5419,
      "Ġabstract": 5420,
      "Open": 5421,
      "equ": 5422,
      "table": 5423,
      "Ġwaves": 5424,
      "Ġbru": 5425,
      "lean": 5426,
      "Ġreactions": 5427,
      "eta": 5428,
      "ĠTest": 5429,
      "ĠResearch": 5430,
      "pha": 5431,
      "Ġ||": 5432,
      "Ġperspectives": 5433,
      "Ġregions": 5434,
      "Ġpopularity": 5435,
      "Ġimplemented": 5436,
      "being": 5437,
      "Ġprecise": 5438,
      "Ġhoriz": 5439,
      "Ġsweet": 5440,
      "Ġfictional": 5441,
      "OT": 5442,
      "bing": 5443,
      "bar": 5444,
      "Ġfly": 5445,
      "Ġfantasy": 5446,
      "Ġstick": 5447,
      "Ġasync": 5448,
      "Ġalone": 5449,
      "ĠMac": 5450,
      "ĠGr": 5451,
      "ocur": 5452,
      "ĠJack": 5453,
      "comes": 5454,
      "Ġflag": 5455,
      "Ġdecided": 5456,
      "Ġlocations": 5457,
      "Ġinsurance": 5458,
      "Ġengines": 5459,
      "Ġreader": 5460,
      "Ġoptimize": 5461,
      "Ġappears": 5462,
      "Ġsociet": 5463,
      "ERT": 5464,
      "Ġwonder": 5465,
      "Ġhabits": 5466,
      "Ġnumerous": 5467,
      "Ġcampaign": 5468,
      "fol": 5469,
      "Ġdu": 5470,
      "ĠBefore": 5471,
      "ĠEconom": 5472,
      "Ġspend": 5473,
      "ĠJan": 5474,
      "ĠĠĠĠĠĠĠĠĠĠĠĠĠĠ": 5475,
      "Ġconstra": 5476,
      "Ġtemplate": 5477,
      "Ġpublished": 5478,
      "Ġimplementing": 5479,
      "Ġafford": 5480,
      "Ġviews": 5481,
      "Ġabsolute": 5482,
      "Ġefforts": 5483,
      "Ġimagine": 5484,
      "Ġresearchers": 5485,
      "Ġunlikely": 5486,
      "Ġlaptop": 5487,
      "ĠJSON": 5488,
      "75": 5489,
      "lor": 5490,
      "pace": 5491,
      "Ġcry": 5492,
      "Ġcert": 5493,
      "ica": 5494,
      "Ġmaybe": 5495,
      "Ġgenerating": 5496,
      "Ġwants": 5497,
      "Ġattend": 5498,
      "Ġequival": 5499,
      "ĠAndroid": 5500,
      "posed": 5501,
      "ĠScience": 5502,
      "Ġaccurately": 5503,
      "Ġembed": 5504,
      "Ġbirds": 5505,
      "Ġsupplies": 5506,
      "mark": 5507,
      "making": 5508,
      "pat": 5509,
      "sub": 5510,
      "ugin": 5511,
      "real": 5512,
      "itches": 5513,
      "ĠAN": 5514,
      "Ġconvent": 5515,
      "ĠSub": 5516,
      "aint": 5517,
      "Ġseconds": 5518,
      "uses": 5519,
      "Ġsharing": 5520,
      "Ġkid": 5521,
      "ĠYork": 5522,
      "Ġoccurs": 5523,
      "holders": 5524,
      "Ġaccompl": 5525,
      "Tell": 5526,
      "ded": 5527,
      "rs": 5528,
      "year": 5529,
      "orter": 5530,
      "itial": 5531,
      "olt": 5532,
      "Ġnoting": 5533,
      "ĠForm": 5534,
      "ĠGraph": 5535,
      "Ġlik": 5536,
      "Ġqueries": 5537,
      "Ġhelping": 5538,
      "Ġworkout": 5539,
      "Ġvectors": 5540,
      "Ass": 5541,
      "Ġstandards": 5542,
      "Ġstrengths": 5543,
      "HE": 5544,
      "dimensional": 5545,
      "ql": 5546,
      "sk": 5547,
      "tical": 5548,
      "Ġcake": 5549,
      "Ġwoman": 5550,
      "Ġultimately": 5551,
      "Ġcanvas": 5552,
      "Ġvibr": 5553,
      "ĠFur": 5554,
      "ĠEvery": 5555,
      "Ġmeditation": 5556,
      "Ġinsights": 5557,
      "Ġtests": 5558,
      "Ġfoundation": 5559,
      "Ġconcent": 5560,
      "Ġfacing": 5561,
      "Ġfloor": 5562,
      "Ġreligious": 5563,
      "Ġretrieve": 5564,
      "\"?": 5565,
      "OP": 5566,
      "RI": 5567,
      "Un": 5568,
      "Ġcand": 5569,
      "Ġfans": 5570,
      "ĠRE": 5571,
      "ĠAnt": 5572,
      "oses": 5573,
      "ĠMain": 5574,
      "Ġplans": 5575,
      "Ġliqu": 5576,
      "ĠIts": 5577,
      "Ġleader": 5578,
      "Ġcontroll": 5579,
      "ĠWhich": 5580,
      "Ġgreatly": 5581,
      "Ġcharacteristics": 5582,
      "Ġopinion": 5583,
      "ĠAustral": 5584,
      "zy": 5585,
      "Ġic": 5586,
      "erate": 5587,
      "Ġthus": 5588,
      "Ġprepare": 5589,
      "Ġprofit": 5590,
      "ĠExample": 5591,
      "Ġconcise": 5592,
      "Ġdelicious": 5593,
      "Ġglad": 5594,
      "porary": 5595,
      "Ġextremely": 5596,
      "Ġenhance": 5597,
      "PL": 5598,
      "java": 5599,
      "mers": 5600,
      "such": 5601,
      "uber": 5602,
      "Ġcm": 5603,
      "raction": 5604,
      "otic": 5605,
      "ĠMost": 5606,
      "ĠWhere": 5607,
      "ĠGre": 5608,
      "Ġemissions": 5609,
      "())": 5610,
      "Ġgreatest": 5611,
      "ĠPlace": 5612,
      "Ġpackages": 5613,
      "Ġgrid": 5614,
      "Ġreviews": 5615,
      "Ġfishing": 5616,
      "Ġsimpler": 5617,
      "Ġturning": 5618,
      "Ġscenario": 5619,
      "Col": 5620,
      "kens": 5621,
      "rt": 5622,
      "Ġsem": 5623,
      "Ġpap": 5624,
      "Ġfro": 5625,
      "Ġthous": 5626,
      "advant": 5627,
      "Ġvan": 5628,
      "ĠPi": 5629,
      "agon": 5630,
      "ĠImplement": 5631,
      "Ġfulf": 5632,
      "Ġappearance": 5633,
      "ĠRegular": 5634,
      "fitting": 5635,
      "Ġfreedom": 5636,
      "33": 5637,
      "ios": 5638,
      "Ġoxygen": 5639,
      "ceed": 5640,
      "urs": 5641,
      "uster": 5642,
      "Ġagre": 5643,
      "oyal": 5644,
      "Ġharder": 5645,
      "proper": 5646,
      "ĠEngine": 5647,
      "Ġremaining": 5648,
      "Ð¼": 5649,
      "inated": 5650,
      "Ġpuzz": 5651,
      "Ġmir": 5652,
      "Ġbaking": 5653,
      "icians": 5654,
      "ĠEnder": 5655,
      "aching": 5656,
      "Ġsettle": 5657,
      "ĠChinese": 5658,
      "Ġhandling": 5659,
      "Ġpersonalized": 5660,
      "Ġmarketing": 5661,
      "fortunately": 5662,
      "Ġlabel": 5663,
      "Ġconstantly": 5664,
      "Ġparents": 5665,
      "Ġchoices": 5666,
      "Ġexcellent": 5667,
      "Ġelectrical": 5668,
      "={": 5669,
      "zen": 5670,
      "Ġfasc": 5671,
      "Ġcomments": 5672,
      "plays": 5673,
      "using": 5674,
      "Ġshoot": 5675,
      "Ġplenty": 5676,
      "Ġevolution": 5677,
      "Ġmaintenance": 5678,
      "Ġbreaking": 5679,
      "Ġvegan": 5680,
      "Ġsentient": 5681,
      "Ġpaid": 5682,
      "Ġprofession": 5683,
      "Ġfrequently": 5684,
      "Ġbranches": 5685,
      "bot": 5686,
      "oom": 5687,
      "press": 5688,
      "inating": 5689,
      "herent": 5690,
      "Ġmood": 5691,
      "Ġgall": 5692,
      "ĠTrain": 5693,
      "Ġbeat": 5694,
      "rust": 5695,
      "api": 5696,
      "Ġoutcomes": 5697,
      "Ġobst": 5698,
      "Ġportal": 5699,
      "Ġstores": 5700,
      "Ġintegers": 5701,
      "Ġpredictions": 5702,
      "Ġdestroy": 5703,
      "Ġopposite": 5704,
      "Ġopinions": 5705,
      "Ġmissing": 5706,
      "pad": 5707,
      "yd": 5708,
      "ying": 5709,
      "erse": 5710,
      "enn": 5711,
      "idents": 5712,
      "Ġheld": 5713,
      "ĠĠĠĠĠĠĠĠĠĠĠ": 5714,
      "thog": 5715,
      "ĠBecause": 5716,
      "Ġadvert": 5717,
      "Ġfunny": 5718,
      "Ġempty": 5719,
      "Ġcaffeine": 5720,
      "ginx": 5721,
      "process": 5722,
      "ĠÐ¸": 5723,
      "Ġfasting": 5724,
      "cribe": 5725,
      "ategory": 5726,
      "Ġturned": 5727,
      "Ġbroken": 5728,
      "Ġclosed": 5729,
      "ĠĠĠĠĠĠĠĠĠĠĠĠĠĠĠĠĠĠĠĠĠĠĠĠĠĠĠĠĠĠĠĠĠĠĠĠĠĠĠĠĠĠĠĠĠĠĠĠĠĠĠĠĠĠĠĠĠĠĠĠĠĠĠĠ": 5730,
      "Ġhappened": 5731,
      "Ġintroduced": 5732,
      "Ġaccepted": 5733,
      "Ġlifest": 5734,
      "Ġcryptocur": 5735,
      "ĠAvoid": 5736,
      "Ġgarlic": 5737,
      "thogonal": 5738,
      "ca": 5739,
      "pair": 5740,
      "ss": 5741,
      "td": 5742,
      "ydr": 5743,
      "Ġfemale": 5744,
      "ested": 5745,
      "unning": 5746,
      "ĠBest": 5747,
      "ĠLim": 5748,
      "oooo": 5749,
      "Ġphrase": 5750,
      "Ġmonit": 5751,
      "ridge": 5752,
      "Ġhydro": 5753,
      "Ġtact": 5754,
      "Ġcities": 5755,
      "icit": 5756,
      "Ġhi": 5757,
      "Ġneut": 5758,
      "ĠNational": 5759,
      "Ġindicate": 5760,
      "pected": 5761,
      "Ġequations": 5762,
      "Ġmovements": 5763,
      "prise": 5764,
      "Ġinjury": 5765,
      "Ġparadox": 5766,
      "Base": 5767,
      "HP": 5768,
      "Ġsand": 5769,
      "Ġsizes": 5770,
      "Ġgave": 5771,
      "ĠSch": 5772,
      "open": 5773,
      "Ġplugin": 5774,
      "Ġunc": 5775,
      "ensions": 5776,
      "Ġworkers": 5777,
      "standing": 5778,
      "Ġexposure": 5779,
      "Ġmultip": 5780,
      "Ġcontaining": 5781,
      "Ġencounter": 5782,
      "Ġguidelines": 5783,
      "Ġlandscape": 5784,
      "Cont": 5785,
      "Se": 5786,
      "Sorry": 5787,
      "Ġsad": 5788,
      "Ġpun": 5789,
      "Ġpull": 5790,
      "Ġtow": 5791,
      "Ġdance": 5792,
      "Ġnative": 5793,
      "iday": 5794,
      "Ġongoing": 5795,
      "ithub": 5796,
      "Ġproport": 5797,
      "iration": 5798,
      "ĠHarry": 5799,
      "Ġrates": 5800,
      "Ġcompil": 5801,
      "ansion": 5802,
      "Ġdesire": 5803,
      "Ġcalend": 5804,
      "Ġparticle": 5805,
      "Ġteams": 5806,
      "Ġgenre": 5807,
      "Ġcriteria": 5808,
      "Ġsorted": 5809,
      "Ġsurvival": 5810,
      "Ġsurrounding": 5811,
      "Ġbirth": 5812,
      "Ġelectronic": 5813,
      "Ġillegal": 5814,
      "DP": 5815,
      "ek": 5816,
      "nal": 5817,
      "inf": 5818,
      "Ġreput": 5819,
      "ĠCre": 5820,
      "Ġcreativity": 5821,
      "Ġspending": 5822,
      "Ġmanaging": 5823,
      "Ġdiffer": 5824,
      "Ġadds": 5825,
      "Ġextensive": 5826,
      "venue": 5827,
      "Ġhappens": 5828,
      "Ġglass": 5829,
      "Ġdepart": 5830,
      "Ġobserved": 5831,
      "ĠTwitter": 5832,
      "Ġindependent": 5833,
      "Ġcircumst": 5834,
      "ĠFurther": 5835,
      "cm": 5836,
      "uit": 5837,
      "Ġcrack": 5838,
      "Ġcelebr": 5839,
      "Ġpages": 5840,
      "Ġmouth": 5841,
      "Ġband": 5842,
      "Ġdwar": 5843,
      "arp": 5844,
      "Ġbeans": 5845,
      "cks": 5846,
      "Ġplays": 5847,
      "Ġcooper": 5848,
      "ernel": 5849,
      "Ġsheet": 5850,
      "cules": 5851,
      "Ġmeters": 5852,
      "Ġstatements": 5853,
      "Ġmechanism": 5854,
      "Ġdreams": 5855,
      "Ġpygame": 5856,
      "ĠPeople": 5857,
      "Ġphenomenon": 5858,
      "GB": 5859,
      "Text": 5860,
      "length": 5861,
      "person": 5862,
      "yl": 5863,
      "Ġq": 5864,
      "erry": 5865,
      "Ġfiction": 5866,
      "Ġburn": 5867,
      "ĠAM": 5868,
      "rients": 5869,
      "Ġplastic": 5870,
      "ĠNone": 5871,
      "Ġwouldn": 5872,
      "Ġinformed": 5873,
      "plicated": 5874,
      "Ġ[]": 5875,
      "Ġcompute": 5876,
      "Ġflav": 5877,
      "Ġtyping": 5878,
      "Ġtypical": 5879,
      "Ġelaborate": 5880,
      "Ġimprovement": 5881,
      "Ġinfluential": 5882,
      "Ġdocuments": 5883,
      "Ġcollege": 5884,
      "Ġearthqu": 5885,
      "ĠGeorge": 5886,
      "ĠAmazon": 5887,
      "related": 5888,
      "Ġcollaboration": 5889,
      "Ġcabin": 5890,
      "ĠMachine": 5891,
      "Ġconstraints": 5892,
      "89": 5893,
      "AB": 5894,
      "db": 5895,
      "dden": 5896,
      "hop": 5897,
      "oly": 5898,
      "tr": 5899,
      "Ġtherm": 5900,
      "Ġsays": 5901,
      "ĠIncre": 5902,
      "Ġsudden": 5903,
      "antic": 5904,
      "Ġsevere": 5905,
      "Ġjud": 5906,
      "Ġjoy": 5907,
      "Ġroots": 5908,
      "Ġpretty": 5909,
      "Ġowner": 5910,
      "Ġcorpor": 5911,
      "Ġbiological": 5912,
      "Ġradio": 5913,
      "Ġdebate": 5914,
      "fraid": 5915,
      "Ġescape": 5916,
      "Ġderivative": 5917,
      "powered": 5918,
      "Ġequivalent": 5919,
      "AP": 5920,
      "Get": 5921,
      "dri": 5922,
      "ups": 5923,
      "Ġrom": 5924,
      "Ġdiction": 5925,
      "lement": 5926,
      "Ġyes": 5927,
      "Ġlinks": 5928,
      "etary": 5929,
      "Ġanx": 5930,
      "ĠWhe": 5931,
      "Ġ22": 5932,
      "ogram": 5933,
      "Ġround": 5934,
      "Ġunex": 5935,
      "Ġtrading": 5936,
      "Ġcouldn": 5937,
      "Ġconsists": 5938,
      "Ġagent": 5939,
      "Ġrealistic": 5940,
      "Ġcalculus": 5941,
      "arbon": 5942,
      "Ġattempts": 5943,
      "ĠLike": 5944,
      "Ġmerge": 5945,
      "Ġsplit": 5946,
      "Ġappreciate": 5947,
      "Ġcognitive": 5948,
      "UI": 5949,
      "fast": 5950,
      "iance": 5951,
      "ln": 5952,
      "ãĤ": 5953,
      "Ġtal": 5954,
      "inant": 5955,
      "Ġnodes": 5956,
      "ado": 5957,
      "Ġshorter": 5958,
      "ĠEven": 5959,
      "Ġrice": 5960,
      "Ġoutcome": 5961,
      "ĠRevolution": 5962,
      "Ġclassification": 5963,
      "Ġlaunch": 5964,
      "Ġcontrovers": 5965,
      "Ġkeeping": 5966,
      "Ġeditor": 5967,
      "Ġcenturies": 5968,
      "Ġhyper": 5969,
      "Ġpainting": 5970,
      "ourses": 5971,
      "Ġaudio": 5972,
      "Ġbeauty": 5973,
      "Ġevolved": 5974,
      "Ġtheorem": 5975,
      "ĠDiffusion": 5976,
      "ĠIdent": 5977,
      "Time": 5978,
      "mber": 5979,
      "Ġcats": 5980,
      "entral": 5981,
      "Ġstir": 5982,
      "Ġprove": 5983,
      "Ġneck": 5984,
      "Ġnotation": 5985,
      "izard": 5986,
      "ĠThrough": 5987,
      "Ġcontents": 5988,
      "Ġrespective": 5989,
      "Ġdiffusion": 5990,
      "Ġfiber": 5991,
      "Ġversat": 5992,
      "azi": 5993,
      "Ġaffected": 5994,
      "Ġsensitive": 5995,
      "Ġinteractive": 5996,
      "Ġboost": 5997,
      "Ġrolls": 5998,
      "////////": 5999,
      "whel": 6000,
      "Ġahead": 6001,
      "onds": 6002,
      "arter": 6003,
      "ptic": 6004,
      "ĠLED": 6005,
      "Ġscope": 6006,
      "blem": 6007,
      "Ġupgra": 6008,
      "Ġstrict": 6009,
      "Ġdiam": 6010,
      "ĠWho": 6011,
      "Ġtrends": 6012,
      "ocolate": 6013,
      "Ġlicense": 6014,
      "Ġlifestyle": 6015,
      "bles": 6016,
      "men": 6017,
      "max": 6018,
      "Ã¤": 6019,
      "Ġwomen": 6020,
      "ancy": 6021,
      "Ġandroid": 6022,
      "ician": 6023,
      "Ġbeef": 6024,
      "ĠSouth": 6025,
      "epth": 6026,
      "Ġacceler": 6027,
      "Ġjustice": 6028,
      "Ġpassion": 6029,
      "Ġfocuses": 6030,
      "Ġoptimal": 6031,
      "Ġpasta": 6032,
      "Ġindustrial": 6033,
      "Ġpreviously": 6034,
      "Ġincorrect": 6035,
      "Ġliterature": 6036,
      "Ã³n": 6037,
      "Ġwinter": 6038,
      "ara": 6039,
      "ĠTuring": 6040,
      "Ġstim": 6041,
      "Ġstuff": 6042,
      "ĠAng": 6043,
      "this": 6044,
      "ĠPri": 6045,
      "mental": 6046,
      "ĠFace": 6047,
      "resident": 6048,
      "ĠLAION": 6049,
      "Ġrid": 6050,
      "Ġdetection": 6051,
      "Ġperforming": 6052,
      "ĠAltern": 6053,
      "Ġstronger": 6054,
      "Ġturns": 6055,
      "Ġgenetic": 6056,
      "ĠDesign": 6057,
      "Ġcolumns": 6058,
      "Ġdedicated": 6059,
      "Ġauthentication": 6060,
      "Ġgrammar": 6061,
      "Ġtutorials": 6062,
      "';": 6063,
      "uary": 6064,
      "under": 6065,
      "var": 6066,
      "Ġou": 6067,
      "inations": 6068,
      "Ġcub": 6069,
      "ĠRick": 6070,
      "ĠWord": 6071,
      "ĠLo": 6072,
      "Ġtech": 6073,
      "Ġdishes": 6074,
      "Ġoverwhel": 6075,
      "ĠString": 6076,
      "Ġnumpy": 6077,
      "Ġtechnological": 6078,
      "Ġlighting": 6079,
      "ĠConst": 6080,
      "Ġversions": 6081,
      "elligence": 6082,
      "minist": 6083,
      "ĠJapanese": 6084,
      "password": 6085,
      "Ġrhyth": 6086,
      "Ġbehaviors": 6087,
      "Ġcitizens": 6088,
      "Des": 6089,
      "ban": 6090,
      "message": 6091,
      "pread": 6092,
      "rin": 6093,
      "Ġafraid": 6094,
      "atus": 6095,
      "Ġpure": 6096,
      "Ġhop": 6097,
      "Ġlose": 6098,
      "urch": 6099,
      "Ġvit": 6100,
      "ĠMag": 6101,
      "Ġadop": 6102,
      "anges": 6103,
      "Ġprep": 6104,
      "Ġspin": 6105,
      "Ġcolon": 6106,
      "phone": 6107,
      "Ġoffering": 6108,
      "Ġlisted": 6109,
      "Ġlightweight": 6110,
      "Ġmeaningful": 6111,
      "ugment": 6112,
      "Ġsuccessfully": 6113,
      "Ġstruggle": 6114,
      "Ġpandas": 6115,
      "AC": 6116,
      "File": 6117,
      "Now": 6118,
      "WS": 6119,
      "ael": 6120,
      "ux": 6121,
      "Ġcategor": 6122,
      "Ġpizza": 6123,
      "arant": 6124,
      "root": 6125,
      "Ġease": 6126,
      "Ġgit": 6127,
      "ĠCity": 6128,
      "abric": 6129,
      "Ġshot": 6130,
      "Ġresistance": 6131,
      "Ġsigns": 6132,
      "Ġcombine": 6133,
      "Ġdatasets": 6134,
      "Ġprinciple": 6135,
      "Ġterrain": 6136,
      "Ġillust": 6137,
      "Ġcloser": 6138,
      "Ġcircumstances": 6139,
      "\"]": 6140,
      "35": 6141,
      "FT": 6142,
      "Ġsin": 6143,
      "orough": 6144,
      "Ġcancer": 6145,
      "ighb": 6146,
      "Ġnotice": 6147,
      "ĠGive": 6148,
      "ryption": 6149,
      "Ġpositions": 6150,
      "Ġplanets": 6151,
      "ĠEnc": 6152,
      "Ġforeign": 6153,
      "color": 6154,
      "Ġexecute": 6155,
      "Ġminimize": 6156,
      "Ġmixed": 6157,
      "Ġkingdom": 6158,
      "Ġmolecules": 6159,
      "Ġresolve": 6160,
      "ocratic": 6161,
      "clusive": 6162,
      "34": 6163,
      "LP": 6164,
      "inates": 6165,
      "rays": 6166,
      "ĠCode": 6167,
      "quest": 6168,
      "Ġvs": 6169,
      "ĠDrag": 6170,
      "ĠEp": 6171,
      "allow": 6172,
      "Ġsetup": 6173,
      "Ġrare": 6174,
      "Ġsubmit": 6175,
      "Ġpoll": 6176,
      "Ġsignificantly": 6177,
      "ĠArch": 6178,
      "ATE": 6179,
      "Ġinterpretation": 6180,
      "ĠTechn": 6181,
      "Ġtomato": 6182,
      "Ġpotatoes": 6183,
      "Ġ\"\"\"": 6184,
      "67": 6185,
      "bru": 6186,
      "house": 6187,
      "uk": 6188,
      "Ġ###": 6189,
      "Ġsell": 6190,
      "Ġcin": 6191,
      "Ġwire": 6192,
      "Ġwings": 6193,
      "Ġmask": 6194,
      "Ġrecur": 6195,
      "Ġorbit": 6196,
      "ocation": 6197,
      "Ġrig": 6198,
      "Ġscan": 6199,
      "Ġcream": 6200,
      "obby": 6201,
      "Ġcomputational": 6202,
      "Ġrealized": 6203,
      "Ġimpacts": 6204,
      "Ġinvesting": 6205,
      "ĠUSB": 6206,
      "Ġprotected": 6207,
      "Ġbrother": 6208,
      "Ġalternatives": 6209,
      "Ġemergency": 6210,
      "Ġfailure": 6211,
      "01": 6212,
      "Gener": 6213,
      "Id": 6214,
      "Line": 6215,
      "SI": 6216,
      "Some": 6217,
      "Where": 6218,
      "case": 6219,
      "Ġdro": 6220,
      "Ġinh": 6221,
      "Ġye": 6222,
      "rand": 6223,
      "Ġonion": 6224,
      "Ġalthough": 6225,
      "ĠPHP": 6226,
      "ĠDec": 6227,
      "Ġ21": 6228,
      "Ġliber": 6229,
      "Ġju": 6230,
      "Ġspent": 6231,
      "Ġfinds": 6232,
      "Ġrecently": 6233,
      "Ġreferences": 6234,
      "Ġrobust": 6235,
      "Ġintroduction": 6236,
      "Ġevalu": 6237,
      "Ġmanipulate": 6238,
      "Ġassets": 6239,
      "Res": 6240,
      "note": 6241,
      "txt": 6242,
      "Ð´": 6243,
      "onna": 6244,
      "ora": 6245,
      "itarian": 6246,
      "Ġocean": 6247,
      "Ġmale": 6248,
      "rote": 6249,
      "idate": 6250,
      "Ġconve": 6251,
      "Ġchuck": 6252,
      "ĠDNA": 6253,
      "ĠEst": 6254,
      "ĠLight": 6255,
      "agine": 6256,
      "Ġjson": 6257,
      "Ġrows": 6258,
      "Ġserved": 6259,
      "ĠKore": 6260,
      "Ġsmell": 6261,
      "Ġcompleted": 6262,
      "ĠChina": 6263,
      "\":\"": 6264,
      "Ġbalanced": 6265,
      "Ġmistake": 6266,
      "Ġcuis": 6267,
      "Ġcorresponding": 6268,
      "âĸĳâĸĳ": 6269,
      "28": 6270,
      "So": 6271,
      "acles": 6272,
      "cra": 6273,
      "link": 6274,
      "page": 6275,
      "Ġsac": 6276,
      "alysis": 6277,
      "Ġdrop": 6278,
      "ĠIP": 6279,
      "ĠRAM": 6280,
      "ĠAlex": 6281,
      "output": 6282,
      "ĠPros": 6283,
      "Ġdocker": 6284,
      "ĠEth": 6285,
      "Ġatoms": 6286,
      "Ġperce": 6287,
      "Ġrelative": 6288,
      "ĠÐ²": 6289,
      "Ġminimal": 6290,
      "Ġexplanations": 6291,
      "number": 6292,
      "âĸĵâĸĵ": 6293,
      "Ġtitles": 6294,
      "sv": 6295,
      "uge": 6296,
      "Ñĩ": 6297,
      "init": 6298,
      "edia": 6299,
      "Ġlas": 6300,
      "Ġrely": 6301,
      "chron": 6302,
      "ifier": 6303,
      "Ġexcess": 6304,
      "ĠCSV": 6305,
      "Ġshift": 6306,
      "aph": 6307,
      "Ġexplicit": 6308,
      "Ġgrad": 6309,
      "Ġsupported": 6310,
      "Ġbreaks": 6311,
      "mmet": 6312,
      "Ġnecessarily": 6313,
      "Ġbeneficial": 6314,
      "ĠOrthogonal": 6315,
      "Ġweeks": 6316,
      "--------------------------------": 6317,
      "Ġfruits": 6318,
      "Ġmotivated": 6319,
      "Ġfinger": 6320,
      "Ġcouple": 6321,
      "property": 6322,
      "sort": 6323,
      "Ġcourses": 6324,
      "Ġbact": 6325,
      "Ġrewrite": 6326,
      "ĠInitial": 6327,
      "Ġconstruction": 6328,
      "client": 6329,
      "Ġquiet": 6330,
      "ĠNode": 6331,
      "Ġunf": 6332,
      "Ġmyster": 6333,
      "acher": 6334,
      "Ġserving": 6335,
      "Ġphase": 6336,
      "entials": 6337,
      "Ġelim": 6338,
      "Ġentry": 6339,
      "Ġsites": 6340,
      "Ġcombat": 6341,
      "Ġencrypt": 6342,
      "Ġcrime": 6343,
      "Ġcards": 6344,
      "Ġperiods": 6345,
      "Ġflowers": 6346,
      "Ġterrit": 6347,
      "hello": 6348,
      "Ġentirely": 6349,
      "Ġdiseases": 6350,
      "Ġexciting": 6351,
      "Ġmitigate": 6352,
      "Ġreplaced": 6353,
      "Ġtrouble": 6354,
      "Ġastron": 6355,
      "27": 6356,
      "ections": 6357,
      "mut": 6358,
      "ÏĢ": 6359,
      "ighter": 6360,
      "Ġdisadvant": 6361,
      "Ġdisplays": 6362,
      "Ġdiscrim": 6363,
      "Ġanimation": 6364,
      "Ġintegration": 6365,
      "Ġbeginner": 6366,
      "Ġstret": 6367,
      "Ġpsychology": 6368,
      "Ġdefeat": 6369,
      "elihood": 6370,
      "Ġteaspoon": 6371,
      "Great": 6372,
      "function": 6373,
      "nom": 6374,
      "uke": 6375,
      "Ġlos": 6376,
      "Ġisol": 6377,
      "ractions": 6378,
      "ĠRef": 6379,
      "urd": 6380,
      "ĠCopy": 6381,
      "Ġneighb": 6382,
      "Ġmeets": 6383,
      "Ġworry": 6384,
      "ĠLife": 6385,
      "active": 6386,
      "agers": 6387,
      "angers": 6388,
      "ĠStable": 6389,
      "Ġprogression": 6390,
      "Ġcalm": 6391,
      "ĠAny": 6392,
      "ĠUnity": 6393,
      "hips": 6394,
      "ĠAlthough": 6395,
      "Ġcarro": 6396,
      "Inter": 6397,
      "ohydr": 6398,
      "Ġsentences": 6399,
      "Ġsnack": 6400,
      "Ġtranslate": 6401,
      "Ġnucle": 6402,
      "ĠDiscord": 6403,
      "Sc": 6404,
      "Well": 6405,
      "ratch": 6406,
      "Ġaer": 6407,
      "orrow": 6408,
      "Ġwides": 6409,
      "Ġfather": 6410,
      "Ġtox": 6411,
      "Ġthorough": 6412,
      "ĠCar": 6413,
      "anted": 6414,
      "antum": 6415,
      "Ġplaced": 6416,
      "Ġspell": 6417,
      "Ġunderstood": 6418,
      "Ġmostly": 6419,
      "Ġago": 6420,
      "Ġprovider": 6421,
      "Ġartist": 6422,
      "Ġends": 6423,
      "Ġvisible": 6424,
      "State": 6425,
      "Ġmechanical": 6426,
      "center": 6427,
      "Ġcontradict": 6428,
      "âĶĢâĶĢâĶĢâĶĢâĶĢâĶĢâĶĢâĶĢ": 6429,
      "Ġgradually": 6430,
      "ĠUniversity": 6431,
      "Ġbackend": 6432,
      "Te": 6433,
      "](": 6434,
      "ĉĠ": 6435,
      "itutions": 6436,
      "Ġpul": 6437,
      "Ġpix": 6438,
      "Ġbodies": 6439,
      "Ġrect": 6440,
      "ruption": 6441,
      "amin": 6442,
      "ĠST": 6443,
      "Ġ1000": 6444,
      "ĠMoon": 6445,
      "ĠEd": 6446,
      "Ġprepar": 6447,
      "Ġlists": 6448,
      "ĠProgram": 6449,
      "Ġpursu": 6450,
      "Ġcontrols": 6451,
      "ĠÐ¿": 6452,
      "ĠClick": 6453,
      "Ġstatistics": 6454,
      "Ġdivide": 6455,
      "Ġcivilization": 6456,
      "Ġinfinite": 6457,
      "ĠCommun": 6458,
      "Ġprofessionals": 6459,
      "OST": 6460,
      "Val": 6461,
      "bash": 6462,
      "direct": 6463,
      "iety": 6464,
      "lier": 6465,
      "tun": 6466,
      "Ġfox": 6467,
      "Ġbrought": 6468,
      "lete": 6469,
      "state": 6470,
      "Ġchocolate": 6471,
      "Ġupper": 6472,
      "Ġoverl": 6473,
      "Ġguarant": 6474,
      "While": 6475,
      "Ġavailability": 6476,
      "Ġengineer": 6477,
      "forward": 6478,
      "ometric": 6479,
      "Ġschol": 6480,
      "ĠHTTP": 6481,
      "Ġantib": 6482,
      "Ġcooked": 6483,
      "Ġpromoting": 6484,
      "ĠRussia": 6485,
      "Ġcomparison": 6486,
      "Ġratio": 6487,
      "Ġkitchen": 6488,
      "Ġcuisine": 6489,
      "Ġwidespread": 6490,
      "RO": 6491,
      "gre": 6492,
      "rine": 6493,
      "Ġ##": 6494,
      "Ġcv": 6495,
      "Ġcas": 6496,
      "Ġwife": 6497,
      "Ġwrote": 6498,
      "ĠPers": 6499,
      "Ġ27": 6500,
      "ogue": 6501,
      "Ġpersist": 6502,
      "ĠVR": 6503,
      "Ġtexture": 6504,
      "Ġ2022": 6505,
      "Ġcalculated": 6506,
      "Ġsearching": 6507,
      "Ġmechanisms": 6508,
      "ÑģÑĤ": 6509,
      "Ġdomain": 6510,
      "Ġenemy": 6511,
      "Ġexhib": 6512,
      "Ġrestaurant": 6513,
      "Ġcryst": 6514,
      "Ġcalendar": 6515,
      "ES": 6516,
      "PG": 6517,
      "local": 6518,
      "ynt": 6519,
      "ĠÃ": 6520,
      "Ġten": 6521,
      "Ġcodes": 6522,
      "itute": 6523,
      "Ġbub": 6524,
      "Ġreaction": 6525,
      "istical": 6526,
      "ĠMus": 6527,
      "ĠBre": 6528,
      "Ġuna": 6529,
      "Ġproducing": 6530,
      "Ġperformed": 6531,
      "Ġeleg": 6532,
      "token": 6533,
      "Ġfriendly": 6534,
      "Ġintelligent": 6535,
      "Ġcyl": 6536,
      "Ġslowly": 6537,
      "Ġdrawing": 6538,
      "Ġrestrictions": 6539,
      "Ġaccomplish": 6540,
      "'},": 6541,
      "And": 6542,
      "By": 6543,
      "Frame": 6544,
      "Hey": 6545,
      "test": 6546,
      "Ġcoc": 6547,
      "Ġpor": 6548,
      "Ġreached": 6549,
      "elp": 6550,
      "Ġhes": 6551,
      "ĠMid": 6552,
      "ĠBack": 6553,
      "Ġbreed": 6554,
      "Ġspeeds": 6555,
      "Ġlogical": 6556,
      "Ġsunlight": 6557,
      "Ġpresident": 6558,
      "lands": 6559,
      "Ġregardless": 6560,
      "aaaa": 6561,
      "Ġinnovative": 6562,
      "SCII": 6563,
      "Ġdelivery": 6564,
      "plotlib": 6565,
      "Ġreinforcement": 6566,
      "cosystem": 6567,
      "Ġcrops": 6568,
      "entralized": 6569,
      "EO": 6570,
      "Pr": 6571,
      "Socket": 6572,
      "ipp": 6573,
      "tent": 6574,
      "vis": 6575,
      "ye": 6576,
      "Ð²": 6577,
      "ĉĉ": 6578,
      "itational": 6579,
      "Ġmerg": 6580,
      "Ġinsect": 6581,
      "edy": 6582,
      "Ġlen": 6583,
      "olic": 6584,
      "ĠFoc": 6585,
      "Ġ23": 6586,
      "Ġweigh": 6587,
      "ormal": 6588,
      "Ġdespite": 6589,
      "Ġspot": 6590,
      "Ġspells": 6591,
      "Ġswim": 6592,
      "Ġindustries": 6593,
      "Ġcrim": 6594,
      "Ġcritic": 6595,
      "ĠService": 6596,
      "aughter": 6597,
      "Ġmountain": 6598,
      "Ġmistakes": 6599,
      "Ġcups": 6600,
      "Ġremoving": 6601,
      "Assistant": 6602,
      "DO": 6603,
      "parent": 6604,
      "height": 6605,
      "Ġsix": 6606,
      "Ġwat": 6607,
      "annotation": 6608,
      "security": 6609,
      "eting": 6610,
      "Ġforget": 6611,
      "ĠSee": 6612,
      "ĠCur": 6613,
      "ĠMort": 6614,
      "ĠWork": 6615,
      "Ġintu": 6616,
      "Ġ26": 6617,
      "loat": 6618,
      "Ġserves": 6619,
      "ĠSte": 6620,
      "Ġrepet": 6621,
      "Ġblog": 6622,
      "Ġwriter": 6623,
      "Ġencryption": 6624,
      "Ġoptimized": 6625,
      "Ġawareness": 6626,
      "Ġchords": 6627,
      "Ġtransportation": 6628,
      "speed": 6629,
      "Ġloved": 6630,
      "Ġcrisis": 6631,
      "Ġprepared": 6632,
      "fin": 6633,
      "mission": 6634,
      "tem": 6635,
      "Ġ×": 6636,
      "Ġsister": 6637,
      "Ġcable": 6638,
      "Ġdoll": 6639,
      "Ġhous": 6640,
      "Ġecosystem": 6641,
      "Ġreform": 6642,
      "Ġgift": 6643,
      "Ġconven": 6644,
      "Ġconcrete": 6645,
      "roup": 6646,
      "Ġcompile": 6647,
      "Ġclub": 6648,
      "ĠYes": 6649,
      "ĠiP": 6650,
      "Ġconsideration": 6651,
      "Ġprints": 6652,
      "Ġcontrolled": 6653,
      "ĠPlan": 6654,
      "Ġpossibilities": 6655,
      "ĠIntelligence": 6656,
      "Ġtranslation": 6657,
      "Ġthreads": 6658,
      "Ġwatching": 6659,
      "Ġelectrons": 6660,
      "Ġsuffering": 6661,
      "Ġcompatible": 6662,
      "ĠLLM": 6663,
      "nomial": 6664,
      "JJ": 6665,
      "OL": 6666,
      "Ġcategory": 6667,
      "ching": 6668,
      "ĠRob": 6669,
      "ĠMart": 6670,
      "Ġnotable": 6671,
      "udd": 6672,
      "Ġprem": 6673,
      "iented": 6674,
      "Ġinterview": 6675,
      "Ġparties": 6676,
      "Ġdefines": 6677,
      "Ġswitches": 6678,
      "ometers": 6679,
      "Ġearlier": 6680,
      "Ġfalling": 6681,
      "Ġframeworks": 6682,
      "Ġinterpreted": 6683,
      "Ġmatching": 6684,
      "ĠJanuary": 6685,
      "Ġuncertain": 6686,
      "85": 6687,
      "math": 6688,
      "ini": 6689,
      "isk": 6690,
      "Ġyog": 6691,
      "asion": 6692,
      "oles": 6693,
      "ĠASCII": 6694,
      "Ġali": 6695,
      "ores": 6696,
      "ĠFire": 6697,
      "ĠFlu": 6698,
      "Ġintel": 6699,
      "class": 6700,
      "ulture": 6701,
      "Ġscratch": 6702,
      "Ġownership": 6703,
      "Ġmainly": 6704,
      "brid": 6705,
      "Ġconfident": 6706,
      "Ġorganized": 6707,
      "Ġinstallation": 6708,
      "Ġpolitics": 6709,
      "ĠAddress": 6710,
      "Ġformatting": 6711,
      "Ġfigures": 6712,
      "Ġanalyzing": 6713,
      "Ġchannels": 6714,
      "Ġclaims": 6715,
      "Ġsummarize": 6716,
      "Ġunexpected": 6717,
      "True": 6718,
      "Ġtiny": 6719,
      "information": 6720,
      "Ġsnow": 6721,
      "Ġboss": 6722,
      "Ġinher": 6723,
      "Ġthrow": 6724,
      "Ġhttp": 6725,
      "ĠTy": 6726,
      "hern": 6727,
      "ĠPerson": 6728,
      "Ġchop": 6729,
      "rome": 6730,
      "ĠLandroid": 6731,
      "click": 6732,
      "Ġclock": 6733,
      "bert": 6734,
      "Ġformed": 6735,
      "Ġconfusion": 6736,
      "Ġoperator": 6737,
      "Ġmonad": 6738,
      "Ġtells": 6739,
      "ĠÐ½": 6740,
      "Ġfocusing": 6741,
      "Ġdescribes": 6742,
      "ĠImpro": 6743,
      "Exception": 6744,
      "Ġvirus": 6745,
      "Ġcontinuous": 6746,
      "Ġreferred": 6747,
      "Ġincorporate": 6748,
      "Ġvacu": 6749,
      "ĠVisit": 6750,
      "Ġgarden": 6751,
      "Ġlikelihood": 6752,
      "qrt": 6753,
      "tion": 6754,
      "Ã¶": 6755,
      "Ġfirm": 6756,
      "Ġhtml": 6757,
      "ĠCy": 6758,
      "ĠPick": 6759,
      "Ġseed": 6760,
      "result": 6761,
      "Ġdisrupt": 6762,
      "ensus": 6763,
      "ocker": 6764,
      "Ġstands": 6765,
      "Ġrepresenting": 6766,
      "Ġcleaning": 6767,
      "ĠMonday": 6768,
      "Ġgravitational": 6769,
      "Ġrepeated": 6770,
      "Ġanxiety": 6771,
      "97": 6772,
      "build": 6773,
      "efficient": 6774,
      "Ġtrib": 6775,
      "atur": 6776,
      "Ġwindows": 6777,
      "Ġok": 6778,
      "Ġmeth": 6779,
      "lets": 6780,
      "Ġrenew": 6781,
      "ama": 6782,
      "Ġpropos": 6783,
      "oded": 6784,
      "ĠSn": 6785,
      "eren": 6786,
      "ella": 6787,
      "agram": 6788,
      "Ġunknown": 6789,
      "Ġperhaps": 6790,
      "Ġempire": 6791,
      "Ġdefend": 6792,
      "Ġbuildings": 6793,
      "Ġbackup": 6794,
      "Ġdesigns": 6795,
      "Ġsword": 6796,
      "Ġchecking": 6797,
      "Ġlogo": 6798,
      "Ġinvestors": 6799,
      "ĠModel": 6800,
      "Ġincreasingly": 6801,
      "Ġweaknesses": 6802,
      "Okay": 6803,
      "Ġmanufacture": 6804,
      "ĠBitcoin": 6805,
      "live": 6806,
      "rc": 6807,
      "Ġtong": 6808,
      "heet": 6809,
      "Ġfusion": 6810,
      "ico": 6811,
      "illet": 6812,
      "rab": 6813,
      "ĠRome": 6814,
      "ĠSil": 6815,
      "abul": 6816,
      "ĠMarch": 6817,
      "ĠDep": 6818,
      "ĠLarge": 6819,
      "Ġotherwise": 6820,
      "Ġwheels": 6821,
      "Ġroles": 6822,
      "comple": 6823,
      "Ġobjectives": 6824,
      "iences": 6825,
      "Ġelif": 6826,
      "Ġdiscovery": 6827,
      "airs": 6828,
      "ĠSecond": 6829,
      "Ġrepresented": 6830,
      "Ġcalls": 6831,
      "Ġreasoning": 6832,
      "Ġnearby": 6833,
      "ĠBritain": 6834,
      "Ġflexibility": 6835,
      "Ġtheoretical": 6836,
      "Ġlistening": 6837,
      "Ġdecline": 6838,
      "trained": 6839,
      "Ġharvest": 6840,
      "Ġclarify": 6841,
      "Ġobstacles": 6842,
      "68": 6843,
      "But": 6844,
      "ELE": 6845,
      "bow": 6846,
      "dem": 6847,
      "gent": 6848,
      "iam": 6849,
      "tra": 6850,
      "erts": 6851,
      "Ġmic": 6852,
      "arah": 6853,
      "ĠIS": 6854,
      "ĠSur": 6855,
      "erent": 6856,
      "ĠBen": 6857,
      "ĠLord": 6858,
      "Ġsocket": 6859,
      "Ġtheme": 6860,
      "Ġapplying": 6861,
      "Ġexploration": 6862,
      "creen": 6863,
      "Ġ<<": 6864,
      "Ġcharge": 6865,
      "Ġincreases": 6866,
      "Ġdifficulty": 6867,
      "Ġcontributed": 6868,
      "Ġintroduce": 6869,
      "Ġpowder": 6870,
      "Ġconflicts": 6871,
      "Ġthreats": 6872,
      "Ġwalls": 6873,
      "Ġpolynomial": 6874,
      "Ġvulnerabilities": 6875,
      "ĠInternet": 6876,
      "Add": 6877,
      "Element": 6878,
      "Sh": 6879,
      "Ġaugment": 6880,
      "Ġcache": 6881,
      "Ġbond": 6882,
      "Ġinner": 6883,
      "Ġech": 6884,
      "Ġforg": 6885,
      "Ġsuited": 6886,
      "estion": 6887,
      "ĠLast": 6888,
      "ĠOpt": 6889,
      "create": 6890,
      "Ġinstitutions": 6891,
      "Ġ};": 6892,
      "Ġdistances": 6893,
      "odynam": 6894,
      "Ġsurve": 6895,
      "Ġoperate": 6896,
      "ĠCanada": 6897,
      "ĠExplain": 6898,
      "Ġcustomize": 6899,
      "Ġclosely": 6900,
      "Ġdepict": 6901,
      "Ġinspiration": 6902,
      "Ġmagnetic": 6903,
      "ĠSuper": 6904,
      "ĠLearn": 6905,
      "ohydrates": 6906,
      "38": 6907,
      "Ad": 6908,
      "aust": 6909,
      "ipl": 6910,
      "nes": 6911,
      "ses": 6912,
      "sers": 6913,
      "Ġcaught": 6914,
      "Ġpd": 6915,
      "Ġthin": 6916,
      "iden": 6917,
      "ĠSal": 6918,
      "ĠSSD": 6919,
      "Ġcomplicated": 6920,
      "Ġselection": 6921,
      "ĠBi": 6922,
      "usiness": 6923,
      "ocial": 6924,
      "ĠNP": 6925,
      "Ġtrick": 6926,
      "Ġ$\\": 6927,
      "Ġconsiderations": 6928,
      "Ġedit": 6929,
      "Ġcharacterized": 6930,
      "Ġethics": 6931,
      "ographic": 6932,
      "arbage": 6933,
      "Ġlabels": 6934,
      "Ġcutting": 6935,
      "Ġstreaming": 6936,
      "umbb": 6937,
      "Ġinstrument": 6938,
      "Ġdescriptions": 6939,
      "Ġmirror": 6940,
      "ĠFurthermore": 6941,
      "'.": 6942,
      "Ap": 6943,
      "CH": 6944,
      "ka": 6945,
      "hem": 6946,
      "Ġloyal": 6947,
      "char": 6948,
      "otal": 6949,
      "peare": 6950,
      "ntime": 6951,
      "Ġintent": 6952,
      "ĠLua": 6953,
      "anged": 6954,
      "comfort": 6955,
      "Ġpartner": 6956,
      "Ġarticles": 6957,
      "Ġmemor": 6958,
      "Ġsignificance": 6959,
      "Ġloops": 6960,
      "Ġopponent": 6961,
      "Ġdrinking": 6962,
      "Ġadvancements": 6963,
      "Ġhunting": 6964,
      "Ġcooperation": 6965,
      "ĠMorty": 6966,
      "([": 6967,
      "CC": 6968,
      "Feed": 6969,
      "Message": 6970,
      "Py": 6971,
      "bin": 6972,
      "rem": 6973,
      "rength": 6974,
      "Ġcrow": 6975,
      "Ġwis": 6976,
      "Ġmission": 6977,
      "Ġnose": 6978,
      "iforn": 6979,
      "Ġproposed": 6980,
      "oday": 6981,
      "ĠCor": 6982,
      "Ġimper": 6983,
      "ĠMich": 6984,
      "Ġchron": 6985,
      "ĠDAN": 6986,
      "Ġ28": 6987,
      "ĠGold": 6988,
      "asting": 6989,
      "Ġcreature": 6990,
      "version": 6991,
      "Ġraw": 6992,
      "ĠRec": 6993,
      "score": 6994,
      "Ġbasics": 6995,
      "Ġencourag": 6996,
      "ĠQue": 6997,
      "ĠSecurity": 6998,
      "Ġcollap": 6999,
      "Ġanti": 7000,
      "Ġholding": 7001,
      "Ġdeliver": 7002,
      "Ġviolence": 7003,
      "Ġscenarios": 7004,
      "Ġspiritual": 7005,
      "ĠNetwork": 7006,
      "aspberry": 7007,
      "Ġexperiments": 7008,
      "Ġmonitoring": 7009,
      "({": 7010,
      "Path": 7011,
      "TX": 7012,
      "range": 7013,
      "vin": 7014,
      "vision": 7015,
      "wik": 7016,
      "worth": 7017,
      "send": 7018,
      "Ġnone": 7019,
      "Ġnull": 7020,
      "Ġbear": 7021,
      "Ġstone": 7022,
      "ĠMa": 7023,
      "ĠThanks": 7024,
      "Ġadopt": 7025,
      "ĠOF": 7026,
      "ĠĠĠĠĠĠĠĠĠĠĠĠĠĠĠĠĠ": 7027,
      "ĠâĢĶ": 7028,
      "Ġfeels": 7029,
      "ĠExper": 7030,
      "Ġsuggested": 7031,
      "shape": 7032,
      "Ġsummer": 7033,
      "Ġbegins": 7034,
      "ĠImage": 7035,
      "mittent": 7036,
      "Ġstaying": 7037,
      "Ġdestru": 7038,
      "reshold": 7039,
      "Ġreferring": 7040,
      "Ġrecords": 7041,
      "Ġpicture": 7042,
      "Ġbacteria": 7043,
      "ifornia": 7044,
      "draw": 7045,
      "gener": 7046,
      "ipping": 7047,
      "rition": 7048,
      "ta": 7049,
      "then": 7050,
      "âĻ": 7051,
      "Ġsen": 7052,
      "orking": 7053,
      "iture": 7054,
      "ename": 7055,
      "Ġod": 7056,
      "Ġgone": 7057,
      "chuck": 7058,
      "Ġaren": 7059,
      "ĠSCP": 7060,
      "ĠBar": 7061,
      "ĠOh": 7062,
      "Ġcreators": 7063,
      "Ġclothing": 7064,
      "ĠUk": 7065,
      "Ġarms": 7066,
      "Ġarmor": 7067,
      "Ġconsensus": 7068,
      "Ġcurious": 7069,
      "Ġdecentralized": 7070,
      "Ġmarkets": 7071,
      "Ġpawn": 7072,
      "Ġexperiencing": 7073,
      "Ġvolt": 7074,
      "Ġaccounts": 7075,
      "Ġgained": 7076,
      "Ġroute": 7077,
      "Ġverify": 7078,
      "ĠBlue": 7079,
      "Ġfluid": 7080,
      "Ġchoosing": 7081,
      "Ġdimension": 7082,
      "ashington": 7083,
      "Let": 7084,
      "bur": 7085,
      "eled": 7086,
      "fall": 7087,
      "mble": 7088,
      "trans": 7089,
      "Ġwider": 7090,
      "Ġfabric": 7091,
      "Ġbaby": 7092,
      "aled": 7093,
      "seg": 7094,
      "Ġnation": 7095,
      "Ġghost": 7096,
      "ĠAB": 7097,
      "ĠAir": 7098,
      "atever": 7099,
      "ĠSarah": 7100,
      "response": 7101,
      "ĠLeg": 7102,
      "Ġadminist": 7103,
      "close": 7104,
      "duc": 7105,
      "Ġsimulate": 7106,
      "ĠAsia": 7107,
      "Ġproduces": 7108,
      "Ġminor": 7109,
      "Ġmetric": 7110,
      "Ġedges": 7111,
      "akespeare": 7112,
      "Ġchecks": 7113,
      "Ġincent": 7114,
      "Ġscientist": 7115,
      "Ġpreference": 7116,
      "Ġdepression": 7117,
      "Ġdefinitely": 7118,
      "ĠCalifornia": 7119,
      "Ġpossibility": 7120,
      "Ġexecuted": 7121,
      "Ġrepeat": 7122,
      "Ġdivided": 7123,
      "ĠAfrica": 7124,
      "Ġrhythm": 7125,
      "Make": 7126,
      "Sub": 7127,
      "from": 7128,
      "lers": 7129,
      "lang": 7130,
      "ĠSqu": 7131,
      "Ġsufficient": 7132,
      "ĠCut": 7133,
      "orem": 7134,
      "ocate": 7135,
      "Ġkernel": 7136,
      "Ġspeaking": 7137,
      "Ġinteraction": 7138,
      "Ġinstances": 7139,
      "Ġcalories": 7140,
      "iano": 7141,
      "ĠDepending": 7142,
      "Ġtelling": 7143,
      "Ġshowing": 7144,
      "ĠShould": 7145,
      "Ġtrial": 7146,
      "ĠEns": 7147,
      "Ġfaced": 7148,
      "Ġdestination": 7149,
      "Ġdivision": 7150,
      "Ġbuying": 7151,
      "ĠSimilar": 7152,
      "Ġbreathing": 7153,
      "ĠOutput": 7154,
      "Ġliquid": 7155,
      "ĠFacebook": 7156,
      "Act": 7157,
      "Event": 7158,
      "IBase": 7159,
      "vol": 7160,
      "Ġtensor": 7161,
      "Ġbag": 7162,
      "Ġtokens": 7163,
      "Ġdied": 7164,
      "ĠTrue": 7165,
      "child": 7166,
      "ĠMove": 7167,
      "ĠWell": 7168,
      "Ġspark": 7169,
      "Ġgenerates": 7170,
      "Ġformation": 7171,
      "Ġtransmit": 7172,
      "ĠChorus": 7173,
      "Ġaccident": 7174,
      "Ġachieving": 7175,
      "Ġdigit": 7176,
      "ĠSpain": 7177,
      "Ġmorality": 7178,
      "ĠClass": 7179,
      "Ġdatabases": 7180,
      "Ġrocket": 7181,
      "Ġvulnerable": 7182,
      "Ġaxis": 7183,
      "Ġtomatoes": 7184,
      "Ġdesktop": 7185,
      "hid": 7186,
      "Ġtk": 7187,
      "Ġfn": 7188,
      "ĠTur": 7189,
      "Ġkill": 7190,
      "apple": 7191,
      "Ġknows": 7192,
      "Ġamb": 7193,
      "ĠState": 7194,
      "redict": 7195,
      "Ġeveryday": 7196,
      "Ġfinish": 7197,
      "Ġbelong": 7198,
      "Ġeconomics": 7199,
      "777": 7200,
      "elsius": 7201,
      "Ġclearly": 7202,
      "Ġhappening": 7203,
      "Ġadapted": 7204,
      "Ġvegetable": 7205,
      "Ġholds": 7206,
      "Ġstruggling": 7207,
      "MMMM": 7208,
      "%%%%": 7209,
      "========": 7210,
      "Ġawait": 7211,
      "Ġkeywords": 7212,
      "ĠPotter": 7213,
      "bruary": 7214,
      "ĠMichael": 7215,
      "hidl": 7216,
      "39": 7217,
      "iest": 7218,
      "ato": 7219,
      "Ġpars": 7220,
      "Ġfurn": 7221,
      "left": 7222,
      "Ġkm": 7223,
      "Ġkids": 7224,
      "Ġresolution": 7225,
      "Ġclients": 7226,
      "Ġcluster": 7227,
      "Ġperception": 7228,
      "ĠStay": 7229,
      "server": 7230,
      "Ġelected": 7231,
      "Ġwarri": 7232,
      "Ġexplores": 7233,
      "ĠPhot": 7234,
      "Ġmajority": 7235,
      "Ġfitness": 7236,
      "ĠIntroduction": 7237,
      "Ġchatbot": 7238,
      "kyo": 7239,
      "Ġsegments": 7240,
      "Ġestimated": 7241,
      "IA": 7242,
      "Qu": 7243,
      "fil": 7244,
      "gue": 7245,
      "ii": 7246,
      "join": 7247,
      "Ġsod": 7248,
      "Ġwizard": 7249,
      "Ġdot": 7250,
      "Ġdram": 7251,
      "icity": 7252,
      "Ġgarbage": 7253,
      "asazi": 7254,
      "ĠAWS": 7255,
      "Ġwhose": 7256,
      "Ġdeals": 7257,
      "uming": 7258,
      "resistant": 7259,
      "ĠGal": 7260,
      "asts": 7261,
      "Ġproven": 7262,
      "Ġpred": 7263,
      "Ġ45": 7264,
      "Ġpointer": 7265,
      "Ġexplo": 7266,
      "Ġinstant": 7267,
      "ĠChange": 7268,
      "Ġ2021": 7269,
      "commod": 7270,
      "Ġorganic": 7271,
      "ĠSelect": 7272,
      "ometimes": 7273,
      "Ġregards": 7274,
      "Ġindeed": 7275,
      "Ġfighting": 7276,
      "Ġfingers": 7277,
      "Ġsegment": 7278,
      "Ġsoul": 7279,
      "agonist": 7280,
      "ĠKorea": 7281,
      "ĠFocus": 7282,
      "Ġtongue": 7283,
      "42": 7284,
      "47": 7285,
      "Hub": 7286,
      "IS": 7287,
      "YPE": 7288,
      "mail": 7289,
      "wall": 7290,
      "random": 7291,
      "ĠMem": 7292,
      "ĠMult": 7293,
      "ĠBay": 7294,
      "Ġintric": 7295,
      "Ġ300": 7296,
      "Ġarm": 7297,
      "jecture": 7298,
      "Ġphr": 7299,
      "Ġwhereas": 7300,
      "Ġcomputation": 7301,
      "Ġchest": 7302,
      "Ġseeing": 7303,
      "Ġendless": 7304,
      "Ġentity": 7305,
      "Ġinvolving": 7306,
      "Ġimprovements": 7307,
      "Ġlesson": 7308,
      "Ġdigits": 7309,
      "Ġexpectations": 7310,
      "Ġslower": 7311,
      "Ġrotation": 7312,
      "ĠKingdom": 7313,
      "Ġmelody": 7314,
      "ĠInternational": 7315,
      "ĠDeterm": 7316,
      "Ġsports": 7317,
      "ungeon": 7318,
      "ĠCalculate": 7319,
      "ĠReturn": 7320,
      "Ġmysterious": 7321,
      "Ġcylinder": 7322,
      "''": 7323,
      "37": 7324,
      "66": 7325,
      "cher": 7326,
      "cular": 7327,
      "gers": 7328,
      "you": 7329,
      "}$": 7330,
      "Ġsamples": 7331,
      "Ġcovered": 7332,
      "Ġfits": 7333,
      "Ġfont": 7334,
      "Ġnet": 7335,
      "oder": 7336,
      "ĠPat": 7337,
      "Ġplate": 7338,
      "Ġride": 7339,
      "Ġspect": 7340,
      "Ġ32": 7341,
      "Ġdisk": 7342,
      "ftware": 7343,
      "aked": 7344,
      "Ġemit": 7345,
      "Ġsubt": 7346,
      "ĠAnasazi": 7347,
      "oxide": 7348,
      "Ġmuscles": 7349,
      "Ġmoist": 7350,
      "Ġheavily": 7351,
      "Ġdrum": 7352,
      "controll": 7353,
      "Ġtunnel": 7354,
      "ĠVisual": 7355,
      "Ġmillions": 7356,
      "Ġultimate": 7357,
      "Ġvibrant": 7358,
      "Ġcocon": 7359,
      "abulary": 7360,
      "DE": 7361,
      "gn": 7362,
      "ha": 7363,
      "rich": 7364,
      "Ġpal": 7365,
      "Ġft": 7366,
      "alian": 7367,
      "Ġnar": 7368,
      "imation": 7369,
      "ĠTom": 7370,
      "ĠRub": 7371,
      "ĠIng": 7372,
      "ĠCustom": 7373,
      "ĠPresident": 7374,
      "ĠFed": 7375,
      "ĠLine": 7376,
      "Ġring": 7377,
      "Ġresume": 7378,
      "Ġdates": 7379,
      "Ġknowing": 7380,
      "ĠStand": 7381,
      "Ġpoison": 7382,
      "Ġdesigning": 7383,
      "ĠProcess": 7384,
      "Ġproductivity": 7385,
      "PIO": 7386,
      "Ġbeginners": 7387,
      "Ġtraveling": 7388,
      "Ġforever": 7389,
      "Ġradar": 7390,
      "urable": 7391,
      "Ġmotivation": 7392,
      "Ġadventures": 7393,
      "Ġgolden": 7394,
      "Ġemphasizes": 7395,
      "Ġreligion": 7396,
      "ambda": 7397,
      "solving": 7398,
      "********": 7399,
      "Ġbullet": 7400,
      "Ġdinner": 7401,
      "Ġvehicles": 7402,
      "Ġthousands": 7403,
      "Ġscholars": 7404,
      "Ġintellect": 7405,
      "Ġvacuum": 7406,
      ")?": 7407,
      "AA": 7408,
      "Be": 7409,
      "Dear": 7410,
      "fare": 7411,
      "float": 7412,
      "hi": 7413,
      "sion": 7414,
      "Ġtight": 7415,
      "Ġsoph": 7416,
      "atter": 7417,
      "ena": 7418,
      "Ġboy": 7419,
      "Ġnginx": 7420,
      "img": 7421,
      "Ġglow": 7422,
      "otype": 7423,
      "ollow": 7424,
      "Ġalert": 7425,
      "ĠCT": 7426,
      "ĠCat": 7427,
      "ĠHist": 7428,
      "ĠMount": 7429,
      "uns": 7430,
      "ĠExt": 7431,
      "Ġrating": 7432,
      "acter": 7433,
      "Ġtea": 7434,
      "ĠNether": 7435,
      "Ġunw": 7436,
      "Ġdecor": 7437,
      "ĠConnect": 7438,
      "Ġlooked": 7439,
      "Ġsquared": 7440,
      "Ġsubjects": 7441,
      "Ġsteel": 7442,
      "Ġpanel": 7443,
      "Ġdedication": 7444,
      "ĠWebSocket": 7445,
      "~~~~": 7446,
      "Ġhypothet": 7447,
      "Ġgalaxies": 7448,
      "Ġaffordable": 7449,
      "Ġneutral": 7450,
      "ĠIdentify": 7451,
      "ION": 7452,
      "OIN": 7453,
      "Torch": 7454,
      "sl": 7455,
      "Ġhund": 7456,
      "Ġreverse": 7457,
      "ĠCa": 7458,
      "ĠMad": 7459,
      "Ġ2000": 7460,
      "ĠUI": 7461,
      "Ġarri": 7462,
      "ĠJew": 7463,
      "Ġpron": 7464,
      "Ġbund": 7465,
      "Ġ64": 7466,
      "Ġremind": 7467,
      "Ġcorner": 7468,
      "Ġinsight": 7469,
      "Ġdiversity": 7470,
      "Ġmultiplication": 7471,
      "poons": 7472,
      "ĠArray": 7473,
      "Ġavoiding": 7474,
      "backs": 7475,
      "Ġ:=": 7476,
      "Ġsupercon": 7477,
      "Ġautomated": 7478,
      "Ġproteins": 7479,
      "Ġimmune": 7480,
      "Ġcommitment": 7481,
      "Ġincorporating": 7482,
      "Ġapartment": 7483,
      "Ġphilosopher": 7484,
      "ĠHuman": 7485,
      "Ġcryptocurrency": 7486,
      "Ġdictionary": 7487,
      "ĠWhether": 7488,
      "Ġjuice": 7489,
      "Ge": 7490,
      "IP": 7491,
      "Le": 7492,
      "bum": 7493,
      "effect": 7494,
      "vo": 7495,
      "||": 7496,
      "Ñħ": 7497,
      "Ġtorch": 7498,
      "inc": 7499,
      "onomic": 7500,
      "Ġwine": 7501,
      "Ġpine": 7502,
      "Ġflying": 7503,
      "Ġduration": 7504,
      "Ġreplic": 7505,
      "ason": 7506,
      "rum": 7507,
      "ifies": 7508,
      "Ġprocessed": 7509,
      "url": 7510,
      "ements": 7511,
      "pling": 7512,
      "ĠHy": 7513,
      "ĠDav": 7514,
      "ĠDark": 7515,
      "Ġsharp": 7516,
      "perform": 7517,
      "ĠGPS": 7518,
      "ango": 7519,
      "Ġcomposition": 7520,
      "Ġmyst": 7521,
      "Ġarrays": 7522,
      "const": 7523,
      "tainer": 7524,
      "Ġ<!": 7525,
      "Ġ<=": 7526,
      "ĠReplace": 7527,
      "Ġrealize": 7528,
      "Ġbash": 7529,
      "Ġbrid": 7530,
      "Ġinstalling": 7531,
      "ĠShakespeare": 7532,
      "Ġresponsibility": 7533,
      "Ġauthority": 7534,
      "Ġdiscussion": 7535,
      "css": 7536,
      "Ġaggressive": 7537,
      "Ġhorizont": 7538,
      "Ġconcentration": 7539,
      "Ġvoltage": 7540,
      "Lear": 7541,
      "Oh": 7542,
      "aws": 7543,
      "pg": 7544,
      "xim": 7545,
      "ya": 7546,
      "Ġtick": 7547,
      "iner": 7548,
      "Ġwal": 7549,
      "Ġodd": 7550,
      "otics": 7551,
      "igen": 7552,
      "ĠCap": 7553,
      "umes": 7554,
      "ptember": 7555,
      "ĠBro": 7556,
      "Ġmanual": 7557,
      "appe": 7558,
      "Ġformer": 7559,
      "Ġprogrammers": 7560,
      "(),": 7561,
      "Ġagree": 7562,
      "Ġagric": 7563,
      "Ġrecover": 7564,
      "Ġskillet": 7565,
      "ĠDeep": 7566,
      "Ġmoved": 7567,
      "Ġcalculations": 7568,
      "Ġ90": 7569,
      "Ġcontributing": 7570,
      "apping": 7571,
      "Ġscreens": 7572,
      "Ġputting": 7573,
      "Ġstatistical": 7574,
      "Ġpayment": 7575,
      "Ġkilometers": 7576,
      "Ġhydrogen": 7577,
      "Ġflavors": 7578,
      "03": 7579,
      "48": 7580,
      "Landroid": 7581,
      "long": 7582,
      "uros": 7583,
      "ona": 7584,
      "rooms": 7585,
      "Ġlies": 7586,
      "entle": 7587,
      "imals": 7588,
      "raine": 7589,
      "olds": 7590,
      "Ġstunning": 7591,
      "Ġsudo": 7592,
      "ĠWest": 7593,
      "ĠBas": 7594,
      "username": 7595,
      "Ġlie": 7596,
      "Ġanywhere": 7597,
      "Ġamaz": 7598,
      "Ġintersection": 7599,
      "Ġraised": 7600,
      "Ġvariations": 7601,
      "Ġtransactions": 7602,
      "Ġpracticing": 7603,
      "Ġlegacy": 7604,
      "ĠSpace": 7605,
      "Ġstrategic": 7606,
      "Ġgovernments": 7607,
      "Ġbottle": 7608,
      "Ġpresentation": 7609,
      "Ġphoto": 7610,
      "Ġnutrients": 7611,
      "Ġaims": 7612,
      "Ġarrange": 7613,
      "Ã¼r": 7614,
      "gypt": 7615,
      "ĠUpdate": 7616,
      "âķ£": 7617,
      "Ġsexual": 7618,
      "ĠAlternatively": 7619,
      "On": 7620,
      "aff": 7621,
      "awn": 7622,
      "iÃ³n": 7623,
      "Ġsession": 7624,
      "error": 7625,
      "Ġmold": 7626,
      "ida": 7627,
      "ĠRPG": 7628,
      "ĠInvest": 7629,
      "ĠAge": 7630,
      "Ġwhatever": 7631,
      "rip": 7632,
      "rient": 7633,
      "rompt": 7634,
      "Ġmaps": 7635,
      "Ġcomparing": 7636,
      "config": 7637,
      "Ġgenerations": 7638,
      "Ġobj": 7639,
      "Ġsolved": 7640,
      "Ġending": 7641,
      "Ġmush": 7642,
      "ĠEnjoy": 7643,
      "appro": 7644,
      "Ġtracking": 7645,
      "Ġsteam": 7646,
      "ĠKey": 7647,
      "ĠRemove": 7648,
      "Ġconcerned": 7649,
      "Ġhosting": 7650,
      "Ġmountains": 7651,
      "Ġaccordingly": 7652,
      "Ġpipeline": 7653,
      "ĠPyTorch": 7654,
      "Ġsecrets": 7655,
      "ĠBuilding": 7656,
      "Client": 7657,
      "ugging": 7658,
      "Ġpapers": 7659,
      "Ġhesitate": 7660,
      "Ġcriminal": 7661,
      "DB": 7662,
      "DR": 7663,
      "ein": 7664,
      "oj": 7665,
      "vised": 7666,
      "Ġsaving": 7667,
      "oriented": 7668,
      "Ġfo": 7669,
      "Ġfed": 7670,
      "Ġincon": 7671,
      "ĠIT": 7672,
      "Ġrent": 7673,
      "Ġbeings": 7674,
      "rapy": 7675,
      "ĠRel": 7676,
      "ifts": 7677,
      "ĠCouncil": 7678,
      "ĠPo": 7679,
      "ĠMor": 7680,
      "Ġsends": 7681,
      "ĠWashington": 7682,
      "ĠEnt": 7683,
      "Ġintake": 7684,
      "arts": 7685,
      "velength": 7686,
      "Ġmanaged": 7687,
      "igned": 7688,
      "ĠJu": 7689,
      "Ġrelativity": 7690,
      "phony": 7691,
      "ysics": 7692,
      "Ġexplos": 7693,
      "ĠKnow": 7694,
      "Ġeffectiveness": 7695,
      "Ġpatent": 7696,
      "ĠAlice": 7697,
      "Ġexplaining": 7698,
      "Ġdrivers": 7699,
      "Ġuniversity": 7700,
      "ĠEngland": 7701,
      "++)": 7702,
      "Ġpossess": 7703,
      "Ġtrusted": 7704,
      "Ġdemonstrate": 7705,
      "ĠGitHub": 7706,
      "Ġlettuce": 7707,
      "ĠAfrican": 7708,
      "Ġvocabulary": 7709,
      "Ġchopped": 7710,
      "69": 7711,
      "EC": 7712,
      "GI": 7713,
      "Good": 7714,
      "Ser": 7715,
      "Ġtension": 7716,
      "Ġpounds": 7717,
      "Ġbind": 7718,
      "ĠIron": 7719,
      "Ġhun": 7720,
      "Ġrevenue": 7721,
      "ĠTre": 7722,
      "Ġstrain": 7723,
      "ponents": 7724,
      "Ġorange": 7725,
      "ĠHit": 7726,
      "osaur": 7727,
      "ĠMex": 7728,
      "ĠOR": 7729,
      "duino": 7730,
      "ĠUser": 7731,
      "Ġoutdo": 7732,
      "Ġinterval": 7733,
      "Ġbucket": 7734,
      "()`": 7735,
      "Ġ2020": 7736,
      "Ġartif": 7737,
      "Ġleadership": 7738,
      "Ġshel": 7739,
      "Ġconnecting": 7740,
      "Ġexecution": 7741,
      "Ġcompetitive": 7742,
      "Ġlinked": 7743,
      "Ġpyram": 7744,
      "Ġteaching": 7745,
      "ENT": 7746,
      "Ġbanking": 7747,
      "Ġexhaust": 7748,
      "Ġcompatibility": 7749,
      "ĠEastern": 7750,
      "Ġadults": 7751,
      "ĠComputer": 7752,
      "63": 7753,
      "ALL": 7754,
      "Does": 7755,
      "hoot": 7756,
      "ipped": 7757,
      "rant": 7758,
      "vi": 7759,
      "onym": 7760,
      "Ġcsv": 7761,
      "Ġfa": 7762,
      "Ġmig": 7763,
      "Ġlots": 7764,
      "iform": 7765,
      "ĠInclude": 7766,
      "ĠSum": 7767,
      "ĠSocial": 7768,
      "ĠCost": 7769,
      "Ġintense": 7770,
      "Ġcontem": 7771,
      "ĠItaly": 7772,
      "Ġrogue": 7773,
      "Ġconsume": 7774,
      "Ġoverfitting": 7775,
      "Ġappoint": 7776,
      "Ġfolk": 7777,
      "Ġ70": 7778,
      "Ġdiameter": 7779,
      "Ġcalculation": 7780,
      "Ġencount": 7781,
      "ĠUSA": 7782,
      "Ġkinds": 7783,
      "Ġtransformation": 7784,
      "Ġcrust": 7785,
      "ĠColl": 7786,
      "Ġmargin": 7787,
      "Ġinjuries": 7788,
      "ĠMathemat": 7789,
      "ĠGPUs": 7790,
      "Ġkilogram": 7791,
      "ĠElectron": 7792,
      "29": 7793,
      "there": 7794,
      "ui": 7795,
      "Ġce": 7796,
      "Ġolive": 7797,
      "Ġborrow": 7798,
      "search": 7799,
      "roph": 7800,
      "Ġhuge": 7801,
      "images": 7802,
      "Ġgap": 7803,
      "ols": 7804,
      "ĠRaspberry": 7805,
      "utch": 7806,
      "Ġonions": 7807,
      "ĠSS": 7808,
      "ĠSometimes": 7809,
      "Ġvent": 7810,
      "ĠBased": 7811,
      "Ġprocessor": 7812,
      "Ġexport": 7813,
      "Ġfewer": 7814,
      "rencies": 7815,
      "Ġmetrics": 7816,
      "ucket": 7817,
      "cover": 7818,
      "Ġvolunt": 7819,
      "Ġpossibly": 7820,
      "Ġsimplify": 7821,
      "Ġdistributions": 7822,
      "Ġexcited": 7823,
      "ĠBatman": 7824,
      "Ġvertical": 7825,
      "Ġmedicine": 7826,
      "Ġrespectively": 7827,
      "Ġversatile": 7828,
      "Ġdisadvantages": 7829,
      "ynthesis": 7830,
      "ĠQueen": 7831,
      "ĠIngredients": 7832,
      "Ġhypothetical": 7833,
      "Ġartifact": 7834,
      "));": 7835,
      "88": 7836,
      "Aut": 7837,
      "DC": 7838,
      "FF": 7839,
      "Map": 7840,
      "ULL": 7841,
      "aos": 7842,
      "Ġerg": 7843,
      "ano": 7844,
      "Ġpenc": 7845,
      "Ġfert": 7846,
      "ications": 7847,
      "Ġlon": 7848,
      "ĠToday": 7849,
      "eless": 7850,
      "gend": 7851,
      "ĠSir": 7852,
      "Ġvaries": 7853,
      "estamp": 7854,
      "ĠPost": 7855,
      "ĠBusiness": 7856,
      "ĠDem": 7857,
      "ĠEgypt": 7858,
      "Ġusername": 7859,
      "ĠThree": 7860,
      "Ġcompass": 7861,
      "ĠNum": 7862,
      "Ġpret": 7863,
      "Ġkept": 7864,
      "Ġhumor": 7865,
      "pendent": 7866,
      "Ġcurves": 7867,
      "Ġrecovery": 7868,
      "Ġpara": 7869,
      "Ġswallow": 7870,
      "Ġdemocratic": 7871,
      "ĠEnter": 7872,
      "Ġstreet": 7873,
      "Ġ>=": 7874,
      "Ġrobots": 7875,
      "Ġevaluation": 7876,
      "ĠRegard": 7877,
      "Ġintegrated": 7878,
      "Ġemphasis": 7879,
      "ĠFebruary": 7880,
      "âĸĴâĸĴâĸĴâĸĴ": 7881,
      "ĠTransform": 7882,
      "Ġscalable": 7883,
      "ĠArtificial": 7884,
      "Ġsavings": 7885,
      "abetes": 7886,
      "Ġrapidly": 7887,
      "ĠAustralia": 7888,
      "Ġantibi": 7889,
      "Ġecho": 7890,
      "'(": 7891,
      "Date": 7892,
      "EY": 7893,
      "aud": 7894,
      "with": 7895,
      "Â²": 7896,
      "ĠÑģ": 7897,
      "Ġslic": 7898,
      "oup": 7899,
      "Ġinherent": 7900,
      "sters": 7901,
      "omal": 7902,
      "Ġconqu": 7903,
      "Ġexit": 7904,
      "ria": 7905,
      "Ġhaven": 7906,
      "estic": 7907,
      "ĠHouse": 7908,
      "izable": 7909,
      "Ġship": 7910,
      "Ġwearing": 7911,
      "ocra": 7912,
      "Ġmodules": 7913,
      "Ġclone": 7914,
      "Ġunless": 7915,
      "Ġaccommod": 7916,
      "Ġtraits": 7917,
      "acle": 7918,
      "aker": 7919,
      "Ġ500": 7920,
      "Ġstartup": 7921,
      "Ġrecording": 7922,
      "ĠChurch": 7923,
      "Ġtexts": 7924,
      "Ġsignature": 7925,
      "Ġlightning": 7926,
      "linear": 7927,
      "Ġequality": 7928,
      "sert": 7929,
      "Ġmusical": 7930,
      "Ġdetermining": 7931,
      "Ġbench": 7932,
      "Ġmindful": 7933,
      "Ġportion": 7934,
      "column": 7935,
      "useum": 7936,
      "Ġreaching": 7937,
      "Ġwaiting": 7938,
      "Ġnutrition": 7939,
      "Ġhorror": 7940,
      "Ġvillage": 7941,
      "Ġshopping": 7942,
      "Ġhonest": 7943,
      "Ġinsects": 7944,
      ":,": 7945,
      ";;": 7946,
      "He": 7947,
      "Read": 7948,
      "Would": 7949,
      "Ġtu": 7950,
      "Ġwing": 7951,
      "items": 7952,
      "isl": 7953,
      "Ġdict": 7954,
      "Ġduck": 7955,
      "Ġdangers": 7956,
      "Ġell": 7957,
      "ĠRo": 7958,
      "Ġstages": 7959,
      "Ġasks": 7960,
      "Ġcompl": 7961,
      "Ġvirt": 7962,
      "Ġhaz": 7963,
      "thread": 7964,
      "ĠBI": 7965,
      "Ġenables": 7966,
      "ĠGen": 7967,
      "ĠOper": 7968,
      "socket": 7969,
      "ipher": 7970,
      "ipedia": 7971,
      "Ġdataframe": 7972,
      "ĠJerry": 7973,
      "Ġmodeling": 7974,
      "Ġacts": 7975,
      "ĠAdv": 7976,
      "Ġguy": 7977,
      "ierarch": 7978,
      "ĠWhite": 7979,
      "ĠExamples": 7980,
      "Ġpublish": 7981,
      "Ġ/>": 7982,
      "Ġprotagonist": 7983,
      "Ġera": 7984,
      "Ġzone": 7985,
      "Ġcertainly": 7986,
      "ĠSeptember": 7987,
      "Ġglasses": 7988,
      "Ġdefinitive": 7989,
      "Ġregarded": 7990,
      "Ġselecting": 7991,
      "Ġbatteries": 7992,
      "Ġprecision": 7993,
      "Ġspeaker": 7994,
      "Ġassumes": 7995,
      "paren": 7996,
      "Ġtimeline": 7997,
      "spec": 7998,
      "Ġuniversal": 7999,
      "((((((((": 8000,
      "ervation": 8001,
      "ĠPortal": 8002,
      "Link": 8003,
      "PA": 8004,
      "Window": 8005,
      "begin": 8006,
      "distance": 8007,
      "lim": 8008,
      "Ġtort": 8009,
      "Ġsan": 8010,
      "Ġsight": 8011,
      "Ġpark": 8012,
      "Ġmesh": 8013,
      "Ġdir": 8014,
      "ifically": 8015,
      "abling": 8016,
      "Ġheap": 8017,
      "plan": 8018,
      "ĠMc": 8019,
      "Ġchapter": 8020,
      "ĠDown": 8021,
      "ĠGUI": 8022,
      "ĠOd": 8023,
      "Ġspo": 8024,
      "Ġspr": 8025,
      "orders": 8026,
      "Ġpartners": 8027,
      "Ġidentified": 8028,
      "Ġpaste": 8029,
      "Ġsalad": 8030,
      "Ġautomation": 8031,
      "Ġmeasured": 8032,
      "ĠJohnson": 8033,
      "Ġjournal": 8034,
      "Ġspecifies": 8035,
      "Ġnuts": 8036,
      "Ġfootball": 8037,
      "---|": 8038,
      "^^^^": 8039,
      "Ġroughly": 8040,
      "Ġincredible": 8041,
      "directory": 8042,
      "Ġintricate": 8043,
      "(-": 8044,
      "According": 8045,
      "Hand": 8046,
      "Pipe": 8047,
      "gov": 8048,
      "water": 8049,
      "Ġtiss": 8050,
      "itors": 8051,
      "Ġbath": 8052,
      "Ġbanks": 8053,
      "stack": 8054,
      "Ġisland": 8055,
      "igating": 8056,
      "ĠRest": 8057,
      "Ġhex": 8058,
      "Ġ---": 8059,
      "ĠBu": 8060,
      "Ġ255": 8061,
      "Ġatomic": 8062,
      "ogether": 8063,
      "Ġcomposed": 8064,
      "Ġscroll": 8065,
      "Ġsole": 8066,
      "ĠItalian": 8067,
      "Ġsymmet": 8068,
      "Ġpercent": 8069,
      "ĠKn": 8070,
      "Ġtwice": 8071,
      "Ġcoverage": 8072,
      "Ġdependent": 8073,
      "Ġconfirm": 8074,
      "Ġwarning": 8075,
      "Ġcollected": 8076,
      "Ġwoodchuck": 8077,
      "Ġnormalization": 8078,
      "Ġwavelength": 8079,
      "Ġseasons": 8080,
      "Ġreliability": 8081,
      "Ġindependence": 8082,
      "Ġremoved": 8083,
      "Ġtroubles": 8084,
      "Ġrecipes": 8085,
      "Ġgallon": 8086,
      "Ġgradient": 8087,
      "Ġcarrots": 8088,
      "Ġfurniture": 8089,
      "Hw": 8090,
      "URL": 8091,
      "cut": 8092,
      "ders": 8093,
      "fu": 8094,
      "kit": 8095,
      "mic": 8096,
      "mas": 8097,
      "pop": 8098,
      "ĨĴ": 8099,
      "Ġske": 8100,
      "Ġpipe": 8101,
      "Ġfle": 8102,
      "Ġmort": 8103,
      "edge": 8104,
      "Ġthr": 8105,
      "igma": 8106,
      "Ġpropri": 8107,
      "Ġorg": 8108,
      "ĠPut": 8109,
      "Ġseven": 8110,
      "ocaly": 8111,
      "Ġjava": 8112,
      "Ġunne": 8113,
      "Ġtraditions": 8114,
      "Ġdisappe": 8115,
      "Ġrust": 8116,
      "Ġ{}": 8117,
      "ĠVirtual": 8118,
      "Ġsmile": 8119,
      "Ġassert": 8120,
      "plicity": 8121,
      "Ġregul": 8122,
      "Ġskilled": 8123,
      "Ġdependencies": 8124,
      "Ġfilters": 8125,
      "ĠTokyo": 8126,
      "Ġensures": 8127,
      "Ġtemporary": 8128,
      "show": 8129,
      "shot": 8130,
      "Ġdriven": 8131,
      "author": 8132,
      "Ġpaths": 8133,
      "Ġalternate": 8134,
      "Ġvalidate": 8135,
      "Change": 8136,
      "afe": 8137,
      "Ġgods": 8138,
      "Ġcredentials": 8139,
      "Ġtrigger": 8140,
      "ĠExplore": 8141,
      "ĠSpec": 8142,
      "parency": 8143,
      "500": 8144,
      "lasses": 8145,
      "oices": 8146,
      "power": 8147,
      "ãĢ": 8148,
      "rely": 8149,
      "Ġmouse": 8150,
      "Ġdust": 8151,
      "icon": 8152,
      "Ġhal": 8153,
      "Ġretain": 8154,
      "Ġnu": 8155,
      "ĠTop": 8156,
      "ĠInput": 8157,
      "Ġcomedy": 8158,
      "ĠBle": 8159,
      "ĠBel": 8160,
      "ĠBERT": 8161,
      "Ġintention": 8162,
      "ĠThus": 8163,
      "Ġteacher": 8164,
      "acent": 8165,
      "Ġinterrupt": 8166,
      "Ġcurrency": 8167,
      "Ġpromin": 8168,
      "Ġsurf": 8169,
      "Ġdioxide": 8170,
      "Ġvisited": 8171,
      "scrib": 8172,
      "Ġlessons": 8173,
      "Ġpassing": 8174,
      "ĠArduino": 8175,
      "ĠWithout": 8176,
      "Ġradiation": 8177,
      "Ġconversations": 8178,
      "Ġeducational": 8179,
      "Ġpanels": 8180,
      "Ġinspire": 8181,
      "Ġdynamically": 8182,
      "Ġdrugs": 8183,
      "Ġevolving": 8184,
      "Ġiterate": 8185,
      "Ġmythology": 8186,
      "Ġrestaurants": 8187,
      "Ġearthquake": 8188,
      "Ġrecursive": 8189,
      "Form": 8190,
      "kin": 8191,
      "mg": 8192,
      "Ġpil": 8193,
      "Ġfrag": 8194,
      "Ġbass": 8195,
      "Ġbatch": 8196,
      "ales": 8197,
      "std": 8198,
      "Ġhole": 8199,
      "Ġrecon": 8200,
      "Ġgiant": 8201,
      "Ġstom": 8202,
      "ĠInte": 8203,
      "ĠSov": 8204,
      "ĠSRE": 8205,
      "ĠCro": 8206,
      "ĠCelsius": 8207,
      "Ġneuro": 8208,
      "ĠMox": 8209,
      "ĠGl": 8210,
      "cloud": 8211,
      "bled": 8212,
      "Ġfeat": 8213,
      "Ġfees": 8214,
      "Ġarise": 8215,
      "conf": 8216,
      "never": 8217,
      "ĠAsk": 8218,
      "Ġclassified": 8219,
      "Ġfinance": 8220,
      "Ġprofound": 8221,
      "ĠExcel": 8222,
      "Ġstanding": 8223,
      "Ġdeeply": 8224,
      "Ġsales": 8225,
      "Ġautomate": 8226,
      "Ġreasonable": 8227,
      "Ġrecognized": 8228,
      "Ġattempting": 8229,
      "ĠManager": 8230,
      "77777777": 8231,
      "ĠSteps": 8232,
      "suming": 8233,
      "display": 8234,
      "Ġcontrolling": 8235,
      "Ġcategories": 8236,
      "Ġsacr": 8237,
      "Ġintuitive": 8238,
      "ĠUkraine": 8239,
      "Ġintellectual": 8240,
      "49": 8241,
      "From": 8242,
      "`:": 8243,
      "bows": 8244,
      "fe": 8245,
      "fess": 8246,
      "ki": 8247,
      "sue": 8248,
      "vable": 8249,
      "eras": 8250,
      "anc": 8251,
      "arn": 8252,
      "sell": 8253,
      "Ġhurt": 8254,
      "Ġlingu": 8255,
      "ĠTensor": 8256,
      "race": 8257,
      "util": 8258,
      "Ġasset": 8259,
      "Ġanc": 8260,
      "irmed": 8261,
      "Ġalive": 8262,
      "Ġalbum": 8263,
      "ĠCour": 8264,
      "Ġheating": 8265,
      "Ġseeds": 8266,
      "ĠWater": 8267,
      "ĠDist": 8268,
      "ourced": 8269,
      "Ġatom": 8270,
      "ffball": 8271,
      "Ġampl": 8272,
      "Ġrelief": 8273,
      "Ġregulate": 8274,
      "Ġlongest": 8275,
      "Ġdecades": 8276,
      "Ġexpansion": 8277,
      "arsh": 8278,
      "Ġstudied": 8279,
      "Ġconfidence": 8280,
      "Ġmarked": 8281,
      "scill": 8282,
      "ĠDev": 8283,
      "Ġinches": 8284,
      "Ġintegral": 8285,
      "Ġtrend": 8286,
      "Ġcalling": 8287,
      "Ġconsistency": 8288,
      "Ġcarbohydrates": 8289,
      "Ġderived": 8290,
      "Ġinfinity": 8291,
      "Ġinventory": 8292,
      "âĸĪâĸĪâĸĪâĸĪâĸĪâĸĪâĸĪâĸĪ": 8293,
      "Ġprocedures": 8294,
      "connected": 8295,
      "Ġphilosophers": 8296,
      "Ġconventions": 8297,
      "ĠGraphQL": 8298,
      "Ġpollution": 8299,
      "ĠEnsure": 8300,
      "Ġphrases": 8301,
      "Ġcoconut": 8302,
      "Learning": 8303,
      "App": 8304,
      "CS": 8305,
      "VID": 8306,
      "predict": 8307,
      "vity": 8308,
      "oust": 8309,
      "ĠImm": 8310,
      "Ġlosing": 8311,
      "ĠSan": 8312,
      "herry": 8313,
      "ĠPress": 8314,
      "ĠPeter": 8315,
      "osp": 8316,
      "ĠWolf": 8317,
      "ĠFollow": 8318,
      "Ġreturned": 8319,
      "Ġcontainers": 8320,
      "Ġorganize": 8321,
      "ashion": 8322,
      "Ġgrew": 8323,
      "Ġstructured": 8324,
      "Ġtreasure": 8325,
      "Ġfarming": 8326,
      "Ġtransformer": 8327,
      "Ġconsumers": 8328,
      "ĠNewton": 8329,
      "Ġmixing": 8330,
      "Ġselected": 8331,
      "Ġfrequent": 8332,
      "ĠServer": 8333,
      "Ġactively": 8334,
      "Ġsymbols": 8335,
      "Ġcommitted": 8336,
      "Ġemerged": 8337,
      "while": 8338,
      "ĠDevelopment": 8339,
      "Ġnumerical": 8340,
      "ÂłÂłÂłÂłÂłÂłÂłÂł": 8341,
      "party": 8342,
      "radius": 8343,
      "Ġobservations": 8344,
      "ĠDragon": 8345,
      "ĠFluffball": 8346,
      "ĠJewish": 8347,
      "ocracy": 8348,
      "36": 8349,
      "First": 8350,
      "Ljava": 8351,
      "Ob": 8352,
      "Press": 8353,
      "VM": 8354,
      "och": 8355,
      "screen": 8356,
      "za": 8357,
      "Ġcere": 8358,
      "Ġcube": 8359,
      "Ġpound": 8360,
      "Ġbill": 8361,
      "Ġbomb": 8362,
      "Ġdense": 8363,
      "cture": 8364,
      "Ġnor": 8365,
      "ilies": 8366,
      "Ġgentle": 8367,
      "ĠTO": 8368,
      "ĠInstructions": 8369,
      "Ġchances": 8370,
      "Ġmeals": 8371,
      "agement": 8372,
      "ĠDear": 8373,
      "udo": 8374,
      "ĠLog": 8375,
      "ĠLink": 8376,
      "Ġcompelling": 8377,
      "Ġapologies": 8378,
      "Ġruntime": 8379,
      "Ġrelate": 8380,
      "Ġtwist": 8381,
      "Ġoffline": 8382,
      "ĠChapter": 8383,
      "Ġgrain": 8384,
      "ĠHey": 8385,
      "Ġleaders": 8386,
      "Ġfreely": 8387,
      "Ġcultiv": 8388,
      "Ġorganisms": 8389,
      "Ġnegot": 8390,
      "Ġsensory": 8391,
      "Ġconsumer": 8392,
      "Ġangles": 8393,
      "Ġdynamics": 8394,
      "ĠPerform": 8395,
      "Ġsatell": 8396,
      "Ġfluct": 8397,
      "Ġshaping": 8398,
      "Ġmutual": 8399,
      "Ġdecrease": 8400,
      "Ġbrush": 8401,
      "Ġencrypted": 8402,
      "ĠDetermine": 8403,
      "Ġunnecess": 8404,
      "79": 8405,
      "dat": 8406,
      "github": 8407,
      "iel": 8408,
      "tk": 8409,
      "incess": 8410,
      "heat": 8411,
      "erves": 8412,
      "Ġcow": 8413,
      "Ġcouncil": 8414,
      "Ġwit": 8415,
      "Ġoscill": 8416,
      "Ġbold": 8417,
      "Ġgear": 8418,
      "ĠTes": 8419,
      "ĠClean": 8420,
      "query": 8421,
      "ĠPack": 8422,
      "ckets": 8423,
      "ĠMethod": 8424,
      "unar": 8425,
      "ĠDoc": 8426,
      "ĠLay": 8427,
      "Ġgobl": 8428,
      "asted": 8429,
      "Ġunus": 8430,
      "ĠUt": 8431,
      "aria": 8432,
      "Ġfunctioning": 8433,
      "Ġcharged": 8434,
      "Ġreaders": 8435,
      "ĠProblem": 8436,
      "Ġmeasurements": 8437,
      "Ġidentifying": 8438,
      "Ġsafely": 8439,
      "IDTH": 8440,
      "Ġcooling": 8441,
      "Process": 8442,
      "Ġurban": 8443,
      "ĠControl": 8444,
      "content": 8445,
      "Ġattributes": 8446,
      "ĠFlask": 8447,
      "ASE": 8448,
      "Value": 8449,
      "*.": 8450,
      "Set": 8451,
      "bo": 8452,
      "bu": 8453,
      "oned": 8454,
      "Ġselling": 8455,
      "Ġpi": 8456,
      "Ġborder": 8457,
      "Ġindu": 8458,
      "ola": 8459,
      "ĠInc": 8460,
      "Ġannotation": 8461,
      "peat": 8462,
      "ĠCivil": 8463,
      "Ġhearing": 8464,
      "ively": 8465,
      "Ġintensity": 8466,
      "ago": 8467,
      "Ġsphere": 8468,
      "Ġraises": 8469,
      "ĠĠĠĠĠĠĠĠĠĠĠĠĠĠĠĠĠĠĠĠĠĠ": 8470,
      "Ġoffered": 8471,
      "Ġdecimal": 8472,
      "Ġmemories": 8473,
      "ucose": 8474,
      "Ġpursue": 8475,
      "Ġanalog": 8476,
      "Ġactivation": 8477,
      "Ġdriver": 8478,
      "Ġschools": 8479,
      "Ġseparated": 8480,
      "ĠColor": 8481,
      "Ġsnipp": 8482,
      "ĠâĨĴ": 8483,
      "Ġdiscussions": 8484,
      "Ġkeyboards": 8485,
      "Provide": 8486,
      "ĠPrint": 8487,
      "Ġsurroundings": 8488,
      "Ġcasting": 8489,
      "Ġmanipulation": 8490,
      "Ġpleasure": 8491,
      "Ġentertainment": 8492,
      "Ġsocietal": 8493,
      "Ġbubble": 8494,
      "ĠBreak": 8495,
      "Ġwisdom": 8496,
      "Ġergonomic": 8497,
      "05": 8498,
      "><": 8499,
      "AV": 8500,
      "FS": 8501,
      "LC": 8502,
      "LI": 8503,
      "Options": 8504,
      "rated": 8505,
      "zure": 8506,
      "Ġtale": 8507,
      "Ġtape": 8508,
      "Ġcra": 8509,
      "itical": 8510,
      "Ġtomor": 8511,
      "status": 8512,
      "Ġeager": 8513,
      "vector": 8514,
      "eles": 8515,
      "Ġorb": 8516,
      "ĠCook": 8517,
      "ĠCAR": 8518,
      "throp": 8519,
      "cknow": 8520,
      "osity": 8521,
      "ĠDocker": 8522,
      "ĠLoad": 8523,
      "Ġadj": 8524,
      "Ġprev": 8525,
      "Ġgameplay": 8526,
      "ĠHealth": 8527,
      "Ġfinished": 8528,
      "Ġglucose": 8529,
      "Ġresponsibilities": 8530,
      "Ġsensors": 8531,
      "Ġnearly": 8532,
      "Ġshaped": 8533,
      "Ġrelaxation": 8534,
      "ĠBattle": 8535,
      "Ġmalicious": 8536,
      "Ġcoordinates": 8537,
      "ĠPortug": 8538,
      "Ġincredibly": 8539,
      "Ġtactics": 8540,
      "Ġsuddenly": 8541,
      "Ġconvenient": 8542,
      "umbbell": 8543,
      "segments": 8544,
      "ĠSoviet": 8545,
      "Ġtomorrow": 8546,
      "(&": 8547,
      "BA": 8548,
      "Bl": 8549,
      "Button": 8550,
      "BSD": 8551,
      "Fi": 8552,
      "IL": 8553,
      "Mod": 8554,
      "files": 8555,
      "sign": 8556,
      "wood": 8557,
      "Ġwise": 8558,
      "itis": 8559,
      "Ġtoler": 8560,
      "Ġreject": 8561,
      "ilize": 8562,
      "amiliar": 8563,
      "Ġaside": 8564,
      "peg": 8565,
      "ĠCB": 8566,
      "rian": 8567,
      "ĠMr": 8568,
      "plements": 8569,
      "ĠBrown": 8570,
      "ĠEdit": 8571,
      "ĠGPIO": 8572,
      "ĠLond": 8573,
      "ĠThink": 8574,
      "Ġkick": 8575,
      "Ġarrow": 8576,
      "Ġ[âĻ": 8577,
      "\",\"": 8578,
      "Ġexposed": 8579,
      "Ġexpressed": 8580,
      "Ġextended": 8581,
      "Ġentities": 8582,
      "Ġanswering": 8583,
      "ĠConsole": 8584,
      "Ġpurple": 8585,
      "Ġphysically": 8586,
      "Ġslice": 8587,
      "Ġengineers": 8588,
      "aze": 8589,
      "Ġdescribing": 8590,
      "Ġbatt": 8591,
      "Ġ:)": 8592,
      "aneously": 8593,
      "Ġbiggest": 8594,
      "Ġballs": 8595,
      "Ġ180": 8596,
      "Ġgreenhouse": 8597,
      "Ġaimed": 8598,
      "Ġassuming": 8599,
      "Ġevolve": 8600,
      "ĠGeneral": 8601,
      "Ġvacc": 8602,
      "Ġimmediate": 8603,
      "layer": 8604,
      "Ġconvince": 8605,
      "ĠOffice": 8606,
      "Ġvehicle": 8607,
      "Ġpuzzles": 8608,
      "Ġcinem": 8609,
      "Ġexplicitly": 8610,
      "Ġcasual": 8611,
      "Ġcollapse": 8612,
      "Ġdestruction": 8613,
      "ximity": 8614,
      "Ġproprietary": 8615,
      "ĠLondon": 8616,
      "Ns": 8617,
      "bered": 8618,
      "dist": 8619,
      "hist": 8620,
      "hus": 8621,
      "late": 8622,
      "mal": 8623,
      "ship": 8624,
      "Ġfetch": 8625,
      "Ġbpy": 8626,
      "eted": 8627,
      "Ġforced": 8628,
      "ĠRich": 8629,
      "ĠSource": 8630,
      "osph": 8631,
      "Ġchlor": 8632,
      "ĠDiv": 8633,
      "ĠFre": 8634,
      "ĠFunction": 8635,
      "Ġworst": 8636,
      "Ġrational": 8637,
      "Ġwasn": 8638,
      "ĠNFT": 8639,
      "Ġscar": 8640,
      "Ġmoderate": 8641,
      "Ġjavascript": 8642,
      "context": 8643,
      "uba": 8644,
      "next": 8645,
      "Ġrelation": 8646,
      "phabet": 8647,
      "Ġray": 8648,
      "cret": 8649,
      "cury": 8650,
      "Ġmatplotlib": 8651,
      "Ġtransparent": 8652,
      "Ġinference": 8653,
      "iances": 8654,
      "Ġcorrupt": 8655,
      "Ġminute": 8656,
      "Ġpolice": 8657,
      "Ġ777777777": 8658,
      "ĠAnaly": 8659,
      "Ġengaged": 8660,
      "Ġlaun": 8661,
      "Ġdiabetes": 8662,
      "ĠConclusion": 8663,
      "ĠProject": 8664,
      "service": 8665,
      "Ġgrows": 8666,
      "ĠShow": 8667,
      "Ġwarfare": 8668,
      "Ġhydr": 8669,
      "Ġvolcan": 8670,
      "isticated": 8671,
      "ĠMySQL": 8672,
      "Ġreceives": 8673,
      "Ġemotion": 8674,
      "Ġsmoke": 8675,
      "Ġboat": 8676,
      "ĠFeel": 8677,
      "Ġrewarding": 8678,
      "ĠChristian": 8679,
      "Ġinstruments": 8680,
      "Ġattribute": 8681,
      "Ġinequality": 8682,
      "ĠUnderstanding": 8683,
      "Ġsocieties": 8684,
      "Ġcontroversial": 8685,
      "Ġcubic": 8686,
      "ĠWordPress": 8687,
      "ĠEncourage": 8688,
      "ĠEpic": 8689,
      "ĠInitialize": 8690,
      "Ġrenewable": 8691,
      "Ġ777777777777": 8692,
      "31": 8693,
      "API": 8694,
      "gal": 8695,
      "node": 8696,
      "sal": 8697,
      "Î¹": 8698,
      "ĠÑ": 8699,
      "eric": 8700,
      "Ġhref": 8701,
      "Ġreaches": 8702,
      "Ġstead": 8703,
      "ods": 8704,
      "ĠSen": 8705,
      "ĠSing": 8706,
      "Ġsung": 8707,
      "ĠMal": 8708,
      "Ġshoes": 8709,
      "ogen": 8710,
      "Ġscrap": 8711,
      "Ġjug": 8712,
      "Ġpartial": 8713,
      "Ġobvious": 8714,
      "Ġregist": 8715,
      "Ġ['": 8716,
      "obb": 8717,
      "Ġcomputations": 8718,
      "Ġmedication": 8719,
      "Ġlargely": 8720,
      "Ġconfused": 8721,
      "Ġblind": 8722,
      "Ġ195": 8723,
      "Ġlock": 8724,
      "Ġbelieves": 8725,
      "Ġdrawn": 8726,
      "ugust": 8727,
      "Ġheaders": 8728,
      "ĠEnergy": 8729,
      "Ġcycl": 8730,
      "Ġfalls": 8731,
      "steroid": 8732,
      "Ġposts": 8733,
      "Ġdebt": 8734,
      "Ġrolling": 8735,
      "Ġmotivations": 8736,
      "Ġcryptography": 8737,
      "Ġdragon": 8738,
      "Ġphenomena": 8739,
      "itutional": 8740,
      "Enter": 8741,
      "Ġ!=": 8742,
      "Ġdepartment": 8743,
      "Ġadopted": 8744,
      "crast": 8745,
      "Ġhousing": 8746,
      "Ġdepicted": 8747,
      "Ġsophisticated": 8748,
      "ĠHitler": 8749,
      "Ġtroubleshoot": 8750,
      "EM": 8751,
      "bucket": 8752,
      "fix": 8753,
      "hib": 8754,
      "iver": 8755,
      "natural": 8756,
      "rd": 8757,
      "Ġ~": 8758,
      "Ġsql": 8759,
      "erce": 8760,
      "erved": 8761,
      "Ġfav": 8762,
      "Ġfailed": 8763,
      "see": 8764,
      "Ġrewards": 8765,
      "Ġgases": 8766,
      "ĠTun": 8767,
      "ĠTask": 8768,
      "Ġforums": 8769,
      "ĠRad": 8770,
      "elon": 8771,
      "ĠSl": 8772,
      "opl": 8773,
      "ĠPark": 8774,
      "ĠHello": 8775,
      "ĠHung": 8776,
      "ĠMet": 8777,
      "Ġnoticed": 8778,
      "Ġdoors": 8779,
      "ĠEduc": 8780,
      "Ġ35": 8781,
      "Ġunpredict": 8782,
      "acci": 8783,
      "loop": 8784,
      "lectric": 8785,
      "Ġfindings": 8786,
      "Ġadvis": 8787,
      "Ġperforms": 8788,
      "Ġtyped": 8789,
      "Ġextensions": 8790,
      "Ġreduction": 8791,
      "ĠOpenBSD": 8792,
      "mma": 8793,
      "------------": 8794,
      "Ġgrown": 8795,
      "ĠComple": 8796,
      "Ġsucceed": 8797,
      "Ġgeometric": 8798,
      "ĠImport": 8799,
      "Ġnormally": 8800,
      "ĠPhilos": 8801,
      "Ġsensor": 8802,
      "Ġdisplayed": 8803,
      "Ġauthorities": 8804,
      "Ġmagnet": 8805,
      "ĠMarx": 8806,
      "Ġcores": 8807,
      "Ġsilver": 8808,
      "Image": 8809,
      "ÃŃa": 8810,
      "Ġdeployment": 8811,
      "ĠCyber": 8812,
      "Ġsuperconduct": 8813,
      "Ġvolunte": 8814,
      "\").": 8815,
      "aware": 8816,
      "books": 8817,
      "Ġtip": 8818,
      "Ġtune": 8819,
      "inator": 8820,
      "Ġtherapy": 8821,
      "Ġcel": 8822,
      "itable": 8823,
      "Ġinp": 8824,
      "Ġinqu": 8825,
      "icorn": 8826,
      "Ġthreshold": 8827,
      "Ġhierarch": 8828,
      "Ġyouth": 8829,
      "cending": 8830,
      "olk": 8831,
      "Ġproximity": 8832,
      "ĠSave": 8833,
      "ĠPop": 8834,
      "ĠHelp": 8835,
      "ĠWars": 8836,
      "ĠBig": 8837,
      "ĠBase": 8838,
      "Ġgoogle": 8839,
      "Ġanymore": 8840,
      "Ġarche": 8841,
      "ipitation": 8842,
      "ĠJim": 8843,
      "Ġdesires": 8844,
      "Ġsimplicity": 8845,
      "Ġcurl": 8846,
      "Ġcurv": 8847,
      "Ġregulation": 8848,
      "Ġ})": 8849,
      "Ġcoast": 8850,
      "Ġcovers": 8851,
      "Ġ2019": 8852,
      "Ġapplicable": 8853,
      "Ġdiscipl": 8854,
      "Ġcalculates": 8855,
      "Ġencoding": 8856,
      "Ġtransformers": 8857,
      "Ġconfigure": 8858,
      "ĠPerhaps": 8859,
      "ĠNeural": 8860,
      "Ð½Ð¸": 8861,
      "Ġmaximize": 8862,
      "Ġcivilizations": 8863,
      "Ġintegrate": 8864,
      "Ġshadow": 8865,
      "Ġshadows": 8866,
      "Ġmacro": 8867,
      "restrial": 8868,
      "Ġorders": 8869,
      "Ġtags": 8870,
      "Ġhomes": 8871,
      "ĠEconomic": 8872,
      "Ġfascinating": 8873,
      "Ġreputation": 8874,
      "aturally": 8875,
      "Ġunnecessary": 8876,
      "></": 8877,
      "All": 8878,
      "Key": 8879,
      "]:": 8880,
      "cd": 8881,
      "cat": 8882,
      "met": 8883,
      "mond": 8884,
      "nov": 8885,
      "overs": 8886,
      "pet": 8887,
      "Ġpru": 8888,
      "Ġdut": 8889,
      "Ġgonna": 8890,
      "ĠTurn": 8891,
      "ĠTHE": 8892,
      "cend": 8893,
      "olves": 8894,
      "uture": 8895,
      "igital": 8896,
      "ĠArab": 8897,
      "Ġdeck": 8898,
      "ĠBra": 8899,
      "ĠFree": 8900,
      "Ġworse": 8901,
      "ĠLong": 8902,
      "Ġresized": 8903,
      "ĠJane": 8904,
      "lobal": 8905,
      "Ġemails": 8906,
      "Ġsimult": 8907,
      "Ġgenerator": 8908,
      "Ġworlds": 8909,
      "Ġdefense": 8910,
      "Ġdistractions": 8911,
      "Ġowners": 8912,
      "Ġpopulations": 8913,
      "Ġopened": 8914,
      "ismic": 8915,
      "Ġenthus": 8916,
      "vention": 8917,
      "Ġsurprise": 8918,
      "venune": 8919,
      "Ġexplained": 8920,
      "Ġrecommendation": 8921,
      "ĠÐ¼": 8922,
      "Ġsitting": 8923,
      "Ġjokes": 8924,
      "check": 8925,
      "Ġfacil": 8926,
      "AME": 8927,
      "Ġloading": 8928,
      "Ġacceptable": 8929,
      "ĠGreece": 8930,
      "Ġdoub": 8931,
      "ĠTwo": 8932,
      "which": 8933,
      "Ġbehaviour": 8934,
      "ĠRussian": 8935,
      "Ġalgebraic": 8936,
      "inguish": 8937,
      "ĠLatin": 8938,
      "Ġdialogue": 8939,
      "Ġoccup": 8940,
      "ĠBayes": 8941,
      "Ġfaith": 8942,
      "Ġenthusi": 8943,
      ".[": 8944,
      "02": 8945,
      "Ent": 8946,
      "Pl": 8947,
      "Trans": 8948,
      "aj": 8949,
      "lad": 8950,
      "mary": 8951,
      "metic": 8952,
      "uct": 8953,
      "ucl": 8954,
      "onacci": 8955,
      "Ġpitch": 8956,
      "Ġfats": 8957,
      "arg": 8958,
      "entine": 8959,
      "Ġstorm": 8960,
      "amps": 8961,
      "ĠAD": 8962,
      "ĠCount": 8963,
      "ĠCEO": 8964,
      "ablish": 8965,
      "Ġvote": 8966,
      "ĠPet": 8967,
      "ĠHol": 8968,
      "Ġlean": 8969,
      "ppers": 8970,
      "Ġadequ": 8971,
      "Ġwheel": 8972,
      "aka": 8973,
      "Ġempath": 8974,
      "Ġbugs": 8975,
      "Ġgrab": 8976,
      "Ġ2018": 8977,
      "Ġauto": 8978,
      "Ġoperators": 8979,
      "ĠÐ¾": 8980,
      "ĠAssuming": 8981,
      "Ġgene": 8982,
      "system": 8983,
      "onald": 8984,
      "Ġpsychological": 8985,
      "ĠStudy": 8986,
      "@@@@": 8987,
      "ĠObject": 8988,
      "Ġpictures": 8989,
      "Ġinflation": 8990,
      "Ġdollars": 8991,
      "ĠiPh": 8992,
      "Ġokay": 8993,
      "specific": 8994,
      "41": 8995,
      "Once": 8996,
      "aul": 8997,
      "pact": 8998,
      "pany": 8999,
      "rf": 9000,
      "Ġau": 9001,
      "rew": 9002,
      "ĠĠĉ": 9003,
      "Ġwolf": 9004,
      "Ġfashion": 9005,
      "Ġbicy": 9006,
      "Ġincoming": 9007,
      "aration": 9008,
      "Ġgro": 9009,
      "ĠSund": 9010,
      "ading": 9011,
      "Ġhack": 9012,
      "plit": 9013,
      "ĠHand": 9014,
      "ĠBank": 9015,
      "ĠDynam": 9016,
      "Ġcontest": 9017,
      "Ġunint": 9018,
      "Ġtradition": 9019,
      "Ġoutl": 9020,
      "berries": 9021,
      "lose": 9022,
      "ethical": 9023,
      "Ġapple": 9024,
      "ĠStrength": 9025,
      "Ġgeneric": 9026,
      "Ġgenerative": 9027,
      "Ġinfo": 9028,
      "Ġpolar": 9029,
      "Ġsupporting": 9030,
      "Ġ1980": 9031,
      "Ġreduces": 9032,
      "Ġbiology": 9033,
      "Ġmeasuring": 9034,
      "Stack": 9035,
      "ĠScott": 9036,
      "anned": 9037,
      "Ġgenres": 9038,
      "Ġprotecting": 9039,
      "Ġobserve": 9040,
      "Ġcaptured": 9041,
      "Ġfunding": 9042,
      "Ð¾Ð²": 9043,
      "Ġnpm": 9044,
      "ĠQuantum": 9045,
      "Ġĉĉĉ": 9046,
      "Ġassumptions": 9047,
      "Ġreflects": 9048,
      "Ġexpressions": 9049,
      "Ġknife": 9050,
      "Ġbanana": 9051,
      "Ġmotherboard": 9052,
      "Ġepis": 9053,
      "ĠISO": 9054,
      "ĠSimilarly": 9055,
      "Ġpretend": 9056,
      "Ġcurvature": 9057,
      "95": 9058,
      "IC": 9059,
      "IHw": 9060,
      "New": 9061,
      "Type": 9062,
      "WIDTH": 9063,
      "gl": 9064,
      "mount": 9065,
      "ras": 9066,
      "rary": 9067,
      "sim": 9068,
      "tons": 9069,
      "Î±": 9070,
      "Î¿": 9071,
      "Ġsick": 9072,
      "ounce": 9073,
      "Ġwrap": 9074,
      "ishes": 9075,
      "Ġfu": 9076,
      "Ġlift": 9077,
      "veled": 9078,
      "idential": 9079,
      "ĠCir": 9080,
      "ĠWild": 9081,
      "Ġ()": 9082,
      "ĠBrain": 9083,
      "ĠOld": 9084,
      "Ġrespir": 9085,
      "Ġ31": 9086,
      "Ġunethical": 9087,
      "ĠJOIN": 9088,
      "Ġ42": 9089,
      "Ġcolour": 9090,
      "curl": 9091,
      "Ġspecifications": 9092,
      "Ġcorrel": 9093,
      "Ġeasiest": 9094,
      "Ġenters": 9095,
      "ĠConf": 9096,
      "Ġkeeps": 9097,
      "Ġ\\\\": 9098,
      "ĠÐº": 9099,
      "Ġlogs": 9100,
      "Ġmeasurement": 9101,
      "\"></": 9102,
      "Ġsequences": 9103,
      "Ġpriority": 9104,
      "Ġutility": 9105,
      "Ġseemed": 9106,
      "Ġvulnerability": 9107,
      "Ġgrams": 9108,
      "Ġboundaries": 9109,
      "Ġrendering": 9110,
      "Ġromantic": 9111,
      "Ġinhab": 9112,
      "Ġconvey": 9113,
      "odynamics": 9114,
      "Ġancest": 9115,
      "3000": 9116,
      "78": 9117,
      ">>": 9118,
      "Go": 9119,
      "John": 9120,
      "ND": 9121,
      "dy": 9122,
      "fi": 9123,
      "fs": 9124,
      "hal": 9125,
      "pers": 9126,
      "sor": 9127,
      "tune": 9128,
      "window": 9129,
      "Ġtries": 9130,
      "Ġasteroid": 9131,
      "inner": 9132,
      "heim": 9133,
      "Ġpiano": 9134,
      "Ġtofu": 9135,
      "ĠIM": 9136,
      "Ġnested": 9137,
      "Ġstake": 9138,
      "Ġproj": 9139,
      "ĠSam": 9140,
      "ĠClear": 9141,
      "riers": 9142,
      "ĠMo": 9143,
      "ĠFalse": 9144,
      "ĠNon": 9145,
      "Ġphones": 9146,
      "Ġinvention": 9147,
      "ĠViet": 9148,
      "ythag": 9149,
      "Ġsubsequ": 9150,
      "Ġinfections": 9151,
      "Ġowned": 9152,
      "Ġpolite": 9153,
      "Ġextent": 9154,
      "Ġinsul": 9155,
      "Ġsmallest": 9156,
      "Ġcommunism": 9157,
      "ĠProv": 9158,
      "Ġfamilies": 9159,
      "project": 9160,
      "Ġhybrid": 9161,
      "Ġpaint": 9162,
      "Ġpaintings": 9163,
      "Ġheader": 9164,
      "mbly": 9165,
      "Ġaffects": 9166,
      "Ġphotography": 9167,
      "Ġdarkness": 9168,
      "Ġconversational": 9169,
      "Ġconsumed": 9170,
      "ĠIndust": 9171,
      "Ġdemonstrates": 9172,
      "Ġindicates": 9173,
      "Ġinterfaces": 9174,
      "Ġtailored": 9175,
      "ĠMoreover": 9176,
      "ĠAMD": 9177,
      "Ġneckl": 9178,
      "Ġthoroughly": 9179,
      "#,": 9180,
      "'],": 9181,
      "PAD": 9182,
      "Rem": 9183,
      "]]": 9184,
      "doc": 9185,
      "depth": 9186,
      "yme": 9187,
      "Ġãģ": 9188,
      "Ġsam": 9189,
      "Ġcute": 9190,
      "isher": 9191,
      "Ġhang": 9192,
      "ĠTem": 9193,
      "idget": 9194,
      "ulg": 9195,
      "urpose": 9196,
      "ĠSearch": 9197,
      "adata": 9198,
      "erer": 9199,
      "outube": 9200,
      "ĠBo": 9201,
      "ĠBron": 9202,
      "ĠDou": 9203,
      "ĠDream": 9204,
      "ĠFile": 9205,
      "ĠFound": 9206,
      "ĠFood": 9207,
      "Ġworried": 9208,
      "Ġplates": 9209,
      "Ġplacing": 9210,
      "Ġrank": 9211,
[...]
